<unk>	0
▁그	-0
▁이	-1
..	-2
▁아	-3
▁있	-4
▁사	-5
▁하	-6
▁나	-7
...	-8
ᄏᄏ	-9
▁안	-10
▁가	-11
▁대	-12
▁어	-13
니다	-14
▁다	-15
으로	-16
▁지	-17
▁한	-18
▁보	-19
▁정	-20
에서	-21
▁내	-22
▁없	-23
▁기	-24
▁거	-25
▁말	-26
▁자	-27
▁일	-28
▁수	-29
하는	-30
▁우	-31
▁여	-32
▁해	-33
▁전	-34
하고	-35
▁시	-36
▁모	-37
들이	-38
는데	-39
▁무	-40
▁저	-41
어요	-42
▁알	-43
▁오	-44
▁것	-45
▁마	-46
▁국	-47
▁제	-48
▁부	-49
▁좋	-50
▁생	-51
▁당	-52
▁아니	-53
▁미	-54
▁잘	-55
▁인	-56
▁주	-57
▁사람	-58
다고	-59
▁않	-60
이다	-61
▁고	-62
라고	-63
▁조	-64
▁우리	-65
▁같	-66
▁진	-67
▁못	-68
지만	-69
▁너	-70
▁바	-71
▁만	-72
▁분	-73
▁더	-74
!!	-75
▁개	-76
▁1	-77
▁중	-78
▁비	-79
▁세	-80
▁뭐	-81
▁소	-82
▁되	-83
▁공	-84
ᄏᄏᄏᄏ	-85
들은	-86
▁경	-87
세요	-88
▁도	-89
▁위	-90
습니다	-91
▁남	-92
▁왜	-93
▁그래	-94
▁들	-95
▁생각	-96
니까	-97
▁선	-98
▁난	-99
으면	-100
▁박	-101
▁할	-102
▁유	-103
▁살	-104
....	-105
▁누	-106
▁연	-107
▁많	-108
다는	-109
▁상	-110
▁당신	-111
▁때	-112
까지	-113
▁죽	-114
▁했	-115
▁좀	-116
~~	-117
▁불	-118
▁신	-119
▁문	-120
▁구	-121
▁최	-122
에게	-123
리고	-124
해서	-125
▁노	-126
??	-127
하지	-128
이야	-129
하면	-130
▁내가	-131
▁있는	-132
이라	-133
하게	-134
▁서	-135
▁영	-136
▁동	-137
▁돈	-138
▁네	-139
▁국민	-140
▁분류	-141
렇게	-142
▁스	-143
아요	-144
는거	-145
▁의	-146
▁결	-147
▁재	-148
▁감	-149
▁2	-150
▁받	-151
▁애	-152
▁지금	-153
▁건	-154
▁진짜	-155
▁방	-156
▁집	-157
▁물	-158
▁반	-159
▁차	-160
한다	-161
▁정말	-162
이나	-163
▁김	-164
▁장	-165
▁계	-166
▁이런	-167
한테	-168
▁여기	-169
▁배	-170
▁얼	-171
▁나라	-172
▁성	-173
▁하는	-174
합니다	-175
▁예	-176
대로	-177
입니다	-178
▁그런	-179
▁관	-180
▁그러	-181
통령	-182
네요	-183
▁원	-184
▁너무	-185
나라	-186
▁올	-187
▁걸	-188
▁있어	-189
▁실	-190
▁돌	-191
▁맞	-192
부터	-193
▁언	-194
▁있다	-195
▁무슨	-196
었다	-197
▁또	-198
▁그냥	-199
▁먹	-200
▁발	-201
▁참	-202
▁두	-203
▁게	-204
▁싶	-205
▁이제	-206
▁날	-207
▁ᄏᄏ	-208
인데	-209
▁쓰	-210
▁대한	-211
▁들어	-212
하다	-213
▁한국	-214
▁니	-215
잖아	-216
▁여자	-217
에요	-218
이지	-219
▁역	-220
▁피	-221
▁현	-222
해야	-223
▁새	-224
▁거야	-225
▁모르	-226
▁처	-227
▁어떻	-228
▁"	-229
▁3	-230
▁외	-231
▁친	-232
▁강	-233
▁드	-234
▁필	-235
면서	-236
▁엄	-237
▁파	-238
▁대통령	-239
▁어떻게	-240
보다	-241
▁얘	-242
▁'	-243
▁입	-244
▁같은	-245
▁좋아	-246
▁아무	-247
▁특	-248
▁요	-249
▁손	-250
▁근	-251
00	-252
▁교	-253
구나	-254
▁매	-255
▁작	-256
▁따	-257
이고	-258
▁삼	-259
처럼	-260
▁하나	-261
▁적	-262
▁어디	-263
▁하고	-264
▁문제	-265
▁몰	-266
들을	-267
▁줄	-268
려고	-269
▁힘	-270
▁일본	-271
▁데	-272
▁끝	-273
▁미국	-274
▁봐	-275
▁단	-276
해요	-277
▁다른	-278
리는	-279
▁빨	-280
적인	-281
민국	-282
▁달	-283
▁후	-284
▁열	-285
▁만들	-286
▁본	-287
▁없어	-288
▁그리고	-289
겠다	-290
▁그럼	-291
▁화	-292
거야	-293
했다	-294
▁잡	-295
근혜	-296
▁명	-297
적으로	-298
▁버	-299
같은	-300
▁에	-301
▁타	-302
▁행	-303
▁찾	-304
에는	-305
▁통	-306
▁필요	-307
라는	-308
▁괜	-309
▁눈	-310
예요	-311
▁중국	-312
▁있었	-313
▁법	-314
해라	-315
▁태	-316
▁등	-317
라도	-318
▁아이	-319
▁프	-320
문에	-321
▁순	-322
겠지	-323
▁추	-324
▁치	-325
▁심	-326
▁다시	-327
▁와	-328
▁그렇	-329
▁출	-330
지고	-331
▁좋은	-332
▁양	-333
▁5	-334
▁얼마	-335
▁호	-336
▁아닌	-337
지는	-338
사람	-339
▁포	-340
▁잠	-341
야지	-342
▁그렇게	-343
▁넘	-344
지도	-345
것도	-346
된다	-347
▁알아	-348
▁아직	-349
▁돌아	-350
▁많이	-351
▁머	-352
▁될	-353
!!!	-354
들의	-355
▁절	-356
▁괜찮	-357
▁간	-358
▁뭔	-359
▁설	-360
▁민	-361
▁확	-362
▁놈	-363
리가	-364
▁목	-365
▁모두	-366
▁남자	-367
▁박근혜	-368
▁돼	-369
▁망	-370
기를	-371
이라고	-372
으니	-373
▁하지만	-374
▁속	-375
▁하지	-376
▁청	-377
▁몇	-378
▁야	-379
는게	-380
▁자기	-381
인가	-382
▁평	-383
학교	-384
▁갈	-385
어서	-386
▁오늘	-387
▁앞	-388
▁과	-389
▁그만	-390
▁인간	-391
▁종	-392
▁.	-393
군요	-394
▁이상	-395
▁믿	-396
▁변	-397
▁모든	-398
▁없는	-399
▁죄	-400
▁한다	-401
▁함	-402
▁직	-403
▁알았	-404
▁운	-405
▁사랑	-406
▁보고	-407
▁시간	-408
▁벌	-409
▁약	-410
▁있을	-411
▁음	-412
▁4	-413
나요	-414
는지	-415
▁누구	-416
▁회	-417
▁독	-418
다가	-419
▁얘기	-420
▁리	-421
▁로	-422
▁떠	-423
▁군	-424
▁싫	-425
▁없다	-426
하기	-427
▁누가	-428
들도	-429
▁이렇게	-430
ᅲᅲ	-431
▁나오	-432
▁축	-433
▁완	-434
▁천	-435
들아	-436
▁기사	-437
▁아니라	-438
▁-	-439
▁막	-440
▁카	-441
인이	-442
▁삼성	-443
▁온	-444
▁편	-445
▁탄	-446
▁뒤	-447
▁같이	-448
▁싸	-449
▁됐	-450
▁뭘	-451
▁크	-452
▁선수	-453
리를	-454
▁그게	-455
순실	-456
▁북	-457
▁왔	-458
이었	-459
▁금	-460
▁사실	-461
▁형	-462
▁정신	-463
▁욕	-464
있는	-465
▁투	-466
이가	-467
▁증	-468
▁느	-469
▁친구	-470
▁엄마	-471
▁이건	-472
▁계속	-473
▁준	-474
▁아주	-475
▁산	-476
시다	-477
▁판	-478
▁정부	-479
▁검	-480
▁초	-481
▁총	-482
가는	-483
▁사람이	-484
▁있어요	-485
에도	-486
▁ᄏᄏᄏ	-487
▁트	-488
아서	-489
▁어떤	-490
▁넌	-491
하여	-492
▁허	-493
이는	-494
▁얼마나	-495
▁별	-496
▁메	-497
▁폭	-498
▁코	-499
주의	-500
▁정치	-501
▁나도	-502
겠어	-503
▁이게	-504
▁말이	-505
어야	-506
▁잘못	-507
▁놀	-508
▁악	-509
▁시작	-510
▁임	-511
자가	-512
ᄒᄒ	-513
▁빠	-514
기는	-515
▁존	-516
▁살아	-517
▁응	-518
▁병	-519
▁큰	-520
▁그래서	-521
▁광	-522
▁혼	-523
▁다음	-524
▁빨리	-525
▁10	-526
▁웃	-527
▁이번	-528
기가	-529
▁항	-530
▁이름	-531
해도	-532
▁둘	-533
▁국가	-534
되는	-535
▁번	-536
하네	-537
▁세상	-538
가지	-539
는다	-540
▁기다	-541
▁백	-542
였다	-543
▁볼	-544
ᄏᄏᄏ	-545
▁않았	-546
▁바로	-547
스트	-548
▁우리가	-549
▁제발	-550
▁떨	-551
거든	-552
▁위해	-553
▁알고	-554
▁길	-555
▁많은	-556
▁결혼	-557
▁충	-558
▁영화	-559
보고	-560
▁라	-561
▁때문에	-562
▁책	-563
▁이미	-564
없는	-565
더라	-566
▁근데	-567
▁안녕	-568
▁각	-569
▁해야	-570
▁겁	-571
▁경찰	-572
▁테	-573
하세요	-574
레기	-575
▁봤	-576
밖에	-577
어나	-578
▁s	-579
▁년	-580
▁최순실	-581
▁보여	-582
▁월	-583
▁우린	-584
▁일이	-585
▁복	-586
▁팔	-587
▁학	-588
이네	-589
▁환	-590
▁언제	-591
▁똑	-592
▁레	-593
▁한번	-594
댓글	-595
▁용	-596
▁그녀	-597
걱정	-598
!!!!	-599
인지	-600
~~~	-601
▁식	-602
었어	-603
▁된	-604
던데	-605
말고	-606
▁취	-607
▁멋	-608
???	-609
하나	-610
▁자신	-611
▁탄핵	-612
기도	-613
▁베	-614
▁질	-615
▁것이	-616
▁귀	-617
구요	-618
놓고	-619
▁저런	-620
▁이유	-621
▁표	-622
▁꼭	-623
▁점	-624
텐데	-625
해주	-626
가요	-627
까요	-628
▁곳	-629
▁쳐	-630
▁합	-631
▁마음	-632
▁자네	-633
▁아냐	-634
기업	-635
▁따라	-636
이면	-637
ᅳᅳ	-638
시간	-639
기에	-640
들어	-641
정도	-642
▁토	-643
소리	-644
하시	-645
겠네	-646
▁철	-647
▁승	-648
다면	-649
▁짓	-650
시키	-651
하는데	-652
▁나는	-653
▁6	-654
▁닭	-655
▁당신이	-656
들에게	-657
▁언론	-658
▁걱정	-659
▁소리	-660
▁것이다	-661
국민	-662
더니	-663
▁담	-664
▁권	-665
▁나가	-666
▁키	-667
▁정도	-668
▁창	-669
▁이해	-670
거나	-671
거지	-672
▁그건	-673
겠어요	-674
▁가장	-675
OO	-676
▁거짓	-677
어도	-678
잖아요	-679
지마	-680
▁함께	-681
ᄍᄍ	-682
▁솔	-683
▁댓글	-684
지가	-685
머니	-686
▁세금	-687
▁하면	-688
▁전화	-689
하자	-690
▁아버	-691
▁받아	-692
OOO	-693
,,	-694
▁고마	-695
라마	-696
다니	-697
이에요	-698
▁기억	-699
▁범	-700
▁글	-701
▁갖	-702
▁먼	-703
▁세계	-704
이냐	-705
▁아빠	-706
▁얼굴	-707
도록	-708
▁미안	-709
▁은	-710
▁여러	-711
▁보면	-712
촛불	-713
▁제가	-714
없이	-715
만원	-716
▁말고	-717
했어	-718
▁떨어	-719
▁이거	-720
▁7	-721
사가	-722
이랑	-723
대가	-724
▁몸	-725
▁뿐	-726
▁좌	-727
▁내려	-728
▁안되	-729
동안	-730
▁답	-731
아니	-732
▁제대로	-733
이라도	-734
▁중요	-735
▁네가	-736
중에	-737
^^	-738
수가	-739
▁최고	-740
▁체	-741
▁만나	-742
▁씨	-743
▁커	-744
▁찾아	-745
▁20	-746
구만	-747
▁m	-748
▁특검	-749
▁t	-750
▁아니고	-751
으며	-752
▁이러	-753
▁완전	-754
▁ᄏ	-755
하라	-756
▁처음	-757
▁프로	-758
▁당신은	-759
▁어서	-760
▁터	-761
자는	-762
▁사회	-763
사를	-764
전에	-765
거다	-766
▁갔	-767
▁경제	-768
▁기업	-769
▁당연	-770
▁그는	-771
▁고마워	-772
에서는	-773
하냐	-774
▁왕	-775
▁거기	-776
▁만들어	-777
▁없어요	-778
▁절대	-779
▁농	-780
보면	-781
▁c	-782
▁안돼	-783
er	-784
이란	-785
▁있는데	-786
주고	-787
▁그래도	-788
▁깨	-789
하면서	-790
▁보내	-791
시켜	-792
이트	-793
▁역시	-794
▁빼	-795
▁촛불	-796
▁사람들	-797
▁몰라	-798
▁서울	-799
▁엄청	-800
거리	-801
가서	-802
▁a	-803
▁늘	-804
는건	-805
▁브	-806
▁..	-807
것이	-808
▁갑	-809
▁울	-810
▁나와	-811
▁황	-812
▁거예요	-813
겠습니다	-814
▁여기서	-815
자들	-816
을까	-817
in	-818
▁있지	-819
▁...	-820
▁빌	-821
▁쓰레기	-822
▁밝	-823
▁가져	-824
이라는	-825
이상	-826
지를	-827
이죠	-828
▁찍	-829
▁사용	-830
▁그걸	-831
▁폐	-832
리스	-833
▁8	-834
▁9	-835
▁도와	-836
으니까	-837
▁전부	-838
▁채	-839
사는	-840
리지	-841
▁준비	-842
▁써	-843
▁배우	-844
▁뉴	-845
▁뽑	-846
▁북한	-847
▁결국	-848
▁밀	-849
한거	-850
▁솔직	-851
▁방송	-852
▁OOO	-853
▁높	-854
▁듣	-855
▁너희	-856
▁까	-857
▁그럴	-858
▁앉	-859
러운	-860
▁가능	-861
▁감사	-862
▁침	-863
▁술	-864
게요	-865
▁요즘	-866
▁대단	-867
라이	-868
성이	-869
▁줘	-870
▁뭐가	-871
었는데	-872
▁아직도	-873
▁것은	-874
▁잠깐	-875
▁물론	-876
▁그랬	-877
▁클	-878
▁골	-879
았다	-880
같이	-881
▁패	-882
▁감독	-883
없다	-884
▁머리	-885
▁있고	-886
▁합니다	-887
▁박사	-888
▁이야	-889
▁숨	-890
▁때문	-891
▁혼자	-892
▁상황	-893
▁드라마	-894
▁거짓말	-895
▁100	-896
▁어느	-897
▁밤	-898
▁가서	-899
▁디	-900
▁것도	-901
▁가족	-902
주세요	-903
▁이젠	-904
겠지만	-905
▁딸	-906
레이	-907
▁탈	-908
대한	-909
▁k	-910
주는	-911
하는거	-912
리아	-913
장이	-914
시오	-915
▁힘들	-916
▁거지	-917
▁항상	-918
▁가지고	-919
▁되는	-920
치고	-921
▁축구	-922
먹고	-923
치는	-924
▁꼬	-925
▁희	-926
▁사이	-927
시아	-928
▁것을	-929
지않	-930
했는데	-931
▁풀	-932
▁말을	-933
▁쓸	-934
하니	-935
▁않아	-936
▁전에	-937
▁어쩌	-938
▁틀	-939
▁널	-940
▁쪽	-941
▁p	-942
▁된다	-943
▁꺼	-944
▁활	-945
었어요	-946
on	-947
의원	-948
▁암	-949
▁민주	-950
▁미친	-951
▁잡아	-952
력이	-953
▁헤	-954
▁붙	-955
▁국회	-956
▁조선	-957
▁조금	-958
하며	-959
▁확실	-960
스럽	-961
▁꼴	-962
▁대해	-963
▁솔직히	-964
정부	-965
▁헌	-966
▁딱	-967
▁없고	-968
기로	-969
한다고	-970
▁아니다	-971
▁사건	-972
▁뭔가	-973
▁조사	-974
▁넣	-975
▁똥	-976
봐라	-977
▁책임	-978
되고	-979
▁수준	-980
▁진정	-981
▁쉬	-982
했어요	-983
▁앞으로	-984
▁하루	-985
▁극	-986
체가	-987
▁사고	-988
▁수도	-989
마다	-990
;;	-991
로운	-992
▁헬	-993
▁기자	-994
▁인생	-995
있다	-996
시고	-997
럼프	-998
▁말해	-999
려면	-1000
▁데려	-1001
▁먼저	-1002
지막	-1003
▁사진	-1004
려는	-1005
되어	-1006
▁일을	-1007
▁아니야	-1008
이니	-1009
▁그런데	-1010
▁루	-1011
▁곧	-1012
▁외국	-1013
한데	-1014
▁노래	-1015
▁짜	-1016
그래	-1017
▁연기	-1018
▁끌	-1019
때문에	-1020
들과	-1021
▁않을	-1022
▁집에	-1023
리에	-1024
▁가지	-1025
▁자식	-1026
▁재미	-1027
▁캐	-1028
▁그리	-1029
▁역사	-1030
▁부모	-1031
▁인정	-1032
▁홍	-1033
▁궁	-1034
▁사람은	-1035
▁그래요	-1036
대통령	-1037
▁이것	-1038
▁오래	-1039
▁범죄	-1040
▁지나	-1041
님이	-1042
▁뜻	-1043
▁해도	-1044
▁올라	-1045
▁해서	-1046
▁밥	-1047
▁엘	-1048
▁누군	-1049
▁해요	-1050
▁잊	-1051
▁멍	-1052
▁f	-1053
▁싫어	-1054
▁같은데	-1055
▁면	-1056
하는게	-1057
인은	-1058
▁맛	-1059
▁않는	-1060
▁아니면	-1061
하지만	-1062
조선	-1063
누리	-1064
▁모습	-1065
▁맨	-1066
▁관심	-1067
▁잔	-1068
드는	-1069
▁기대	-1070
ᅮᅮ	-1071
자를	-1072
▁착	-1073
▁겁니다	-1074
▁이리	-1075
스로	-1076
겠죠	-1077
▁마지막	-1078
을때	-1079
일이	-1080
▁케	-1081
▁당장	-1082
▁행복	-1083
▁맘	-1084
▁ᄒᄒ	-1085
▁없이	-1086
▁다들	-1087
▁뛰	-1088
▁논	-1089
▁생각해	-1090
▁전쟁	-1091
▁게임	-1092
되면	-1093
어라	-1094
장을	-1095
▁제일	-1096
▁?	-1097
~~~~	-1098
▁구속	-1099
▁먹고	-1100
그네	-1101
가고	-1102
▁방법	-1103
▁괜찮아	-1104
▁현실	-1105
▁트럼프	-1106
▁학교	-1107
an	-1108
▁팬	-1109
▁나라가	-1110
▁사라	-1111
▁그것	-1112
▁돈을	-1113
▁멀	-1114
▁같다	-1115
▁우리는	-1116
무원	-1117
분이	-1118
▁아닌가	-1119
에서도	-1120
▁놓	-1121
▁세월	-1122
만큼	-1123
▁급	-1124
▁경우	-1125
▁협	-1126
▁졸	-1127
▁저기	-1128
나는	-1129
▁서민	-1130
▁위한	-1131
▁즐	-1132
▁나쁜	-1133
▁그거	-1134
대체	-1135
인들	-1136
라면	-1137
▁가자	-1138
▁티	-1139
▁피해	-1140
와서	-1141
▁하는데	-1142
▁그러나	-1143
▁읽	-1144
▁짱	-1145
▁서로	-1146
이스	-1147
력을	-1148
▁블	-1149
에선	-1150
▁맡	-1151
▁그렇지	-1152
했던	-1153
▁있으면	-1154
▁거의	-1155
▁했다	-1156
는거야	-1157
아야	-1158
기고	-1159
▁그의	-1160
▁내일	-1161
하였다	-1162
▁슬	-1163
▁상관	-1164
▁억	-1165
▁선생	-1166
생각	-1167
▁그가	-1168
할수	-1169
▁이용	-1170
▁않고	-1171
▁듯	-1172
▁좋아요	-1173
▁30	-1174
봐요	-1175
▁현재	-1176
▁보기	-1177
민국의	-1178
▁문제가	-1179
▁꿈	-1180
▁페	-1181
▁능	-1182
시는	-1183
적이	-1184
▁말이야	-1185
▁니가	-1186
르고	-1187
▁증거	-1188
▁옷	-1189
았어	-1190
▁휴	-1191
▁나이	-1192
▁팀	-1193
▁같아	-1194
or	-1195
▁아마	-1196
▁해라	-1197
▁젊	-1198
봐야	-1199
▁조심	-1200
▁알려	-1201
▁없었	-1202
▁말씀	-1203
▁뇌	-1204
▁나온	-1205
????	-1206
▁접	-1207
▁결정	-1208
▁혹	-1209
▁땅	-1210
▁핵	-1211
▁장난	-1212
리면	-1213
▁뭐야	-1214
▁고맙	-1215
▁만든	-1216
▁ᄍᄍ	-1217
인의	-1218
▁늦	-1219
▁퇴	-1220
▁지역	-1221
▁b	-1222
▁않은	-1223
▁잃	-1224
▁아뇨	-1225
▁썩	-1226
▁위해서	-1227
▁신경	-1228
▁대체	-1229
▁업	-1230
▁ᅲᅲ	-1231
▁있다고	-1232
▁뻔	-1233
▁자유	-1234
▁동안	-1235
▁바보	-1236
▁분명	-1237
나오	-1238
▁송	-1239
▁기회	-1240
▁이걸	-1241
▁아는	-1242
성을	-1243
됩니다	-1244
ar	-1245
▁반대	-1246
▁진실	-1247
원이	-1248
▁아버지	-1249
▁아침	-1250
▁규	-1251
▁h	-1252
진짜	-1253
▁연예	-1254
는거지	-1255
▁지켜	-1256
▁결과	-1257
▁당신을	-1258
▁경기	-1259
▁알았어	-1260
▁가는	-1261
명이	-1262
▁떠나	-1263
건데	-1264
되었다	-1265
▁d	-1266
▁대학	-1267
▁선동	-1268
어버	-1269
▁위험	-1270
려서	-1271
▁여러분	-1272
▁아무도	-1273
▁검찰	-1274
거라	-1275
▁존재	-1276
스가	-1277
▁일반	-1278
en	-1279
래요	-1280
습니까	-1281
▁행동	-1282
▁국민들	-1283
▁얻	-1284
▁중요한	-1285
▁다니	-1286
겠냐	-1287
진다	-1288
▁있나	-1289
▁그때	-1290
▁박사모	-1291
이팅	-1292
▁이후	-1293
수도	-1294
▁지난	-1295
▁물어	-1296
▁부탁	-1297
▁어때	-1298
▁전기	-1299
▁아님	-1300
▁묻	-1301
▁사는	-1302
▁재밌	-1303
▁밖에	-1304
▁전혀	-1305
어가	-1306
▁해결	-1307
▁회사	-1308
▁첫	-1309
인을	-1310
린다	-1311
▁들어가	-1312
▁도대체	-1313
▁순실	-1314
대는	-1315
▁정권	-1316
▁변호	-1317
▁멍청	-1318
▁움	-1319
▁보는	-1320
심히	-1321
▁의미	-1322
▁모르는	-1323
▁나왔	-1324
보는	-1325
▁세월호	-1326
▁어디서	-1327
보니	-1328
▁말도	-1329
르는	-1330
조건	-1331
▁죄송	-1332
상이	-1333
프로	-1334
▁보수	-1335
상을	-1336
▁j	-1337
지면	-1338
것이다	-1339
▁겨	-1340
놈들	-1341
부분	-1342
▁조용	-1343
."	-1344
정을	-1345
▁돌아가	-1346
▁뭐라고	-1347
▁쉽	-1348
▁인터	-1349
자기	-1350
▁있다는	-1351
▁아무리	-1352
▁어린	-1353
하죠	-1354
▁맞아	-1355
▁청와	-1356
▁있었다	-1357
난다	-1358
▁무서	-1359
내고	-1360
▁플	-1361
려라	-1362
워서	-1363
▁관계	-1364
▁히	-1365
이요	-1366
새끼	-1367
▁흥	-1368
▁싶어	-1369
이를	-1370
▁사람을	-1371
▁없을	-1372
▁외부	-1373
▁무엇	-1374
▁남편	-1375
간다	-1376
▁맥	-1377
▁돈이	-1378
▁지원	-1379
▁싶은	-1380
▁원래	-1381
▁지금은	-1382
▁챙	-1383
기사	-1384
▁벗	-1385
▁수가	-1386
하던	-1387
▁시키	-1388
▁닥	-1389
▁육	-1390
▁작품	-1391
그러	-1392
▁일어나	-1393
차피	-1394
▁했어	-1395
▁링	-1396
돼지	-1397
▁칼	-1398
▁직접	-1399
대에	-1400
▁안전	-1401
▁애들	-1402
▁니들	-1403
at	-1404
▁괴	-1405
▁말야	-1406
랜드	-1407
녀석	-1408
등학교	-1409
▁독일	-1410
라구	-1411
▁나중에	-1412
▁l	-1413
▁어제	-1414
▁여성	-1415
▁일부	-1416
▁교육	-1417
었지	-1418
▁문화	-1419
▁사기	-1420
▁움직	-1421
▁퍼	-1422
장님	-1423
▁/	-1424
자들이	-1425
라리	-1426
▁관련	-1427
▁개인	-1428
▁징	-1429
▁도움	-1430
있어	-1431
할때	-1432
수를	-1433
먹을	-1434
▁영국	-1435
서는	-1436
▁대기업	-1437
▁생각이	-1438
▁했는데	-1439
▁응원	-1440
아라	-1441
▁압	-1442
▁(	-1443
정이	-1444
자고	-1445
▁슈	-1446
지말고	-1447
▁윤	-1448
▁어찌	-1449
겠다고	-1450
▁조작	-1451
▁별로	-1452
받고	-1453
▁미래	-1454
랑스	-1455
▁나라를	-1456
▁진심	-1457
▁알바	-1458
▁축하	-1459
거든요	-1460
▁러	-1461
갱이	-1462
▁선택	-1463
▁열심히	-1464
만이	-1465
▁기다려	-1466
▁나타	-1467
▁거죠	-1468
▁찬	-1469
▁보이	-1470
▁흔	-1471
해야지	-1472
▁벌써	-1473
▁낮	-1474
▁공무원	-1475
▁끼	-1476
되었	-1477
▁갖고	-1478
▁이야기	-1479
▁삶	-1480
▁태어	-1481
없어	-1482
▁국정	-1483
보세요	-1484
스를	-1485
▁새끼	-1486
▁훨	-1487
식이	-1488
하다고	-1489
▁좋겠다	-1490
냐고	-1491
▁지지	-1492
▁특히	-1493
000	-1494
bc	-1495
도가	-1496
든지	-1497
우리	-1498
▁확인	-1499
▁어머니	-1500
▁충분	-1501
▁불러	-1502
요일	-1503
했다고	-1504
▁누진	-1505
▁해외	-1506
▁저렇게	-1507
▁늙	-1508
한다는	-1509
▁불쌍	-1510
▁궁금	-1511
al	-1512
▁국민이	-1513
했지	-1514
▁느낌	-1515
으면서	-1516
란다	-1517
가가	-1518
▁국내	-1519
▁옆	-1520
시죠	-1521
물이	-1522
▁새로운	-1523
▁낫	-1524
경제	-1525
▁엉	-1526
정은	-1527
인다	-1528
▁아파	-1529
▁젊은	-1530
▁이래	-1531
▁마이	-1532
▁옛	-1533
▁쥐	-1534
대를	-1535
▁스스로	-1536
▁어려	-1537
ᄃᄃ	-1538
bs	-1539
겁니다	-1540
▁수사	-1541
▁만약	-1542
으나	-1543
문제	-1544
지지	-1545
▁가야	-1546
시에	-1547
▁무조건	-1548
▁운전	-1549
만한	-1550
▁어차피	-1551
▁세상에	-1552
▁공부	-1553
같다	-1554
▁가격	-1555
es	-1556
▁끊	-1557
▁o	-1558
▁되어	-1559
것들	-1560
is	-1561
▁내용	-1562
▁봉	-1563
▁ᅳᅳ	-1564
▁시청	-1565
▁향	-1566
▁정유	-1567
▁되고	-1568
들고	-1569
▁아프	-1570
명을	-1571
▁링크	-1572
▁즉	-1573
▁나한테	-1574
▁평생	-1575
▁한심	-1576
했고	-1577
▁담배	-1578
▁기록	-1579
▁받고	-1580
건가	-1581
▁약속	-1582
▁없애	-1583
스터	-1584
▁성공	-1585
▁몰랐	-1586
▁사과	-1587
▁도망	-1588
▁출신	-1589
▁일어	-1590
▁아름	-1591
▁바람	-1592
보자	-1593
▁연구	-1594
했습니다	-1595
지마라	-1596
▁밝혀	-1597
▁~	-1598
▁이재	-1599
▁털	-1600
도로	-1601
▁일단	-1602
▁해주	-1603
던가	-1604
▁보호	-1605
싶다	-1606
▁여긴	-1607
▁음악	-1608
▁사업	-1609
▁g	-1610
▁50	-1611
▁국민의	-1612
▁처벌	-1613
▁어쩔	-1614
▁젠	-1615
이라면	-1616
▁새누리	-1617
식을	-1618
▁살인	-1619
마라	-1620
줘요	-1621
▁아닙	-1622
단다	-1623
건지	-1624
졌다	-1625
▁뒷	-1626
▁시민	-1627
▁기술	-1628
▁쇼	-1629
▁녀석	-1630
로는	-1631
▁나를	-1632
▁15	-1633
년에	-1634
쪽으로	-1635
장에	-1636
들만	-1637
▁받았	-1638
▁모른	-1639
자의	-1640
▁너도	-1641
▁정상	-1642
장은	-1643
스는	-1644
▁19	-1645
▁계획	-1646
▁아가	-1647
▁스타	-1648
▁정보	-1649
▁공격	-1650
도를	-1651
한게	-1652
▁밑	-1653
▁가만	-1654
▁그를	-1655
om	-1656
하셨	-1657
▁기본	-1658
지요	-1659
자리	-1660
국가	-1661
나가	-1662
▁국민을	-1663
▁아내	-1664
▁기분	-1665
끼리	-1666
▁돼요	-1667
수있	-1668
▁학생	-1669
▁그대로	-1670
하러	-1671
대의	-1672
▁부인	-1673
▁정의	-1674
▁짐	-1675
▁대표	-1676
▁염	-1677
▁이나라	-1678
▁시간이	-1679
였어	-1680
▁저는	-1681
▁되면	-1682
▁것으로	-1683
▁같아요	-1684
수는	-1685
더라도	-1686
▁작은	-1687
▁있어서	-1688
인들이	-1689
▁다르	-1690
▁특별	-1691
우고	-1692
드시	-1693
자로	-1694
▁걍	-1695
▁달라	-1696
겠네요	-1697
▁나올	-1698
▁!	-1699
들한테	-1700
▁당연히	-1701
▁,	-1702
냄새	-1703
▁알아요	-1704
▁n	-1705
▁싶다	-1706
ic	-1707
▁던	-1708
▁고생	-1709
▁안보	-1710
치가	-1711
치를	-1712
▁빈	-1713
그램	-1714
▁굴	-1715
▁되었	-1716
▁석	-1717
▁대신	-1718
▁보다	-1719
식으로	-1720
▁지구	-1721
줘야	-1722
▁차라리	-1723
년이	-1724
▁놔	-1725
장에서	-1726
▁불법	-1727
▁우승	-1728
▁w	-1729
▁r	-1730
▁야구	-1731
스타	-1732
▁멋진	-1733
씨가	-1734
▁쓴	-1735
물을	-1736
▁못하는	-1737
아버	-1738
▁노력	-1739
▁죽음	-1740
우는	-1741
▁생겼	-1742
무현	-1743
▁덕	-1744
▁이봐	-1745
▁거요	-1746
▁긴	-1747
렸다	-1748
▁보니	-1749
히려	-1750
▁가르	-1751
수록	-1752
나게	-1753
▁않는다	-1754
블릿	-1755
▁친일	-1756
▁못한	-1757
▁시켜	-1758
▁그러니	-1759
▁되지	-1760
겠나	-1761
아가	-1762
고있	-1763
아닌	-1764
▁건강	-1765
▁이유가	-1766
기만	-1767
▁대부분	-1768
되지	-1769
▁12	-1770
▁내게	-1771
이며	-1772
▁도시	-1773
려야	-1774
▁일은	-1775
▁없지	-1776
▁다행	-1777
먹는	-1778
▁하늘	-1779
▁그러면	-1780
▁미국의	-1781
제로	-1782
▁부끄	-1783
▁찌	-1784
겠소	-1785
10	-1786
지게	-1787
▁않아요	-1788
랍니다	-1789
방송	-1790
▁있죠	-1791
▁가슴	-1792
▁훨씬	-1793
▁비행	-1794
▁발견	-1795
▁월급	-1796
겠군	-1797
▁젠장	-1798
▁꾸	-1799
▁바라	-1800
▁아닐	-1801
▁여자가	-1802
▁니들이	-1803
▁무시	-1804
▁마라	-1805
▁구조	-1806
▁말은	-1807
▁국제	-1808
▁헛	-1809
▁빠져	-1810
▁활동	-1811
▁선생님	-1812
▁색	-1813
▁봐요	-1814
▁효	-1815
▁화이팅	-1816
인간	-1817
▁했어요	-1818
▁하는거	-1819
▁비교	-1820
화를	-1821
▁부르	-1822
▁녹	-1823
▁상태	-1824
▁또한	-1825
▁죽을	-1826
▁넘어	-1827
정희	-1828
듯이	-1829
▁낳	-1830
it	-1831
▁재산	-1832
▁물건	-1833
세계	-1834
했을	-1835
없고	-1836
▁부산	-1837
▁전문	-1838
인가요	-1839
▁시위	-1840
▁있네	-1841
▁자연	-1842
집회	-1843
▁없는데	-1844
많은	-1845
▁택	-1846
▁여행	-1847
▁하자	-1848
▁우리의	-1849
▁죽여	-1850
나면	-1851
▁돌려	-1852
▁자꾸	-1853
정신	-1854
심이	-1855
▁주세요	-1856
▁원하는	-1857
생활	-1858
▁꽃	-1859
하려고	-1860
▁종북	-1861
▁그들은	-1862
▁저도	-1863
▁빨갱이	-1864
▁운동	-1865
이었다	-1866
▁프랑스	-1867
▁뉴스	-1868
▁숙	-1869
하라고	-1870
▁그녀는	-1871
▁죽은	-1872
▁ᅳ	-1873
▁안되는	-1874
▁생활	-1875
이지만	-1876
롯데	-1877
▁견	-1878
라서	-1879
▁안타	-1880
나서	-1881
▁워	-1882
▁당신의	-1883
▁주변	-1884
▁가진	-1885
▁자신의	-1886
바로	-1887
▁아들	-1888
▁밖	-1889
운데	-1890
▁잠깐만	-1891
▁이기	-1892
나고	-1893
▁청와대	-1894
▁오히려	-1895
워요	-1896
디오	-1897
▁깜	-1898
▁감옥	-1899
▁바꾸	-1900
▁가까	-1901
만에	-1902
가능	-1903
▁하면서	-1904
▁들고	-1905
▁뜨	-1906
▁사형	-1907
립니다	-1908
▁갑자기	-1909
▁저녁	-1910
▁정책	-1911
▁비슷	-1912
▁순간	-1913
▁에어	-1914
▁마세요	-1915
▁엔	-1916
he	-1917
▁영원	-1918
지금	-1919
▁그림	-1920
▁지도	-1921
이들	-1922
좋은	-1923
▁헬조선	-1924
▁자리	-1925
이런	-1926
▁두고	-1927
▁그동안	-1928
▁병원	-1929
화가	-1930
▁공개	-1931
하였	-1932
--	-1933
▁바꿔	-1934
▁쿠	-1935
▁지키	-1936
선수	-1937
으세요	-1938
▁소비	-1939
당한	-1940
▁받을	-1941
▁훌	-1942
지로	-1943
▁끝났	-1944
▁정확	-1945
▁못하고	-1946
▁과거	-1947
하니까	-1948
▁나서	-1949
진국	-1950
▁됐어	-1951
▁주고	-1952
▁살고	-1953
▁유럽	-1954
▁딴	-1955
▁흐	-1956
▁현대	-1957
▁섬	-1958
▁연락	-1959
▁난리	-1960
▁아니냐	-1961
내는	-1962
라니	-1963
▁포기	-1964
▁그들이	-1965
▁선거	-1966
▁각주	-1967
▁뿌	-1968
▁없네	-1969
것은	-1970
▁비싸	-1971
것을	-1972
▁판단	-1973
▁한다고	-1974
가를	-1975
▁폐지	-1976
▁맙	-1977
져서	-1978
겠다는	-1979
▁와서	-1980
▁설치	-1981
▁매일	-1982
▁그나	-1983
▁가면	-1984
▁아닌데	-1985
려요	-1986
▁최소	-1987
체를	-1988
▁설명	-1989
▁안된다	-1990
▁말하는	-1991
,,,	-1992
▁옛날	-1993
▁가고	-1994
도는	-1995
▁풍	-1996
▁이루	-1997
오는	-1998
//	-1999
▁못할	-2000
▁대해서	-2001
▁정유라	-2002
시면	-2003
▁교수	-2004
▁컴	-2005
ou	-2006
위를	-2007
▁♪	-2008
▁부족	-2009
▁의사	-2010
▁필요한	-2011
▁진행	-2012
▁자동	-2013
▁끝까지	-2014
레스	-2015
시길	-2016
▁하여	-2017
▁권력	-2018
▁잠시	-2019
▁나오는	-2020
▁있으니	-2021
▁개돼지	-2022
▁났	-2023
▁맨날	-2024
국의	-2025
▁발전	-2026
▁혈	-2027
▁노무현	-2028
▁군대	-2029
▁휘	-2030
▁안에	-2031
▁관리	-2032
▁보자	-2033
▁멈	-2034
께서	-2035
▁좋을	-2036
▁먹을	-2037
운동	-2038
한다면	-2039
▁이상한	-2040
명의	-2041
더만	-2042
▁아저	-2043
디어	-2044
일을	-2045
에겐	-2046
▁뛰어	-2047
림픽	-2048
▁대상	-2049
▁개발	-2050
▁반드시	-2051
▁그네	-2052
▁앉아	-2053
수준	-2054
꺼야	-2055
주면	-2056
리스트	-2057
▁올해	-2058
▁있어야	-2059
▁없다고	-2060
▁당시	-2061
줌마	-2062
문을	-2063
▁있음	-2064
▁야당	-2065
▁타고	-2066
나라는	-2067
▁목숨	-2068
▁물러	-2069
▁아래	-2070
봐도	-2071
그리고	-2072
▁낙	-2073
리그	-2074
▁훈	-2075
시대	-2076
▁롯데	-2077
▁재벌	-2078
▁시즌	-2079
▁확실히	-2080
▁통해	-2081
▁더이상	-2082
▁흘	-2083
이오	-2084
▁대박	-2085
▁상대	-2086
▁둘이	-2087
▁생각을	-2088
▁e	-2089
▁좋다	-2090
▁않으면	-2091
▁러시아	-2092
▁줬	-2093
id	-2094
여자	-2095
리로	-2096
그냥	-2097
▁조용히	-2098
십시오	-2099
▁푸	-2100
▁고통	-2101
▁알아서	-2102
▁노동	-2103
▁능력	-2104
▁더러운	-2105
가지고	-2106
▁듣고	-2107
▁투표	-2108
걸로	-2109
▁S	-2110
▁비밀	-2111
번째	-2112
교육	-2113
▁흑	-2114
▁거에요	-2115
▁화장	-2116
20	-2117
져야	-2118
▁미쳤	-2119
▁냄새	-2120
▁데이	-2121
▁이럴	-2122
▁크게	-2123
감독	-2124
비가	-2125
선을	-2126
▁못해	-2127
▁마찬	-2128
가면	-2129
온다	-2130
▁또는	-2131
아이	-2132
▁혹시	-2133
▁크리스	-2134
▁주인	-2135
▁많아	-2136
▁쓰고	-2137
했으면	-2138
드리	-2139
▁이곳	-2140
위에	-2141
▁졸업	-2142
친구	-2143
위원	-2144
▁제작	-2145
인줄	-2146
▁바뀌	-2147
지에	-2148
▁지하	-2149
▁한화	-2150
▁동물	-2151
▁모르고	-2152
▁헐	-2153
았어요	-2154
▁쓰는	-2155
▁훌륭	-2156
▁및	-2157
국이	-2158
▁해야지	-2159
▁문재	-2160
▁처리	-2161
너무	-2162
문회	-2163
▁아름다	-2164
▁매우	-2165
은거	-2166
▁힘든	-2167
도의	-2168
tt	-2169
▁우리도	-2170
▁지들	-2171
▁심각	-2172
▁포함	-2173
▁아니지	-2174
▁어딨	-2175
▁맹	-2176
말이	-2177
주지	-2178
▁끝내	-2179
▁동생	-2180
▁드러	-2181
리카	-2182
▁엄마가	-2183
정권	-2184
▁느끼	-2185
▁표현	-2186
▁완전히	-2187
▁이어	-2188
멤버	-2189
간에	-2190
▁못하	-2191
쟁이	-2192
사고	-2193
이라니	-2194
사회	-2195
▁되었다	-2196
▁사무	-2197
▁뭐냐	-2198
당히	-2199
시키고	-2200
▁레이	-2201
원을	-2202
▁우릴	-2203
여서	-2204
▁예전	-2205
더군요	-2206
▁가게	-2207
▁하야	-2208
분들	-2209
하신	-2210
▁주장	-2211
자나	-2212
▁걷	-2213
▁그저	-2214
▁그것도	-2215
▁최고의	-2216
이제	-2217
▁들었	-2218
▁남아	-2219
마디	-2220
▁니네	-2221
있고	-2222
▁맞는	-2223
▁가요	-2224
▁알지	-2225
▁부정	-2226
▁양심	-2227
러워	-2228
▁미안해	-2229
▁자네가	-2230
으로서	-2231
이버	-2232
▁무능	-2233
▁깔	-2234
▁어이	-2235
개월	-2236
정말	-2237
▁뭐하는	-2238
셔서	-2239
▁주는	-2240
▁유명	-2241
▁떼	-2242
▁은행	-2243
▁지방	-2244
하네요	-2245
▁척	-2246
▁200	-2247
▁어렵	-2248
▁있다면	-2249
▁없음	-2250
▁나의	-2251
▁믿을	-2252
▁대구	-2253
▁스트	-2254
할거	-2255
▁말아	-2256
던지	-2257
▁운영	-2258
▁이재용	-2259
▁칠	-2260
▁빚	-2261
▁놈들이	-2262
스크	-2263
았는데	-2264
▁악플	-2265
▁v	-2266
박근혜	-2267
감이	-2268
▁십	-2269
그런	-2270
le	-2271
사람이	-2272
렸어	-2273
▁계약	-2274
님은	-2275
▁끌어	-2276
대가리	-2277
자들은	-2278
셨어요	-2279
하려	-2280
▁하세요	-2281
▁자살	-2282
문이	-2283
▁아파트	-2284
사건	-2285
양이	-2286
▁박그네	-2287
▁쫓	-2288
▁위치	-2289
세먼	-2290
연금	-2291
▁올려	-2292
▁집에서	-2293
▁이해가	-2294
조사	-2295
동산	-2296
것들이	-2297
▁도둑	-2298
▁대선	-2299
▁용서	-2300
씨는	-2301
인거	-2302
▁샤	-2303
두고	-2304
▁유일	-2305
▁수입	-2306
▁종교	-2307
▁이름이	-2308
보네	-2309
기춘	-2310
▁사드	-2311
▁타이	-2312
로서	-2313
▁참가	-2314
겠는데	-2315
▁힘내	-2316
하길	-2317
▁섹	-2318
▁좌파	-2319
해보	-2320
▁우선	-2321
▁있지만	-2322
▁적이	-2323
▁:	-2324
▁거기서	-2325
▁없어서	-2326
▁가정	-2327
▁희망	-2328
>>	-2329
▁놈들	-2330
이든	-2331
▁T	-2332
한국	-2333
이로	-2334
▁자기가	-2335
할까	-2336
▁올림픽	-2337
▁하나도	-2338
▁블랙	-2339
▁생긴	-2340
▁깊	-2341
▁18	-2342
▁쉽게	-2343
▁집회	-2344
▁뭐라	-2345
▁유지	-2346
▁빛	-2347
▁자체가	-2348
▁안나	-2349
언론	-2350
▁입니다	-2351
인들은	-2352
느냐	-2353
데요	-2354
오면	-2355
상도	-2356
리게	-2357
▁걔	-2358
▁애들이	-2359
▁옳	-2360
▁앨	-2361
▁40	-2362
▁점점	-2363
▁ᄒ	-2364
▁태극	-2365
▁헌재	-2366
▁죽이	-2367
▁자주	-2368
▁애국	-2369
▁요구	-2370
하는지	-2371
▁마을	-2372
관계	-2373
▁내년	-2374
▁하네	-2375
▁박정희	-2376
▁납	-2377
▁출연	-2378
▁있던	-2379
▁어울	-2380
▁병신	-2381
▁느껴	-2382
▁받은	-2383
▁민족	-2384
느라	-2385
▁부분	-2386
▁처럼	-2387
▁A	-2388
관이	-2389
▁하다	-2390
이도	-2391
▁동네	-2392
▁옮	-2393
▁참고	-2394
제를	-2395
▁할머니	-2396
us	-2397
▁많다	-2398
▁격	-2399
▁무도	-2400
▁저희	-2401
▁자격	-2402
대요	-2403
▁짜증	-2404
스의	-2405
▁봐라	-2406
▁마치	-2407
야한다	-2408
▁썼	-2409
▁두려	-2410
▁부터	-2411
?!	-2412
▁본다	-2413
럽다	-2414
▁환경	-2415
▁도로	-2416
▁탓	-2417
▁대답	-2418
하는건	-2419
▁있잖아	-2420
을텐데	-2421
의를	-2422
부가	-2423
▁투자	-2424
세금	-2425
보내	-2426
▁ᅲ	-2427
▁변호사	-2428
▁있었어	-2429
이에	-2430
▁보통	-2431
단체	-2432
▁ᄌ	-2433
▁라고	-2434
▁거다	-2435
▁마약	-2436
▁수상	-2437
▁똑같	-2438
▁나머	-2439
니깐	-2440
▁쟤	-2441
민주	-2442
▁죽었	-2443
▁정부가	-2444
같은데	-2445
▁있는지	-2446
어진	-2447
▁뇌물	-2448
▁몰라요	-2449
▁냉	-2450
했네	-2451
▁훔	-2452
▁악마	-2453
성은	-2454
▁까지	-2455
합시다	-2456
▁발표	-2457
▁다이	-2458
안에	-2459
▁소속	-2460
▁무섭	-2461
▁빅	-2462
▁런	-2463
보단	-2464
니까요	-2465
머리	-2466
▁독립	-2467
▁하기	-2468
▁믿고	-2469
▁맞아요	-2470
▁여론	-2471
제가	-2472
버려	-2473
했죠	-2474
▁음식	-2475
▁옥	-2476
▁의원	-2477
▁과학	-2478
▁만큼	-2479
▁기상	-2480
년간	-2481
전히	-2482
스템	-2483
권을	-2484
▁홈	-2485
배우	-2486
신이	-2487
▁발생	-2488
▁조직	-2489
대중	-2490
영화	-2491
▁직원	-2492
▁하게	-2493
회사	-2494
시리	-2495
▁인터넷	-2496
▁안하고	-2497
▁ᄋ	-2498
일본	-2499
▁고소	-2500
보다는	-2501
갔다	-2502
땜에	-2503
▁남자가	-2504
▁영향	-2505
▁저거	-2506
께요	-2507
▁대가	-2508
▁어쨌	-2509
▁놈이	-2510
▁했지	-2511
▁팔아	-2512
▁춤	-2513
▁청문회	-2514
조차	-2515
▁인간이	-2516
▁아까	-2517
한건	-2518
▁데리고	-2519
거에요	-2520
re	-2521
▁지내	-2522
리기	-2523
이드	-2524
▁the	-2525
▁나무	-2526
는거다	-2527
▁에어컨	-2528
▁덜	-2529
▁리그	-2530
▁일본의	-2531
▁있게	-2532
▁됩니다	-2533
짜리	-2534
인듯	-2535
먹은	-2536
▁우주	-2537
▁더욱	-2538
니아	-2539
▁11	-2540
가락	-2541
▁집단	-2542
▁싶지	-2543
▁광고	-2544
▁모자	-2545
▁년에	-2546
▁저러	-2547
▁여름	-2548
학생	-2549
▁말할	-2550
▁파티	-2551
▁한국은	-2552
▁재판	-2553
▁노예	-2554
▁탐	-2555
▁명령	-2556
▁하죠	-2557
였는데	-2558
▁순실이	-2559
시지	-2560
방에	-2561
?"	-2562
▁이제는	-2563
ttp	-2564
정치	-2565
▁연예인	-2566
했다는	-2567
▁봐야	-2568
▁신고	-2569
▁무기	-2570
▁J	-2571
▁고려	-2572
▁없으면	-2573
▁일으	-2574
▁커피	-2575
▁과연	-2576
▁헌법	-2577
르면	-2578
▁쌍	-2579
▁의해	-2580
▁오늘은	-2581
▁똑같은	-2582
▁없다는	-2583
리의	-2584
▁역대	-2585
▁빵	-2586
▁하는게	-2587
▁전라도	-2588
▁웃기	-2589
으려고	-2590
▁봐도	-2591
금을	-2592
이자	-2593
▁완벽	-2594
라지	-2595
려나	-2596
받아	-2597
▁김성	-2598
▁콜	-2599
▁부동산	-2600
재석	-2601
▁그녀가	-2602
▁인구	-2603
▁정신차	-2604
났다	-2605
▁미세먼	-2606
내가	-2607
▁꺼져	-2608
▁어디로	-2609
▁뭔지	-2610
▁산업	-2611
니가	-2612
소사	-2613
▁한다는	-2614
▁만드는	-2615
놈들이	-2616
▁실패	-2617
▁잇	-2618
▁왠	-2619
치지	-2620
▁굳	-2621
▁오른	-2622
▁가끔	-2623
▁알게	-2624
위해	-2625
▁‘	-2626
상에	-2627
▁아나	-2628
라가	-2629
▁다녀	-2630
이크	-2631
▁받는	-2632
▁희생	-2633
♡♡	-2634
더군	-2635
심을	-2636
▁문제는	-2637
▁깨끗	-2638
▁무리	-2639
▁인사	-2640
일까	-2641
▁반성	-2642
BC	-2643
▁익	-2644
한번	-2645
▁기다리	-2646
대학교	-2647
문화	-2648
▁여기에	-2649
▁경쟁	-2650
▁너는	-2651
팩트	-2652
▁멋지	-2653
▁일에	-2654
▁콘	-2655
▁그나마	-2656
위가	-2657
거냐	-2658
▁죽어	-2659
▁만들고	-2660
▁최근	-2661
깝다	-2662
▁실수	-2663
▁검사	-2664
할듯	-2665
tbc	-2666
▁아저씨	-2667
▁대단한	-2668
▁폰	-2669
▁높은	-2670
▁그래야	-2671
▁바다	-2672
▁외교	-2673
상은	-2674
▁여자는	-2675
▁말아요	-2676
▁ᆢ	-2677
▁보세요	-2678
▁글쎄	-2679
▁충분히	-2680
▁상처	-2681
▁도움이	-2682
▁돼지	-2683
퓨터	-2684
졌어	-2685
좋아	-2686
는가	-2687
▁싹	-2688
▁진정한	-2689
▁위에	-2690
▁폴	-2691
▁든	-2692
▁공산	-2693
▁올리	-2694
▁K	-2695
▁측	-2696
▁무너	-2697
리도	-2698
▁오빠	-2699
▁억울	-2700
놈이	-2701
▁C	-2702
▁모양	-2703
▁봅	-2704
▁가라	-2705
▁남의	-2706
었던	-2707
▁노트	-2708
▁있나요	-2709
하긴	-2710
▁직업	-2711
하다는	-2712
▁누군가	-2713
▁생기	-2714
▁경험	-2715
▁테러	-2716
는데요	-2717
국에	-2718
드라마	-2719
줘라	-2720
▁미개	-2721
▁맙소사	-2722
▁할수	-2723
▁기준	-2724
테니	-2725
as	-2726
▁치료	-2727
▁너네	-2728
▁아줌마	-2729
▁농담	-2730
▁멍청한	-2731
▁사람도	-2732
▁똑똑	-2733
사의	-2734
애들	-2735
비를	-2736
줘서	-2737
▁최악	-2738
▁단지	-2739
://	-2740
▁엄청난	-2741
▁도착	-2742
기의	-2743
▁간다	-2744
인도	-2745
이게	-2746
해야한다	-2747
지말	-2748
비스	-2749
▁이름은	-2750
세를	-2751
▁짓을	-2752
당이	-2753
▁이민	-2754
▁일이야	-2755
▁실력	-2756
했지만	-2757
▁보험	-2758
▁먹는	-2759
▁지금도	-2760
▁이동	-2761
▁들이	-2762
▁실례	-2763
였어요	-2764
▁뻔뻔	-2765
▁센	-2766
었나	-2767
ion	-2768
▁청소	-2769
▁있냐	-2770
므로	-2771
▁있을까	-2772
나라가	-2773
스럽게	-2774
▁늙은	-2775
명은	-2776
일은	-2777
▁중에	-2778
▁품	-2779
질이	-2780
하지말고	-2781
었죠	-2782
▁뒤에	-2783
▁망할	-2784
▁평화	-2785
▁한마디	-2786
▁인물	-2787
부로	-2788
▁김기춘	-2789
▁지옥	-2790
▁놓고	-2791
▁먹어	-2792
유가	-2793
▁뜯	-2794
▁L	-2795
30	-2796
서를	-2797
▁흉	-2798
▁소설	-2799
▁왔어	-2800
있는데	-2801
▁연결	-2802
▁죽일	-2803
▁됐어요	-2804
▁이름을	-2805
쓰고	-2806
▁자료	-2807
▁반기	-2808
었고	-2809
▁라이	-2810
과는	-2811
▁시절	-2812
▁맘에	-2813
▁금방	-2814
▁참여	-2815
버리	-2816
을듯	-2817
▁했던	-2818
▁가수	-2819
보기	-2820
▁나랑	-2821
▁친박	-2822
▁노인	-2823
▁예쁘	-2824
병우	-2825
▁분위	-2826
▁언젠	-2827
받는	-2828
▁태블릿	-2829
▁만났	-2830
▁이익	-2831
▁벤	-2832
▁폭탄	-2833
▁벌어	-2834
전을	-2835
▁의심	-2836
자식	-2837
사람들	-2838
저히	-2839
럽게	-2840
에만	-2841
주가	-2842
복을	-2843
보지	-2844
▁대중	-2845
▁남은	-2846
라스	-2847
▁하니	-2848
▁혁	-2849
말로	-2850
▁수고	-2851
부는	-2852
▁저게	-2853
▁ᄉ	-2854
▁오지	-2855
▁교통	-2856
ol	-2857
▁작가	-2858
르게	-2859
▁보도	-2860
▁메이	-2861
▁단순	-2862
했나	-2863
부를	-2864
▁낭	-2865
▁자랑	-2866
때는	-2867
▁전체	-2868
들이다	-2869
▁풀어	-2870
▁혐	-2871
원은	-2872
▁너의	-2873
▁i	-2874
역시	-2875
▁태어남	-2876
▁방금	-2877
셔야	-2878
▁꽤	-2879
el	-2880
년은	-2881
십니다	-2882
아치	-2883
어를	-2884
▁하시	-2885
▁족	-2886
▁자동차	-2887
▁힘을	-2888
▁연봉	-2889
▁손을	-2890
▁빌어	-2891
▁이유는	-2892
드가	-2893
것같	-2894
▁싱	-2895
▁앞에	-2896
▁아예	-2897
▁눈치	-2898
▁때까지	-2899
▁시간을	-2900
▁생산	-2901
▁인간들	-2902
▁없었다	-2903
▁사망	-2904
경기	-2905
▁무식	-2906
쳐서	-2907
달러	-2908
다른	-2909
무리	-2910
위로	-2911
조작	-2912
▁철도	-2913
▁영원히	-2914
▁둘다	-2915
▁힐	-2916
으로는	-2917
▁생각은	-2918
▁ᅮᅮ	-2919
▁시청률	-2920
시킨	-2921
중국	-2922
대표	-2923
▁예상	-2924
으로써	-2925
ing	-2926
▁들어오	-2927
▁짱깨	-2928
자인	-2929
▁곡	-2930
▁이혼	-2931
▁호텔	-2932
이기	-2933
과의	-2934
▁아빠가	-2935
▁에이	-2936
▁후에	-2937
▁자넨	-2938
▁시험	-2939
▁앤	-2940
▁김치	-2941
▁보이는	-2942
▁심판	-2943
▁않나	-2944
▁번째	-2945
다시	-2946
포츠	-2947
으라고	-2948
님의	-2949
▁법을	-2950
▁201	-2951
슬람	-2952
▁이쁘	-2953
▁질문	-2954
▁파일	-2955
▁돈은	-2956
▁동문	-2957
▁뉴욕	-2958
속에	-2959
▁시원	-2960
▁거라고	-2961
▁호구	-2962
▁폭발	-2963
임을	-2964
리나	-2965
▁살려	-2966
음을	-2967
많이	-2968
▁아가씨	-2969
이었어	-2970
▁불안	-2971
수의	-2972
▁멤버	-2973
▁I	-2974
▁유재석	-2975
▁있소	-2976
▁않았다	-2977
▁갤	-2978
장으로	-2979
계를	-2980
됐다	-2981
달라고	-2982
해주세요	-2983
▁보여주	-2984
▁근혜	-2985
▁집안	-2986
▁공식	-2987
▁있으며	-2988
▁예술	-2989
▁이를	-2990
▁불가능	-2991
▁역할	-2992
▁만드	-2993
▁네이버	-2994
마트	-2995
▁답답	-2996
길래	-2997
▁카메	-2998
돌아	-2999
이네요	-3000
초에	-3001
▁창조	-3002
▁혜	-3003
▁강력	-3004
▁오는	-3005
세력	-3006
▁나와서	-3007
▁불편	-3008
▁닮	-3009
▁윌	-3010
▁덮	-3011
나도	-3012
운전	-3013
▁잭	-3014
수사	-3015
▁쏘	-3016
▁체포	-3017
분에	-3018
▁실망	-3019
와라	-3020
▁갖다	-3021
용이	-3022
하겠다	-3023
▁떡	-3024
▁달려	-3025
▁싶어요	-3026
거고	-3027
님들	-3028
▁나쁘	-3029
시장	-3030
준다	-3031
스러운	-3032
▁제품	-3033
그럼	-3034
▁가만히	-3035
있게	-3036
am	-3037
▁왔어요	-3038
▁왜냐	-3039
▁누진세	-3040
▁광화	-3041
▁믿어	-3042
▁눈에	-3043
▁으	-3044
▁개념	-3045
보검	-3046
▁아이폰	-3047
▁좋았	-3048
시켜라	-3049
할게	-3050
▁그날	-3051
▁정도로	-3052
원에	-3053
et	-3054
▁홀	-3055
ac	-3056
▁챙겨	-3057
▁0	-3058
▁텐데	-3059
▁of	-3060
▁끔	-3061
답니다	-3062
가라	-3063
▁존경	-3064
드립니다	-3065
▁kbs	-3066
50	-3067
▁있었던	-3068
▁제목	-3069
▁것처럼	-3070
자도	-3071
▁해체	-3072
▁시장	-3073
▁그렇고	-3074
▁언니	-3075
▁컴퓨터	-3076
비는	-3077
▁멸	-3078
점을	-3079
▁그룹	-3080
ᅲᅲᅲᅲ	-3081
▁월드	-3082
었으면	-3083
▁하셨	-3084
▁M	-3085
▁칭	-3086
▁앞에서	-3087
▁정신병	-3088
▁정부는	-3089
▁설립	-3090
▁버스	-3091
있네	-3092
▁소개	-3093
▁이정도	-3094
▁뭐지	-3095
▁사랑해	-3096
▁지가	-3097
▁아쉽	-3098
입니까	-3099
▁나오면	-3100
▁이번에	-3101
롭게	-3102
굉장	-3103
으러	-3104
본다	-3105
사에	-3106
그룹	-3107
▁카드	-3108
▁판매	-3109
소를	-3110
이러	-3111
▁소녀	-3112
▁언제나	-3113
▁진실을	-3114
아주	-3115
리오	-3116
▁마음이	-3117
▁이번엔	-3118
▁집중	-3119
▁자신이	-3120
▁관광	-3121
▁눈을	-3122
▁대로	-3123
▁보인다	-3124
리다	-3125
정한	-3126
▁첨	-3127
▁건물	-3128
적이고	-3129
▁할아버	-3130
▁애플	-3131
▁중앙	-3132
해지	-3133
님을	-3134
시가	-3135
▁싸움	-3136
▁웨	-3137
점이	-3138
▁좋지	-3139
▁누굴	-3140
▁안돼요	-3141
il	-3142
▁벽	-3143
줄게	-3144
▁경영	-3145
▁정리	-3146
▁그들의	-3147
▁독재	-3148
▁따로	-3149
▁삼성이	-3150
▁어른	-3151
▁주말	-3152
▁선물	-3153
▁못하게	-3154
로부터	-3155
선이	-3156
▁잘못된	-3157
▁굉장	-3158
왔다	-3159
하다가	-3160
감을	-3161
▁본인	-3162
▁괜히	-3163
히고	-3164
▁웬	-3165
▁컨	-3166
지원	-3167
▁선진국	-3168
정책	-3169
▁핸	-3170
▁이명	-3171
이니까	-3172
▁하는지	-3173
▁시스템	-3174
년을	-3175
▁사실을	-3176
▁오랜	-3177
▁김성근	-3178
▁속에	-3179
▁찰	-3180
▁공항	-3181
▁그녀를	-3182
▁그러지	-3183
▁며	-3184
▁새로	-3185
십니까	-3186
▁죄다	-3187
시민	-3188
▁간단	-3189
▁겨우	-3190
▁모른다	-3191
▁나라는	-3192
촬영	-3193
▁후보	-3194
▁아시	-3195
아도	-3196
하지마	-3197
▁친일파	-3198
여행	-3199
▁좌빨	-3200
▁60	-3201
차가	-3202
▁싫다	-3203
▁~~	-3204
▁전세계	-3205
▁돈으로	-3206
▁왔다	-3207
▁판사	-3208
들에	-3209
▁비싼	-3210
년전	-3211
자와	-3212
▁비리	-3213
▁괜찮은	-3214
▁쌓	-3215
▁말로	-3216
▁약간	-3217
받은	-3218
▁이사	-3219
치면	-3220
▁싸우	-3221
▁어떠	-3222
▁달러	-3223
신을	-3224
상의	-3225
ᅠᅠ	-3226
▁뭔데	-3227
▁김영	-3228
▁장관	-3229
▁게다가	-3230
▁70	-3231
▁끔찍	-3232
▁외국인	-3233
재판	-3234
▁눈이	-3235
▁중심	-3236
▁곤	-3237
제에	-3238
▁예능	-3239
그만	-3240
▁여자를	-3241
▁핑	-3242
미가	-3243
겠니	-3244
▁열어	-3245
▁값	-3246
▁브라	-3247
▁것들이	-3248
우스	-3249
▁좋은데	-3250
▁없으니	-3251
▁갔다	-3252
▁몽	-3253
▁전국	-3254
소에	-3255
사랑	-3256
▁걸어	-3257
▁모를	-3258
▁개판	-3259
▁꼼	-3260
▁몰아	-3261
▁버티	-3262
▁길을	-3263
▁주지	-3264
▁엿	-3265
트가	-3266
▁성과	-3267
▁하지마	-3268
▁바닥	-3269
빨리	-3270
법을	-3271
▁분노	-3272
었다고	-3273
▁장사	-3274
지어	-3275
▁모두가	-3276
지역	-3277
▁당신도	-3278
▁돌아오	-3279
▁영웅	-3280
▁단체	-3281
▁등을	-3282
▁시대	-3283
시위	-3284
리라	-3285
▁이다	-3286
▁인도	-3287
▁이쪽	-3288
▁꿀	-3289
리핀	-3290
▁슈퍼	-3291
▁계산	-3292
▁보지	-3293
un	-3294
▁팩트	-3295
▁아시아	-3296
▁명예	-3297
으론	-3298
▁근처	-3299
▁득	-3300
▁친구가	-3301
▁때는	-3302
잡고	-3303
▁경찰이	-3304
▁문재인	-3305
▁저지	-3306
▁윗	-3307
▁빼고	-3308
▁영혼	-3309
▁겨울	-3310
필요	-3311
년동안	-3312
만으로	-3313
▁김정은	-3314
▁봤어	-3315
▁기상청	-3316
~!	-3317
▁손해	-3318
▁여전히	-3319
▁입고	-3320
▁행정	-3321
▁관한	-3322
▁수는	-3323
하거나	-3324
질을	-3325
▁살기	-3326
▁안된	-3327
▁것들	-3328
▁계란	-3329
리자	-3330
하지않	-3331
▁부담	-3332
▁저리	-3333
▁판결	-3334
실에	-3335
없네	-3336
한것	-3337
▁그러고	-3338
▁류	-3339
함을	-3340
▁하냐	-3341
▁똑바로	-3342
고기	-3343
▁보냈	-3344
▁장군	-3345
▁어떡	-3346
▁으로	-3347
정에	-3348
▁전투	-3349
트를	-3350
▁인기	-3351
단이	-3352
▁환영	-3353
없음	-3354
만을	-3355
▁이런거	-3356
▁거래	-3357
▁인터뷰	-3358
▁애가	-3359
▁구라	-3360
▁미리	-3361
▁한달	-3362
▁건데	-3363
▁정말로	-3364
제발	-3365
▁의혹	-3366
일에	-3367
▁사태	-3368
▁위안	-3369
때까지	-3370
최순실	-3371
▁없나	-3372
▁실제	-3373
다는게	-3374
받을	-3375
▁근무	-3376
적을	-3377
근데	-3378
▁거기에	-3379
시키는	-3380
▁국민은	-3381
▁할까	-3382
▁지배	-3383
▁개소리	-3384
▁때려	-3385
특검	-3386
었네	-3387
▁낸	-3388
▁그것이	-3389
▁얘기를	-3390
▁않다	-3391
▁묵	-3392
▁이슬람	-3393
둘러	-3394
시켰	-3395
▁온갖	-3396
▁때가	-3397
▁정치인	-3398
소가	-3399
▁이전	-3400
기관	-3401
▁되는데	-3402
▁성격	-3403
었습니다	-3404
▁분명히	-3405
▁필요해	-3406
▁이러한	-3407
경찰	-3408
▁훈련	-3409
스럽다	-3410
대학	-3411
▁기름	-3412
▁똑같이	-3413
▁기타	-3414
▁잡고	-3415
대한민국	-3416
▁어쨌든	-3417
▁죄를	-3418
▁in	-3419
▁등등	-3420
▁우리를	-3421
공항	-3422
ch	-3423
▁자신을	-3424
▁에서	-3425
있지	-3426
▁절대로	-3427
▁많은데	-3428
탄핵	-3429
진이	-3430
때문	-3431
▁기사를	-3432
였지	-3433
▁왜요	-3434
되서	-3435
▁몰라도	-3436
▁충격	-3437
나라도	-3438
▁기계	-3439
▁우병우	-3440
래도	-3441
▁반가	-3442
▁지시	-3443
▁사기꾼	-3444
▁에휴	-3445
▁아들이	-3446
만은	-3447
▁미치	-3448
기자	-3449
▁닫	-3450
▁적용	-3451
▁오바	-3452
▁드릴	-3453
하겠지	-3454
▁기분이	-3455
▁콩	-3456
터리	-3457
▁젤	-3458
전이	-3459
▁지들이	-3460
는거냐	-3461
▁가득	-3462
상태	-3463
원에서	-3464
▁그런거	-3465
▁태극기	-3466
▁라는	-3467
▁무서운	-3468
▁나갈	-3469
마스	-3470
▁안내	-3471
▁다시는	-3472
만명	-3473
▁영어	-3474
세가	-3475
사람은	-3476
▁밀어	-3477
▁정당	-3478
어지	-3479
놈의	-3480
▁말했다	-3481
야구	-3482
에다	-3483
▁비난	-3484
함이	-3485
▁대회	-3486
▁건가	-3487
모가	-3488
▁살았	-3489
드릴	-3490
▁F	-3491
▁택시	-3492
하도록	-3493
▁작업	-3494
▁한국의	-3495
▁취급	-3496
▁대출	-3497
바닥	-3498
▁놀라	-3499
▁탑	-3500
▁목소리	-3501
▁일도	-3502
호가	-3503
드로	-3504
차를	-3505
▁셋	-3506
▁유일한	-3507
우면	-3508
▁케이	-3509
▁군사	-3510
▁제주	-3511
리네	-3512
▁의견	-3513
▁알았다	-3514
▁보상	-3515
거라고	-3516
▁즐거	-3517
▁증명	-3518
겠습니까	-3519
▁어려운	-3520
),	-3521
시킬	-3522
os	-3523
▁집어	-3524
▁미국이	-3525
▁16	-3526
아님	-3527
▁일본은	-3528
▁거부	-3529
▁낼	-3530
▁신문	-3531
▁봄	-3532
▁“	-3533
▁따라서	-3534
▁보이지	-3535
▁말하지	-3536
▁인천	-3537
▁짝	-3538
그리	-3539
▁연습	-3540
▁집을	-3541
▁없잖아	-3542
아지	-3543
있나	-3544
▁해봐	-3545
TBC	-3546
▁도깨	-3547
▁후회	-3548
프트	-3549
▁당선	-3550
음이	-3551
▁차를	-3552
▁방해	-3553
▁죽는	-3554
기다	-3555
▁부패	-3556
이군	-3557
연합	-3558
든가	-3559
▁은퇴	-3560
▁끄	-3561
▁어째	-3562
▁뺏	-3563
히는	-3564
위는	-3565
▁이미지	-3566
후에	-3567
제품	-3568
▁수십	-3569
▁뿐이야	-3570
▁뽑아	-3571
▁왼	-3572
▁시끄	-3573
▁화가	-3574
▁안될	-3575
▁액	-3576
하는것	-3577
▁의무	-3578
▁상상	-3579
▁ᄃᄃ	-3580
기지	-3581
호를	-3582
▁반기문	-3583
▁김대중	-3584
▁빙	-3585
▁텔	-3586
드를	-3587
▁그녀의	-3588
바리	-3589
년도	-3590
▁어리	-3591
▁날씨	-3592
▁복귀	-3593
▁스페	-3594
▁겪	-3595
만의	-3596
놓은	-3597
수로	-3598
▁기아	-3599
▁배신	-3600
하시는	-3601
범죄	-3602
▁멀리	-3603
▁말이다	-3604
▁숫	-3605
시의	-3606
▁집값	-3607
주를	-3608
▁끌고	-3609
▁필리핀	-3610
▁마련	-3611
▁뒤집	-3612
▁기각	-3613
▁벨	-3614
이션	-3615
▁박보검	-3616
▁중국이	-3617
▁모습을	-3618
▁옆에	-3619
싶은	-3620
사로	-3621
▁사람의	-3622
▁공연	-3623
▁세워	-3624
▁떨어져	-3625
비아	-3626
▁촬영	-3627
하지마라	-3628
▁보게	-3629
나이	-3630
▁일찍	-3631
▁일베	-3632
스키	-3633
쪽에	-3634
▁넓	-3635
▁땐	-3636
▁민주당	-3637
▁설마	-3638
▁음주	-3639
▁김종	-3640
▁무한	-3641
▁자체	-3642
▁이것도	-3643
▁묘	-3644
▁프리	-3645
▁효과	-3646
▁^^	-3647
▁힘이	-3648
에게는	-3649
▁튀	-3650
짓을	-3651
민이	-3652
▁안가	-3653
▁아이돌	-3654
▁눈물	-3655
ed	-3656
화국	-3657
▁아니요	-3658
▁유리	-3659
▁이래서	-3660
▁구성	-3661
▁입장	-3662
사업	-3663
그래도	-3664
ad	-3665
▁있으	-3666
이어	-3667
▁끝나	-3668
▁로마	-3669
▁어때요	-3670
▁항공	-3671
일뿐	-3672
▁짤	-3673
▁보안	-3674
▁혼란	-3675
▁이딴	-3676
잘못	-3677
▁봤는데	-3678
둥이	-3679
▁적어도	-3680
말을	-3681
▁나라의	-3682
자에	-3683
▁하던	-3684
▁=	-3685
▁비판	-3686
해봐	-3687
▁국방	-3688
▁짧	-3689
▁말이지	-3690
▁서둘러	-3691
▁누진제	-3692
까봐	-3693
▁엠	-3694
오고	-3695
▁수술	-3696
▁뭐든	-3697
기나	-3698
무슨	-3699
▁필요가	-3700
▁갓	-3701
었을	-3702
원도	-3703
;;;	-3704
▁협박	-3705
▁마음을	-3706
였던	-3707
▁다양	-3708
▁출발	-3709
해진	-3710
장의	-3711
▁연애	-3712
까지는	-3713
▁오르	-3714
▁묶	-3715
com	-3716
▁tv	-3717
▁세상이	-3718
때도	-3719
▁드디어	-3720
▁여기가	-3721
▁만나서	-3722
▁예쁜	-3723
▁분이	-3724
▁훌륭한	-3725
▁고객	-3726
이건	-3727
란드	-3728
▁매력	-3729
▁니들은	-3730
▁투수	-3731
▁마음에	-3732
▁넣어	-3733
▁추가	-3734
▁잉	-3735
▁찬성	-3736
하려는	-3737
아니라	-3738
렸어요	-3739
▁헛소리	-3740
▁결론	-3741
▁이탈	-3742
▁스포츠	-3743
구먼	-3744
▁말한	-3745
▁한명	-3746
▁방향	-3747
해줄	-3748
▁대사	-3749
▁대우	-3750
▁갚	-3751
부에	-3752
겠군요	-3753
석희	-3754
▁고향	-3755
▁애들은	-3756
▁80	-3757
하잖아	-3758
▁곳에	-3759
단을	-3760
▁부자	-3761
▁합의	-3762
▁옹	-3763
▁조금만	-3764
하기도	-3765
▁인권	-3766
▁당연한	-3767
▁이대	-3768
있음	-3769
▁애초에	-3770
▁거리	-3771
▁저건	-3772
년대	-3773
▁말했	-3774
만들	-3775
군이	-3776
▁엘지	-3777
▁알았지	-3778
시즌	-3779
아닌가	-3780
▁an	-3781
▁뭐죠	-3782
▁y	-3783
까진	-3784
▁자세	-3785
봤자	-3786
식은	-3787
▁흔들	-3788
▁공동	-3789
▁유치	-3790
▁흡	-3791
시절	-3792
▁90	-3793
▁최소한	-3794
▁하려고	-3795
▁굳이	-3796
▁인해	-3797
▁하며	-3798
▁돈도	-3799
▁합시다	-3800
국민이	-3801
원의	-3802
▁힘들어	-3803
▁평가	-3804
▁ᄀ	-3805
▁광화문	-3806
▁있는거	-3807
▁클럽	-3808
시기	-3809
▁잠수	-3810
▁뒤로	-3811
▁반응	-3812
트로	-3813
▁생명	-3814
나다	-3815
▁가운데	-3816
▁건설	-3817
▁식당	-3818
▁차지	-3819
▁덴	-3820
▁위로	-3821
상황	-3822
이잖아	-3823
▁아침에	-3824
했음	-3825
▁가르쳐	-3826
인으로	-3827
▁제공	-3828
관리	-3829
▁통신	-3830
▁다음에	-3831
사실	-3832
18	-3833
▁맞지	-3834
있어요	-3835
▁그만해	-3836
▁걸로	-3837
▁다가	-3838
▁누구야	-3839
▁카메라	-3840
으려	-3841
앞에	-3842
되는데	-3843
▁평균	-3844
▁!!	-3845
▁엑	-3846
▁교회	-3847
▁겁나	-3848
▁뻥	-3849
ᄒᄒᄒᄒ	-3850
▁맞춰	-3851
▁갈아	-3852
▁쪼	-3853
▁ᆞ	-3854
가야	-3855
선동	-3856
▁집으로	-3857
▁수백	-3858
▁저질	-3859
왔어	-3860
▁일본이	-3861
들이나	-3862
▁14	-3863
겨서	-3864
,,,,	-3865
다고요	-3866
▁성형	-3867
▁감정	-3868
▁300	-3869
▁일하는	-3870
▁쪽팔	-3871
겹다	-3872
▁했죠	-3873
졌어요	-3874
▁ᄅ	-3875
▁두산	-3876
▁기부	-3877
▁한테	-3878
▁바란다	-3879
▁여보	-3880
▁않았어	-3881
▁대책	-3882
▁들여	-3883
▁기회를	-3884
ver	-3885
▁찾을	-3886
구가	-3887
쓰는	-3888
▁차례	-3889
이었어요	-3890
▁썩은	-3891
▁제시	-3892
다는거	-3893
니스	-3894
▁통과	-3895
▁데뷔	-3896
ew	-3897
▁돈벌	-3898
있으면	-3899
▁지하철	-3900
적은	-3901
▁읽어	-3902
▁봤어요	-3903
▁스티	-3904
▁양아치	-3905
부의	-3906
▁거품	-3907
▁말하고	-3908
▁착각	-3909
▁머리가	-3910
▁정준	-3911
▁해당	-3912
계가	-3913
▁밴	-3914
▁늘어	-3915
▁파괴	-3916
곳에	-3917
▁했지만	-3918
정보	-3919
른다	-3920
시요	-3921
um	-3922
이프	-3923
▁기능	-3924
▁TV	-3925
성의	-3926
전거	-3927
▁화장실	-3928
과서	-3929
▁신기	-3930
▁했으면	-3931
어리	-3932
▁샘	-3933
수저	-3934
▁목표	-3935
▁해줄	-3936
구를	-3937
▁티비	-3938
▁어딜	-3939
▁오면	-3940
▁기도	-3941
▁웃긴	-3942
▁등장	-3943
▁성장	-3944
ig	-3945
▁이모	-3946
▁인간의	-3947
연기	-3948
번에	-3949
▁기가	-3950
으셨	-3951
▁mbc	-3952
▁요리	-3953
▁24	-3954
▁기레기	-3955
이라서	-3956
지기	-3957
개를	-3958
▁부모님	-3959
▁비정	-3960
▁쳐다	-3961
..?	-3962
▁신뢰	-3963
▁총을	-3964
▁텔레	-3965
▁놀아	-3966
거면	-3967
▁금지	-3968
금이	-3969
드라	-3970
아니고	-3971
▁있어도	-3972
▁죄가	-3973
▁만족	-3974
▁햇	-3975
▁나머지	-3976
▁태어나	-3977
▁소리를	-3978
돈으로	-3979
▁됐다	-3980
▁치고	-3981
▁황교	-3982
성에	-3983
스런	-3984
지나	-3985
됐어	-3986
▁손님	-3987
거같	-3988
▁나라에	-3989
버리고	-3990
▁너한테	-3991
▁좋고	-3992
업자	-3993
▁나온다	-3994
▁수비	-3995
▁조건	-3996
▁월드컵	-3997
▁달리	-3998
▁임무	-3999
대고	-4000
▁13	-4001
있을	-4002
잡아	-4003
▁만난	-4004
▁위증	-4005
▁조심해	-4006
▁구역	-4007
▁한심한	-4008
느니	-4009
▁습	-4010
▁쓸데	-4011
▁밤에	-4012
위원회	-4013
▁보면서	-4014
▁누군지	-4015
▁들어와	-4016
▁찾고	-4017
▁남자는	-4018
▁해보	-4019
▁공유	-4020
▁기관	-4021
▁등의	-4022
▁인상	-4023
▁장면	-4024
▁대학교	-4025
▁법이	-4026
▁이명박	-4027
▁개의	-4028
했는지	-4029
▁형사	-4030
▁st	-4031
▁유전	-4032
▁스토	-4033
▁얼른	-4034
▁그것은	-4035
에서의	-4036
▁너를	-4037
▁손에	-4038
▁비행기	-4039
라고요	-4040
업체	-4041
▁내고	-4042
▁적당히	-4043
내서	-4044
하군	-4045
▁존나	-4046
▁프랭	-4047
줄알	-4048
▁샌	-4049
▁안정	-4050
▁잘생	-4051
▁방법이	-4052
▁차가	-4053
▁강한	-4054
▁하이	-4055
▁실험	-4056
▁어디에	-4057
있냐	-4058
▁한국인	-4059
▁비켜	-4060
악한	-4061
▁미국은	-4062
▁초대	-4063
▁가까이	-4064
겠구나	-4065
▁귀여	-4066
▁가능한	-4067
▁다를	-4068
▁인성	-4069
▁중소	-4070
▁건가요	-4071
▁쌀	-4072
▁주요	-4073
▁그들을	-4074
스러	-4075
▁아마도	-4076
이터	-4077
의가	-4078
▁공주	-4079
들여	-4080
▁나갔	-4081
▁찍어	-4082
력은	-4083
트는	-4084
▁이루어	-4085
워야	-4086
▁한잔	-4087
▁17	-4088
▁따뜻	-4089
▁쏴	-4090
▁중국은	-4091
▁형제	-4092
▁고용	-4093
하더라	-4094
▁짱개	-4095
▁젖	-4096
▁안다	-4097
하진	-4098
▁이끌	-4099
▁제외	-4100
▁경유	-4101
졌네	-4102
주일	-4103
▁버리고	-4104
▁잘하고	-4105
▁소리가	-4106
▁괴롭	-4107
▁쏟	-4108
▁직장	-4109
조가	-4110
▁애를	-4111
▁그만큼	-4112
▁키스	-4113
녜요	-4114
따라	-4115
▁드리	-4116
▁엄마는	-4117
▁않게	-4118
아냐	-4119
▁전해	-4120
▁매국	-4121
▁사장	-4122
▁없었어	-4123
▁베이	-4124
▁살해	-4125
▁감방	-4126
▁ᄒᄒᄒ	-4127
▁창피	-4128
차는	-4129
때마다	-4130
호는	-4131
▁어휴	-4132
▁행운	-4133
▁25	-4134
▁문제를	-4135
▁담당	-4136
사모	-4137
▁이봐요	-4138
▁만날	-4139
▁손가락	-4140
구속	-4141
▁얘길	-4142
▁없지만	-4143
동생	-4144
저런	-4145
신은	-4146
▁오늘밤	-4147
안을	-4148
▁세상을	-4149
운드	-4150
▁강남	-4151
▁수준이	-4152
▁무지	-4153
▁불쌍한	-4154
▁지정	-4155
마가	-4156
ro	-4157
▁범죄자	-4158
▁하긴	-4159
게임	-4160
▁상황이	-4161
pg	-4162
가도	-4163
대상	-4164
▁모델	-4165
▁죽고	-4166
▁곳이	-4167
▁머리를	-4168
▁싫어요	-4169
▁어떨	-4170
와의	-4171
기술	-4172
▁감시	-4173
다음	-4174
▁챔	-4175
민국은	-4176
안이	-4177
▁등이	-4178
▁엉망	-4179
는데도	-4180
▁내리	-4181
▁얼굴이	-4182
▁이길	-4183
릭터	-4184
당은	-4185
▁새벽	-4186
▁감동	-4187
ent	-4188
알바	-4189
▁맞다	-4190
▁빨아	-4191
이의	-4192
▁아녜요	-4193
활동	-4194
▁지진	-4195
▁나에게	-4196
▁했을	-4197
▁여자들	-4198
얼굴	-4199
▁된다고	-4200
▁최초	-4201
워라	-4202
개발	-4203
반대	-4204
▁본인이	-4205
조리	-4206
폭행	-4207
비전	-4208
▁가난	-4209
버렸	-4210
마크	-4211
▁G	-4212
▁댓	-4213
▁속에서	-4214
▁알아야	-4215
▁안해	-4216
미국	-4217
▁피곤	-4218
▁돕	-4219
▁삼촌	-4220
부대	-4221
영상	-4222
▁사이에	-4223
▁잘해	-4224
안하고	-4225
▁마시	-4226
친다	-4227
가에	-4228
도에	-4229
수한	-4230
▁닥쳐	-4231
▁사귀	-4232
산업	-4233
천히	-4234
▁중간	-4235
▁마녀	-4236
▁구경	-4237
봤는데	-4238
▁반갑	-4239
▁전통	-4240
▁원숭	-4241
보이	-4242
스코	-4243
▁쉴	-4244
보수	-4245
▁임신	-4246
일세	-4247
네들	-4248
져라	-4249
▁그럼요	-4250
해주고	-4251
▁받아야	-4252
한텐	-4253
▁로봇	-4254
▁개가	-4255
▁수많은	-4256
▁주차	-4257
▁찢	-4258
▁진출	-4259
▁자전거	-4260
▁많고	-4261
분을	-4262
▁고민	-4263
▁요청	-4264
독교	-4265
보다도	-4266
▁이는	-4267
▁차량	-4268
▁사무실	-4269
으로부터	-4270
▁씹	-4271
▁자본	-4272
▁동료	-4273
하실	-4274
▁그렇다	-4275
▁이따	-4276
▁무서워	-4277
그렇	-4278
빠진	-4279
군의	-4280
▁한국이	-4281
타고	-4282
▁성적	-4283
▁그렇죠	-4284
치게	-4285
▁밟	-4286
▁언플	-4287
▁우습	-4288
▁안타깝	-4289
▁같네요	-4290
▁정작	-4291
어로	-4292
▁장애	-4293
놈들은	-4294
지의	-4295
▁반복	-4296
나라에	-4297
나와	-4298
집에	-4299
모습	-4300
▁했잖아	-4301
▁나아	-4302
이래	-4303
▁아기	-4304
▁불과	-4305
▁며칠	-4306
센터	-4307
▁뮤	-4308
▁위협	-4309
학자	-4310
었음	-4311
할지	-4312
닝맨	-4313
▁가치	-4314
▁공짜	-4315
▁이것이	-4316
이었는데	-4317
▁승리	-4318
▁이에	-4319
빕니다	-4320
▁x	-4321
라인	-4322
사람들이	-4323
▁한국에	-4324
▁사법	-4325
석이	-4326
았네	-4327
▁당신과	-4328
▁줄어	-4329
▁업무	-4330
▁아이가	-4331
▁나눠	-4332
▁맘대로	-4333
하시고	-4334
▁교체	-4335
▁빡	-4336
한테는	-4337
▁이승	-4338
서가	-4339
때부터	-4340
가족	-4341
마나	-4342
아는	-4343
▁교도	-4344
▁취소	-4345
국을	-4346
▁천천히	-4347
▁인류	-4348
▁이쁜	-4349
분은	-4350
▁P	-4351
시켜야	-4352
스에	-4353
석은	-4354
▁있기	-4355
▁기억이	-4356
▁일부러	-4357
▁마시고	-4358
어디	-4359
법이	-4360
▁영업	-4361
▁비슷한	-4362
▁대화	-4363
▁마이크	-4364
나무	-4365
▁어딘	-4366
▁좀더	-4367
내려	-4368
▁개누리	-4369
떨어	-4370
▁헤이	-4371
선생	-4372
▁폭력	-4373
돈이	-4374
키는	-4375
프레	-4376
▁선발	-4377
▁너희들	-4378
였고	-4379
▁가짜	-4380
▁샀	-4381
ia	-4382
▁말이죠	-4383
▁문을	-4384
영태	-4385
▁안나오	-4386
남자	-4387
▁다리	-4388
▁잘하는	-4389
▁대형	-4390
▁이란	-4391
▁죽인	-4392
꺼다	-4393
▁소유	-4394
▁헤어	-4395
거리는	-4396
▁싼	-4397
▁한두	-4398
▁마누	-4399
▁그것을	-4400
요금	-4401
모르	-4402
▁식으로	-4403
▁위원	-4404
▁덤	-4405
11	-4406
추고	-4407
▁경상	-4408
▁하니까	-4409
▁제기	-4410
▁강제	-4411
▁힐러	-4412
기전에	-4413
▁주사	-4414
하다니	-4415
▁좋다고	-4416
▁보러	-4417
▁손석희	-4418
▁날이	-4419
▁길이	-4420
으신	-4421
▁예전에	-4422
일도	-4423
▁접근	-4424
▁죽이고	-4425
▁음반	-4426
▁기존	-4427
고도	-4428
▁적은	-4429
▁통화	-4430
▁몬	-4431
▁없죠	-4432
▁답이	-4433
▁앨범	-4434
한지	-4435
▁손흥	-4436
성과	-4437
집단	-4438
▁일제	-4439
▁누구나	-4440
▁나누	-4441
▁했다고	-4442
▁어이가	-4443
▁뭣	-4444
▁엉덩	-4445
ec	-4446
하지도	-4447
당에	-4448
▁보낸	-4449
▁많아서	-4450
▁각종	-4451
▁가을	-4452
▁삶을	-4453
▁여기는	-4454
▁줘요	-4455
▁정확히	-4456
자금	-4457
▁됨	-4458
말은	-4459
od	-4460
▁마르	-4461
▁다만	-4462
▁형태	-4463
▁500	-4464
▁허락	-4465
▁동시에	-4466
▁믿는	-4467
▁좌좀	-4468
산을	-4469
▁사퇴	-4470
▁핸드	-4471
▁가세요	-4472
방을	-4473
▁아이를	-4474
▁양반	-4475
▁개혁	-4476
치기	-4477
▁얼굴을	-4478
▁이것은	-4479
▁작년	-4480
▁위안부	-4481
▁청년	-4482
민족	-4483
명한	-4484
▁찾는	-4485
▁sbs	-4486
원으로	-4487
져요	-4488
▁도와주	-4489
검찰	-4490
▁쫓아	-4491
▁실제로	-4492
죄로	-4493
들이야	-4494
거요	-4495
▁놈은	-4496
▁산다	-4497
▁덕분에	-4498
정의	-4499
▁도깨비	-4500
▁특별한	-4501
▁버려	-4502
▁평범	-4503
누가	-4504
▁조지	-4505
▁큰일	-4506
▁둘러	-4507
▁혹은	-4508
▁열쇠	-4509
버스	-4510
통이	-4511
▁아니죠	-4512
▁대응	-4513
▁살아남	-4514
▁서민들	-4515
▁소중	-4516
ot	-4517
▁벗어나	-4518
▁목소	-4519
▁특징	-4520
농단	-4521
▁`	-4522
▁뭉	-4523
장도	-4524
버릴	-4525
인데요	-4526
▁자빠	-4527
▁윈	-4528
▁ᄇ	-4529
윤선	-4530
▁착한	-4531
▁지냈	-4532
이렇게	-4533
▁근거	-4534
해가	-4535
▁삼성은	-4536
▁이라	-4537
▁한번도	-4538
쓰레기	-4539
▁주면	-4540
는걸	-4541
어야지	-4542
전은	-4543
▁남겨	-4544
▁띄	-4545
▁소리야	-4546
▁스마트	-4547
▁내부	-4548
▁구멍	-4549
▁김태	-4550
▁떨어진	-4551
했냐	-4552
움을	-4553
▁요금	-4554
▁금융	-4555
st	-4556
저리	-4557
▁수출	-4558
▁말하면	-4559
▁변화	-4560
▁언론이	-4561
판에	-4562
▁홍보	-4563
▁인민	-4564
▁느낌이	-4565
할게요	-4566
▁무사	-4567
▁최저	-4568
▁휴대	-4569
▁수영	-4570
▁구단	-4571
▁주식	-4572
만도	-4573
그래서	-4574
▁거라	-4575
▁부상	-4576
▁여길	-4577
▁더럽	-4578
▁입을	-4579
▁주민	-4580
▁사랑을	-4581
개가	-4582
~!!	-4583
▁있도록	-4584
이미	-4585
▁괜찮을	-4586
▁놈들은	-4587
달라	-4588
▁방법을	-4589
▁봅니다	-4590
▁하나의	-4591
인과	-4592
▁심지어	-4593
민국을	-4594
▁건너	-4595
▁참석	-4596
▁안좋	-4597
▁경기도	-4598
가게	-4599
▁어릴	-4600
와는	-4601
▁미사	-4602
박이	-4603
속도로	-4604
▁엘리	-4605
대에서	-4606
▁연합	-4607
차로	-4608
▁도쿄	-4609
아직	-4610
거예요	-4611
없어요	-4612
▁비롯	-4613
하던데	-4614
자에게	-4615
시코	-4616
▁쫌	-4617
마자	-4618
▁D	-4619
그라	-4620
▁탈출	-4621
▁도입	-4622
율이	-4623
기간	-4624
▁그리스	-4625
관을	-4626
▁아쉬	-4627
▁최대	-4628
하더니	-4629
▁알렉	-4630
▁광주	-4631
▁낭비	-4632
▁신부	-4633
▁기득	-4634
▁하라고	-4635
사도	-4636
재가	-4637
▁끝난	-4638
나네	-4639
트남	-4640
▁나가서	-4641
제는	-4642
▁취업	-4643
▁데이트	-4644
▁마리	-4645
▁깡	-4646
▁오늘도	-4647
▁너무나	-4648
▁신의	-4649
학과	-4650
▁보고싶	-4651
▁영상	-4652
▁원칙	-4653
▁남을	-4654
▁통일	-4655
▁゚	-4656
▁있는게	-4657
▁탁	-4658
▁태양	-4659
드려	-4660
보험	-4661
세상	-4662
▁건지	-4663
▁있겠지	-4664
▁바쁘	-4665
르지	-4666
▁책임을	-4667
▁조종	-4668
ur	-4669
연구	-4670
이여	-4671
▁순시리	-4672
았지	-4673
▁오후	-4674
쳐먹	-4675
사이	-4676
▁멕	-4677
▁노조	-4678
▁외모	-4679
삼성	-4680
▁밑에	-4681
▁닭그네	-4682
▁어머	-4683
놈은	-4684
▁어쩌면	-4685
바라	-4686
▁애기	-4687
▁물고	-4688
▁대전	-4689
▁굿	-4690
선거	-4691
▁주로	-4692
▁남녀	-4693
서야	-4694
▁프레	-4695
▁jpg	-4696
**	-4697
책임	-4698
▁공공	-4699
하려면	-4700
▁들은	-4701
최고	-4702
▁적극	-4703
▁변경	-4704
▁자존	-4705
▁상식	-4706
차별	-4707
할것	-4708
...?	-4709
릅니다	-4710
산이	-4711
▁하차	-4712
▁쓰지	-4713
▁지금의	-4714
▁엎	-4715
거죠	-4716
연히	-4717
▁대기	-4718
▁소름	-4719
고등학교	-4720
▁한다면	-4721
▁꺼내	-4722
정도로	-4723
▁미쳐	-4724
▁무엇을	-4725
사진	-4726
비리	-4727
▁분들	-4728
▁요새	-4729
▁공포	-4730
▁검색	-4731
▁말라고	-4732
▁마이클	-4733
고생	-4734
▁기독교	-4735
하하	-4736
회의	-4737
▁불렀	-4738
제도	-4739
▁두려워	-4740
▁공간	-4741
▁위대한	-4742
에게도	-4743
▁자리에	-4744
▁아베	-4745
▁귀엽	-4746
▁없소	-4747
▁바라는	-4748
▁옷을	-4749
▁뼈	-4750
▁삽	-4751
▁좋았어	-4752
모두	-4753
▁날아	-4754
▁분석	-4755
▁세기	-4756
은행	-4757
▁문제다	-4758
▁두번	-4759
▁진정해	-4760
이예요	-4761
▁대충	-4762
▁동의	-4763
면서도	-4764
ag	-4765
민국이	-4766
▁철도역	-4767
▁테니	-4768
▁한편	-4769
▁잡을	-4770
▁않을까	-4771
▁오직	-4772
▁칭찬	-4773
▁같아서	-4774
만간	-4775
어는	-4776
동이	-4777
구는	-4778
서도	-4779
▁했고	-4780
▁삭	-4781
▁비디오	-4782
회에	-4783
▁배가	-4784
대도	-4785
▁보니까	-4786
▁오고	-4787
세로	-4788
▁복잡	-4789
아니냐	-4790
▁런닝맨	-4791
▁싶으면	-4792
나라의	-4793
▁대비	-4794
오늘	-4795
초등학교	-4796
▁자는	-4797
들이랑	-4798
▁줘야	-4799
소에서	-4800
▁강화	-4801
점은	-4802
▁언급	-4803
마저	-4804
▁소용	-4805
.2	-4806
▁기원	-4807
▁모든게	-4808
▁매년	-4809
▁뿐이다	-4810
▁오셨	-4811
▁다니는	-4812
▁생각도	-4813
▁라디오	-4814
▁소득	-4815
▁나만	-4816
특별	-4817
▁절반	-4818
▁옹호	-4819
▁몇년	-4820
▁애니	-4821
구려	-4822
▁한데	-4823
새끼들	-4824
다구	-4825
일로	-4826
▁을	-4827
▁검은	-4828
받았	-4829
.1	-4830
천원	-4831
보가	-4832
였습니다	-4833
었지만	-4834
자들의	-4835
개의	-4836
ᅳᅳᅳᅳ	-4837
▁기획	-4838
검사	-4839
▁되는거	-4840
리즈	-4841
하고는	-4842
▁일당	-4843
▁비가	-4844
부모	-4845
시티	-4846
▁알겠어	-4847
▁철저히	-4848
였죠	-4849
▁기념	-4850
▁몸을	-4851
▁도박	-4852
▁무죄	-4853
▁아무런	-4854
▁긴장	-4855
넘들	-4856
소득	-4857
▁아닐까	-4858
▁있었지	-4859
▁얼굴에	-4860
▁스파	-4861
으시	-4862
▁붙어	-4863
보도	-4864
▁멈춰	-4865
▁예정	-4866
▁넘어가	-4867
량이	-4868
▁미개한	-4869
▁추천	-4870
▁특검이	-4871
▁수천	-4872
두환	-4873
▁파악	-4874
▁결코	-4875
답게	-4876
▁말라	-4877
▁무릎	-4878
▁아이유	-4879
▁냈	-4880
op	-4881
▁점심	-4882
▁유통	-4883
▁중국의	-4884
▁국개	-4885
나지	-4886
▁치킨	-4887
▁멀쩡	-4888
▁다신	-4889
▁거냐	-4890
기면	-4891
▁경고	-4892
▁추진	-4893
▁못한다	-4894
해주는	-4895
주에	-4896
구로	-4897
▁코스	-4898
▁이완	-4899
들로	-4900
ir	-4901
▁방어	-4902
나라에서	-4903
▁잊지	-4904
▁지적	-4905
▁최악의	-4906
▁재수	-4907
집니다	-4908
저기	-4909
▁흰	-4910
▁같음	-4911
▁겉	-4912
구조	-4913
▁뜯어	-4914
도안	-4915
▁살펴	-4916
버린	-4917
이들이	-4918
▁ᄍᄍᄍ	-4919
▁하였다	-4920
그렇게	-4921
▁신경쓰	-4922
▁우려	-4923
해질	-4924
▁흠	-4925
▁N	-4926
▁그러다	-4927
여야	-4928
▁붕	-4929
▁모두들	-4930
자들을	-4931
내야	-4932
▁시간에	-4933
투표	-4934
▁쓰러	-4935
▁할지	-4936
▁키우	-4937
▁만세	-4938
im	-4939
▁꽉	-4940
구하고	-4941
▁위하여	-4942
▁댄	-4943
이번	-4944
계약	-4945
▁사실은	-4946
▁얘들아	-4947
▁그지	-4948
인생	-4949
▁고작	-4950
▁강요	-4951
▁조정	-4952
시간에	-4953
▁때도	-4954
ᅲᅲᅲ	-4955
▁복지	-4956
▁민간	-4957
▁몸이	-4958
▁기사가	-4959
▁연주	-4960
▁비해	-4961
▁잠시만	-4962
북한	-4963
고요	-4964
행을	-4965
▁영향을	-4966
국은	-4967
▁임금	-4968
▁빠른	-4969
시마	-4970
▁차별	-4971
▁어버	-4972
▁둔	-4973
▁감히	-4974
▁제정신	-4975
고가	-4976
엄마	-4977
▁오랫	-4978
점에서	-4979
▁이유를	-4980
▁캠	-4981
▁전문가	-4982
▁장기	-4983
▁얘기해	-4984
▁벗어	-4985
▁km	-4986
▁앉아서	-4987
100	-4988
▁명절	-4989
▁빕니다	-4990
▁진작	-4991
~^^	-4992
▁아이고	-4993
▁당신들	-4994
▁이러니	-4995
나간	-4996
웠다	-4997
▁갑질	-4998
주로	-4999
권이	-5000
▁시도	-5001
났어	-5002
아나	-5003
시를	-5004
▁객	-5005
▁캐릭터	-5006
▁펜	-5007
▁그린	-5008
▁신발	-5009
▁어쩔수	-5010
▁증거가	-5011
▁많네	-5012
참에	-5013
ve	-5014
장관	-5015
▁서비스	-5016
▁주인공	-5017
▁부러	-5018
하의	-5019
▁아이들	-5020
▁죽었어	-5021
▁내는	-5022
▁짐승	-5023
▁숲	-5024
▁들었어	-5025
▁상대로	-5026
▁벌금	-5027
당하고	-5028
▁한참	-5029
실을	-5030
한테도	-5031
▁좁	-5032
▁사냥	-5033
▁글로	-5034
▁인생을	-5035
애가	-5036
성도	-5037
▁세력	-5038
▁전자	-5039
▁연금	-5040
▁사상	-5041
▁아르	-5042
▁사실이	-5043
▁나면	-5044
▁혜택	-5045
스카	-5046
▁스위	-5047
▁밖으로	-5048
▁건축	-5049
▁정신이	-5050
▁올라가	-5051
미는	-5052
▁수업	-5053
면에	-5054
세대	-5055
▁곁	-5056
망신	-5057
▁얻어	-5058
▁모습이	-5059
▁보장	-5060
▁연극	-5061
▁이라고	-5062
▁기간	-5063
▁싫은	-5064
▁영광	-5065
▁꼬마	-5066
정에서	-5067
▁하라	-5068
것만	-5069
▁의식	-5070
▁플레이	-5071
▁그들	-5072
▁분위기	-5073
▁동원	-5074
▁염병	-5075
▁것에	-5076
▁이득	-5077
ay	-5078
▁예수	-5079
▁맞고	-5080
▁쭉	-5081
▁내놓	-5082
▁핑계	-5083
▁못하면	-5084
▁넥	-5085
반도	-5086
▁고쳐	-5087
까지도	-5088
남도	-5089
▁부역	-5090
하시길	-5091
▁규칙	-5092
▁자가	-5093
▁좃	-5094
▁겸	-5095
았습니다	-5096
▁부끄럽	-5097
▁들려	-5098
▁명의	-5099
▁못생	-5100
♥♥	-5101
▁굶	-5102
▁미군	-5103
▁모여	-5104
▁고영태	-5105
▁될까	-5106
▁온다	-5107
디언	-5108
▁정규	-5109
▁다섯	-5110
▁욕먹	-5111
▁돌아와	-5112
▁소식	-5113
▁하나가	-5114
▁잘라	-5115
ᄒᄒᄒ	-5116
▁이지	-5117
if	-5118
테니까	-5119
되는거	-5120
을수	-5121
▁닦	-5122
▁중국에	-5123
▁촌	-5124
▁!!!	-5125
▁그에게	-5126
▁아깝다	-5127
보게	-5128
▁손흥민	-5129
▁런던	-5130
▁뚱	-5131
▁발언	-5132
스토	-5133
것들은	-5134
▁힘들게	-5135
ut	-5136
광역시	-5137
소서	-5138
▁어깨	-5139
▁버리	-5140
▁돌아올	-5141
▁나름	-5142
▁매번	-5143
▁졸라	-5144
세월	-5145
금지	-5146
▁덩	-5147
살이	-5148
▁셈	-5149
▁던져	-5150
이유	-5151
▁국가가	-5152
▁좀비	-5153
용을	-5154
▁데려가	-5155
▁앙	-5156
▁목숨을	-5157
속에서	-5158
▁채널	-5159
▁함부로	-5160
▁빌려	-5161
▁올랐	-5162
▁얘기가	-5163
▁스테	-5164
▁마무리	-5165
▁스카	-5166
▁그런가	-5167
▁흥분	-5168
▁비상	-5169
거임	-5170
▁살아야	-5171
▁찔	-5172
▁제거	-5173
▁데려다	-5174
▁하나는	-5175
▁자고	-5176
▁멜	-5177
겼다	-5178
▁꿈을	-5179
▁LG	-5180
▁매달	-5181
장난	-5182
▁프랭크	-5183
▁계세요	-5184
▁왠지	-5185
▁핸드폰	-5186
▁떠날	-5187
▁공장	-5188
▁21	-5189
▁논란	-5190
▁나야	-5191
na	-5192
▁위험한	-5193
리어	-5194
▁들어갈	-5195
▁속이	-5196
할거야	-5197
▁고문	-5198
▁걸린	-5199
형이	-5200
▁잼	-5201
▁트럭	-5202
▁대다	-5203
▁틀림	-5204
▁퇴진	-5205
▁도전	-5206
▁군인	-5207
▁땡	-5208
▁구해	-5209
▁욕심	-5210
▁하느	-5211
올라	-5212
▁그쪽	-5213
▁된다는	-5214
수하고	-5215
▁모르지	-5216
▁현금	-5217
▁거절	-5218
▁조만간	-5219
▁돈만	-5220
것처럼	-5221
ᄋᄋ	-5222
og	-5223
▁켜	-5224
▁생일	-5225
ᆢᆢ	-5226
▁그랬어	-5227
였음	-5228
▁이와	-5229
▁B	-5230
▁관심이	-5231
▁이유로	-5232
▁도덕	-5233
슬림	-5234
소는	-5235
폭탄	-5236
보여	-5237
▁횡	-5238
▁베트남	-5239
▁그곳	-5240
▁전화를	-5241
▁fc	-5242
▁의한	-5243
시로	-5244
네가	-5245
경을	-5246
해봐라	-5247
하에	-5248
▁뒤에서	-5249
불어	-5250
▁되나	-5251
▁걸려	-5252
▁몰려	-5253
▁답이다	-5254
기와	-5255
▁맞추	-5256
▁그려	-5257
때가	-5258
▁시행	-5259
▁배고	-5260
▁이웃	-5261
서관	-5262
▁흥미	-5263
사람들은	-5264
▁씻	-5265
▁요즘은	-5266
무시	-5267
전쟁	-5268
순간	-5269
▁논리	-5270
▁해줘	-5271
▁회복	-5272
러가	-5273
▁시설	-5274
▁난다	-5275
▁잃어버	-5276
▁교환	-5277
▁출근	-5278
▁썩어	-5279
리는데	-5280
▁놈을	-5281
혀서	-5282
왔어요	-5283
▁태워	-5284
어울	-5285
▁에라이	-5286
▁시체	-5287
▁침몰	-5288
▁쓰면	-5289
▁인간은	-5290
▁px	-5291
실래요	-5292
인에	-5293
경이	-5294
것같다	-5295
여러	-5296
거운	-5297
▁ᄍ	-5298
페이지	-5299
▁아는데	-5300
▁뚫	-5301
국회	-5302
옵니다	-5303
▁최선을	-5304
▁누구도	-5305
▁끝이	-5306
▁것과	-5307
▁나오고	-5308
▁마요	-5309
▁펼	-5310
▁믿지	-5311
▁집이	-5312
▁심각한	-5313
위한	-5314
▁빼앗	-5315
▁구분	-5316
▁둬	-5317
▁안됐	-5318
▁[	-5319
의식	-5320
처리	-5321
▁싶어서	-5322
뉴스	-5323
▁셀	-5324
했으니	-5325
기들	-5326
▁책을	-5327
::	-5328
▁빠진	-5329
▁나오지	-5330
종의	-5331
▁간첩	-5332
구의	-5333
되나	-5334
▁조윤선	-5335
!"	-5336
▁무식한	-5337
▁매국노	-5338
인트	-5339
▁오세요	-5340
남아	-5341
노조	-5342
▁내내	-5343
▁엮	-5344
▁대통	-5345
▁성폭행	-5346
▁일자리	-5347
▁배운	-5348
▁배치	-5349
마리	-5350
먹어	-5351
▁파업	-5352
▁이만	-5353
▁삥	-5354
▁평소	-5355
▁임기	-5356
전기	-5357
▁진보	-5358
쳤다	-5359
▁고양이	-5360
당신	-5361
▁근본	-5362
재산	-5363
▁입학	-5364
▁후손	-5365
▁아니오	-5366
결과	-5367
▁덴마크	-5368
약을	-5369
▁일본에	-5370
▁유명한	-5371
징역	-5372
비에	-5373
▁ᄂ	-5374
연예	-5375
아파	-5376
▁작전	-5377
우지	-5378
십시요	-5379
▁싸게	-5380
역사	-5381
▁개그	-5382
는다고	-5383
다는걸	-5384
▁도와줄	-5385
피언	-5386
▁되게	-5387
로가	-5388
▁덥	-5389
▁피터	-5390
▁의료	-5391
▁주머니	-5392
▁제한	-5393
▁갑시다	-5394
▁숨어	-5395
▁뭐요	-5396
님께	-5397
▁너가	-5398
▁놀랍	-5399
▁정부의	-5400
사태	-5401
▁한거	-5402
▁남편이	-5403
▁방문	-5404
행위	-5405
▁섭	-5406
▁만한	-5407
▁식사	-5408
▁개나	-5409
▁알잖아	-5410
▁굉장히	-5411
▁말만	-5412
▁에너	-5413
영이	-5414
다운	-5415
드려요	-5416
▁되죠	-5417
▁아우	-5418
▁내놔	-5419
▁목록	-5420
수있는	-5421
▁종류	-5422
▁나간	-5423
▁일어난	-5424
였으면	-5425
웠어요	-5426
사기	-5427
▁차에	-5428
▁쏟아	-5429
▁들어갔	-5430
▁잘됐	-5431
▁안에서	-5432
직원	-5433
▁싱글	-5434
▁공감	-5435
고를	-5436
▁빨간	-5437
불매	-5438
▁아픈	-5439
▁옮겨	-5440
로지	-5441
▁서서	-5442
▁확실한	-5443
▁인식	-5444
▁문학	-5445
▁노답	-5446
으니까요	-5447
▁내버려	-5448
갑니다	-5449
중이	-5450
▁상황을	-5451
▁세이	-5452
▁명복을	-5453
잖니	-5454
▁친절	-5455
대통령이	-5456
이라구	-5457
40	-5458
▁남성	-5459
▁ᅮ	-5460
하든	-5461
되어야	-5462
▁떳	-5463
주시	-5464
▁황교안	-5465
▁받지	-5466
▁마셔	-5467
겠음	-5468
▁곰	-5469
분의	-5470
12	-5471
▁안들	-5472
▁숨겨	-5473
▁뿌리	-5474
이거	-5475
▁한전	-5476
수에	-5477
오지	-5478
혔다	-5479
▁조센	-5480
▁안하는	-5481
▁이틀	-5482
▁강호	-5483
▁똘	-5484
치로	-5485
현이	-5486
▁너랑	-5487
▁공정	-5488
▁밝히	-5489
공무원	-5490
▁주연	-5491
나라를	-5492
▁새끼들	-5493
우찬	-5494
▁멕시코	-5495
대회	-5496
단에	-5497
▁변명	-5498
▁인공	-5499
▁차이	-5500
▁잘살	-5501
▁달라고	-5502
▁편하게	-5503
하루	-5504
이었지	-5505
▁괴물	-5506
용으로	-5507
건가요	-5508
내지	-5509
ul	-5510
▁귀찮	-5511
메달	-5512
▁정도는	-5513
▁냄새가	-5514
▁1.	-5515
▁기자가	-5516
매매	-5517
▁재능	-5518
니는	-5519
바이	-5520
▁끝날	-5521
았으면	-5522
자료	-5523
동을	-5524
▁언어	-5525
▁즉시	-5526
▁날려	-5527
▁편의	-5528
▁백인	-5529
▁예를	-5530
▁곳에서	-5531
▁이겨	-5532
하시오	-5533
▁저를	-5534
다리	-5535
▁뭐하냐	-5536
▁삐	-5537
바른	-5538
▁없냐	-5539
그게	-5540
▁얘긴	-5541
▁나이가	-5542
▁머리에	-5543
없는데	-5544
애들이	-5545
▁전략	-5546
▁정치적	-5547
방이	-5548
▁광우	-5549
▁신사	-5550
▁대놓고	-5551
간의	-5552
▁특수	-5553
▁래	-5554
▁이준	-5555
스턴	-5556
▁먹으면	-5557
▁물리	-5558
잖소	-5559
▁ch	-5560
▁놀고	-5561
▁이중	-5562
되냐	-5563
하겠네	-5564
▁멈추	-5565
▁모조리	-5566
▁피해자	-5567
▁대리	-5568
▁말자	-5569
▁부활	-5570
▁영입	-5571
▁의미가	-5572
▁지어	-5573
있다고	-5574
▁해고	-5575
▁다름	-5576
케이	-5577
▁경력	-5578
▁될까요	-5579
형을	-5580
▁행사	-5581
▁파리	-5582
민주주의	-5583
했잖아	-5584
겟다	-5585
▁벼	-5586
▁같지	-5587
▁맥주	-5588
▁갈수록	-5589
부지	-5590
▁털어	-5591
물에	-5592
▁모아	-5593
▁올리고	-5594
▁기득권	-5595
▁좋게	-5596
▁맹세	-5597
▁또라이	-5598
▁출시	-5599
▁전기세	-5600
보를	-5601
▁헨	-5602
격을	-5603
▁때마다	-5604
▁이론	-5605
▁감옥에	-5606
▁경상도	-5607
>>>>	-5608
스테	-5609
▁낫다	-5610
▁불리	-5611
▁부를	-5612
▁물가	-5613
▁분야	-5614
▁편집	-5615
▁징역	-5616
이리	-5617
▁쇠	-5618
시작	-5619
모든	-5620
▁그치	-5621
▁살아라	-5622
▁가까운	-5623
▁하던데	-5624
▁소재	-5625
▁미국에	-5626
▁간호	-5627
▁ᄋᄋ	-5628
▁한가	-5629
▁역사를	-5630
▁낯	-5631
▁전두환	-5632
입고	-5633
▁일이다	-5634
하나요	-5635
▁대처	-5636
▁권한	-5637
정부패	-5638
▁기뻐	-5639
해줘	-5640
▁서류	-5641
▁흙	-5642
▁떨어지	-5643
는구나	-5644
나보네	-5645
▁핵심	-5646
리케	-5647
▁쉬운	-5648
▁보낼	-5649
▁포켓	-5650
종일	-5651
▁면허	-5652
▁다양한	-5653
▁불행	-5654
▁마사	-5655
▁작곡	-5656
비로	-5657
▁스케	-5658
아무	-5659
▁사실상	-5660
▁대령	-5661
▁잊어버	-5662
▁개선	-5663
값을	-5664
북도	-5665
ap	-5666
▁비공	-5667
상으로	-5668
렸는데	-5669
▁대가리	-5670
▁몸에	-5671
▁공급	-5672
▁자리를	-5673
▁오리	-5674
▁갤럭	-5675
아니다	-5676
▁휴대폰	-5677
▁진짜로	-5678
드만	-5679
로스	-5680
의연	-5681
▁친구들	-5682
문학	-5683
자체가	-5684
▁바이	-5685
▁미래를	-5686
라니까	-5687
을까요	-5688
▁참으로	-5689
력으로	-5690
단계	-5691
▁운운	-5692
▁구매	-5693
▁먹은	-5694
▁관심을	-5695
바람	-5696
▁말해봐	-5697
▁그에	-5698
▁그러게	-5699
oc	-5700
봤어	-5701
▁생존	-5702
사님	-5703
▁메이저	-5704
▁뭐니	-5705
▁기다릴	-5706
고는	-5707
▁수밖에	-5708
▁일주일	-5709
▁받았다	-5710
▁거고	-5711
없지	-5712
▁나은	-5713
걸요	-5714
▁존중	-5715
적이다	-5716
일듯	-5717
▁세금을	-5718
▁윌리	-5719
▁게이	-5720
60	-5721
없으면	-5722
공화국	-5723
하는구나	-5724
용은	-5725
화는	-5726
▁아름답	-5727
▁선배	-5728
▁무능한	-5729
▁사이비	-5730
▁몇몇	-5731
일보	-5732
▁고집	-5733
▁중단	-5734
다는건	-5735
▁생겨	-5736
▁이종	-5737
▁계신	-5738
▁불가	-5739
▁있었고	-5740
서에	-5741
▁최대한	-5742
▁질투	-5743
▁들을	-5744
왔는데	-5745
▁어땠	-5746
▁이정	-5747
▁신이	-5748
▁늦게	-5749
▁증언	-5750
▁씌	-5751
하였고	-5752
▁소송	-5753
▁감독이	-5754
▁통제	-5755
겠구만	-5756
▁힘들다	-5757
망이	-5758
▁있었죠	-5759
▁섹스	-5760
▁쪽바리	-5761
70	-5762
물고	-5763
▁시키는	-5764
나봐	-5765
어떻	-5766
em	-5767
동네	-5768
▁추적	-5769
▁낚	-5770
▁각각	-5771
▁슬프	-5772
격이	-5773
모를	-5774
▁일로	-5775
▁멘	-5776
렸을	-5777
▁and	-5778
▁공중	-5779
가자	-5780
는건데	-5781
▁하려	-5782
는건가	-5783
▁몰래	-5784
▁캐나다	-5785
▁조합	-5786
▁고등	-5787
▁수행	-5788
했으며	-5789
----	-5790
▁섞	-5791
▁가입	-5792
▁했는지	-5793
▁흑인	-5794
세기	-5795
▁어지	-5796
년들	-5797
▁느꼈	-5798
▁추방	-5799
▁테니까	-5800
▁여왕	-5801
▁나가는	-5802
구단	-5803
우가	-5804
▁인종	-5805
▁최태	-5806
▁주문	-5807
▁형님	-5808
있습니다	-5809
관련	-5810
▁것이고	-5811
구역	-5812
▁핀	-5813
▁무슬림	-5814
웠어	-5815
▁지휘	-5816
▁아빠는	-5817
팔이	-5818
▁땀	-5819
▁제이	-5820
▁아웃	-5821
▁이참에	-5822
▁뒤집어	-5823
▁회의	-5824
▁박통	-5825
▁정보를	-5826
▁갇	-5827
▁가도	-5828
▁전라	-5829
라라	-5830
야마	-5831
▁누나	-5832
▁사진을	-5833
▁바꿀	-5834
▁수치	-5835
▁호선	-5836
▁빨갱	-5837
사에서	-5838
▁같네	-5839
▁전달	-5840
▁흘러	-5841
▁붙여	-5842
리니	-5843
▁평등	-5844
▁u	-5845
다니는	-5846
▁단속	-5847
▁겁니까	-5848
되게	-5849
▁당당	-5850
▁리더	-5851
줬으면	-5852
▁시급	-5853
▁끈	-5854
▁글을	-5855
▁고양	-5856
리는게	-5857
▁귀족	-5858
▁죽이는	-5859
겠고	-5860
▁연속	-5861
▁죽였	-5862
하구나	-5863
▁등에	-5864
들이지	-5865
▁하다가	-5866
▁뽑은	-5867
19	-5868
▁둘째	-5869
▁태풍	-5870
▁일어날	-5871
임금	-5872
한가	-5873
▁웃음	-5874
버트	-5875
▁학급	-5876
15	-5877
▁안됨	-5878
겠는가	-5879
하는거지	-5880
▁몇번	-5881
▁미국인	-5882
혼자	-5883
art	-5884
▁어젯	-5885
전자	-5886
▁불매	-5887
구라	-5888
▁뜬	-5889
벌레	-5890
없다고	-5891
▁파트	-5892
상식	-5893
돈을	-5894
▁발악	-5895
▁싶은데	-5896
▁증가	-5897
하는거야	-5898
알고	-5899
▁징징	-5900
임스	-5901
▁무덤	-5902
▁언젠가	-5903
이었던	-5904
▁하나만	-5905
센트	-5906
▁못된	-5907
▁보일	-5908
사한	-5909
이구나	-5910
▁O	-5911
▁시켰	-5912
▁박원	-5913
소로	-5914
▁특검은	-5915
▁명심	-5916
▁직무	-5917
▁표정	-5918
▁합리	-5919
▁선수가	-5920
▁일자	-5921
▁사서	-5922
실에서	-5923
ᅠᅠᅠᅠ	-5924
▁안녕히	-5925
아니면	-5926
▁주제에	-5927
디가	-5928
▁벌레	-5929
▁형편	-5930
▁따르면	-5931
▁전원	-5932
▁밖에서	-5933
▁모든걸	-5934
경영	-5935
점에	-5936
▁조각	-5937
▁봅시다	-5938
▁주목	-5939
▁회장	-5940
▁않지만	-5941
더러	-5942
베르	-5943
품을	-5944
▁정도면	-5945
▁찾았	-5946
▁캘	-5947
사냥	-5948
▁눌	-5949
이었죠	-5950
쯧쯧	-5951
이름	-5952
개혁	-5953
▁강간	-5954
▁잘한다	-5955
▁최종	-5956
▁토요일	-5957
ow	-5958
▁순위	-5959
▁메리	-5960
▁안하면	-5961
▁여태	-5962
▁투입	-5963
▁다음과	-5964
▁먹여	-5965
된다고	-5966
보호	-5967
서로	-5968
▁is	-5969
80	-5970
▁커플	-5971
▁챔피언	-5972
▁도와줘	-5973
▁가치가	-5974
▁해리	-5975
▁데이터	-5976
▁짖	-5977
눈물	-5978
▁할게	-5979
▁끝났어	-5980
▁자기들	-5981
▁시킨	-5982
▁후진국	-5983
▁기회가	-5984
▁다녔	-5985
서민	-5986
▁가족이	-5987
▁편지	-5988
▁영감	-5989
ct	-5990
▁다음은	-5991
▁홍콩	-5992
▁좋겠어	-5993
카드	-5994
▁마땅	-5995
▁기업이	-5996
스티	-5997
▁는	-5998
▁하는짓	-5999
천만	-6000
▁버릴	-6001
▁노래를	-6002
시나	-6003
▁오바마	-6004
▁상징	-6005
져도	-6006
▁어마	-6007
계의	-6008
사와	-6009
▁그와	-6010
▁등록	-6011
▁몫	-6012
▁받게	-6013
▁김정	-6014
▁이성	-6015
▁안되고	-6016
▁자극	-6017
싫다	-6018
▁재미있	-6019
타기	-6020
▁바른	-6021
▁시골	-6022
▁애는	-6023
하오	-6024
▁정직	-6025
▁넘겨	-6026
▁주의	-6027
▁개한	-6028
▁의문	-6029
▁알겠지	-6030
▁확률	-6031
▁선수들	-6032
BS	-6033
▁연장	-6034
▁말에	-6035
▁어젯밤	-6036
▁키워	-6037
▁돌아갈	-6038
▁어딨어	-6039
▁일하고	-6040
셨죠	-6041
타령	-6042
▁능력이	-6043
▁잘했어	-6044
조를	-6045
▁가방	-6046
▁들어요	-6047
웨이	-6048
▁E	-6049
실이	-6050
▁맨유	-6051
▁경제가	-6052
▁하네요	-6053
▁맺	-6054
없어서	-6055
▁국정원	-6056
▁오버	-6057
▁와요	-6058
준다고	-6059
▁부하	-6060
▁총알	-6061
피아	-6062
ᆞᆞ	-6063
르미	-6064
▁구입	-6065
▁새해	-6066
▁고위	-6067
▁어쩌고	-6068
철수	-6069
▁배경	-6070
▁식민	-6071
봤다	-6072
▁하지말	-6073
▁맙시다	-6074
▁고정	-6075
▁안먹	-6076
하기로	-6077
법은	-6078
▁오해	-6079
좌파	-6080
▁이놈	-6081
▁연출	-6082
주의를	-6083
▁꼬라지	-6084
▁포르	-6085
볼까	-6086
서요	-6087
서울	-6088
▁부인이	-6089
나온다	-6090
출신	-6091
▁망가	-6092
▁때부터	-6093
▁제도	-6094
린다고	-6095
▁위에서	-6096
▁깨달	-6097
▁국가를	-6098
▁마침	-6099
만들어	-6100
▁이리와	-6101
가의	-6102
▁임명	-6103
구멍	-6104
▁지속	-6105
자야	-6106
녀가	-6107
연봉	-6108
▁고기	-6109
▁댁	-6110
▁신청	-6111
▁딸이	-6112
▁있니	-6113
하라는	-6114
▁주도	-6115
▁문제지	-6116
▁박수	-6117
▁??	-6118
▁문죄	-6119
▁분리	-6120
▁토론	-6121
▁대부	-6122
▁안쓰	-6123
▁말한다	-6124
능력	-6125
인민	-6126
후보	-6127
out	-6128
와도	-6129
▁깜짝	-6130
계에	-6131
▁곱	-6132
▁수익	-6133
▁강력한	-6134
▁그걸로	-6135
▁소련	-6136
술을	-6137
싸움	-6138
▁남았	-6139
▁국가의	-6140
▁배터리	-6141
▁차우찬	-6142
식의	-6143
▁지껄	-6144
▁동영상	-6145
었냐	-6146
▁입은	-6147
▁어둠	-6148
날이	-6149
지네	-6150
▁뭐하러	-6151
노동	-6152
쳤어	-6153
해놓고	-6154
국민들	-6155
시설	-6156
▁열받	-6157
▁테블릿	-6158
▁각자	-6159
▁달아	-6160
▁것만	-6161
▁천만	-6162
▁욕을	-6163
▁다루	-6164
▁자영	-6165
▁개뿔	-6166
미터	-6167
▁이후로	-6168
고로	-6169
▁남자를	-6170
▁자라	-6171
▁넣고	-6172
▁허위	-6173
▁박영	-6174
▁바르	-6175
▁물을	-6176
▁어버이	-6177
▁역할을	-6178
했다면	-6179
▁물려	-6180
▁살게	-6181
수수	-6182
▁지급	-6183
거짓	-6184
증이	-6185
▁상승	-6186
집에서	-6187
▁않냐	-6188
▁문제야	-6189
▁광희	-6190
하구	-6191
으로도	-6192
▁코치	-6193
결혼	-6194
▁어두	-6195
부르	-6196
대지	-6197
▁소문	-6198
▁되냐	-6199
충들	-6200
▁잠수함	-6201
▁가려	-6202
▁끌어내	-6203
▁하겠지	-6204
▁압박	-6205
▁주시	-6206
▁쇼핑	-6207
교체	-6208
▁아세요	-6209
중학교	-6210
▁이대로	-6211
▁하나로	-6212
맞고	-6213
▁출전	-6214
는것	-6215
▁찍은	-6216
▁충청	-6217
었잖아	-6218
▁될거야	-6219
▁훔쳐	-6220
▁목적	-6221
대기	-6222
▁챙기	-6223
▁발사	-6224
▁느그	-6225
어떻게	-6226
▁섹시	-6227
▁깊은	-6228
▁방에	-6229
▁법률	-6230
관은	-6231
았던	-6232
▁더불어	-6233
의로	-6234
▁박사님	-6235
▁뱀	-6236
▁태어난	-6237
보면서	-6238
▁줄게	-6239
▁제조	-6240
로를	-6241
고에	-6242
경유	-6243
스와	-6244
▁최형	-6245
▁외계	-6246
주인	-6247
▁국산	-6248
▁사건을	-6249
▁느낀	-6250
▁명이	-6251
▁없네요	-6252
▁뚜	-6253
▁이영	-6254
거래	-6255
반에	-6256
❌❌	-6257
▁천재	-6258
▁특혜	-6259
▁펑	-6260
▁알면	-6261
▁예산	-6262
우드	-6263
▁포켓몬	-6264
노트	-6265
▁운이	-6266
과학	-6267
▁안좋은	-6268
▁앵	-6269
▁잔인	-6270
▁배를	-6271
우리나라	-6272
▁틀딱	-6273
▁혁명	-6274
자리에	-6275
▁못해요	-6276
▁욕하는	-6277
▁이시	-6278
▁결혼을	-6279
되기	-6280
ht	-6281
▁구치	-6282
▁통합	-6283
긴다	-6284
타는	-6285
▁내보내	-6286
▁냅	-6287
▁롤	-6288
가로	-6289
▁마인	-6290
▁정은	-6291
▁푹	-6292
발이	-6293
▁붉	-6294
실로	-6295
▁말인가	-6296
못해	-6297
▁마실	-6298
▁이휘	-6299
▁평범한	-6300
요즘	-6301
▁갱	-6302
▁이상의	-6303
▁마법	-6304
▁주택	-6305
▁출산	-6306
▁임대	-6307
▁현기	-6308
▁웃기는	-6309
▁그딴	-6310
▁철수	-6311
▁김영란	-6312
▁th	-6313
▁걸리	-6314
▁차이가	-6315
▁메시	-6316
▁상당히	-6317
▁피를	-6318
▁저쪽	-6319
▁도움을	-6320
▁써야	-6321
▁끝나고	-6322
당의	-6323
▁우유	-6324
▁대포	-6325
▁입에	-6326
▁고급	-6327
▁가질	-6328
ᄍᄍᄍ	-6329
▁한가지	-6330
장애	-6331
합니까	-6332
▁라면	-6333
는건지	-6334
▁수용	-6335
▁내년에	-6336
거는	-6337
▁당하고	-6338
선은	-6339
▁생각할	-6340
주기	-6341
▁메달	-6342
▁쫄	-6343
▁놀랐	-6344
▁가졌	-6345
처벌	-6346
▁사면	-6347
세는	-6348
▁행복한	-6349
가리	-6350
▁우울	-6351
양반	-6352
료를	-6353
▁즐기	-6354
▁잤	-6355
▁배달	-6356
▁안사	-6357
▁완성	-6358
테고	-6359
▁수록	-6360
준비	-6361
해봐야	-6362
▁서인	-6363
▁아끼	-6364
▁좋아해	-6365
언제	-6366
▁합병	-6367
▁듀	-6368
계는	-6369
마음	-6370
▁건드	-6371
▁킬	-6372
어마	-6373
▁끝나면	-6374
전문	-6375
▁가져와	-6376
▁사건이	-6377
▁맛이	-6378
억이	-6379
▁이르	-6380
▁발매	-6381
고싶	-6382
▁병원에	-6383
▁안타까	-6384
▁실시	-6385
▁곳으로	-6386
▁이라는	-6387
구석	-6388
▁워낙	-6389
▁행동을	-6390
구에	-6391
▁스페인	-6392
▁걱정마	-6393
16	-6394
▁유감	-6395
▁유행	-6396
▁아닌지	-6397
▁뭐든지	-6398
▁방법은	-6399
▁철저	-6400
것다	-6401
▁예뻐	-6402
▁부부	-6403
든다	-6404
▁근로	-6405
▁들어봐	-6406
▁단어	-6407
▁하는건	-6408
▁정답	-6409
▁알죠	-6410
ww	-6411
▁초딩	-6412
▁했나	-6413
나온	-6414
▁쓰레	-6415
▁잘난	-6416
▁번호	-6417
▁턱	-6418
등등	-6419
▁지은	-6420
▁극혐	-6421
리와	-6422
▁잉글	-6423
be	-6424
앞에서	-6425
▁무고	-6426
▁2.	-6427
▁차기	-6428
조원	-6429
▁낮은	-6430
▁경찰은	-6431
▁기어	-6432
연이	-6433
▁됐지	-6434
지니	-6435
▁왜곡	-6436
플레이	-6437
▁곳을	-6438
라시	-6439
회장	-6440
▁떳떳	-6441
▁안되지	-6442
▁시리즈	-6443
▁경비	-6444
▁계시	-6445
▁가져가	-6446
지에서	-6447
▁미용	-6448
▁만화	-6449
▁작성	-6450
▁아무튼	-6451
▁승강	-6452
▁생길	-6453
▁스크	-6454
신의	-6455
▁완벽한	-6456
▁동일	-6457
▁고발	-6458
산다	-6459
주의자	-6460
권은	-6461
임이	-6462
사들	-6463
▁민중	-6464
▁얘기는	-6465
▁좋아서	-6466
▁설득	-6467
▁전설	-6468
▁놀러	-6469
▁그거야	-6470
좋다	-6471
▁낫지	-6472
▁들어간	-6473
▁움직여	-6474
▁나빠	-6475
봅니다	-6476
▁신분	-6477
▁일요일	-6478
▁사생활	-6479
▁심장	-6480
▁내야	-6481
▁가스	-6482
▁남한	-6483
▁기초	-6484
위의	-6485
;;;;	-6486
▁납치	-6487
▁뽀	-6488
▁진지	-6489
▁노벨	-6490
▁안할	-6491
았고	-6492
▁첫번째	-6493
▁이뤄	-6494
여기	-6495
▁방면	-6496
▁파는	-6497
아프	-6498
통수	-6499
누구	-6500
▁그러는	-6501
선의	-6502
▁경우가	-6503
▁같으니	-6504
▁혼자서	-6505
▁합법	-6506
▁버렸	-6507
대신	-6508
씨의	-6509
▁가슴이	-6510
▁눈빛	-6511
▁군대가	-6512
▁이스	-6513
▁시기	-6514
제의	-6515
▁기쁘	-6516
▁무대	-6517
▁햄	-6518
▁춥	-6519
▁만나고	-6520
▁연방	-6521
▁세대	-6522
▁얘는	-6523
▁막을	-6524
변호	-6525
▁관련된	-6526
권력	-6527
▁무척	-6528
▁암살	-6529
▁즐겁	-6530
▁죽게	-6531
▁것인가	-6532
▁<	-6533
▁설현	-6534
에게서	-6535
▁애비	-6536
트리	-6537
▁왜냐면	-6538
번호	-6539
내면	-6540
▁통치	-6541
같아	-6542
▁틀어	-6543
▁웹	-6544
▁곳은	-6545
▁꾸준	-6546
▁떠오	-6547
▁늘어나	-6548
▁왼쪽	-6549
가다	-6550
인게	-6551
었다는	-6552
신도	-6553
▁자네는	-6554
▁금액	-6555
▁배려	-6556
들지	-6557
▁이하	-6558
워드	-6559
곳이	-6560
▁내려오	-6561
▁작동	-6562
▁추락	-6563
▁김진	-6564
▁조카	-6565
▁미래가	-6566
▁많아요	-6567
▁저걸	-6568
▁떠났	-6569
▁해군	-6570
▁되어야	-6571
▁녹음	-6572
한거지	-6573
▁잘못이	-6574
패스	-6575
정도면	-6576
트에	-6577
▁넘게	-6578
조심	-6579
▁싸이	-6580
규모	-6581
미를	-6582
▁무섭다	-6583
차이	-6584
▁이들은	-6585
▁해봐라	-6586
졌는데	-6587
당을	-6588
년의	-6589
▁우습게	-6590
▁집행	-6591
애들은	-6592
▁그놈	-6593
▁전형	-6594
쓴다	-6595
▁개입	-6596
▁타령	-6597
▁곤란	-6598
▁생애	-6599
판을	-6600
한거야	-6601
▁남자들	-6602
▁유니	-6603
▁만일	-6604
우승	-6605
씨를	-6606
▁대장	-6607
▁제출	-6608
치도	-6609
▁이겼	-6610
▁지상	-6611
통을	-6612
▁들어서	-6613
▁하하	-6614
▁하여간	-6615
보니까	-6616
▁사회적	-6617
해지고	-6618
국에서	-6619
▁운행	-6620
▁딜	-6621
직자	-6622
▁미술	-6623
▁톰	-6624
▁위반	-6625
▁짜고	-6626
▁오스트	-6627
사무	-6628
▁끌려	-6629
▁어디가	-6630
▁지식	-6631
것입니다	-6632
▁시키고	-6633
아들	-6634
▁되잖아	-6635
▁일어났	-6636
▁고맙다	-6637
▁비호	-6638
▁시내	-6639
▁서양	-6640
▁시간은	-6641
▁질질	-6642
▁결과가	-6643
▁같고	-6644
▁이적	-6645
▁받으면	-6646
▁중국인	-6647
시험	-6648
▁김재	-6649
▁사장님	-6650
▁짓이야	-6651
▁역사에	-6652
▁퇴출	-6653
▁쪽으로	-6654
▁정신을	-6655
▁그러죠	-6656
▁이걸로	-6657
▁하겠다	-6658
랑이	-6659
▁마누라	-6660
러스	-6661
년아	-6662
▁X	-6663
방에서	-6664
인걸	-6665
▁제작진	-6666
노총	-6667
데도	-6668
▁하더니	-6669
▁이자	-6670
▁갤럭시	-6671
세월호	-6672
성으로	-6673
▁높아	-6674
▁맡겨	-6675
▁중독	-6676
도전	-6677
▁아오	-6678
▁꼰	-6679
이었고	-6680
하지말	-6681
▁--	-6682
▁피해를	-6683
▁레알	-6684
▁시나	-6685
죄를	-6686
로써	-6687
▁에릭	-6688
정도는	-6689
적도	-6690
▁어쩐	-6691
▁갑니다	-6692
빨갱이	-6693
▁길거리	-6694
국민을	-6695
▁안맞	-6696
▁영화를	-6697
▁자격이	-6698
▁막아	-6699
었는지	-6700
물은	-6701
차에	-6702
▁상품	-6703
국으로	-6704
할텐데	-6705
회를	-6706
▁현상	-6707
▁기사는	-6708
▁우리집	-6709
▁걸고	-6710
▁맑	-6711
▁든다	-6712
▁쉐	-6713
▁자랑스	-6714
ter	-6715
▁공범	-6716
질러	-6717
이라며	-6718
선에	-6719
얘기	-6720
인건	-6721
▁됬	-6722
▁틈	-6723
살아	-6724
▁자금	-6725
빼고	-6726
신들	-6727
이익	-6728
▁없게	-6729
▁긍	-6730
▁이러다	-6731
▁년부터	-6732
리포	-6733
▁허용	-6734
라구요	-6735
▁죠	-6736
▁드는	-6737
▁싫으면	-6738
역을	-6739
하자면	-6740
▁무료	-6741
▁삶의	-6742
▁있다가	-6743
▁가리	-6744
▁골프	-6745
분들이	-6746
▁구글	-6747
▁출입	-6748
▁지금이	-6749
▁배웠	-6750
▁고장	-6751
▁유대	-6752
속으로	-6753
▁권력을	-6754
▁휴가	-6755
▁터키	-6756
▁소프트	-6757
▁이쯤	-6758
▁잘못을	-6759
▁블루	-6760
▁술을	-6761
▁기운	-6762
★★	-6763
리아의	-6764
▁목을	-6765
하늘	-6766
▁땜에	-6767
▁신용	-6768
▁지겹다	-6769
▁찬양	-6770
▁촉	-6771
▁통해서	-6772
▁만들지	-6773
▁델	-6774
ews	-6775
▁너와	-6776
이후	-6777
▁파트너	-6778
▁아내가	-6779
▁신호	-6780
▁없어도	-6781
지도않	-6782
▁코미	-6783
량을	-6784
▁이때	-6785
▁포장	-6786
갔어	-6787
▁할거야	-6788
▁150	-6789
▁않음	-6790
▁거주	-6791
and	-6792
족을	-6793
되었고	-6794
▁것들은	-6795
효과	-6796
▁말해주	-6797
말도	-6798
▁아직은	-6799
바다	-6800
▁나라도	-6801
▁둥	-6802
소리를	-6803
가며	-6804
▁충성	-6805
▁결혼식	-6806
시청	-6807
▁부럽다	-6808
▁깎	-6809
▁스튜	-6810
▁안으로	-6811
▁불평	-6812
얼마나	-6813
▁한대	-6814
▁해석	-6815
▁따른	-6816
▁있네요	-6817
▁심한	-6818
▁신선	-6819
▁불륜	-6820
▁알리	-6821
▁확정	-6822
됐어요	-6823
▁바래	-6824
▁얘야	-6825
▁않나요	-6826
▁자존심	-6827
나갈	-6828
▁칸	-6829
만하면	-6830
▁계집	-6831
▁걸릴	-6832
▁확신	-6833
▁에드	-6834
못하는	-6835
했소	-6836
데이	-6837
▁아깝	-6838
▁이들	-6839
▁어째서	-6840
피해	-6841
실한	-6842
▁보내고	-6843
성공	-6844
▁W	-6845
▁놨	-6846
질은	-6847
▁오토	-6848
▁할때	-6849
▁나타나	-6850
▁억지로	-6851
▁빗	-6852
▁끔찍한	-6853
짓거리	-6854
한심	-6855
을거야	-6856
▁뜻을	-6857
▁제게	-6858
▁텍	-6859
더라구요	-6860
▁누구를	-6861
더냐	-6862
▁향해	-6863
분간	-6864
▁되겠네	-6865
▁확보	-6866
▁균	-6867
▁떠난	-6868
▁바퀴	-6869
▁도저히	-6870
▁저승	-6871
축구	-6872
▁예측	-6873
▁죽으면	-6874
▁인증	-6875
▁당한	-6876
이젠	-6877
리냐	-6878
▁취임	-6879
▁앞서	-6880
억원	-6881
▁사랑에	-6882
▁꼼짝	-6883
▁달고	-6884
물론	-6885
▁대접	-6886
▁높이	-6887
▁편안	-6888
▁각하	-6889
▁네게	-6890
▁별거	-6891
▁ᄌᄂ	-6892
무기	-6893
▁손으로	-6894
미친	-6895
▁ᅵ	-6896
단의	-6897
만해도	-6898
웨어	-6899
▁쉽지	-6900
▁타는	-6901
다녀	-6902
▁기억나	-6903
▁수지	-6904
지마세요	-6905
▁순수	-6906
▁연설	-6907
▁몇십	-6908
면을	-6909
▁멋지다	-6910
▁두번째	-6911
평가	-6912
▁옳은	-6913
▁시각	-6914
너스	-6915
▁신인	-6916
▁우와	-6917
내라	-6918
▁박살	-6919
있으니	-6920
▁제임스	-6921
관에	-6922
그릇	-6923
거리가	-6924
▁「	-6925
살인	-6926
▁불을	-6927
▁어린이	-6928
못하고	-6929
▁살면	-6930
▁예약	-6931
▁트와	-6932
체는	-6933
▁물건을	-6934
노래	-6935
▁혀	-6936
▁익숙	-6937
▁반대로	-6938
▁ᄃ	-6939
조금	-6940
▁비웃	-6941
▁마크	-6942
▁내세	-6943
데로	-6944
주의가	-6945
▁미워	-6946
▁이제야	-6947
▁예의	-6948
이지요	-6949
▁이러면	-6950
▁규제	-6951
▁느낄	-6952
▁없는거	-6953
▁노잼	-6954
구리	-6955
일러	-6956
▁결국은	-6957
▁로스	-6958
▁솜	-6959
개념	-6960
석기	-6961
겠지요	-6962
끼들	-6963
드니	-6964
트의	-6965
▁맞게	-6966
▁죽었다	-6967
▁비박	-6968
▁강호동	-6969
▁한사람	-6970
▁유엔	-6971
▁찾아야	-6972
▁심리	-6973
▁특정	-6974
할려고	-6975
조정	-6976
소한	-6977
ist	-6978
▁목욕	-6979
▁~~~	-6980
▁수리	-6981
▁일이죠	-6982
▁왔는데	-6983
값이	-6984
▁한국을	-6985
스팅	-6986
말야	-6987
▁잡혀	-6988
~!!!	-6989
▁쳐먹	-6990
▁받아서	-6991
▁역대급	-6992
▁좆	-6993
▁클라	-6994
▁가봐야	-6995
▁분들이	-6996
▁성매매	-6997
일랜드	-6998
이기도	-6999
▁거긴	-7000
해졌	-7001
▁패배	-7002
▁살지	-7003
▁지는	-7004
▁잘했다	-7005
▁강조	-7006
▁스타일	-7007
가지로	-7008
▁밤새	-7009
물로	-7010
▁금수저	-7011
▁오른쪽	-7012
줄이	-7013
▁넘는	-7014
▁임시	-7015
▁피가	-7016
▁불만	-7017
▁강도	-7018
▁디지	-7019
걸까	-7020
법으로	-7021
▁오줌	-7022
▁호주	-7023
▁두렵	-7024
▁한진	-7025
▁양현	-7026
▁수학	-7027
▁마구	-7028
▁간신	-7029
종이	-7030
▁교장	-7031
▁있긴	-7032
▁엔진	-7033
들면	-7034
성애	-7035
▁가로	-7036
▁방식	-7037
▁탄생	-7038
교과서	-7039
▁정지	-7040
차도	-7041
니들	-7042
었으니	-7043
가격	-7044
▁팍	-7045
▁가기	-7046
▁울산	-7047
▁자백	-7048
을거	-7049
▁버린	-7050
▁개최	-7051
▁듣는	-7052
기대	-7053
▁ᄊ	-7054
조직	-7055
으려면	-7056
메리카	-7057
▁갔어	-7058
보소	-7059
▁전시	-7060
알아	-7061
▁몰고	-7062
군은	-7063
▁프로젝	-7064
▁사고가	-7065
▁충돌	-7066
▁만만	-7067
안되는	-7068
비도	-7069
▁몰수	-7070
상에서	-7071
배치	-7072
▁이용해	-7073
▁준다	-7074
아리	-7075
▁사는게	-7076
▁여객	-7077
▁치워	-7078
▁최태민	-7079
▁넘쳐	-7080
▁원숭이	-7081
▁확대	-7082
▁머물	-7083
▁답변	-7084
스럽고	-7085
▁망신	-7086
별로	-7087
▁나라냐	-7088
▁고대	-7089
로우	-7090
▁검토	-7091
▁컸	-7092
▁하다니	-7093
▁내란	-7094
▁할까요	-7095
▁자식이	-7096
▁더럽게	-7097
해져	-7098
하는것도	-7099
취급	-7100
▁공작	-7101
읍니다	-7102
▁안되면	-7103
▁보유	-7104
▁분열	-7105
▁같군요	-7106
지방	-7107
여러분	-7108
▁린	-7109
재를	-7110
▁펴	-7111
▁수정	-7112
▁브라질	-7113
안되	-7114
▁해먹	-7115
▁창문	-7116
철도	-7117
환경	-7118
스에서	-7119
▁보여요	-7120
▁슬슬	-7121
거니	-7122
▁탔	-7123
500	-7124
▁♬	-7125
▁냄	-7126
▁어르	-7127
▁쓸모	-7128
▁증거를	-7129
▁사람과	-7130
▁메갈	-7131
▁즉각	-7132
와요	-7133
▁살다	-7134
▁떠나서	-7135
▁같군	-7136
등이	-7137
팀이	-7138
길이	-7139
▁교과서	-7140
계속	-7141
▁인한	-7142
월에	-7143
키고	-7144
▁와우	-7145
▁동남아	-7146
봅시다	-7147
▁이러지	-7148
부터는	-7149
라는게	-7150
▁스웨	-7151
▁al	-7152
▁대변	-7153
낭비	-7154
▁아닌듯	-7155
▁영국의	-7156
▁물이	-7157
▁하늘을	-7158
▁졌	-7159
▁클라스	-7160
▁검증	-7161
▁사촌	-7162
▁못했다	-7163
▁승부	-7164
▁U	-7165
동원	-7166
▁나라꼴	-7167
▁나가면	-7168
▁오로지	-7169
▁젝	-7170
▁암튼	-7171
ttps	-7172
▁틀린	-7173
▁웃고	-7174
▁않아도	-7175
bo	-7176
파니	-7177
▁깡패	-7178
▁비록	-7179
재는	-7180
▁성인	-7181
▁형이	-7182
▁탱	-7183
▁그만두	-7184
▁적응	-7185
였네	-7186
나올	-7187
적이지	-7188
▁만원	-7189
▁카페	-7190
정으로	-7191
▁공익	-7192
▁부디	-7193
▁저번	-7194
▁기생	-7195
▁추측	-7196
▁걸렸	-7197
▁정확한	-7198
▁한남	-7199
▁용감	-7200
▁굽	-7201
▁재밌게	-7202
▁악플러	-7203
부인	-7204
▁정준영	-7205
▁입만	-7206
▁신중	-7207
에서만	-7208
소나	-7209
만으로도	-7210
▁말하	-7211
▁보검	-7212
▁있구나	-7213
절한	-7214
▁뭐해	-7215
▁서명	-7216
더라고	-7217
목을	-7218
▁소방	-7219
색이	-7220
▁활약	-7221
▁경찰에	-7222
▁장시	-7223
▁법은	-7224
▁고통을	-7225
▁저래	-7226
겟지	-7227
▁시대에	-7228
티즌	-7229
할꺼	-7230
▁보이고	-7231
추행	-7232
▁조선족	-7233
았나	-7234
자마자	-7235
으로만	-7236
▁짓거리	-7237
▁혐오	-7238
▁방사	-7239
▁꽁	-7240
▁들었다	-7241
▁없다면	-7242
▁레드	-7243
▁개요	-7244
기위해	-7245
▁쏠	-7246
▁생기면	-7247
줬어	-7248
▁역겨	-7249
▁이런게	-7250
려도	-7251
▁많지	-7252
▁한게	-7253
▁할인	-7254
기까지	-7255
▁제주도	-7256
해지는	-7257
▁용의	-7258
이란다	-7259
▁꽂	-7260
판사	-7261
▁의지	-7262
스러워	-7263
▁저항	-7264
등을	-7265
▁지불	-7266
▁갈게	-7267
▁개를	-7268
▁쩔	-7269
쳐야	-7270
▁후반	-7271
체의	-7272
수지	-7273
?..	-7274
▁유승	-7275
▁22	-7276
▁비아	-7277
▁속도	-7278
▁부르는	-7279
▁열린	-7280
완전	-7281
▁획	-7282
▁올린	-7283
▁피부	-7284
ip	-7285
지않고	-7286
▁돌아왔	-7287
▁크고	-7288
▁형성	-7289
풀이	-7290
만하고	-7291
발전	-7292
▁뽕	-7293
라의	-7294
▁해놓고	-7295
▁디자인	-7296
▁언론에	-7297
▁지나면	-7298
장한	-7299
▁북한이	-7300
서트	-7301
뚱한	-7302
▁그대	-7303
▁프랑	-7304
레이드	-7305
메이션	-7306
▁뭔가를	-7307
뿐이다	-7308
▁전쟁을	-7309
▁선정	-7310
▁말씀이	-7311
▁거울	-7312
의원들	-7313
실히	-7314
▁중에서	-7315
▁가시	-7316
수밖에	-7317
▁자국	-7318
▁저딴	-7319
▁살면서	-7320
책을	-7321
▁위치한	-7322
사카	-7323
▁연기를	-7324
ak	-7325
▁해명	-7326
화이팅	-7327
▁보여줄	-7328
▁준비가	-7329
항공	-7330
▁닥터	-7331
▁다스	-7332
▁밑에서	-7333
해준	-7334
▁주무	-7335
▁글쎄요	-7336
▁기자들	-7337
화된	-7338
로도	-7339
▁꼴통	-7340
전에서	-7341
▁종합	-7342
▁로맨	-7343
▁했네	-7344
길을	-7345
▁무관	-7346
▁밴드	-7347
▁참나	-7348
ᄉᄉ	-7349
▁먹고살	-7350
적으로는	-7351
력도	-7352
▁남북	-7353
▁조폭	-7354
▁엄마를	-7355
▁최우	-7356
▁편히	-7357
교도	-7358
▁기사에	-7359
▁춘	-7360
층에	-7361
▁하도	-7362
ᄍᄍᄍᄍ	-7363
같음	-7364
▁보관	-7365
▁빅뱅	-7366
▁않아서	-7367
▁몰라서	-7368
▁각오	-7369
▁데모	-7370
▁끓	-7371
▁기억해	-7372
▁법정	-7373
▁부럽	-7374
▁조센징	-7375
현실	-7376
천만원	-7377
리며	-7378
▁이해할	-7379
돈은	-7380
▁친구를	-7381
▁안달	-7382
싱턴	-7383
▁필요는	-7384
▁약을	-7385
인데도	-7386
▁환자	-7387
▁죽어라	-7388
하자고	-7389
▁검찰이	-7390
▁규정	-7391
▁말이오	-7392
▁회사가	-7393
▁AI	-7394
▁없구나	-7395
▁듣기	-7396
군을	-7397
향이	-7398
야말로	-7399
▁너에게	-7400
는거죠	-7401
았다고	-7402
▁대만	-7403
▁이익을	-7404
▁+	-7405
▁현장	-7406
▁셔	-7407
▁못살	-7408
스케	-7409
선에서	-7410
▁떨어뜨	-7411
오빠	-7412
셨어	-7413
▁어케	-7414
▁다음엔	-7415
▁오래된	-7416
말에	-7417
▁끼어	-7418
▁개편	-7419
▁자녀	-7420
▁하실	-7421
▁찰리	-7422
▁맞을	-7423
▁유도	-7424
▁중화	-7425
.5	-7426
▁제길	-7427
시켜서	-7428
▁다운	-7429
▁미사일	-7430
넣고	-7431
▁찌질	-7432
▁어쩜	-7433
결국	-7434
▁원인	-7435
▁치는	-7436
▁이태	-7437
놀이	-7438
건강	-7439
대단	-7440
▁체육	-7441
도시	-7442
국민의	-7443
▁이곳에	-7444
▁파란	-7445
인것	-7446
추는	-7447
▁단통	-7448
협회	-7449
라를	-7450
따위	-7451
▁아들을	-7452
▁팀이	-7453
▁그립	-7454
▁운명	-7455
▁제안	-7456
▁보네	-7457
테르	-7458
▁나중	-7459
▁알지만	-7460
님도	-7461
스탄	-7462
▁한방	-7463
▁김민	-7464
▁박원순	-7465
시네	-7466
▁설계	-7467
▁조상	-7468
▁담배값	-7469
▁선동질	-7470
▁없나요	-7471
▁세우	-7472
▁사례	-7473
즈가	-7474
지않은	-7475
오래	-7476
관광	-7477
▁씨가	-7478
장과	-7479
그런데	-7480
▁비서	-7481
▁199	-7482
▁죽음을	-7483
▁쾌	-7484
▁노릇	-7485
심은	-7486
▁가야지	-7487
▁짧은	-7488
▁셰	-7489
▁뱃	-7490
훼손	-7491
▁세상은	-7492
▁본방	-7493
▁고인의	-7494
▁거대한	-7495
▁내용이	-7496
랑은	-7497
▁죽어도	-7498
▁협력	-7499
▁오신	-7500
특히	-7501
자동	-7502
▁백만	-7503
▁그랬지	-7504
단은	-7505
그러면	-7506
▁뭐하고	-7507
▁상위	-7508
봐서	-7509
공개	-7510
였나	-7511
줘도	-7512
▁이세	-7513
당시	-7514
▁않지	-7515
▁그땐	-7516
▁추억	-7517
▁비정상	-7518
▁폐쇄	-7519
▁부모가	-7520
▁구체	-7521
▁감당	-7522
싶어	-7523
▁정도의	-7524
부에서	-7525
치에	-7526
▁놈의	-7527
▁활용	-7528
▁이진	-7529
▁하여튼	-7530
▁써라	-7531
▁상황에	-7532
힘들	-7533
▁없었던	-7534
▁황금	-7535
중인	-7536
▁기자야	-7537
라야	-7538
▁땅에	-7539
토록	-7540
▁아시안	-7541
하군요	-7542
커플	-7543
▁저주	-7544
하느라	-7545
둬라	-7546
사나	-7547
▁장례	-7548
경유착	-7549
▁지루	-7550
▁다닐	-7551
▁못해서	-7552
▁최형우	-7553
▁떨어질	-7554
▁공기	-7555
▁자넬	-7556
▁가져다	-7557
하겠다고	-7558
▁내수	-7559
로만	-7560
▁비싸게	-7561
▁처음엔	-7562
▁깨닫	-7563
부들	-7564
▁했다는	-7565
▁개같은	-7566
▁의사가	-7567
▁스피	-7568
▁가족을	-7569
마냥	-7570
인에게	-7571
▁빌리	-7572
▁물타기	-7573
▁잡아서	-7574
내내	-7575
▁학교에	-7576
▁설레	-7577
▁전력	-7578
▁합격	-7579
▁뭐하나	-7580
▁거기다	-7581
▁무엇이	-7582
▁깍	-7583
한듯	-7584
▁사령	-7585
▁센터	-7586
▁나가야	-7587
▁장소	-7588
▁해피	-7589
환이	-7590
▁말아야	-7591
쳐도	-7592
▁모임	-7593
는다면	-7594
규직	-7595
어주	-7596
▁단단	-7597
리안	-7598
님께서	-7599
정부가	-7600
▁국립	-7601
덩어리	-7602
▁깨어	-7603
ce	-7604
까지만	-7605
▁대하여	-7606
▁이경	-7607
정지	-7608
▁폐하	-7609
▁악의	-7610
▁시대가	-7611
▁부드	-7612
▁누구냐	-7613
세에	-7614
▁읽고	-7615
▁차려	-7616
▁주변에	-7617
▁동양	-7618
▁이건희	-7619
▁북괴	-7620
▁감싸	-7621
▁여유	-7622
▁폭행	-7623
하지는	-7624
▁to	-7625
▁이병	-7626
▁미스	-7627
하다면	-7628
▁하시는	-7629
▁관계를	-7630
▁저지른	-7631
정부는	-7632
봤어요	-7633
배는	-7634
▁가는데	-7635
▁결과를	-7636
▁노선	-7637
▁많을	-7638
▁미스터	-7639
대표팀	-7640
▁뿐만	-7641
▁되기	-7642
보며	-7643
▁사이트	-7644
▁모르나	-7645
▁릴	-7646
성한	-7647
▁푼	-7648
▁현실을	-7649
면서요	-7650
▁표시	-7651
할까요	-7652
▁있는가	-7653
▁줄여	-7654
▁요원	-7655
▁소릴	-7656
▁숭	-7657
▁기울	-7658
▁식물	-7659
운영	-7660
▁점령	-7661
▁뒤를	-7662
▁매주	-7663
쳐먹고	-7664
기야	-7665
▁의도	-7666
▁르	-7667
▁좋네	-7668
▁퇴근	-7669
후의	-7670
▁침대	-7671
▁언론은	-7672
▁강제로	-7673
▁좋지만	-7674
▁나고	-7675
▁몇명	-7676
라엘	-7677
▁sk	-7678
▁이렇	-7679
▁똑똑한	-7680
▁한쪽	-7681
디션	-7682
?...	-7683
▁어려워	-7684
▁쫒	-7685
이와	-7686
▁차는	-7687
▁색깔	-7688
려구	-7689
▁깨끗한	-7690
바꾸	-7691
있어서	-7692
▁변태	-7693
▁데이빗	-7694
국민들이	-7695
▁브루	-7696
▁행운을	-7697
▁붉은	-7698
▁ᄆ	-7699
▁소비자	-7700
앞으로	-7701
▁말아라	-7702
배를	-7703
▁누워	-7704
▁되요	-7705
▁이상은	-7706
~~^^	-7707
가면서	-7708
▁공기업	-7709
▁속으로	-7710
▁집은	-7711
▁시켜라	-7712
▁철학	-7713
사항	-7714
▁끝장	-7715
▁영원한	-7716
▁金	-7717
천억	-7718
사용	-7719
▁친척	-7720
▁꼰대	-7721
▁닉	-7722
▁난민	-7723
해서는	-7724
▁23	-7725
▁육군	-7726
▁나지	-7727
▁가격이	-7728
배가	-7729
▁만에	-7730
▁살짝	-7731
▁피아	-7732
가루	-7733
이긴	-7734
▁근처에	-7735
사이트	-7736
석을	-7737
증을	-7738
▁결승	-7739
공사	-7740
▁캬	-7741
▁폐기	-7742
ea	-7743
형은	-7744
▁것보다	-7745
▁V	-7746
▁늑	-7747
▁침묵	-7748
들이고	-7749
▁공통	-7750
▁바빠	-7751
튜브	-7752
▁타격	-7753
▁허가	-7754
▁공약	-7755
▁금요일	-7756
뿐만	-7757
으라	-7758
▁정형	-7759
▁은근	-7760
▁잘만	-7761
▁여동생	-7762
▁대위	-7763
▁메인	-7764
▁놓은	-7765
▁쉴드	-7766
간이	-7767
▁하더라	-7768
▁보는데	-7769
목이	-7770
는지도	-7771
되길	-7772
▁장담	-7773
자다	-7774
화의	-7775
마이	-7776
▁스코	-7777
▁하신	-7778
▁하는것	-7779
냈어	-7780
박한	-7781
▁보복	-7782
▁켄	-7783
▁명백	-7784
▁솔까	-7785
▁찾아서	-7786
▁험	-7787
민국에	-7788
▁승객	-7789
▁되길	-7790
▁당황	-7791
▁물에	-7792
▁새누	-7793
▁폼	-7794
짜피	-7795
▁행위	-7796
▁왈	-7797
자체	-7798
죽을	-7799
티나	-7800
하고도	-7801
▁깊이	-7802
▁조의연	-7803
▁된다면	-7804
▁친구는	-7805
법에	-7806
제한	-7807
▁지킬	-7808
▁슬픈	-7809
▁내용을	-7810
▁기자님	-7811
내기	-7812
하곤	-7813
news	-7814
▁빼돌	-7815
개는	-7816
드립	-7817
면이	-7818
근무	-7819
▁잡지	-7820
는거고	-7821
으려는	-7822
▁일이지	-7823
시리즈	-7824
▁아니네	-7825
▁무언	-7826
그러니	-7827
▁확인해	-7828
▁편지를	-7829
복지	-7830
표를	-7831
▁니들도	-7832
▁어쩌다	-7833
▁스탠	-7834
▁흐름	-7835
▁청산	-7836
움이	-7837
▁생각엔	-7838
▁이슈	-7839
▁오늘날	-7840
히지	-7841
주민	-7842
▁싸울	-7843
▁협조	-7844
통에	-7845
돌이	-7846
▁거잖아	-7847
▁안한다	-7848
▁모욕	-7849
▁나을	-7850
▁인원	-7851
▁re	-7852
▁일만	-7853
▁많음	-7854
거리고	-7855
▁사랑이	-7856
사들이	-7857
▁매니	-7858
▁오전	-7859
잡이	-7860
▁월요일	-7861
하십니까	-7862
▁밀양	-7863
▁실종	-7864
스도	-7865
▁여기요	-7866
▁심하게	-7867
▁음모	-7868
▁깃	-7869
▁하루에	-7870
감은	-7871
히면	-7872
▁투기	-7873
▁복수	-7874
처분	-7875
▁모르게	-7876
▁단순한	-7877
▁써서	-7878
▁35	-7879
▁최강	-7880
▁노후	-7881
▁전세	-7882
▁구르미	-7883
통신	-7884
백만	-7885
▁극복	-7886
▁빽	-7887
▁안그래	-7888
받아야	-7889
분들은	-7890
▁미쳤어	-7891
할래	-7892
▁메르	-7893
▁윌리엄	-7894
▁몸매	-7895
▁마주	-7896
▁전쟁이	-7897
▁올릴	-7898
▁공화	-7899
▁초기	-7900
졌고	-7901
▁법치	-7902
▁규모	-7903
쳐라	-7904
▁도울	-7905
회가	-7906
▁언론의	-7907
▁문자	-7908
▁웃겨	-7909
▁지겨	-7910
▁작작	-7911
▁핫	-7912
▁컵	-7913
지는게	-7914
▁썩을	-7915
마을	-7916
▁깔끔	-7917
크가	-7918
▁중고	-7919
▁자세히	-7920
대전	-7921
▁용병	-7922
▁탈락	-7923
▁봐주	-7924
▁녀석이	-7925
민국에서	-7926
▁환불	-7927
ab	-7928
부족	-7929
하였으며	-7930
▁보소	-7931
▁외치	-7932
함에	-7933
▁싶을	-7934
저나	-7935
▁com	-7936
▁연관	-7937
▁그러냐	-7938
▁아무나	-7939
낸다	-7940
이시	-7941
▁농민	-7942
▁전엔	-7943
▁협상	-7944
하노	-7945
▁객관	-7946
▁계획을	-7947
감사	-7948
리포니아	-7949
▁붕괴	-7950
▁다르게	-7951
▁긴급	-7952
▁초등	-7953
▁미국도	-7954
▁지갑	-7955
▁테스트	-7956
▁첫째	-7957
▁불교	-7958
▁인가	-7959
▁한나라	-7960
▁26	-7961
기각	-7962
▁좋네요	-7963
▁랩	-7964
▁밝혔다	-7965
▁집권	-7966
▁맞은	-7967
▁총리	-7968
통일	-7969
▁긁	-7970
▁돌봐	-7971
▁간다고	-7972
벌이	-7973
이란게	-7974
▁공화국	-7975
▁아스	-7976
▁사는데	-7977
▁돈에	-7978
거품	-7979
▁없애라	-7980
▁숙녀	-7981
▁장악	-7982
▁월세	-7983
처먹	-7984
▁하계	-7985
하시죠	-7986
하셨어요	-7987
되니	-7988
ns	-7989
주도	-7990
▁사항	-7991
▁de	-7992
▁자원	-7993
한걸	-7994
▁전환	-7995
▁솔로	-7996
▁모셔	-7997
버려라	-7998
▁딸을	-7999
▁올바른	-8000
▁바뀐	-8001
▁닥치고	-8002
▁뛰어난	-8003
▁한일	-8004
▁여자도	-8005
가나	-8006
해야할	-8007
줄까	-8008
▁할수있	-8009
▁잔뜩	-8010
▁킹	-8011
▁브랜드	-8012
▁커녕	-8013
▁일기	-8014
아빠	-8015
▁님	-8016
▁ar	-8017
▁예보	-8018
▁관광객	-8019
200	-8020
해주면	-8021
▁안티	-8022
▁탈퇴	-8023
▁회원	-8024
종북	-8025
▁이상해	-8026
▁봐서	-8027
마는	-8028
올려	-8029
▁지경	-8030
화점	-8031
▁추잡	-8032
▁명품	-8033
클럽	-8034
▁없던	-8035
▁있단	-8036
▁피눈물	-8037
▁고맙네	-8038
가와	-8039
▁다이아	-8040
▁아니란	-8041
♡♡♡	-8042
▁저기요	-8043
예술	-8044
▁종편	-8045
▁반도	-8046
▁하든	-8047
시간이	-8048
▁봤다	-8049
▁동정	-8050
주택	-8051
www	-8052
게이트	-8053
내에	-8054
▁노출	-8055
▁성추행	-8056
▁펠	-8057
모토	-8058
▁최씨	-8059
기준	-8060
▁공사	-8061
▁있었나	-8062
▁실행	-8063
층이	-8064
팔아	-8065
▁돌아온	-8066
▁힐러리	-8067
▁크다	-8068
▁멸망	-8069
▁전부터	-8070
솔직	-8071
▁그레이	-8072
되면서	-8073
▁세종	-8074
▁한글	-8075
진은	-8076
▁채워	-8077
▁시집	-8078
▁명칭	-8079
▁자유를	-8080
이라는게	-8081
▁쌩	-8082
하단	-8083
▁수수	-8084
▁응답	-8085
보인다	-8086
테러	-8087
▁노승	-8088
잔아	-8089
▁알파	-8090
▁온통	-8091
▁공평	-8092
▁내려와	-8093
▁이런걸	-8094
▁코미디	-8095
▁될지	-8096
나가는	-8097
총장	-8098
거리를	-8099
좀비	-8100
▁★	-8101
모양	-8102
시키면	-8103
▁워싱턴	-8104
▁물러서	-8105
▁태어났	-8106
르기	-8107
▁찢어	-8108
▁억지	-8109
▁플로	-8110
리타	-8111
자유	-8112
전화	-8113
▁잠을	-8114
▁입증	-8115
▁안해도	-8116
▁인생이	-8117
▁정말요	-8118
▁추정	-8119
▁여기로	-8120
▁기반	-8121
▁걸요	-8122
▁땅을	-8123
▁글로벌	-8124
소리가	-8125
료가	-8126
▁생명을	-8127
▁물러나	-8128
씨도	-8129
▁한반도	-8130
▁하나씩	-8131
▁맞죠	-8132
▁적어	-8133
▁좋음	-8134
로워	-8135
치네	-8136
업을	-8137
▁눈물이	-8138
▁잃은	-8139
▁압니다	-8140
▁내릴	-8141
▁소나	-8142
▁거쳐	-8143
거같다	-8144
▁남들	-8145
레인	-8146
교통	-8147
▁최경	-8148
불가	-8149
▁안들어	-8150
▁경계	-8151
▁리콜	-8152
▁히로	-8153
▁있을지	-8154
▁년에는	-8155
est	-8156
▁게임을	-8157
▁증오	-8158
▁사회가	-8159
▁강하게	-8160
힌다	-8161
▁일관	-8162
고은	-8163
▁물어보	-8164
사람도	-8165
▁적도	-8166
▁만들면	-8167
네는	-8168
▁축하해	-8169
▁닿	-8170
어린	-8171
수있다	-8172
▁소중한	-8173
▁말대로	-8174
▁추운	-8175
▁자식들	-8176
실은	-8177
▁시합	-8178
그랬	-8179
성화	-8180
▁양세	-8181
▁바탕	-8182
여성	-8183
▁분은	-8184
▁떠들어	-8185
▁죽기	-8186
해야함	-8187
▁에스	-8188
▁보아	-8189
▁더더	-8190
였다고	-8191
학년	-8192
▁홈런	-8193
▁마스크	-8194
▁조금씩	-8195
▁숨을	-8196
인상	-8197
▁해볼	-8198
▁내면	-8199
▁수작	-8200
▁정치를	-8201
▁400	-8202
▁법적	-8203
▁바람에	-8204
▁인간을	-8205
▁달걀	-8206
구니	-8207
▁쯧쯧	-8208
▁바쁜	-8209
▁하나요	-8210
▁차고	-8211
세금으로	-8212
▁다르다	-8213
▁이휘재	-8214
▁지미	-8215
▁살아있	-8216
▁기춘	-8217
▁북한에	-8218
▁리버	-8219
▁해방	-8220
느낌	-8221
식품	-8222
었다면	-8223
판이	-8224
▁건배	-8225
▁기차	-8226
병원	-8227
▁이런건	-8228
▁다해	-8229
▁현재의	-8230
▁you	-8231
하겠어	-8232
▁뜻이	-8233
▁이쪽은	-8234
문의	-8235
▁쳤	-8236
▁해산	-8237
▁마리아	-8238
▁안되나	-8239
▁거니	-8240
는거임	-8241
년이나	-8242
드의	-8243
▁애들을	-8244
▁안좋아	-8245
▁귀신	-8246
아직도	-8247
▁???	-8248
작품	-8249
▁받아라	-8250
아웃	-8251
▁놔두	-8252
▁푸른	-8253
▁그런게	-8254
키가	-8255
라며	-8256
▁하잖아	-8257
▁사먹	-8258
▁팔고	-8259
▁동맹	-8260
내용	-8261
▁세이콘	-8262
▁하드	-8263
▁들면	-8264
▁걸그룹	-8265
▁하락	-8266
▁받아들	-8267
권에	-8268
라나	-8269
꾸로	-8270
메이	-8271
▁종이	-8272
동에	-8273
▁바가지	-8274
▁안믿	-8275
▁선언	-8276
명으로	-8277
▁맛있	-8278
▁국대	-8279
▁악질	-8280
▁보다는	-8281
▁상관없	-8282
▁먹지	-8283
▁하려는	-8284
먼저	-8285
▁李	-8286
▁해준	-8287
버그	-8288
부도	-8289
하는걸	-8290
▁인생은	-8291
25	-8292
하야	-8293
▁테이	-8294
▁저렴	-8295
았을	-8296
▁올리는	-8297
지말자	-8298
▁경기를	-8299
▁업체	-8300
▁유령	-8301
▁있군	-8302
▁스티브	-8303
▁연기도	-8304
▁당사	-8305
▁광우병	-8306
▁될듯	-8307
▁홍어	-8308
▁재용	-8309
물어	-8310
키들	-8311
생을	-8312
▁뭐고	-8313
놈들아	-8314
▁김해	-8315
것이고	-8316
▁강아지	-8317
셔도	-8318
▁끊어	-8319
다란	-8320
뒤에	-8321
▁주범	-8322
▁기원전	-8323
▁안심	-8324
▁소년	-8325
▁좌익	-8326
▁고맙소	-8327
▁뵙	-8328
▁전술	-8329
▁예언	-8330
터가	-8331
▁캔	-8332
▁없애고	-8333
생이	-8334
▁즐거운	-8335
▁세뇌	-8336
▁해주고	-8337
▁화려	-8338
▁실은	-8339
outu	-8340
▁무역	-8341
거같은데	-8342
▁돋	-8343
▁잠재	-8344
주자	-8345
▁흡연	-8346
선으로	-8347
납니다	-8348
▁매장	-8349
▁이뻐	-8350
▁발달	-8351
▁귀여운	-8352
▁등으로	-8353
▁너희가	-8354
▁목격	-8355
▁수능	-8356
▁부대	-8357
▁아껴	-8358
▁자제	-8359
자꾸	-8360
▁오죽	-8361
▁하필	-8362
▁죽어나	-8363
▁말인지	-8364
크로	-8365
▁알바들	-8366
▁따뜻한	-8367
▁주인이	-8368
▁죽지	-8369
▁비하면	-8370
기록	-8371
들에게는	-8372
전의	-8373
하마	-8374
줄래	-8375
▁풋	-8376
▁실현	-8377
▁생각에	-8378
▁권리	-8379
▁바이러	-8380
▁정책을	-8381
대강	-8382
▁떠들	-8383
▁누구지	-8384
듣고	-8385
은요	-8386
▁해변	-8387
뿐이야	-8388
▁않도록	-8389
▁팽	-8390
▁실력이	-8391
▁치우	-8392
▁만나러	-8393
죄가	-8394
나니	-8395
데타	-8396
될듯	-8397
주의의	-8398
▁위기	-8399
▁제기랄	-8400
▁가난한	-8401
▁여친	-8402
▁되서	-8403
지효	-8404
하이	-8405
▁여자의	-8406
▁빠졌	-8407
는것도	-8408
▁자네도	-8409
▁아이는	-8410
▁부여	-8411
▁리스트	-8412
던데요	-8413
안타	-8414
▁들어왔	-8415
에나	-8416
▁일상	-8417
간다고	-8418
레일	-8419
▁자영업	-8420
▁랜	-8421
시피	-8422
▁봤지	-8423
▁얌	-8424
▁있으나	-8425
▁광복	-8426
▁보스	-8427
▁죽이지	-8428
▁단순히	-8429
르트	-8430
▁청소년	-8431
거네	-8432
시키지	-8433
자이	-8434
▁몇백	-8435
~3	-8436
▁떨어졌	-8437
▁덧	-8438
▁그놈의	-8439
▁법무	-8440
▁록	-8441
조센	-8442
▁부채	-8443
▁필수	-8444
▁천벌	-8445
▁희망이	-8446
▁봐야지	-8447
▁김경	-8448
▁교도소	-8449
▁이준기	-8450
▁끝에	-8451
언니	-8452
▁눌러	-8453
나마	-8454
▁금리	-8455
▁석방	-8456
▁결정을	-8457
집이	-8458
▁이빨	-8459
▁파면	-8460
▁할말이	-8461
▁조성	-8462
종교	-8463
▁망쳐	-8464
▁배울	-8465
▁이래도	-8466
▁즐겨	-8467
▁생각했	-8468
▁필요할	-8469
▁들어온	-8470
드리죠	-8471
▁탄핵을	-8472
티비	-8473
하겠다는	-8474
증거	-8475
▁되찾	-8476
파는	-8477
▁날짜	-8478
▁넘들	-8479
▁리가	-8480
▁나왔다	-8481
▁안고	-8482
맙시다	-8483
▁관계가	-8484
▁했으니	-8485
?'	-8486
▁북쪽	-8487
기엔	-8488
좌빨	-8489
▁진입	-8490
♨♨	-8491
▁부딪	-8492
라이언	-8493
▁한강	-8494
▁검찰은	-8495
아줌마	-8496
▁년대	-8497
대사	-8498
▁적게	-8499
▁캡	-8500
ra	-8501
리트	-8502
▁꾸준히	-8503
▁화학	-8504
▁법인	-8505
▁샤워	-8506
▁99	-8507
▁매출	-8508
▁연기가	-8509
불쌍	-8510
▁없는게	-8511
▁영장	-8512
▁경호	-8513
~~!!	-8514
▁맡아	-8515
▁닭이	-8516
▁더워	-8517
▁on	-8518
▁비용	-8519
▁할일	-8520
재단	-8521
▁뇌가	-8522
▁할게요	-8523
▁지네	-8524
▁렌	-8525
▁마음은	-8526
▁어떠한	-8527
▁인지	-8528
▁이들이	-8529
▁루이스	-8530
유럽	-8531
▁꺼져라	-8532
었소	-8533
지않나	-8534
▁하러	-8535
도르	-8536
▁나와라	-8537
▁준비해	-8538
동물	-8539
▁뜨거운	-8540
▁공짜로	-8541
▁진실이	-8542
곳에서	-8543
▁지리	-8544
▁뱉	-8545
크를	-8546
▁감염	-8547
비용	-8548
우리가	-8549
났네	-8550
▁3.	-8551
▁경우는	-8552
▁알겠다	-8553
▁남이	-8554
▁잘한	-8555
중심	-8556
▁둘은	-8557
▁반박	-8558
▁와라	-8559
▁세탁	-8560
▁인용	-8561
▁부추	-8562
직을	-8563
▁환상	-8564
▁아쉽다	-8565
저분	-8566
▁드립	-8567
▁Y	-8568
갖고	-8569
▁작년에	-8570
▁씁	-8571
▁갈라	-8572
▁무슨일	-8573
▁일본인	-8574
▁내보	-8575
안에서	-8576
▁나랏	-8577
하기는	-8578
▁세금이	-8579
▁죽는다	-8580
▁지나가	-8581
정당	-8582
하거든	-8583
▁vs	-8584
▁편성	-8585
▁갔어요	-8586
▁여자랑	-8587
▁인데	-8588
리면서	-8589
나쁜	-8590
▁슬퍼	-8591
▁망해	-8592
▁오염	-8593
▁황제	-8594
들이네	-8595
▁헨리	-8596
▁의미를	-8597
전부터	-8598
못한	-8599
▁외제	-8600
!?	-8601
축하	-8602
▁하청	-8603
▁망한다	-8604
▁등산	-8605
▁얘가	-8606
▁창녀	-8607
분도	-8608
▁경주	-8609
▁할거	-8610
절대	-8611
ill	-8612
▁욕하고	-8613
▁홧	-8614
▁넥센	-8615
이군요	-8616
받지	-8617
▁찍고	-8618
▁인형	-8619
17	-8620
었구나	-8621
렸네	-8622
▁되니까	-8623
배로	-8624
▁박근	-8625
▁루이	-8626
유의	-8627
▁전에는	-8628
어떤	-8629
▁개봉	-8630
▁구간	-8631
▁폭스	-8632
▁일정	-8633
발을	-8634
▁명확	-8635
▁오게	-8636
▁소환	-8637
▁몇개	-8638
오세요	-8639
▁못가	-8640
면허	-8641
▁모두를	-8642
▁한숨	-8643
▁ᄅᄋ	-8644
을지	-8645
▁노인네	-8646
대통령은	-8647
__	-8648
▁보살	-8649
▁씨부	-8650
▁예선	-8651
관님	-8652
▁캐스팅	-8653
또한	-8654
일까요	-8655
▁에디	-8656
▁하나를	-8657
조의	-8658
▁숫자	-8659
케팅	-8660
▁고스	-8661
▁주위	-8662
수고	-8663
겟네	-8664
▁아카	-8665
▁있겠어	-8666
▁알려져	-8667
▁지붕	-8668
작가	-8669
▁그만둬	-8670
너희	-8671
▁의하면	-8672
▁세계를	-8673
되네	-8674
▁종일	-8675
▁충전	-8676
렸지	-8677
하는가	-8678
대기업	-8679
▁있거든	-8680
▁for	-8681
▁빠르	-8682
대박	-8683
▁처먹	-8684
▁싹다	-8685
계획	-8686
▁학력	-8687
▁대륙	-8688
도와	-8689
급이	-8690
▁사내	-8691
bl	-8692
▁해줬	-8693
▁탄핵이	-8694
날두	-8695
▁같애	-8696
▁금메달	-8697
▁잡는	-8698
병이	-8699
지들	-8700
여도	-8701
중독	-8702
▁법원	-8703
인지도	-8704
석에	-8705
▁스미	-8706
▁좌우	-8707
▁할말	-8708
마니	-8709
외교	-8710
▁알아라	-8711
▁따르	-8712
▁중학교	-8713
화에	-8714
의미	-8715
▁사랑은	-8716
▁기성	-8717
▁게스트	-8718
지컬	-8719
▁폭동	-8720
듯한	-8721
파가	-8722
키로	-8723
몬드	-8724
▁나보다	-8725
▁넷	-8726
산은	-8727
▁출동	-8728
▁힘드	-8729
▁바꿨	-8730
▁우롱	-8731
무라	-8732
럽고	-8733
같으면	-8734
되었으며	-8735
▁쥬	-8736
▁문화재	-8737
같네	-8738
▁친구야	-8739
▁모르쇠	-8740
▁알면서	-8741
▁성경	-8742
▁없군	-8743
▁불공	-8744
▁더블	-8745
▁코너	-8746
틀러	-8747
▁묻고	-8748
지션	-8749
▁듣지	-8750
▁전지	-8751
▁사유	-8752
▁자네를	-8753
▁서두	-8754
▁클레	-8755
▁방탄	-8756
▁먹어야	-8757
▁쑤	-8758
▁걷어	-8759
▁잘못한	-8760
▁사죄	-8761
▁못믿	-8762
▁내지	-8763
리는거	-8764
▁드세요	-8765
▁썰	-8766
치의	-8767
▁비극	-8768
리라고	-8769
▁서울대	-8770
▁반면	-8771
▁감독님	-8772
▁백성	-8773
▁통계	-8774
특별시	-8775
▁부결	-8776
▁만약에	-8777
인척	-8778
▁독일의	-8779
다이	-8780
▁오너	-8781
▁얼굴도	-8782
▁뻗	-8783
경쟁	-8784
▁개정	-8785
제대로	-8786
줍시다	-8787
▁슬픔	-8788
어쩌	-8789
▁앞장	-8790
▁믿음	-8791
▁피의	-8792
▁죽을때	-8793
▁지키고	-8794
▁했더니	-8795
▁근대	-8796
시스템	-8797
▁너희는	-8798
▁알려주	-8799
▁추구	-8800
▁첼	-8801
평양	-8802
▁생물	-8803
▁사라져	-8804
아래	-8805
▁일반인	-8806
▁중동	-8807
외로	-8808
▁삼가	-8809
같은거	-8810
▁일본을	-8811
▁유로	-8812
▁좋겠네	-8813
▁자국민	-8814
헬조선	-8815
pc	-8816
▁옆에서	-8817
▁의존	-8818
▁특이	-8819
▁항의	-8820
점으로	-8821
▁막상	-8822
▁이것을	-8823
중에도	-8824
▁어짜피	-8825
▁여섯	-8826
타임	-8827
▁시작한	-8828
하시면	-8829
일지	-8830
▁바깥	-8831
틸리케	-8832
▁만나는	-8833
사장	-8834
폐지	-8835
래기	-8836
▁되겠지	-8837
▁소주	-8838
년째	-8839
▁단계	-8840
마를	-8841
▁약속을	-8842
문은	-8843
▁진상	-8844
사람을	-8845
행이	-8846
▁띠	-8847
ard	-8848
아무리	-8849
▁장교	-8850
▁할듯	-8851
▁타이틀	-8852
▁긍정	-8853
▁자기야	-8854
▁해운	-8855
▁확장	-8856
▁폭염	-8857
▁곁에	-8858
▁맥스	-8859
▁원망	-8860
▁나라다	-8861
▁줄은	-8862
일텐데	-8863
소의	-8864
▁원해	-8865
▁초반	-8866
연한	-8867
▁손이	-8868
해를	-8869
ang	-8870
▁누구죠	-8871
▁믿어요	-8872
됐습니다	-8873
냈다	-8874
능이	-8875
▁골라	-8876
▁잘도	-8877
안보	-8878
?)	-8879
▁패스	-8880
▁를	-8881
▁년까지	-8882
▁몰랐어	-8883
전으로	-8884
▁한때	-8885
욕을	-8886
▁올해는	-8887
▁개헌	-8888
▁개인의	-8889
솔직히	-8890
▁디젤	-8891
리티	-8892
▁부서	-8893
▁해가	-8894
듭니다	-8895
화로	-8896
▁멍청이	-8897
ess	-8898
▁28	-8899
버거	-8900
▁un	-8901
▁네덜	-8902
▁눈으로	-8903
▁당분간	-8904
만큼은	-8905
▁일방	-8906
▁예비	-8907
all	-8908
▁다리를	-8909
▁이날	-8910
청와	-8911
진을	-8912
정유	-8913
▁불어	-8914
▁종신	-8915
▁원치	-8916
▁제국	-8917
병을	-8918
▁압도	-8919
▁우리와	-8920
▁닭년	-8921
▁날뛰	-8922
사수	-8923
▁막장	-8924
▁부른	-8925
셨으면	-8926
▁지지율	-8927
▁한번만	-8928
▁편의점	-8929
▁상속	-8930
리야	-8931
▁같으면	-8932
부턴	-8933
인이다	-8934
▁그런지	-8935
▁다닌	-8936
▁실천	-8937
▁인물이	-8938
▁단독	-8939
▁잃고	-8940
▁경찰을	-8941
겁니까	-8942
▁시켜야	-8943
인정	-8944
▁보여줘	-8945
▁배불	-8946
▁개자식	-8947
▁명령을	-8948
▁성립	-8949
님과	-8950
돼요	-8951
▁들어올	-8952
▁칼을	-8953
▁왜이리	-8954
▁수색	-8955
▁이른	-8956
▁해보자	-8957
면에서	-8958
투자	-8959
교수	-8960
▁쥐어	-8961
▁기여	-8962
잖나	-8963
인사	-8964
▁안오	-8965
국정	-8966
카와	-8967
▁최초의	-8968
▁합류	-8969
▁사세요	-8970
았음	-8971
▁대본	-8972
▁짠	-8973
▁결혼은	-8974
어트	-8975
▁도서관	-8976
▁껴	-8977
▁만나면	-8978
▁그정도	-8979
▁말아먹	-8980
##	-8981
▁뒀	-8982
▁않았나	-8983
브라	-8984
▁보며	-8985
나와서	-8986
90	-8987
▁찌라시	-8988
▁개시	-8989
▁전체가	-8990
▁분양	-8991
응원	-8992
▁더러	-8993
▁어렵게	-8994
지않아	-8995
.,	-8996
없게	-8997
▁마니	-8998
▁시카	-8999
▁아랫	-9000
▁스웨덴	-9001
▁사전	-9002
▁관할	-9003
▁구할	-9004
▁자를	-9005
▁젊은이	-9006
리즘	-9007
재벌	-9008
▁친한	-9009
ie	-9010
크라	-9011
애는	-9012
시게	-9013
▁외면	-9014
값은	-9015
차라리	-9016
▁무게	-9017
▁열등	-9018
자구	-9019
▁말게	-9020
▁무장	-9021
~?	-9022
▁천지	-9023
▁중이야	-9024
▁좋아할	-9025
하는거냐	-9026
▁엑소	-9027
▁월에	-9028
▁싶네요	-9029
▁싸이코	-9030
할수도	-9031
▁되는지	-9032
▁얻을	-9033
좀해라	-9034
▁허구	-9035
▁뭐예요	-9036
아아	-9037
▁취직	-9038
▁않네	-9039
▁하지않	-9040
▁양현종	-9041
주사	-9042
▁빛을	-9043
▁시대의	-9044
▁감각	-9045
▁등신	-9046
▁이해를	-9047
함은	-9048
렀다	-9049
▁얼음	-9050
▁감성	-9051
▁볼수	-9052
▁음식을	-9053
▁법조	-9054
파악	-9055
▁이꼴	-9056
▁전과	-9057
▁거니까	-9058
▁촛불이	-9059
▁적자	-9060
집을	-9061
▁인수	-9062
나오는	-9063
▁멋져	-9064
▁축제	-9065
▁나이에	-9066
도우	-9067
th	-9068
▁마다	-9069
받아서	-9070
순위	-9071
▁순진	-9072
미니	-9073
▁일할	-9074
▁부분이	-9075
랄까	-9076
▁피아노	-9077
걸고	-9078
▁못했	-9079
▁하늘이	-9080
▁갈게요	-9081
▁공산당	-9082
년만	-9083
대출	-9084
▁얼굴은	-9085
▁옥시	-9086
▁fr	-9087
▁한거야	-9088
▁개통	-9089
▁구라청	-9090
▁뉘	-9091
▁청구	-9092
두각	-9093
형님	-9094
▁크로	-9095
▁역사상	-9096
▁안전한	-9097
였을	-9098
▁차단	-9099
▁진술	-9100
▁찾았어	-9101
된거	-9102
순이	-9103
).	-9104
▁켈	-9105
▁민폐	-9106
디는	-9107
▁박지	-9108
▁원하지	-9109
▁이런데	-9110
▁조롱	-9111
당하는	-9112
집은	-9113
▁깝	-9114
회는	-9115
▁점을	-9116
▁식민지	-9117
▁45	-9118
▁현역	-9119
▁시작해	-9120
위기	-9121
민주당	-9122
▁이러는	-9123
▁모르죠	-9124
모델	-9125
▁재단	-9126
▁바지	-9127
▁쩌	-9128
▁하려면	-9129
류가	-9130
▁터질	-9131
ight	-9132
▁sh	-9133
▁전북	-9134
▁뻘	-9135
▁약한	-9136
▁kt	-9137
▁것이지	-9138
누진	-9139
물관	-9140
▁어떨까	-9141
▁지키는	-9142
▁개업	-9143
조는	-9144
▁삭제	-9145
원들	-9146
▁선의	-9147
▁화물	-9148
▁휘발	-9149
▁그림을	-9150
▁입국	-9151
▁뒈	-9152
▁소수	-9153
▁불량	-9154
▁첩	-9155
박사모	-9156
▁현실이	-9157
▁참을	-9158
▁가보	-9159
▁공을	-9160
▁김일	-9161
▁봉사	-9162
▁싫어서	-9163
▁갈래	-9164
▁나서서	-9165
프가	-9166
▁나가고	-9167
▁얼어	-9168
▁능력을	-9169
나오면	-9170
▁미국을	-9171
오게	-9172
파이	-9173
▁할래	-9174
▁역사가	-9175
▁대수	-9176
▁재밌는	-9177
안해	-9178
▁fa	-9179
보드	-9180
▁할것	-9181
▁결론은	-9182
▁조선의	-9183
▁사랑의	-9184
홍철	-9185
▁느끼는	-9186
▁사악한	-9187
▁개교	-9188
▁생각함	-9189
감정	-9190
▁돈주고	-9191
▁따위	-9192
▁사정	-9193
▁댓글이	-9194
▁울고	-9195
▁미국과	-9196
▁두개	-9197
▁대니	-9198
새누리	-9199
▁못차	-9200
▁최근에	-9201
▁취재	-9202
▁법대로	-9203
미로	-9204
▁브래	-9205
▁시에	-9206
▁가슴에	-9207
▁팬들	-9208
출연	-9209
▁볼까	-9210
▁김고은	-9211
▁탕	-9212
복이	-9213
▁대대	-9214
▁배워	-9215
버는	-9216
▁칩	-9217
▁잣	-9218
▁결과는	-9219
했다가	-9220
▁됐죠	-9221
▁달린	-9222
▁모래	-9223
▁조사를	-9224
▁궤	-9225
할께	-9226
일반	-9227
▁기소	-9228
▁버릇	-9229
셨나요	-9230
▁내리고	-9231
▁문제로	-9232
▁박탈	-9233
▁안드	-9234
▁철거	-9235
▁전부다	-9236
▁인생의	-9237
ine	-9238
km	-9239
된다는	-9240
▁삥뜯	-9241
▁전범	-9242
▁그릇	-9243
▁표준	-9244
▁주먹	-9245
▁주제	-9246
▁지도자	-9247
천지	-9248
▁망하게	-9249
년전에	-9250
▁상담	-9251
애를	-9252
▁왕자	-9253
것네	-9254
▁실컷	-9255
▁지났	-9256
▁커다란	-9257
▁접촉	-9258
▁집착	-9259
▁이긴	-9260
▁뻔뻔한	-9261
▁웃기고	-9262
13	-9263
▁무기를	-9264
▁법의	-9265
▁다같이	-9266
법원	-9267
▁마트	-9268
독재	-9269
▁정의를	-9270
▁택배	-9271
▁일종의	-9272
▁이나	-9273
▁동아	-9274
망을	-9275
▁대단해	-9276
qu	-9277
많다	-9278
▁처단	-9279
지는데	-9280
▁레전	-9281
싫어	-9282
▁토끼	-9283
▁시킬	-9284
질에	-9285
▁짜증나	-9286
▁꼼수	-9287
▁내린	-9288
▁사회에	-9289
▁모험	-9290
▁클래	-9291
차례	-9292
▁자네의	-9293
▁현실은	-9294
▁소식이	-9295
디아	-9296
기획	-9297
▁가봐	-9298
▁해줘야	-9299
▁계획이	-9300
8%	-9301
▁정준하	-9302
▁사부	-9303
버리는	-9304
▁해야할	-9305
▁저것	-9306
▁오를	-9307
▁후쿠	-9308
억을	-9309
▁관객	-9310
▁이라크	-9311
▁젝키	-9312
그럴	-9313
▁간에	-9314
▁들리	-9315
총리	-9316
▁닭근혜	-9317
▁산타	-9318
▁케이스	-9319
역이	-9320
▁콘서트	-9321
어져	-9322
세이	-9323
▁있었을	-9324
▁저런거	-9325
안은	-9326
▁처형	-9327
▁오사카	-9328
▁송중	-9329
14	-9330
있던	-9331
비싸	-9332
셨다	-9333
공부	-9334
감도	-9335
▁생활을	-9336
▁중간에	-9337
▁꼴이	-9338
맞아	-9339
▁감정을	-9340
▁연혁	-9341
▁춤을	-9342
▁싶었어	-9343
겼어	-9344
▁교사	-9345
락을	-9346
ers	-9347
▁남는	-9348
▁가볍	-9349
▁로비	-9350
▁sp	-9351
▁수장	-9352
인물	-9353
▁변호인	-9354
자랑	-9355
▁사라졌	-9356
대해	-9357
어의	-9358
▁얻은	-9359
위해서	-9360
▁책임이	-9361
▁주둥	-9362
▁쉬고	-9363
▁관심도	-9364
▁했냐	-9365
인간들	-9366
▁왕이	-9367
▁수녀	-9368
▁에너지	-9369
▁간절	-9370
▁현명	-9371
▁아이오	-9372
▁구름	-9373
▁피고	-9374
▁라인	-9375
▁주소	-9376
▁정체	-9377
▁분들은	-9378
▁전화해	-9379
▁재정	-9380
볼게	-9381
보이는	-9382
▁동참	-9383
▁효과가	-9384
만원씩	-9385
▁측근	-9386
▁폭풍	-9387
▁남편은	-9388
▁알았죠	-9389
▁씨발	-9390
▁쐈	-9391
시원	-9392
▁전용	-9393
부터가	-9394
수입	-9395
▁경유차	-9396
▁바비	-9397
▁앞뒤	-9398
약한	-9399
▁천국	-9400
트라	-9401
▁실질	-9402
▁가라앉	-9403
▁수요	-9404
▁백수	-9405
▁할배	-9406
작을	-9407
롭고	-9408
▁희망을	-9409
▁ᅲᅲᅲ	-9410
미나	-9411
▁시발	-9412
▁밝혀라	-9413
▁부끄러	-9414
커스	-9415
▁부들	-9416
하겠지만	-9417
▁진실은	-9418
▁자진	-9419
▁싸우고	-9420
▁수단	-9421
무지	-9422
▁층	-9423
현의	-9424
▁상대가	-9425
▁질문을	-9426
▁아니니	-9427
▁꿀잼	-9428
▁환수	-9429
▁지켜야	-9430
▁버는	-9431
▁연도	-9432
▁병신년	-9433
▁안남	-9434
▁사건은	-9435
▁경기가	-9436
▁불이	-9437
▁1,	-9438
상한	-9439
▁도망가	-9440
▁중계	-9441
장사	-9442
팬들	-9443
▁놀라운	-9444
▁이념	-9445
▁이외	-9446
투수	-9447
▁먼지	-9448
▁그런건	-9449
▁클린	-9450
▁되나요	-9451
▁말해야	-9452
공격	-9453
일리	-9454
안하면	-9455
▁일으키	-9456
▁영토	-9457
▁전반	-9458
▁기억을	-9459
▁치즈	-9460
▁즐겁게	-9461
다들	-9462
▁애도	-9463
▁파이팅	-9464
▁표창	-9465
▁되니	-9466
▁벌을	-9467
▁이재명	-9468
중한	-9469
▁이진욱	-9470
▁저한테	-9471
드리고	-9472
중요	-9473
▁진작에	-9474
..."	-9475
이겠지	-9476
▁경제를	-9477
▁세계의	-9478
해운	-9479
▁몰입	-9480
▁이글	-9481
▁잡으면	-9482
▁김현	-9483
▁마디	-9484
▁기회에	-9485
▁떠올	-9486
▁사나	-9487
▁인건	-9488
▁혈세	-9489
▁이전에	-9490
외국	-9491
▁lg	-9492
▁임창	-9493
▁무뇌	-9494
▁살자	-9495
적이야	-9496
▁반란	-9497
하겠냐	-9498
▁발을	-9499
▁탄핵은	-9500
▁패션	-9501
령을	-9502
았죠	-9503
▁지고	-9504
▁액션	-9505
▁넓은	-9506
▁걸쳐	-9507
의도	-9508
아파트	-9509
▁이수	-9510
당장	-9511
드러	-9512
▁cm	-9513
▁침략	-9514
▁베르	-9515
도대체	-9516
좋겠다	-9517
▁됐고	-9518
▁어색	-9519
▁증인	-9520
▁년도	-9521
▁제니	-9522
▁총기	-9523
▁옛날에	-9524
▁한국도	-9525
▁촛불을	-9526
▁꼬리	-9527
▁성숙	-9528
▁나요	-9529
▁되돌	-9530
▁게이트	-9531
함으로써	-9532
수술	-9533
▁하나님	-9534
경우	-9535
▁실업	-9536
▁날씨가	-9537
력에	-9538
▁환장	-9539
▁바래요	-9540
▁몹	-9541
▁돌고	-9542
▁단통법	-9543
▁프리미	-9544
▁기업은	-9545
▁돼서	-9546
▁비호감	-9547
▁남쪽	-9548
▁잘어울	-9549
▁훅	-9550
▁않았을	-9551
▁껌	-9552
할줄	-9553
로드	-9554
▁이름도	-9555
▁빠르게	-9556
▁디스	-9557
▁그리곤	-9558
.3	-9559
브리	-9560
월드	-9561
▁민심	-9562
▁호흡	-9563
▁FA	-9564
하기가	-9565
▁엄격	-9566
주길	-9567
▁위험해	-9568
▁국뽕	-9569
▁냄비	-9570
▁다음날	-9571
▁기쁨	-9572
▁내려가	-9573
▁누군데	-9574
▁파워	-9575
능한	-9576
...!	-9577
▁팍팍	-9578
서서	-9579
예보	-9580
▁이상이	-9581
▁27	-9582
입장	-9583
▁빵빵	-9584
▁완료	-9585
▁토니	-9586
령이	-9587
▁밥먹	-9588
▁디지털	-9589
하기를	-9590
톨릭	-9591
돼서	-9592
▁as	-9593
▁대마	-9594
▁받는다	-9595
▁상처를	-9596
▁동성애	-9597
작은	-9598
▁유언	-9599
▁이모양	-9600
▁머릿	-9601
다지	-9602
주나	-9603
▁로버트	-9604
▁인성이	-9605
▁괜찮다	-9606
▁알려진	-9607
▁마침내	-9608
▁필요도	-9609
아내	-9610
한테서	-9611
▁말씀을	-9612
▁지저분	-9613
있는거	-9614
기네	-9615
▁삶이	-9616
▁바꾸고	-9617
▁각본	-9618
없애	-9619
▁구별	-9620
형으로	-9621
▁의견을	-9622
▁출판	-9623
▁유혹	-9624
ell	-9625
▁씨를	-9626
▁알렉스	-9627
▁명단	-9628
▁고개를	-9629
▁z	-9630
▁중립	-9631
포드	-9632
▁이완영	-9633
▁보죠	-9634
▁실수를	-9635
시도	-9636
▁보내는	-9637
▁나오네	-9638
률이	-9639
▁장식	-9640
▁있는것	-9641
▁유인	-9642
▁오케이	-9643
▁촛불은	-9644
▁한푼	-9645
▁바닥에	-9646
▁비참	-9647
▁여기선	-9648
데체	-9649
셔요	-9650
▁알수	-9651
▁말투	-9652
▁누구요	-9653
▁H	-9654
사지	-9655
▁올려라	-9656
▁아녀	-9657
▁노란	-9658
자라	-9659
한대	-9660
▁터널	-9661
없으니	-9662
▁진화	-9663
ᅵᅵ	-9664
▁소위	-9665
▁그레	-9666
▁모니	-9667
▁바꿔야	-9668
학을	-9669
레이크	-9670
▁따라와	-9671
▁중국을	-9672
▁힘으로	-9673
▁tr	-9674
▁힘들고	-9675
▁까는	-9676
▁해주는	-9677
트넘	-9678
렸다고	-9679
▁알아보	-9680
지않는	-9681
상관	-9682
▁싶다고	-9683
프리	-9684
▁학살	-9685
▁자리가	-9686
▁작정	-9687
▁중국과	-9688
▁복사	-9689
있는지	-9690
▁김종민	-9691
▁할텐데	-9692
▁대사관	-9693
▁됐네	-9694
▁방영	-9695
▁해치	-9696
▁우연히	-9697
대국	-9698
줄께	-9699
▁29	-9700
▁역사의	-9701
ᄇᄃ	-9702
▁관저	-9703
▁자체를	-9704
전한	-9705
▁년이	-9706
좋고	-9707
들이여	-9708
▁텍사	-9709
tv	-9710
▁꼽	-9711
▁투명	-9712
▁쓴다	-9713
▁샐	-9714
▁니콜	-9715
▁양보	-9716
신문	-9717
▁퇴직	-9718
▁더는	-9719
▁강원도	-9720
▁잊고	-9721
▁버리는	-9722
으실	-9723
ᅮᅮᅮᅮ	-9724
▁주말에	-9725
▁깜빡	-9726
▁보석	-9727
▁빌딩	-9728
▁보기엔	-9729
▁이랬	-9730
▁직원들	-9731
▁말했어	-9732
▁가정용	-9733
기기	-9734
▁여겨	-9735
▁꺼지	-9736
▁싸우는	-9737
엔딩	-9738
▁샴	-9739
?.	-9740
이던	-9741
▁마냥	-9742
▁뿐이지	-9743
써라	-9744
잡을	-9745
▁비롯한	-9746
려니	-9747
▁선출	-9748
▁흔히	-9749
▁길게	-9750
▁아닌거	-9751
▁가계	-9752
▁폭파	-9753
▁지혜	-9754
▁정권을	-9755
▁미니	-9756
▁다는	-9757
▁체크	-9758
▁정치가	-9759
꺼면	-9760
▁싸워	-9761
▁있는건	-9762
둘이	-9763
▁재앙	-9764
부장	-9765
치다	-9766
▁인기가	-9767
▁발로	-9768
▁ᅢ	-9769
혐의	-9770
▁보물	-9771
▁대량	-9772
수와	-9773
파티	-9774
부와	-9775
▁어떤가	-9776
▁냉장	-9777
했을까	-9778
▁것들을	-9779
수아	-9780
터를	-9781
▁시인	-9782
어야한다	-9783
▁반영	-9784
▁팀을	-9785
론을	-9786
▁교수님	-9787
▁비율	-9788
▁가벼	-9789
▁노승일	-9790
TV	-9791
▁룸	-9792
▁거두	-9793
▁독도	-9794
여름	-9795
▁싸구려	-9796
▁유신	-9797
▁모으	-9798
였지만	-9799
▁애들도	-9800
▁계좌	-9801
해진다	-9802
군에	-9803
▁사라진	-9804
▁정도가	-9805
진심	-9806
▁추종	-9807
로의	-9808
▁경북	-9809
렸습니다	-9810
말이야	-9811
트릭	-9812
▁사고를	-9813
소속	-9814
▁마당에	-9815
작이	-9816
▁약혼	-9817
트럼프	-9818
▁스트레	-9819
끼고	-9820
▁세운	-9821
▁점이	-9822
다시피	-9823
▁생겼네	-9824
▁왜케	-9825
▁생각만	-9826
▁구치소	-9827
▁국가와	-9828
▁바꾼	-9829
▁집합	-9830
▁경찰서	-9831
▁빠지	-9832
▁날라	-9833
ain	-9834
▁콩밥	-9835
▁죽였어	-9836
▁밀고	-9837
더라면	-9838
▁정의가	-9839
▁만나게	-9840
뭡니까	-9841
▁법으로	-9842
▁너나	-9843
▁대피	-9844
▁사회의	-9845
▁감정이	-9846
한미	-9847
▁두분	-9848
식에	-9849
▁특별히	-9850
슨이	-9851
▁싶네	-9852
▁페르	-9853
▁화를	-9854
▁영양	-9855
사라	-9856
즈는	-9857
기때문에	-9858
▁쿨	-9859
어차피	-9860
쓰면	-9861
▁같냐	-9862
수준이	-9863
.'	-9864
▁■	-9865
▁베스트	-9866
▁다카	-9867
▁어처	-9868
▁기업들	-9869
▁양심이	-9870
▁허리	-9871
▁fif	-9872
몰라	-9873
▁스티븐	-9874
▁저의	-9875
▁팬들이	-9876
▁내일은	-9877
▁사막	-9878
리들	-9879
▁ᄅ혜	-9880
로로	-9881
▁본선	-9882
▁내겐	-9883
부끄	-9884
색을	-9885
▁언론과	-9886
▁벗겨	-9887
▁뵈	-9888
▁똑같다	-9889
▁않은데	-9890
공화	-9891
▁갔는데	-9892
▁좋죠	-9893
▁여자와	-9894
억씩	-9895
▁무효	-9896
했을때	-9897
▁자기는	-9898
▁트레이	-9899
갈이	-9900
▁대해선	-9901
▁바뀔	-9902
▁시상식	-9903
▁정부에	-9904
▁IS	-9905
신다	-9906
제국	-9907
▁or	-9908
▁마티	-9909
▁어렵다	-9910
▁준비를	-9911
들어가	-9912
아버지	-9913
▁보조	-9914
어느	-9915
▁못함	-9916
▁득점	-9917
다니고	-9918
▁생겼다	-9919
▁무례	-9920
기한	-9921
▁있을때	-9922
▁테이블	-9923
▁농구	-9924
▁이정현	-9925
▁노는	-9926
▁김진태	-9927
▁36	-9928
도둑	-9929
▁더한	-9930
▁생기는	-9931
내요	-9932
업이	-9933
▁꺾	-9934
회견	-9935
▁퉤	-9936
▁간단한	-9937
시네요	-9938
▁손님이	-9939
▁관료	-9940
행동	-9941
▁이집	-9942
▁영구	-9943
쳤어요	-9944
자라고	-9945
나왔	-9946
자들에게	-9947
▁새삼	-9948
방으로	-9949
▁어렸을	-9950
▁뇌물죄	-9951
▁고백	-9952
▁수원	-9953
▁쫓겨	-9954
ong	-9955
▁그닥	-9956
▁신상	-9957
▁뇬	-9958
▁어떤지	-9959
▁머저리	-9960
▁관찰	-9961
▁안간다	-9962
xx	-9963
▁돈받고	-9964
▁타임	-9965
▁이분	-9966
▁안다고	-9967
관의	-9968
▁잘하면	-9969
무를	-9970
간히	-9971
pl	-9972
▁있다니	-9973
탱이	-9974
▁정권이	-9975
▁누구든	-9976
소비	-9977
▁맞네	-9978
▁엽	-9979
질로	-9980
▁할줄	-9981
▁후원	-9982
부러	-9983
▁무당	-9984
▁#	-9985
ae	-9986
▁전공	-9987
▁꼭두각	-9988
▁보여준	-9989
▁한미	-9990
독한	-9991
▁조기	-9992
▁댓글들	-9993
▁여자야	-9994
▁이러고	-9995
▁사우	-9996
마르	-9997
되며	-9998
▁들러	-9999
일만	-10000
타이	-10001
금은	-10002
▁반짝	-10003
행복	-10004
량은	-10005
▁당하는	-10006
였다면	-10007
▁가능성	-10008
▁텐	-10009
▁역사는	-10010
▁껍	-10011
범이	-10012
▁쎄	-10013
▁대학생	-10014
♡♡♡♡	-10015
밀리	-10016
▁되어서	-10017
산에	-10018
▁조절	-10019
바지	-10020
▁잡은	-10021
▁부작	-10022
▁극우	-10023
▁냉정	-10024
시스	-10025
▁나와야	-10026
▁지니	-10027
이해	-10028
▁부엌	-10029
▁로저	-10030
▁되야	-10031
▁스키	-10032
자로서	-10033
▁네티즌	-10034
▁스토리	-10035
▁줘라	-10036
▁밧	-10037
▁뻔한	-10038
▁한두번	-10039
무서	-10040
▁그러한	-10041
▁속의	-10042
▁그니까	-10043
▁니네가	-10044
▁선전	-10045
▁가는게	-10046
▁악몽	-10047
▁사라질	-10048
▁우수	-10049
▁안지	-10050
▁선풍	-10051
▁잡아야	-10052
▁pc	-10053
▁조장	-10054
▁데이비	-10055
▁상당	-10056
▁산업용	-10057
▁있어라	-10058
▁계열	-10059
▁현명한	-10060
▁부처	-10061
▁근육	-10062
▁원자	-10063
갔는데	-10064
▁떡검	-10065
▁입맛	-10066
▁거꾸로	-10067
▁문죄인	-10068
▁엎드려	-10069
경에	-10070
려고요	-10071
엄청	-10072
이라구요	-10073
하면서도	-10074
▁앱	-10075
카이	-10076
▁더럽고	-10077
▁묶어	-10078
인들의	-10079
▁마틴	-10080
▁걱정이	-10081
던거	-10082
▁여배우	-10083
아의	-10084
▁뜻이야	-10085
▁역겹다	-10086
이재	-10087
했으나	-10088
▁꿈꾸	-10089
가스	-10090
▁생각한	-10091
▁펑펑	-10092
▁깜빵	-10093
▁죽어야	-10094
▁말해서	-10095
없나	-10096
프를	-10097
▁것임	-10098
▁보존	-10099
▁살아서	-10100
▁정치에	-10101
▁좋으면	-10102
▁한건	-10103
남이	-10104
의사	-10105
▁말이냐	-10106
▁폴란드	-10107
론이	-10108
긋지	-10109
할께요	-10110
주니	-10111
▁지명	-10112
교사	-10113
란히	-10114
▁사업을	-10115
MF	-10116
▁송지효	-10117
▁방송국	-10118
▁아랍	-10119
▁차트	-10120
무가	-10121
▁쯤	-10122
▁케이블	-10123
리한	-10124
▁쿠데타	-10125
섰다	-10126
▁바랄	-10127
▁출장	-10128
▁도우	-10129
랐다	-10130
ef	-10131
담배	-10132
안함	-10133
▁en	-10134
장면	-10135
▁5.	-10136
▁바닷	-10137
태극	-10138
▁폭망	-10139
▁음악을	-10140
▁하고싶	-10141
▁정황	-10142
열한	-10143
▁순수한	-10144
▁안보고	-10145
나미	-10146
▁하자고	-10147
▁인디언	-10148
▁여잔	-10149
▁국도	-10150
▁트리	-10151
자만	-10152
했겠지	-10153
되야	-10154
▁녀석은	-10155
▁사람만	-10156
좋게	-10157
판결	-10158
▁신동	-10159
▁구두	-10160
▁얹	-10161
로이	-10162
▁다른데	-10163
▁유태	-10164
▁꼴보기	-10165
은데	-10166
▁대고	-10167
▁김태희	-10168
인해	-10169
할거다	-10170
로그	-10171
▁쏜	-10172
▁했음	-10173
▁여기도	-10174
▁주어	-10175
▁확실해	-10176
급으로	-10177
▁처녀	-10178
▁보라	-10179
▁메모	-10180
랜드의	-10181
▁드리죠	-10182
▁계엄	-10183
▁착륙	-10184
▁배우고	-10185
년만에	-10186
▁웃기네	-10187
▁아키	-10188
피스	-10189
안된다	-10190
직한	-10191
하십니다	-10192
▁열고	-10193
▁대국민	-10194
줘야지	-10195
▁경제적	-10196
▁소화	-10197
▁이끌어	-10198
▁북한의	-10199
함과	-10200
손으로	-10201
▁일부터	-10202
▁욱	-10203
▁활동을	-10204
▁티파니	-10205
▁결혼할	-10206
▁낙하	-10207
▁끝났다	-10208
▁영화는	-10209
▁불꽃	-10210
▁심심	-10211
▁용기	-10212
대면	-10213
▁막고	-10214
▁유튜브	-10215
▁유치원	-10216
▁라스	-10217
▁전철	-10218
호의	-10219
▁구축	-10220
▁박씨	-10221
▁유모	-10222
▁정부를	-10223
▁터진	-10224
▁않죠	-10225
하게도	-10226
선언	-10227
세끼	-10228
▁올게	-10229
▁아빠를	-10230
혁명	-10231
셨습니다	-10232
모르는	-10233
▁이거야	-10234
▁있겠죠	-10235
▁옵	-10236
hn	-10237
▁울나라	-10238
▁것이며	-10239
▁낡	-10240
▁딱히	-10241
▁봤을	-10242
ᄀᄀ	-10243
▁갈까	-10244
코스	-10245
▁혐의	-10246
갔어요	-10247
▁드라이	-10248
▁국무	-10249
▁오타	-10250
하자는	-10251
▁할려고	-10252
염병	-10253
▁결합	-10254
안돼	-10255
▁뭡니까	-10256
▁엉덩이	-10257
데스	-10258
▁웃는	-10259
▁내려놔	-10260
나나	-10261
었군	-10262
▁연기는	-10263
ᄅ혜	-10264
권도	-10265
▁종목	-10266
가에서	-10267
▁다니고	-10268
억은	-10269
인지는	-10270
▁나가요	-10271
▁영혼을	-10272
▁후지	-10273
▁의학	-10274
・。	-10275
▁약물	-10276
▁데려와	-10277
▁교황	-10278
대비	-10279
바겐	-10280
▁잠이	-10281
▁노홍철	-10282
하던가	-10283
해주지	-10284
▁튼	-10285
스크림	-10286
▁부실	-10287
▁조언	-10288
ob	-10289
▁살림	-10290
▁법과	-10291
▁어서요	-10292
▁씨는	-10293
단지	-10294
▁현지	-10295
▁몇달	-10296
▁저들이	-10297
▁수사를	-10298
▁상태가	-10299
어찌	-10300
▁듯한	-10301
아침	-10302
그로	-10303
▁바람이	-10304
▁se	-10305
▁가르치	-10306
▁소리지	-10307
▁뭘로	-10308
▁참아	-10309
▁여깄	-10310
▁자발	-10311
니들이	-10312
99	-10313
방은	-10314
행정	-10315
▁어떡해	-10316
▁국가에	-10317
▁산책	-10318
▁학생들	-10319
오르	-10320
▁끼워	-10321
▁애인	-10322
개인	-10323
곳은	-10324
▁일치	-10325
▁개미	-10326
▁드럽게	-10327
▁삼성의	-10328
▁수집	-10329
만든	-10330
▁징계	-10331
▁시달	-10332
▁줄을	-10333
▁혈액	-10334
▁걸세	-10335
▁살리	-10336
▁파헤	-10337
▁프로듀	-10338
▁걔가	-10339
온다고	-10340
▁엉뚱한	-10341
▁세상의	-10342
▁컴백	-10343
▁못하지	-10344
노무현	-10345
▁와이프	-10346
들인	-10347
오나	-10348
▁누구랑	-10349
▁과장	-10350
▁하얀	-10351
▁휩	-10352
▁줄까	-10353
▁일으켜	-10354
▁일인데	-10355
▁신체	-10356
▁오픈	-10357
▁파산	-10358
▁120	-10359
▁침입	-10360
익을	-10361
▁대화를	-10362
▁관여	-10363
▁그치만	-10364
▁설정	-10365
▁고치	-10366
▁고개	-10367
▁pr	-10368
▁않는데	-10369
ph	-10370
없을	-10371
조합	-10372
▁전개	-10373
오카	-10374
▁과정	-10375
하겠	-10376
▁유기	-10377
료는	-10378
▁야근	-10379
▁융	-10380
▁버텨	-10381
▁시계	-10382
▁소속사	-10383
▁어디야	-10384
집어	-10385
▁넘어서	-10386
▁사라지	-10387
이구만	-10388
하니깐	-10389
구치	-10390
▁멋져요	-10391
▁안마	-10392
프로그램	-10393
되도	-10394
▁트랙	-10395
보로	-10396
▁뜰	-10397
덕에	-10398
류를	-10399
족이	-10400
▁봐봐	-10401
크는	-10402
먹으면	-10403
말아	-10404
▁한계	-10405
▁자칭	-10406
하고자	-10407
정호	-10408
▁뭘까	-10409
▁믿는다	-10410
▁정부와	-10411
충이	-10412
▁논의	-10413
▁생각나	-10414
▁신은	-10415
감에	-10416
▁번도	-10417
▁번역	-10418
▁서비	-10419
▁오승	-10420
했군	-10421
▁겸손	-10422
▁터지	-10423
▁며느	-10424
▁오늘의	-10425
▁엄마랑	-10426
세여	-10427
▁구나	-10428
스틴	-10429
▁여우	-10430
▁아담	-10431
쪽에서	-10432
▁비선	-10433
위치	-10434
했구나	-10435
몰이	-10436
▁sm	-10437
▁고만	-10438
▁부도	-10439
▁가자고	-10440
르르	-10441
먹지	-10442
▁맴	-10443
▁나옴	-10444
▁부르지	-10445
▁어린애	-10446
▁구원	-10447
▁간섭	-10448
▁않소	-10449
▁임마	-10450
▁대상이	-10451
소년	-10452
▁걸까	-10453
▁이리로	-10454
인터	-10455
▁노르	-10456
▁하위	-10457
▁의해서	-10458
해야죠	-10459
▁보나	-10460
▁강압	-10461
결정	-10462
▁툭	-10463
에휴	-10464
▁비겁	-10465
▁신세	-10466
향을	-10467
▁여당	-10468
▁다음주	-10469
▁납득	-10470
▁이화	-10471
▁모자라	-10472
▁있다구	-10473
▁축복	-10474
▁대다수	-10475
권의	-10476
생산	-10477
가는데	-10478
▁세금은	-10479
▁쿵	-10480
것같은데	-10481
셔야죠	-10482
주변	-10483
▁출생	-10484
우기	-10485
▁호구로	-10486
▁휘둘	-10487
를린	-10488
포로	-10489
라임	-10490
부담	-10491
▁그분	-10492
발로	-10493
▁전체를	-10494
▁극단	-10495
▁상업	-10496
▁해봐야	-10497
▁거슬	-10498
차고	-10499
기업이	-10500
▁최신	-10501
▁양심도	-10502
▁모를까	-10503
▁행복해	-10504
▁찾으러	-10505
▁육성	-10506
▁파이	-10507
▁자매	-10508
▁물고기	-10509
량한	-10510
재미	-10511
▁미련	-10512
▁연대	-10513
▁어려울	-10514
와이	-10515
▁편입	-10516
▁서로를	-10517
▁더운	-10518
야만	-10519
▁컬	-10520
상승	-10521
▁꼬라	-10522
▁우스	-10523
노예	-10524
▁꿈이	-10525
▁사격	-10526
고있네	-10527
▁가해	-10528
▁물어봐	-10529
회에서	-10530
▁듯이	-10531
▁시술	-10532
▁여주	-10533
▁핵무	-10534
▁가결	-10535
▁여행을	-10536
▁길에	-10537
나의	-10538
▁생겼어	-10539
▁맞다고	-10540
체육	-10541
▁짭	-10542
▁하수	-10543
PC	-10544
▁되었고	-10545
▁경우도	-10546
▁당할	-10547
▁쌓아	-10548
▁처음에	-10549
▁내용은	-10550
▁덕에	-10551
▁된장	-10552
▁호날두	-10553
▁헝	-10554
▁못생긴	-10555
▁감수	-10556
졌다고	-10557
갑시다	-10558
▁소식을	-10559
▁웃긴다	-10560
▁안아	-10561
▁해외로	-10562
▁모양이	-10563
▁방을	-10564
▁멋있	-10565
▁추워	-10566
▁어쩌구	-10567
저래	-10568
경은	-10569
▁인격	-10570
에다가	-10571
@@	-10572
다닐	-10573
▁살수	-10574
▁부족한	-10575
미야	-10576
에이	-10577
▁사리	-10578
▁또다른	-10579
▁또다시	-10580
▁알고있	-10581
▁저정도	-10582
라는걸	-10583
▁정윤	-10584
▁범죄를	-10585
월급	-10586
주의는	-10587
▁마케팅	-10588
▁천사	-10589
자들도	-10590
▁초콜	-10591
그대로	-10592
▁화재	-10593
▁50%	-10594
▁at	-10595
신고	-10596
▁늦었어	-10597
진당	-10598
▁상호	-10599
▁널리	-10600
버리면	-10601
▁달콤	-10602
▁줘서	-10603
▁싫다고	-10604
▁똑같아	-10605
속의	-10606
▁서서히	-10607
▁녀	-10608
▁승강장	-10609
ort	-10610
▁안하	-10611
▁con	-10612
▁갖게	-10613
▁누구는	-10614
▁미래는	-10615
▁도시락	-10616
비의	-10617
렸고	-10618
▁찾은	-10619
▁사진이	-10620
▁김치녀	-10621
▁성질	-10622
▁호로	-10623
▁짓은	-10624
법인	-10625
▁배터	-10626
▁보라고	-10627
▁전파	-10628
▁매수	-10629
▁성과급	-10630
▁것인지	-10631
▁머가	-10632
바뀌	-10633
▁뭔데요	-10634
▁시끄러	-10635
▁전교	-10636
▁●	-10637
▁히트	-10638
▁조사해	-10639
▁순시	-10640
▁히틀러	-10641
중의	-10642
자격	-10643
문제가	-10644
▁나쁘지	-10645
▁떴	-10646
우리는	-10647
▁가깝	-10648
팀은	-10649
▁소장	-10650
▁잘해서	-10651
▁끼리	-10652
▁전사	-10653
▁투쟁	-10654
그림	-10655
대서	-10656
▁죽어서	-10657
▁대결	-10658
▁배후	-10659
▁sns	-10660
▁지들은	-10661
▁사야	-10662
▁못했어	-10663
▁키우는	-10664
▁해본	-10665
미에	-10666
▁보인	-10667
시까지	-10668
▁톱	-10669
니를	-10670
▁화면	-10671
▁노래가	-10672
▁it	-10673
▁쌈	-10674
그건	-10675
읍시다	-10676
맞는	-10677
▁R	-10678
▁사이의	-10679
▁죄인	-10680
▁말로는	-10681
->	-10682
마일	-10683
▁만들기	-10684
소설	-10685
▁수호	-10686
으므로	-10687
▁전면	-10688
반기	-10689
▁해봐요	-10690
▁저장	-10691
시대에	-10692
했었는데	-10693
▁콧	-10694
▁재산을	-10695
조각	-10696
▁예외	-10697
▁노숙	-10698
▁회수	-10699
▁설탕	-10700
들어서	-10701
넘어	-10702
▁작용	-10703
▁저축	-10704
▁김정일	-10705
▁망치	-10706
▁정성	-10707
▁중위	-10708
▁지난해	-10709
▁주전	-10710
매국	-10711
▁사주	-10712
성장	-10713
ian	-10714
▁위대	-10715
▁무상	-10716
▁저들은	-10717
▁불쾌	-10718
▁쓰게	-10719
▁칠푼	-10720
▁문제에	-10721
쪽은	-10722
트워	-10723
▁그만좀	-10724
▁그렇소	-10725
▁본격	-10726
▁조연	-10727
▁자들이	-10728
▁안철수	-10729
▁비고	-10730
▁태국	-10731
퇴근	-10732
▁잘가	-10733
▁만든다	-10734
현은	-10735
▁준다고	-10736
▁치면	-10737
▁파견	-10738
▁명을	-10739
▁중지	-10740
통은	-10741
▁걸리면	-10742
남은	-10743
등급	-10744
▁놈들을	-10745
▁리얼	-10746
▁밝은	-10747
▁문헌	-10748
▁왕따	-10749
게도	-10750
▁축소	-10751
▁도데체	-10752
폭력	-10753
▁낳고	-10754
▁덮어	-10755
과도	-10756
▁비틀	-10757
▁잊혀	-10758
▁줄이고	-10759
▁오브	-10760
▁박명	-10761
▁거듭	-10762
▁법칙	-10763
▁밉	-10764
티브	-10765
▁사용할	-10766
▁채용	-10767
명도	-10768
.?	-10769
맞추	-10770
여자가	-10771
사관	-10772
▁반역	-10773
해줘야	-10774
▁해주면	-10775
▁김밥	-10776
▁스위스	-10777
소녀	-10778
▁되도록	-10779
것들아	-10780
▁웅	-10781
지진	-10782
▁나와도	-10783
▁외출	-10784
개로	-10785
▁한달에	-10786
▁들으면	-10787
랬어	-10788
ᄃᄃᄃ	-10789
초부터	-10790
▁pro	-10791
계에서	-10792
▁아내를	-10793
▁미드	-10794
▁한방에	-10795
이었음	-10796
바꿔	-10797
올리	-10798
ack	-10799
맞은	-10800
▁살아요	-10801
▁오기	-10802
▁저기서	-10803
▁부풀	-10804
속히	-10805
▁평소에	-10806
▁만들었	-10807
▁둘이서	-10808
▁전화가	-10809
다오	-10810
많고	-10811
▁주기	-10812
음악	-10813
▁들어라	-10814
들하고	-10815
불이	-10816
▁알았네	-10817
괜찮	-10818
▁침착	-10819
▁먹어라	-10820
왔습니다	-10821
▁놀랄	-10822
▁있단다	-10823
▁김연	-10824
지와	-10825
▁뛰어나	-10826
▁토트넘	-10827
▁부품	-10828
▁대포폰	-10829
아마	-10830
해선	-10831
한단	-10832
▁신혼	-10833
▁기록을	-10834
없습니다	-10835
▁개똥	-10836
▁인접	-10837
▁손바닥	-10838
하는거다	-10839
▁혁신	-10840
▁쉬는	-10841
▁곱게	-10842
의원이	-10843
▁댓글에	-10844
▁절망	-10845
해야만	-10846
▁맛있는	-10847
▁인공지	-10848
▁져	-10849
▁멋지게	-10850
▁선고	-10851
▁주신	-10852
어머니	-10853
걸이	-10854
재균	-10855
철이	-10856
▁됐는데	-10857
▁역시나	-10858
▁임무를	-10859
유천	-10860
▁보급	-10861
▁해줘요	-10862
▁레이첼	-10863
▁아들은	-10864
하더라도	-10865
▁발휘	-10866
▁어디다	-10867
▁몰랐다	-10868
▁티켓	-10869
▁십자가	-10870
도다	-10871
주셔서	-10872
,000	-10873
▁폭락	-10874
저것	-10875
▁우연	-10876
아니야	-10877
▁내밀	-10878
받으면	-10879
▁수도권	-10880
▁ii	-10881
▁모여서	-10882
▁많았	-10883
▁대단히	-10884
▁보려고	-10885
▁자율	-10886
▁제사	-10887
리러	-10888
졌습니다	-10889
▁지워	-10890
▁남부	-10891
▁귀국	-10892
▁길로	-10893
짜증	-10894
▁그리워	-10895
▁정신적	-10896
평생	-10897
구장	-10898
제작	-10899
▁백화점	-10900
▁유학	-10901
▁해주지	-10902
▁중국산	-10903
▁죄수	-10904
▁너거	-10905
▁정비	-10906
▁불리는	-10907
▁뮤직	-10908
▁모르겠	-10909
▁흩	-10910
▁한동안	-10911
위반	-10912
22	-10913
▁인구가	-10914
인거지	-10915
▁신입	-10916
▁탈세	-10917
다녔	-10918
자본	-10919
전부	-10920
치료	-10921
▁해봤	-10922
▁하느님	-10923
▁방사능	-10924
▁에효	-10925
▁이종석	-10926
▁맞서	-10927
그러나	-10928
▁없겠지	-10929
했나요	-10930
로소	-10931
▁부인은	-10932
▁시켜서	-10933
▁어두운	-10934
▁학원	-10935
▁출석	-10936
▁길은	-10937
▁출마	-10938
▁같은거	-10939
▁한시간	-10940
▁꿰	-10941
▁청춘	-10942
하기에	-10943
▁아부	-10944
건설	-10945
▁귀가	-10946
한것도	-10947
▁아이디	-10948
▁쟈	-10949
▁나가자	-10950
아저	-10951
▁덤벼	-10952
▁ᄃᄃᄃ	-10953
▁문신	-10954
▁회사에	-10955
▁저놈	-10956
▁총선	-10957
버렸어	-10958
▁들지	-10959
▁민영화	-10960
꾼들	-10961
▁고추	-10962
▁소신	-10963
오오	-10964
▁소령	-10965
▁소린	-10966
▁승진	-10967
▁민주화	-10968
se	-10969
불을	-10970
피는	-10971
하듯	-10972
느님	-10973
재밌	-10974
▁카운	-10975
▁갇혀	-10976
유를	-10977
▁잊을	-10978
처음	-10979
확인	-10980
▁메뉴	-10981
▁차에서	-10982
▁늬	-10983
▁한국어	-10984
건이	-10985
심도	-10986
▁어쩐지	-10987
▁급여	-10988
▁죽이려	-10989
▁가려고	-10990
▁목적이	-10991
금으로	-10992
▁대규모	-10993
▁족속	-10994
▁연말	-10995
▁회사를	-10996
두지	-10997
▁전에도	-10998
▁충분한	-10999
음식	-11000
▁보이네	-11001
▁하던가	-11002
▁짓이	-11003
5%	-11004
되는게	-11005
도요	-11006
▁기사로	-11007
러니	-11008
▁샌드	-11009
▁여지가	-11010
하잖아요	-11011
역에	-11012
▁대항	-11013
▁별일	-11014
▁다를게	-11015
트롤	-11016
▁모르냐	-11017
력과	-11018
▁후배	-11019
▁광복절	-11020
어스	-11021
▁권리를	-11022
조로	-11023
▁ᄎ	-11024
심한	-11025
▁자위	-11026
버려야	-11027
자들과	-11028
▁막아야	-11029
▁저희가	-11030
▁우리랑	-11031
▁교육을	-11032
▁입으로	-11033
일지도	-11034
▁세계가	-11035
▁남탓	-11036
는지는	-11037
▁마술	-11038
▁견제	-11039
▁모인	-11040
▁김수	-11041
▁정형돈	-11042
렸으면	-11043
▁장시호	-11044
ity	-11045
할것이다	-11046
▁버틸	-11047
▁치명	-11048
▁읍	-11049
더라고요	-11050
ok	-11051
궁금	-11052
종을	-11053
▁문닫	-11054
▁민노총	-11055
▁차로	-11056
▁치매	-11057
▁무전	-11058
▁나가라	-11059
▁뱅	-11060
창호	-11061
년후	-11062
▁꿇	-11063
▁형은	-11064
▁외치는	-11065
되요	-11066
공업	-11067
▁싸그리	-11068
해야된다	-11069
▁바꿔라	-11070
▁큐	-11071
간첩	-11072
▁레전드	-11073
▁승인	-11074
▁언제든	-11075
▁밝히고	-11076
ive	-11077
▁저녁에	-11078
현재	-11079
▁방치	-11080
문제는	-11081
▁물질	-11082
▁차리	-11083
▁팔아먹	-11084
▁목사	-11085
▁쓰여	-11086
▁엘리자	-11087
색히	-11088
▁루시	-11089
▁왔지	-11090
주게	-11091
▁권리가	-11092
대선	-11093
▁공직	-11094
▁일해	-11095
▁방에서	-11096
▁있던데	-11097
시켰다	-11098
먼트	-11099
▁엄마도	-11100
▁한정	-11101
보죠	-11102
▁도둑질	-11103
무도	-11104
▁맡기	-11105
사과	-11106
▁무리뉴	-11107
▁러브	-11108
▁보증	-11109
▁결혼한	-11110
▁뜬금	-11111
▁입어	-11112
▁군대를	-11113
▁똑같네	-11114
친구가	-11115
ib	-11116
▁가치를	-11117
▁하겠어	-11118
▁마인드	-11119
▁최고다	-11120
산의	-11121
스포츠	-11122
▁정식	-11123
하십시오	-11124
▁노동자	-11125
▁팝	-11126
▁찾기	-11127
▁페이	-11128
한거냐	-11129
▁늙은이	-11130
▁지원을	-11131
▁올리면	-11132
▁한반	-11133
▁국토	-11134
심판	-11135
정상	-11136
▁오라고	-11137
세포	-11138
▁이고	-11139
▁결국엔	-11140
ik	-11141
▁짚	-11142
▁일으킨	-11143
▁구린	-11144
▁유라	-11145
▁좁은	-11146
것에	-11147
▁제이크	-11148
▁가관	-11149
▁낮춰	-11150
▁감소	-11151
편이	-11152
▁뭐라도	-11153
▁이해해	-11154
▁보고도	-11155
',	-11156
▁SK	-11157
받는다	-11158
▁보수가	-11159
더스	-11160
▁주니	-11161
▁얘네	-11162
들갑	-11163
▁이사람	-11164
훈련	-11165
에서나	-11166
리지말고	-11167
공주	-11168
태블릿	-11169
▁놈이야	-11170
▁공인	-11171
▁했다면	-11172
▁뭔가가	-11173
▁통한	-11174
양을	-11175
▁스프	-11176
▁비밀을	-11177
▁아르헨	-11178
▁신념	-11179
▁호감	-11180
껀데	-11181
▁극장	-11182
▁발라	-11183
▁법도	-11184
▁현대차	-11185
▁텅	-11186
▁큰소리	-11187
선생님	-11188
.!	-11189
▁소리는	-11190
겨울	-11191
차량	-11192
▁매너	-11193
▁까발	-11194
▁정우	-11195
▁정착	-11196
추어	-11197
▁행태	-11198
▁있군요	-11199
만들고	-11200
▁머리는	-11201
~2	-11202
▁꿈도	-11203
▁시비	-11204
▁비하	-11205
co	-11206
▁멍멍	-11207
▁10%	-11208
▁위의	-11209
▁600	-11210
▁배우들	-11211
▁끼고	-11212
▁심사	-11213
지하	-11214
▁상상도	-11215
▁터뜨	-11216
▁저번에	-11217
▁한류	-11218
▁전직	-11219
▁숨기	-11220
iv	-11221
해체	-11222
..!	-11223
▁로또	-11224
▁말해요	-11225
오리	-11226
▁고지	-11227
▁안하냐	-11228
고려	-11229
받게	-11230
▁삼성을	-11231
잖어	-11232
줄을	-11233
▁써도	-11234
▁일주	-11235
▁아기를	-11236
▁아내는	-11237
즈의	-11238
국제	-11239
▁맘이	-11240
▁일원	-11241
늦게	-11242
▁말썽	-11243
▁사건의	-11244
▁관제	-11245
▁그때는	-11246
오가	-11247
▁사로	-11248
베이터	-11249
NA	-11250
무니	-11251
▁라이브	-11252
▁들어야	-11253
▁쏙	-11254
▁육상	-11255
▁렉	-11256
▁술집	-11257
▁위를	-11258
거리며	-11259
▁사회를	-11260
▁근사	-11261
▁꽃뱀	-11262
▁안한	-11263
토리	-11264
▁뜨고	-11265
▁끊임	-11266
▁가족들	-11267
❌❌❌❌	-11268
▁말든	-11269
▁단단히	-11270
▁화이트	-11271
▁작품을	-11272
부채	-11273
심에	-11274
▁수습	-11275
▁lo	-11276
▁먹어도	-11277
▁때에	-11278
▁대폭	-11279
왔던	-11280
라우	-11281
자면	-11282
af	-11283
▁남자의	-11284
▁하도록	-11285
저는	-11286
▁멀쩡한	-11287
▁수준의	-11288
▁온다고	-11289
▁열면	-11290
▁느끼고	-11291
자살	-11292
위에서	-11293
베이	-11294
▁쳐넣	-11295
그동안	-11296
기능	-11297
▁엑스	-11298
▁우주의	-11299
▁잡아라	-11300
▁째	-11301
근성	-11302
▁내리는	-11303
▁받았어	-11304
우린	-11305
▁밀려	-11306
▁거네	-11307
▁유형	-11308
▁부르고	-11309
▁힙	-11310
▁커서	-11311
▁시기에	-11312
▁하시고	-11313
공원	-11314
▁나가지	-11315
▁컨셉	-11316
▁배고파	-11317
노릇	-11318
▁야마	-11319
▁괜찮지	-11320
▁잘생긴	-11321
▁내기	-11322
▁아니었	-11323
일때	-11324
▁놀이	-11325
베스	-11326
▁싸고	-11327
▁종종	-11328
가지야	-11329
▁와인	-11330
프는	-11331
▁집어넣	-11332
▁후퇴	-11333
▁스포	-11334
▁참고로	-11335
리만	-11336
▁다르지	-11337
▁따지	-11338
▁에이스	-11339
▁가죠	-11340
▁왜그래	-11341
▁많으니	-11342
▁자식을	-11343
▁눈은	-11344
에대한	-11345
▁된거야	-11346
BI	-11347
▁건축물	-11348
▁이놈의	-11349
▁조치	-11350
▁맞는데	-11351
▁개방	-11352
▁보자고	-11353
▁해설	-11354
▁죽음의	-11355
모로	-11356
▁더러워	-11357
▁문이	-11358
▁읽을	-11359
하라구	-11360
이용	-11361
상과	-11362
▁지코	-11363
▁mc	-11364
▁로빈	-11365
무죄	-11366
▁김광	-11367
이하	-11368
판매	-11369
▁무능력	-11370
▁중산	-11371
▁뮤지컬	-11372
▁감기	-11373
수다	-11374
▁안되요	-11375
가네	-11376
▁유사	-11377
방법	-11378
▁펼쳐	-11379
만원에	-11380
▁개는	-11381
터는	-11382
▁가져올	-11383
▁펀	-11384
처를	-11385
청장	-11386
주라	-11387
▁전망	-11388
▁소문이	-11389
이유가	-11390
▁위치를	-11391
▁일어서	-11392
▁회사는	-11393
체로	-11394
우니	-11395
▁정당한	-11396
이면서	-11397
텐츠	-11398
▁싶지만	-11399
야당	-11400
▁노력을	-11401
▁밥그릇	-11402
▁있음을	-11403
▁찾지	-11404
▁이민호	-11405
▁시리아	-11406
▁다하고	-11407
▁영화가	-11408
▁평생을	-11409
▁상황은	-11410
▁이석기	-11411
고만	-11412
▁동생이	-11413
무성	-11414
▁중의	-11415
긋지긋	-11416
▁된거	-11417
▁유아	-11418
자동차	-11419
▁이쁘다	-11420
▁궁금해	-11421
▁저럴	-11422
입은	-11423
보는데	-11424
보라	-11425
중앙	-11426
국민은	-11427
▁매춘	-11428
▁댓글을	-11429
▁선수를	-11430
줄은	-11431
▁아바	-11432
▁위장	-11433
목으로	-11434
▁태평양	-11435
▁되도	-11436
▁그보다	-11437
▁견디	-11438
▁최선	-11439
▁늦은	-11440
시간을	-11441
▁효율	-11442
▁성공한	-11443
▁말했지	-11444
▁볼만	-11445
▁보임	-11446
▁탐욕	-11447
▁않니	-11448
잡는	-11449
한거고	-11450
래곤	-11451
ate	-11452
▁아재	-11453
하고싶	-11454
란이	-11455
▁받으	-11456
▁판타	-11457
▁재활	-11458
▁온라인	-11459
▁안주	-11460
줄도	-11461
300	-11462
▁갖는	-11463
▁나나	-11464
▁삶은	-11465
▁뒷돈	-11466
▁호갱	-11467
가진	-11468
저도	-11469
▁기후	-11470
▁주최	-11471
고리	-11472
테르테	-11473
▁테이프	-11474
▁유독	-11475
▁이동욱	-11476
▁안드로	-11477
가수	-11478
▁베를린	-11479
▁아래로	-11480
▁아픔	-11481
▁얘기할	-11482
할수있는	-11483
잔치	-11484
▁너같은	-11485
▁상실	-11486
▁공격을	-11487
▁있었네	-11488
함께	-11489
▁세계에	-11490
▁했소	-11491
▁약간의	-11492
▁질문에	-11493
퍼센트	-11494
▁재미가	-11495
이라고요	-11496
EC	-11497
뭐가	-11498
▁생선	-11499
▁아동	-11500
▁되는게	-11501
▁흙수저	-11502
▁내다	-11503
행사	-11504
▁38	-11505
▁아시죠	-11506
▁나불	-11507
▁망하는	-11508
코드	-11509
인식	-11510
그래야	-11511
공을	-11512
린거	-11513
▁그곳에	-11514
▁이들의	-11515
▁핏	-11516
▁보단	-11517
▁홧팅	-11518
▁포도	-11519
▁성우	-11520
▁뻔히	-11521
▁유출	-11522
▁지역에	-11523
했더니	-11524
▁픽	-11525
▁전남	-11526
▁PC	-11527
▁싸가지	-11528
▁강의	-11529
▁담배를	-11530
했어야	-11531
▁필요로	-11532
▁뷰	-11533
▁하라는	-11534
것으로	-11535
역으로	-11536
▁뚝	-11537
▁쟁	-11538
▁높다	-11539
인멸	-11540
▁이왕	-11541
▁이주	-11542
▁경남	-11543
세의	-11544
사유	-11545
▁고속	-11546
▁공원	-11547
▁남친	-11548
▁알라	-11549
미래	-11550
▁힘든데	-11551
▁최초로	-11552
▁일개	-11553
▁났어	-11554
▁더더욱	-11555
▁어리석	-11556
▁면상	-11557
입학	-11558
▁믿기	-11559
금융	-11560
▁기술이	-11561
▁주위에	-11562
건만	-11563
야죠	-11564
▁병사	-11565
일이다	-11566
군데	-11567
▁유전자	-11568
▁일삼	-11569
▁줄리	-11570
▁말인데	-11571
▁메세	-11572
▁유망	-11573
꺼에요	-11574
했기	-11575
▁민감	-11576
▁크루	-11577
▁IMF	-11578
대구	-11579
하고있	-11580
했네요	-11581
▁나타났	-11582
▁올라갈	-11583
지노	-11584
▁브리	-11585
1.	-11586
▁웰	-11587
▁기다렸	-11588
부탁	-11589
▁탈탈	-11590
▁외제차	-11591
랍시고	-11592
▁le	-11593
먹기	-11594
▁서울시	-11595
ud	-11596
▁첫날	-11597
▁한판	-11598
▁바다에	-11599
▁거북	-11600
▁접속	-11601
▁세우고	-11602
▁살길	-11603
주행	-11604
몰랑	-11605
줬다	-11606
항상	-11607
▁나발	-11608
해서요	-11609
▁모르니	-11610
▁모순	-11611
퍼트	-11612
▁가나	-11613
▁미루	-11614
▁아나운	-11615
▁피해가	-11616
개돼지	-11617
론은	-11618
▁보였다	-11619
▁처벌을	-11620
처먹고	-11621
▁어쩌지	-11622
▁아드	-11623
▁이완용	-11624
▁동굴	-11625
▁굴러	-11626
▁승무원	-11627
강도	-11628
▁국민과	-11629
▁am	-11630
▁할리	-11631
▁언젠간	-11632
▁멸종	-11633
편에	-11634
▁훼손	-11635
▁일본과	-11636
▁로즈	-11637
가지다	-11638
▁베네	-11639
로나	-11640
ant	-11641
대장	-11642
ith	-11643
▁때문이	-11644
신경	-11645
▁식품	-11646
노잼	-11647
▁역사적	-11648
▁오라	-11649
▁얘기도	-11650
국회의원	-11651
▁김종국	-11652
▁기적	-11653
전까지	-11654
▁자기를	-11655
http	-11656
준열	-11657
▁한표	-11658
▁칼로	-11659
된다면	-11660
▁인명	-11661
채로	-11662
▁싫고	-11663
▁늑대	-11664
▁얼만	-11665
모는	-11666
뭐냐	-11667
▁그렇군	-11668
▁케이트	-11669
▁너만	-11670
▁줄어들	-11671
것지	-11672
▁새겨	-11673
▁떠나는	-11674
안전	-11675
▁본래	-11676
▁맡은	-11677
▁열폭	-11678
모르고	-11679
▁녹색	-11680
▁독점	-11681
▁같았다	-11682
▁구제	-11683
▁나라로	-11684
▁많다고	-11685
▁새롭게	-11686
▁아까운	-11687
▁유죄	-11688
▁타이밍	-11689
▁세포	-11690
▁고로	-11691
▁일곱	-11692
▁없기	-11693
▁지겹	-11694
▁공부를	-11695
하는것이	-11696
되네요	-11697
▁행동이	-11698
▁법에	-11699
▁준비됐	-11700
▁진주	-11701
▁그사람	-11702
것임	-11703
▁점에서	-11704
▁배우는	-11705
관으로	-11706
▁힘들지	-11707
▁기업의	-11708
▁멋있다	-11709
▁집도	-11710
▁될수	-11711
▁스펙	-11712
▁잘먹고	-11713
▁닭은	-11714
▁이후에	-11715
살을	-11716
▁일들이	-11717
▁오오	-11718
▁응급	-11719
▁트레	-11720
▁전까지	-11721
▁지금껏	-11722
줬어요	-11723
▁선물을	-11724
▁역임	-11725
▁미래의	-11726
▁현재는	-11727
▁휴식	-11728
fc	-11729
▁찐	-11730
대책	-11731
▁찰스	-11732
▁포함한	-11733
인양	-11734
▁형식	-11735
유지	-11736
상청	-11737
▁한통	-11738
국민들은	-11739
▁놔두고	-11740
▁오르고	-11741
▁자치	-11742
▁장비	-11743
▁거리가	-11744
▁장애인	-11745
보임	-11746
▁감추	-11747
냅니다	-11748
▁했을까	-11749
아닌데	-11750
▁옴	-11751
나잇	-11752
▁신라	-11753
▁편파	-11754
▁大	-11755
▁놔둬	-11756
▁이쁘고	-11757
친일	-11758
▁한우	-11759
학적	-11760
하겠어요	-11761
▁기술을	-11762
철도의	-11763
산으로	-11764
▁오늘이	-11765
거짓말	-11766
▁시간도	-11767
▁싶다면	-11768
▁소녀상	-11769
▁포지션	-11770
았냐	-11771
로군	-11772
▁꼬박	-11773
중에서	-11774
▁멋대로	-11775
▁방으로	-11776
씩이나	-11777
▁필립	-11778
▁좋은거	-11779
▁뜻은	-11780
▁댄스	-11781
▁애매	-11782
▁헷	-11783
▁욕할	-11784
▁터트	-11785
셨나	-11786
▁흔들어	-11787
없냐	-11788
▁전성	-11789
미사	-11790
당할	-11791
▁먹었	-11792
▁배우가	-11793
▁알렉산	-11794
물의	-11795
▁하길	-11796
▁가끔은	-11797
▁병역	-11798
▁음료	-11799
▁홀로	-11800
▁데려갈	-11801
▁선임	-11802
▁원인이	-11803
▁발행	-11804
▁그돈	-11805
▁쭈	-11806
서의	-11807
▁마시오	-11808
▁한번에	-11809
▁넘나	-11810
열심히	-11811
▁원가	-11812
▁언덕	-11813
레나	-11814
▁캄	-11815
▁과자	-11816
▁미디어	-11817
써서	-11818
▁호남	-11819
▁일베충	-11820
▁주가	-11821
마에	-11822
놔라	-11823
▁마음의	-11824
▁목이	-11825
▁보내야	-11826
▁겹	-11827
▁네이	-11828
▁셔츠	-11829
▁항복	-11830
할수있	-11831
▁열차	-11832
로에	-11833
빨아	-11834
일으	-11835
▁몰락	-11836
▁적당한	-11837
▁나이도	-11838
끼는	-11839
▁벽에	-11840
하겠소	-11841
▁아사	-11842
▁시카고	-11843
웠는데	-11844
▁오빠가	-11845
본데	-11846
▁호의	-11847
▁맞이	-11848
▁내려라	-11849
분만	-11850
▁배에	-11851
▁쓰는데	-11852
▁독특	-11853
때문이다	-11854
▁말고는	-11855
▁어르신	-11856
서비스	-11857
▁경기장	-11858
값에	-11859
▁멘탈	-11860
졌으면	-11861
▁사건에	-11862
▁죽여야	-11863
▁정신과	-11864
▁im	-11865
▁공정한	-11866
▁돌리	-11867
미도	-11868
대우	-11869
류의	-11870
▁일까지	-11871
▁부분을	-11872
▁거리를	-11873
▁불러서	-11874
공산	-11875
▁갈거야	-11876
▁다른건	-11877
타가	-11878
▁짓고	-11879
▁망한	-11880
▁서인영	-11881
▁나오게	-11882
▁상을	-11883
▁묻어	-11884
▁감독은	-11885
▁보내라	-11886
조차도	-11887
▁양쪽	-11888
▁매니저	-11889
인간이	-11890
▁최우수	-11891
▁건강한	-11892
▁제발요	-11893
▁야이	-11894
하는군	-11895
▁척결	-11896
▁의뢰	-11897
▁않으	-11898
(?)	-11899
▁그로	-11900
▁모아서	-11901
노무	-11902
타로	-11903
▁작별	-11904
▁어느날	-11905
▁->	-11906
름을	-11907
▁이대호	-11908
▁때의	-11909
필드	-11910
▁할매	-11911
▁경제는	-11912
▁su	-11913
▁줄이	-11914
값도	-11915
▁맡고	-11916
▁창의	-11917
▁저것들	-11918
▁방송을	-11919
▁본능	-11920
▁엄벌	-11921
만원짜리	-11922
끝까지	-11923
▁자기네	-11924
▁갖춘	-11925
▁떼어	-11926
▁즐기는	-11927
▁본인의	-11928
드릴까요	-11929
,.	-11930
많아	-11931
▁이럴때	-11932
▁호들갑	-11933
▁가져오	-11934
사서	-11935
스레	-11936
연을	-11937
▁알어	-11938
원들이	-11939
유기	-11940
▁인신	-11941
▁나처럼	-11942
건을	-11943
이야기	-11944
▁헬조센	-11945
▁파티에	-11946
ᅳᅳᅳ	-11947
▁사탕	-11948
문재	-11949
십쇼	-11950
▁LA	-11951
▁한번씩	-11952
▁고래	-11953
▁않았고	-11954
려다	-11955
▁등은	-11956
▁버티고	-11957
타운	-11958
▁나타난	-11959
▁예쁘다	-11960
선택	-11961
으라는	-11962
부장관	-11963
음에	-11964
▁데리러	-11965
▁오만	-11966
▁전경	-11967
▁경질	-11968
기부	-11969
만나	-11970
▁따지면	-11971
호텔	-11972
였구나	-11973
얼마	-11974
절로	-11975
▁이가	-11976
▁이들을	-11977
▁상태로	-11978
기차	-11979
▁것이오	-11980
립시다	-11981
▁입술	-11982
▁들여다	-11983
▁샤오	-11984
▁북한은	-11985
테이	-11986
▁빠질	-11987
▁당일	-11988
▁편이	-11989
▁들먹	-11990
▁잘될	-11991
▁때리고	-11992
께서는	-11993
▁무개념	-11994
▁국정을	-11995
▁여자애	-11996
▁베이스	-11997
급한	-11998
만드	-11999
▁이유도	-12000
ex	-12001
▁빤	-12002
▁우편	-12003
합의	-12004
▁시체를	-12005
▁계단	-12006
▁외노	-12007
▁플래	-12008
▁스코틀	-12009
▁석유	-12010
▁뒤통수	-12011
▁언제쯤	-12012
하던지	-12013
어버리고	-12014
그것도	-12015
▁차이나	-12016
▁우리들	-12017
▁줘도	-12018
떨어진	-12019
▁시바	-12020
▁본적이	-12021
""	-12022
믿고	-12023
문으로	-12024
일이야	-12025
땜시	-12026
▁불태	-12027
▁수면	-12028
▁조차	-12029
놓으면	-12030
그걸	-12031
▁설명해	-12032
당에서	-12033
해결	-12034
▁진짜야	-12035
▁휘발유	-12036
▁롱	-12037
방식	-12038
잖은	-12039
▁하는가	-12040
됩니까	-12041
▁be	-12042
수리	-12043
****	-12044
▁주간	-12045
▁다리가	-12046
됐다고	-12047
▁발레	-12048
▁변화를	-12049
▁건방	-12050
▁가격을	-12051
▁열정	-12052
바야	-12053
▁go	-12054
▁배워야	-12055
드릴게요	-12056
달고	-12057
▁맞나	-12058
▁다니엘	-12059
클린	-12060
▁상의	-12061
▁신화	-12062
▁맛을	-12063
비치	-12064
▁보이나	-12065
▁젓	-12066
제일	-12067
는대	-12068
▁입원	-12069
▁훔친	-12070
▁부친	-12071
연예인	-12072
▁좋을듯	-12073
▁모름	-12074
생명	-12075
▁ᄇᄃ	-12076
▁식구	-12077
문화재	-12078
싸고	-12079
▁가라고	-12080
▁유발	-12081
▁부른다	-12082
▁지난번	-12083
주냐	-12084
▁권력의	-12085
영장	-12086
▁몰카	-12087
▁그라	-12088
▁애완	-12089
▁안전을	-12090
▁없이는	-12091
사리	-12092
▁야당이	-12093
▁사극	-12094
크스	-12095
▁웃기지	-12096
▁주게	-12097
▁찔러	-12098
▁누구의	-12099
것인가	-12100
▁김민희	-12101
▁돈과	-12102
▁수두	-12103
▁펄	-12104
▁바랬	-12105
▁32	-12106
▁김유	-12107
oid	-12108
▁말예요	-12109
진정	-12110
▁스파이	-12111
▁알아듣	-12112
▁국적	-12113
▁염려	-12114
하더만	-12115
일어나	-12116
▁피자	-12117
이었으면	-12118
▁총살	-12119
꼴통	-12120
▁이용한	-12121
▁따져	-12122
▁재난	-12123
.25	-12124
▁박영수	-12125
▁즈	-12126
▁면제	-12127
▁여름에	-12128
▁거란	-12129
해지면	-12130
▁당근	-12131
▁포르투	-12132
▁가사	-12133
▁수구	-12134
반이	-12135
▁고고	-12136
▁닥그네	-12137
애비	-12138
▁이땅	-12139
▁사모	-12140
▁송중기	-12141
도아니고	-12142
줬는데	-12143
르네	-12144
▁탑승	-12145
▁한결	-12146
▁FBI	-12147
▁란	-12148
▁까고	-12149
▁감방에	-12150
가는구나	-12151
▁관중	-12152
▁있겠나	-12153
▁이경재	-12154
순실이	-12155
▁노래도	-12156
인증	-12157
자신	-12158
▁세일	-12159
다는데	-12160
▁양세형	-12161
ᄃᄃᄃᄃ	-12162
▁반납	-12163
지금은	-12164
타르	-12165
▁발광	-12166
▁주체	-12167
셨네	-12168
▁선포	-12169
▁하였	-12170
업자득	-12171
▁직업이	-12172
▁이룬	-12173
답답	-12174
▁사인	-12175
▁넘기	-12176
▁빼면	-12177
▁좃불	-12178
▁없었고	-12179
▁예고	-12180
▁추운데	-12181
달라는	-12182
▁인재	-12183
▁느끼게	-12184
▁기밀	-12185
▁조류	-12186
▁잎	-12187
▁멤버들	-12188
▁밥을	-12189
▁앗	-12190
도없고	-12191
▁따라가	-12192
▁이순	-12193
▁뭐라구	-12194
▁부분은	-12195
▁말하길	-12196
히게	-12197
▁안경	-12198
공이	-12199
▁몸은	-12200
신가요	-12201
▁소원	-12202
▁태도	-12203
▁낚시	-12204
언이	-12205
▁변화가	-12206
▁훗	-12207
속이	-12208
을게	-12209
▁알겠나	-12210
퇴진	-12211
▁모스크	-12212
▁키가	-12213
▁선장	-12214
을거다	-12215
▁바보가	-12216
▁자기의	-12217
▁기꺼	-12218
▁나카	-12219
▁많으면	-12220
▁황재균	-12221
▁자손	-12222
▁당해	-12223
▁인하	-12224
광고	-12225
▁수갑	-12226
▁성범죄	-12227
▁가족은	-12228
▁살아갈	-12229
▁짐을	-12230
▁굶어	-12231
▁카를	-12232
▁개그맨	-12233
▁해병	-12234
넘들이	-12235
일수도	-12236
▁줬어	-12237
.."	-12238
청문회	-12239
네일	-12240
▁소설을	-12241
▁숨쉬	-12242
▁청렴	-12243
▁같다고	-12244
▁살려고	-12245
▁재산몰	-12246
▁모텔	-12247
▁이번주	-12248
비한	-12249
▁손실	-12250
▁것이라	-12251
▁구역질	-12252
▁사살	-12253
▁원한	-12254
▁선수는	-12255
름이	-12256
▁사지	-12257
▁왜들	-12258
▁여야	-12259
▁특검팀	-12260
▁알지도	-12261
▁거는	-12262
▁짐작	-12263
▁사다	-12264
▁작사	-12265
현대	-12266
▁되돌아	-12267
▁룰	-12268
▁데려오	-12269
▁실시간	-12270
▁옷이	-12271
▁얘기야	-12272
어이	-12273
▁생겨서	-12274
새키	-12275
▁기능을	-12276
▁웃어	-12277
▁일시	-12278
▁알기	-12279
분야	-12280
▁착취	-12281
▁남편을	-12282
올린	-12283
만원이	-12284
▁용납	-12285
돌아가	-12286
할머니	-12287
▁합니까	-12288
봐야지	-12289
▁노래는	-12290
23	-12291
쩐다	-12292
▁주둥이	-12293
▁양성	-12294
▁정복	-12295
▁획득	-12296
▁신부님	-12297
폰은	-12298
▁내각	-12299
▁크리	-12300
하시네	-12301
▁퀸	-12302
보라고	-12303
▁연기력	-12304
▁올려서	-12305
▁정치권	-12306
하시네요	-12307
▁간절히	-12308
▁던지	-12309
이었지만	-12310
런트	-12311
▁나치	-12312
려구요	-12313
▁살처분	-12314
▁월급은	-12315
으로서의	-12316
못하게	-12317
포르	-12318
사키	-12319
▁믿음이	-12320
▁달성	-12321
하냐고	-12322
▁2~3	-12323
▁자괴	-12324
올리고	-12325
▁오디션	-12326
▁^	-12327
보러	-12328
▁다죽	-12329
▁떠나라	-12330
▁걱정할	-12331
▁일년	-12332
▁회계	-12333
▁구조를	-12334
시간동안	-12335
▁)	-12336
즈를	-12337
▁없군요	-12338
토니	-12339
▁체험	-12340
▁폭격	-12341
▁보라구	-12342
▁않네요	-12343
▁봤나	-12344
치는데	-12345
다나	-12346
▁자요	-12347
시대의	-12348
▁정보가	-12349
미의	-12350
▁양키	-12351
그바	-12352
▁귀찮게	-12353
생에	-12354
▁사자	-12355
▁잡았	-12356
대응	-12357
전도	-12358
▁아가리	-12359
같고	-12360
넘게	-12361
▁속상	-12362
소송	-12363
▁한수	-12364
관에서	-12365
▁말려	-12366
안녕	-12367
▁걱정은	-12368
▁자부	-12369
지않게	-12370
▁원작	-12371
본부	-12372
▁과거에	-12373
▁아빤	-12374
▁못보	-12375
▁압수수	-12376
왕이	-12377
▁생각좀	-12378
▁뺨	-12379
▁보다가	-12380
웠던	-12381
란을	-12382
▁책임은	-12383
2.	-12384
▁숨기고	-12385
▁찜	-12386
▁수석	-12387
방울	-12388
▁토마스	-12389
▁멀어	-12390
▁지금쯤	-12391
힘든	-12392
▁가덕	-12393
간을	-12394
▁유래	-12395
▁되겠다	-12396
공장	-12397
▁버튼	-12398
▁학습	-12399
▁작가가	-12400
꼬리	-12401
▁몇일	-12402
▁화끈	-12403
선수가	-12404
▁지내고	-12405
▁견찰	-12406
▁모습은	-12407
긴한데	-12408
▁종류의	-12409
▁경험이	-12410
▁해결할	-12411
두는	-12412
▁다큐	-12413
시키자	-12414
▁먹는다	-12415
▁코드	-12416
▁팔을	-12417
장교	-12418
그때	-12419
▁성실	-12420
▁죄는	-12421
24	-12422
제이	-12423
▁목에	-12424
▁라이트	-12425
▁햄버거	-12426
▁답을	-12427
역할	-12428
영수	-12429
▁사과를	-12430
▁립	-12431
▁종료	-12432
▁후진	-12433
▁꼴을	-12434
▁프란	-12435
▁끝나는	-12436
▁바라고	-12437
▁잡혔	-12438
▁눈감	-12439
▁그랬다	-12440
▁그다음	-12441
▁본인은	-12442
무는	-12443
방의	-12444
▁골든	-12445
한수	-12446
맘대로	-12447
런지	-12448
안나	-12449
이란걸	-12450
뿐이	-12451
▁범인	-12452
이야말로	-12453
약이	-12454
▁다수	-12455
▁디자	-12456
으니깐	-12457
▁교훈	-12458
론가	-12459
저지	-12460
▁끝이야	-12461
장군	-12462
▁부과	-12463
▁우파	-12464
▁팬티	-12465
중계	-12466
▁살릴	-12467
▁행동은	-12468
▁활성화	-12469
▁배짱	-12470
살에	-12471
라탄	-12472
▁고아	-12473
▁올림	-12474
심으로	-12475
▁허나	-12476
▁않다고	-12477
범을	-12478
▁지역의	-12479
▁지닌	-12480
▁수상자	-12481
▁않겠지	-12482
▁배출	-12483
▁떠나고	-12484
▁어디든	-12485
▁내에	-12486
▁허접	-12487
▁브라운	-12488
병에	-12489
▁양산	-12490
▁아무렇	-12491
▁개돼	-12492
▁조여	-12493
▁수를	-12494
▁유부	-12495
에르	-12496
▁로렌	-12497
▁전주	-12498
▁하룻	-12499
씨와	-12500
▁65	-12501
▁시작된	-12502
당해	-12503
▁급식	-12504
▁와야	-12505
▁이것들	-12506
기사가	-12507
시겠어요	-12508
미안	-12509
주연	-12510
▁잘못은	-12511
분열	-12512
사퇴	-12513
바랍니다	-12514
▁장치	-12515
▁녹취	-12516
▁없어진	-12517
▁조그만	-12518
▁은혜	-12519
하기전에	-12520
▁해안	-12521
라노	-12522
▁줘야지	-12523
▁쑥	-12524
▁장난감	-12525
경제가	-12526
밤에	-12527
▁부탁해	-12528
▁능력도	-12529
▁어디갔	-12530
▁붙잡	-12531
▁어쨋	-12532
▁캐롤	-12533
던가요	-12534
▁사양	-12535
▁인력	-12536
▁신도	-12537
나보다	-12538
▁의리	-12539
로서의	-12540
보장	-12541
▁살이	-12542
▁수감	-12543
들만의	-12544
▁순식	-12545
▁입이	-12546
▁악화	-12547
하구만	-12548
나오고	-12549
표가	-12550
▁케빈	-12551
났는데	-12552
들처럼	-12553
셨는데	-12554
▁안했어	-12555
==	-12556
체에	-12557
까지의	-12558
▁똥꼬	-12559
은게	-12560
▁랄	-12561
▁앤디	-12562
▁간접	-12563
▁피디	-12564
출산	-12565
▁저질렀	-12566
▁한창	-12567
▁일인지	-12568
살고	-12569
될까	-12570
군사	-12571
▁늙어	-12572
날에	-12573
▁시티	-12574
▁흥행	-12575
내에서	-12576
데기	-12577
오를	-12578
▁운동을	-12579
기억	-12580
주는데	-12581
▁콜라	-12582
▁무작	-12583
받아라	-12584
▁ex	-12585
▁주에	-12586
침을	-12587
민은	-12588
▁몽땅	-12589
▁전락	-12590
▁없애야	-12591
▁마일	-12592
▁같구나	-12593
세력이	-12594
▁관해	-12595
▁남자와	-12596
▁밤을	-12597
▁신설	-12598
▁삼각	-12599
▁무책임	-12600
▁귀를	-12601
기회에	-12602
중인데	-12603
▁락	-12604
▁없었지	-12605
▁레이더	-12606
▁발악을	-12607
거워	-12608
데모	-12609
사드	-12610
▁포스트	-12611
바르	-12612
▁광우뻥	-12613
▁장군님	-12614
▁본질	-12615
▁오승환	-12616
시술	-12617
주마	-12618
▁대북	-12619
▁두려움	-12620
▁계급	-12621
거늘	-12622
짓은	-12623
▁데가	-12624
▁바짝	-12625
▁잠들	-12626
▁그런걸	-12627
길만	-12628
놨어	-12629
▁엄만	-12630
▁KT	-12631
▁못난	-12632
▁같던데	-12633
품이	-12634
메리	-12635
▁사단	-12636
▁악마의	-12637
불러	-12638
▁뉴스를	-12639
▁연예계	-12640
▁mm	-12641
▁보았다	-12642
합니다만	-12643
▁갈등	-12644
▁나대	-12645
볼게요	-12646
▁한화는	-12647
▁프린	-12648
▁부자가	-12649
▁있지요	-12650
▁나아가	-12651
버렸다	-12652
▁미화	-12653
▁서부	-12654
더구나	-12655
되어서	-12656
같지	-12657
▁힘없는	-12658
▁미키	-12659
▁이지경	-12660
▁그다지	-12661
빌딩	-12662
하가	-12663
라는데	-12664
▁연루	-12665
▁wh	-12666
▁부지	-12667
키스탄	-12668
▁벗고	-12669
▁회전	-12670
▁차도	-12671
▁거시	-12672
▁카르	-12673
당과	-12674
있어야	-12675
▁모가지	-12676
▁미칠	-12677
▁프랜	-12678
성공단	-12679
소리는	-12680
▁붓	-12681
예능	-12682
고있는데	-12683
층의	-12684
▁무력	-12685
▁아기가	-12686
▁갔다가	-12687
못차	-12688
조치	-12689
▁빚을	-12690
▁거라구	-12691
▁미성	-12692
▁윈도우	-12693
취소	-12694
▁sc	-12695
하하하하	-12696
▁동계	-12697
▁파고	-12698
▁파티를	-12699
놈아	-12700
▁사고로	-12701
▁떠나지	-12702
▁세게	-12703
▁있겠냐	-12704
날씨	-12705
▁그간	-12706
▁성능	-12707
▁음원	-12708
▁행성	-12709
▁질문이	-12710
▁비주	-12711
▁가동	-12712
▁다소	-12713
▁데서	-12714
▁하겠네	-12715
av	-12716
▁왔다고	-12717
▁와이	-12718
이는데	-12719
미널	-12720
▁맞았어	-12721
▁사이다	-12722
▁떠나야	-12723
kr	-12724
조에	-12725
▁만져	-12726
▁줄줄이	-12727
▁끝내고	-12728
▁크라	-12729
▁살다가	-12730
▁가둬	-12731
▁저와	-12732
만명이	-12733
ng	-12734
구도	-12735
못할	-12736
시급	-12737
▁성관계	-12738
레이션	-12739
주네	-12740
홈런	-12741
▁us	-12742
▁만들자	-12743
▁않은가	-12744
▁졸업식	-12745
▁적절한	-12746
▁신앙	-12747
체국	-12748
▁찍을	-12749
▁저것도	-12750
▁더럽다	-12751
▁윤석	-12752
▁말로만	-12753
▁일본도	-12754
!~	-12755
습니다만	-12756
▁벅	-12757
▁터지면	-12758
박그네	-12759
▁뉴스에	-12760
▁사용한	-12761
공직자	-12762
▁거리는	-12763
페인	-12764
▁팀은	-12765
▁과거의	-12766
▁묻는	-12767
렸던	-12768
크의	-12769
▁머리카	-12770
▁4.	-12771
▁뭐에요	-12772
▁심장이	-12773
▁딸은	-12774
▁크레	-12775
▁국경	-12776
▁권력에	-12777
▁잇는	-12778
▁구석	-12779
▁오지마	-12780
▁자료를	-12781
형의	-12782
사면	-12783
▁천황	-12784
내자	-12785
▁위성	-12786
▁아라	-12787
▁류준열	-12788
▁취향	-12789
한사람	-12790
시킨다	-12791
중이다	-12792
▁요코	-12793
▁토미	-12794
▁현기차	-12795
됐고	-12796
속을	-12797
▁해킹	-12798
▁KBS	-12799
▁코트	-12800
▁사이코	-12801
프란	-12802
진출	-12803
▁기꺼이	-12804
금액	-12805
형에	-12806
하고있네	-12807
▁거면	-12808
▁읽는	-12809
그는	-12810
두면	-12811
▁다친	-12812
▁받아요	-12813
▁사태가	-12814
▁코리아	-12815
▁프라이	-12816
수작	-12817
▁노친	-12818
▁속을	-12819
▁얼마전	-12820
▁공군	-12821
▁인구는	-12822
▁손자	-12823
▁감독의	-12824
하고있다	-12825
만세	-12826
▁감자	-12827
▁전진	-12828
▁돌아서	-12829
▁시가	-12830
.(	-12831
▁두들	-12832
▁가까워	-12833
▁외로	-12834
▁헷갈	-12835
▁주한미	-12836
▁선택을	-12837
▁외에	-12838
더러운	-12839
▁저년	-12840
▁키운	-12841
하지요	-12842
▁보는게	-12843
변호사	-12844
었네요	-12845
▁것인데	-12846
▁은폐	-12847
▁군인이	-12848
▁돈많은	-12849
▁부역자	-12850
▁조이	-12851
▁접수	-12852
너는	-12853
▁돌이	-12854
▁자숙	-12855
♥♥♥♥	-12856
▁방송에	-12857
▁점수	-12858
랬지	-12859
▁해적	-12860
들이라	-12861
▁천만에	-12862
▁잘해라	-12863
▁90%	-12864
▁가볍게	-12865
▁농업	-12866
▁계약을	-12867
▁느낌을	-12868
▁전국민	-12869
젊은	-12870
▁오락	-12871
▁에게	-12872
경북	-12873
아를	-12874
넘은	-12875
넘이	-12876
▁맞았	-12877
▁남기	-12878
▁최후의	-12879
▁퍽	-12880
미세먼	-12881
▁예쁘고	-12882
다닌	-12883
주의에	-12884
▁승격	-12885
▁농락	-12886
▁마감	-12887
▁노인들	-12888
▁기가막	-12889
▁헌재는	-12890
▁건국	-12891
▁골목	-12892
▁채우	-12893
하기만	-12894
례를	-12895
::,	-12896
▁bl	-12897
▁문제인	-12898
▁북극	-12899
▁쉬어	-12900
▁왔네	-12901
냅시다	-12902
---	-12903
말이다	-12904
▁알아들	-12905
▁잊어	-12906
▁앉아요	-12907
▁살살	-12908
준이	-12909
▁음성	-12910
끄러	-12911
▁뛰는	-12912
▁엔딩	-12913
아이가	-12914
▁김주	-12915
▁중인	-12916
율을	-12917
▁맞는거	-12918
▁서구	-12919
▁함정	-12920
▁박수를	-12921
들보다	-12922
오염	-12923
▁우는	-12924
▁클리	-12925
▁가격은	-12926
해는	-12927
▁득실	-12928
▁은탁	-12929
▁명문	-12930
▁살던	-12931
올림픽	-12932
21	-12933
년부터	-12934
▁닭사모	-12935
그거	-12936
▁풀려	-12937
부정	-12938
▁살인자	-12939
▁뭐래	-12940
가슴	-12941
▁저격	-12942
▁떨고	-12943
▁기껏	-12944
인권	-12945
▁사진은	-12946
▁거칠	-12947
▁싸운	-12948
<<	-12949
▁놀래	-12950
만다	-12951
▁등골	-12952
장구	-12953
▁듣보	-12954
▁특검을	-12955
더라구	-12956
▁땅콩	-12957
▁벌고	-12958
▁평화를	-12959
▁아멘	-12960
▁되네	-12961
▁문서	-12962
▁채택	-12963
▁gr	-12964
▁충실	-12965
▁국가는	-12966
▁ᄋᄌ	-12967
▁인제	-12968
위도	-12969
▁깨어나	-12970
와야	-12971
▁견딜	-12972
▁어긋	-12973
박정희	-12974
▁적을	-12975
▁닌	-12976
▁스캔	-12977
▁48	-12978
등록	-12979
▁박ᄅ혜	-12980
▁언니가	-12981
▁하시길	-12982
▁했어야	-12983
말씀	-12984
▁속임	-12985
되니까	-12986
▁낭만	-12987
▁보건	-12988
▁베댓	-12989
▁네트워	-12990
▁무얼	-12991
▁애낳	-12992
▁점검	-12993
▁수두룩	-12994
대문	-12995
▁평양	-12996
▁화성	-12997
몰라라	-12998
지는건	-12999
▁심판을	-13000
▁원하면	-13001
사상	-13002
▁정은이	-13003
▁지구의	-13004
▁하고는	-13005
▁성격이	-13006
▁뺐	-13007
▁빛이	-13008
▁판을	-13009
▁억울한	-13010
▁베이징	-13011
▁북한을	-13012
렴치	-13013
슈타	-13014
▁하오	-13015
▁지켜보	-13016
▁해보고	-13017
▁했겠지	-13018
▁1%	-13019
▁제로	-13020
▁하시죠	-13021
갈때	-13022
거기	-13023
회담	-13024
▁수잔	-13025
▁국민성	-13026
▁저런게	-13027
꼬라지	-13028
▁없어지	-13029
▁나와요	-13030
▁직전	-13031
▁하지도	-13032
▁글고	-13033
▁퇴임	-13034
▁번이나	-13035
▁계기로	-13036
▁욕심이	-13037
▁이정희	-13038
이라는데	-13039
체류	-13040
▁점은	-13041
위안	-13042
▁발음	-13043
▁동전	-13044
▁모지	-13045
▁예방	-13046
독립	-13047
▁버리지	-13048
참역사	-13049
▁떵	-13050
역에서	-13051
이사	-13052
동의	-13053
▁교활	-13054
▁짜리	-13055
만봐도	-13056
▁반은	-13057
▁와도	-13058
억에	-13059
▁말씀드	-13060
▁박물관	-13061
▁영웅이	-13062
▁횡령	-13063
▁전기료	-13064
▁복잡한	-13065
▁썪	-13066
▁김일성	-13067
▁비리가	-13068
▁잡았다	-13069
▁기절	-13070
주차	-13071
고마	-13072
졌지	-13073
▁찍는	-13074
국방	-13075
▁자랐	-13076
▁목요일	-13077
▁여성이	-13078
▁SBS	-13079
▁죄책	-13080
▁방출	-13081
▁특검의	-13082
트와	-13083
답시고	-13084
하는듯	-13085
▁스크린	-13086
비어	-13087
▁고칠	-13088
▁해양	-13089
▁닮은	-13090
▁거시기	-13091
▁오프	-13092
▁제정	-13093
▁쯔	-13094
▁김기	-13095
▁제리	-13096
▁춤추	-13097
▁흰색	-13098
▁랭	-13099
타를	-13100
화장	-13101
▁연락이	-13102
사하고	-13103
▁넣은	-13104
▁플레	-13105
▁얽	-13106
답다	-13107
않는	-13108
▁소통	-13109
▁저소득	-13110
만하다	-13111
▁망하면	-13112
▁텍사스	-13113
▁학교를	-13114
▁면접	-13115
▁곽	-13116
▁끝을	-13117
▁미소	-13118
▁먹튀	-13119
▁경기에	-13120
▁개무시	-13121
자리에서	-13122
받았다	-13123
▁아버진	-13124
▁안봐도	-13125
▁믹	-13126
포기	-13127
▁죄없는	-13128
▁단두	-13129
꺼라	-13130
상수	-13131
▁책은	-13132
▁잘사는	-13133
▁벙	-13134
매일	-13135
▁마비	-13136
▁다행히	-13137
나오네	-13138
▁드레스	-13139
▁새벽에	-13140
추가	-13141
▁책임질	-13142
▁작살	-13143
키지	-13144
▁돌파	-13145
멍청	-13146
▁간호사	-13147
▁그놈이	-13148
▁튼튼	-13149
▁호소	-13150
▁타자	-13151
▁용돈	-13152
▁나왔어	-13153
인당	-13154
▁손톱	-13155
▁이거지	-13156
▁저희는	-13157
▁동조	-13158
▁신을	-13159
▁만나야	-13160
▁지낼	-13161
▁김소	-13162
▁가슴을	-13163
▁방지	-13164
▁하거나	-13165
▁안팔	-13166
라기	-13167
루스	-13168
▁고교	-13169
▁로드	-13170
ry	-13171
▁들어도	-13172
노인	-13173
▁않겠어	-13174
▁찼	-13175
신가	-13176
고속도로	-13177
▁과일	-13178
▁대답을	-13179
ue	-13180
▁갈색	-13181
발표	-13182
▁쳐들어	-13183
▁귀한	-13184
▁말해줘	-13185
▁될거	-13186
▁뚱뚱	-13187
▁강원	-13188
▁엔터	-13189
▁측정	-13190
▁배고프	-13191
▁군복	-13192
▁야간	-13193
▁집어치	-13194
▁뽑아야	-13195
▁레슬	-13196
안됨	-13197
번이나	-13198
▁간단히	-13199
▁표기	-13200
▁브로	-13201
마치	-13202
▁열일	-13203
▁아닌것	-13204
▁인생에	-13205
▁꾸며	-13206
▁때리	-13207
▁안부	-13208
그램을	-13209
▁과정을	-13210
▁지겨워	-13211
과에	-13212
스틱	-13213
▁지면	-13214
▁가중	-13215
▁왔을	-13216
▁기생충	-13217
▁대답해	-13218
희는	-13219
▁골치	-13220
▁달래	-13221
▁없어질	-13222
▁기재	-13223
나라로	-13224
▁손잡고	-13225
▁20%	-13226
▁고립	-13227
▁마마	-13228
▁바둑	-13229
정유라	-13230
했어도	-13231
▁모시고	-13232
45	-13233
▁무용	-13234
▁싱가	-13235
페이	-13236
▁가네	-13237
▁탄압	-13238
체제	-13239
하여야	-13240
▁동구	-13241
▁레벨	-13242
▁클로	-13243
▁타입	-13244
▁섬네일	-13245
▁망치고	-13246
ᅮᅮᅮ	-13247
▁재료	-13248
됐는데	-13249
▁도달	-13250
▁꼴찌	-13251
김기춘	-13252
▁초콜릿	-13253
▁최고로	-13254
▁하시오	-13255
▁pl	-13256
▁개고생	-13257
▁하는군	-13258
층은	-13259
▁지각	-13260
사자	-13261
지구	-13262
▁편한	-13263
▁미친거	-13264
▁we	-13265
▁기자는	-13266
않고	-13267
▁개도	-13268
▁과도	-13269
▁까불	-13270
졌을	-13271
▁고등어	-13272
▁이메	-13273
▁지능	-13274
싶은데	-13275
짱깨	-13276
▁kbo	-13277
)'	-13278
덩이	-13279
net	-13280
▁깐	-13281
▁앓	-13282
녀는	-13283
age	-13284
▁me	-13285
▁표절	-13286
한데요	-13287
▁달라요	-13288
될지	-13289
▁흉내	-13290
▁남자랑	-13291
▁빠뜨	-13292
▁혹사	-13293
▁cl	-13294
▁고의	-13295
▁//	-13296
▁>	-13297
▁중대	-13298
▁이기는	-13299
슨은	-13300
▁휠	-13301
▁주관	-13302
▁망해라	-13303
▁화요일	-13304
▁뛰고	-13305
냐고요	-13306
▁하늘에	-13307
iew	-13308
감으로	-13309
▁들었지	-13310
주제에	-13311
▁지연	-13312
정부의	-13313
▁끝낼	-13314
▁종족	-13315
▁피우	-13316
▁돌리고	-13317
▁시를	-13318
▁인지도	-13319
▁정호	-13320
났다고	-13321
▁팬이	-13322
▁괜찮니	-13323
▁삼성에	-13324
▁율	-13325
명에	-13326
▁드레	-13327
▁햇빛	-13328
▁연평	-13329
▁알겠네	-13330
▁배부	-13331
머리가	-13332
atch	-13333
사형	-13334
▁전쟁은	-13335
▁주려고	-13336
▁헌신	-13337
▁야생	-13338
희롱	-13339
겠는데요	-13340
무섭	-13341
양아치	-13342
해졌다	-13343
자원	-13344
▁어림	-13345
▁가톨릭	-13346
▁클린턴	-13347
▁찾으면	-13348
▁휘두	-13349
바에	-13350
▁관련이	-13351
▁친구도	-13352
병신	-13353
▁적절	-13354
▁한몫	-13355
▁데이브	-13356
▁서울에	-13357
▁그후	-13358
▁생리	-13359
▁쳐먹고	-13360
▁무사히	-13361
▁원정	-13362
▁크보	-13363
▁달러를	-13364
포를	-13365
다보니	-13366
▁페이지	-13367
▁방산	-13368
▁론	-13369
해온	-13370
이라곤	-13371
▁*	-13372
분명	-13373
▁로켓	-13374
▁뿌려	-13375
▁넘어갈	-13376
▁사냐	-13377
▁승차	-13378
선수들	-13379
ust	-13380
기본	-13381
▁파라	-13382
▁유가족	-13383
잖냐	-13384
▁여럿	-13385
▁왔나	-13386
▁문제도	-13387
▁댕	-13388
▁암호	-13389
▁인근	-13390
▁위해선	-13391
책이	-13392
▁쥐고	-13393
▁있겠다	-13394
▁선호	-13395
▁도서	-13396
▁같소	-13397
▁앨리스	-13398
▁한계가	-13399
자치	-13400
보다가	-13401
▁갔지	-13402
▁정글	-13403
▁플라	-13404
▁본적	-13405
▁없었죠	-13406
애애	-13407
▁유병	-13408
인성	-13409
▁수요일	-13410
▁튀어나	-13411
▁다치	-13412
▁폭로	-13413
도못	-13414
▁대세	-13415
탄을	-13416
▁웃을	-13417
▁잔치	-13418
▁판사가	-13419
▁터져	-13420
ast	-13421
io	-13422
찬성	-13423
▁솟	-13424
것냐	-13425
▁갔을	-13426
파이어	-13427
▁회장님	-13428
인들을	-13429
▁돕고	-13430
▁장수	-13431
▁고무	-13432
▁역적	-13433
장치	-13434
면으로	-13435
▁짓밟	-13436
▁그중	-13437
▁허수아	-13438
▁적당	-13439
현진	-13440
▁다야	-13441
▁생생	-13442
핑크	-13443
▁속옷	-13444
▁입양	-13445
▁나보고	-13446
▁레스토	-13447
티가	-13448
버드	-13449
▁나오냐	-13450
▁입장을	-13451
▁5%	-13452
▁출처	-13453
▁포항	-13454
▁역풍	-13455
▁중국도	-13456
cm	-13457
▁모르면	-13458
됐네	-13459
▁막말	-13460
▁한개	-13461
청와대	-13462
▁와중에	-13463
▁뒤져	-13464
▁사소한	-13465
▁설레발	-13466
법도	-13467
▁뽑아서	-13468
집행	-13469
달아	-13470
▁낯선	-13471
▁물건이	-13472
▁일이나	-13473
▁국민혈	-13474
눈에	-13475
하겠죠	-13476
▁기업을	-13477
자연	-13478
▁괘	-13479
▁바보로	-13480
▁때에는	-13481
났어요	-13482
▁정원	-13483
▁브랜	-13484
▁회사의	-13485
▁쪼개	-13486
▁망친	-13487
▁성남	-13488
노답	-13489
▁피로	-13490
세탁	-13491
▁볼게	-13492
-3	-13493
▁무려	-13494
오는데	-13495
▁작고	-13496
왔지	-13497
교를	-13498
▁변하지	-13499
밥통	-13500
▁색히	-13501
▁역겨운	-13502
▁충고	-13503
▁났다	-13504
▁묻지	-13505
저러	-13506
▁빅토	-13507
▁즐길	-13508
▁가자구	-13509
▁되지만	-13510
▁선수권	-13511
ctv	-13512
▁fl	-13513
▁애미	-13514
▁될텐데	-13515
▁신나게	-13516
마귀	-13517
▁년간	-13518
▁밑으로	-13519
~4	-13520
▁김동	-13521
▁피트	-13522
▁일인가	-13523
바가	-13524
▁채로	-13525
생활을	-13526
▁가지는	-13527
▁거론	-13528
▁빨라	-13529
▁거기가	-13530
▁나라와	-13531
▁오랜만	-13532
▁주워	-13533
▁흡수	-13534
▁새끼야	-13535
▁어때서	-13536
▁서해	-13537
된게	-13538
▁인내	-13539
▁질러	-13540
▁예민	-13541
▁확률이	-13542
▁이기고	-13543
▁구급	-13544
▁아이의	-13545
▁의하여	-13546
▁막내	-13547
▁일등	-13548
▁보수는	-13549
▁억압	-13550
▁들리는	-13551
▁계곡	-13552
죽일	-13553
▁백작	-13554
▁부려	-13555
감독이	-13556
많네	-13557
세한	-13558
▁없단	-13559
쪽이	-13560
▁절약	-13561
힘내	-13562
실험	-13563
▁경기는	-13564
▁여권	-13565
▁램	-13566
▁여지	-13567
▁중요해	-13568
블랙	-13569
신분	-13570
▁지구를	-13571
것보다	-13572
▁오지게	-13573
친박	-13574
여자는	-13575
▁추악한	-13576
▁헉	-13577
줬지	-13578
운이	-13579
오니	-13580
▁무고한	-13581
끌고	-13582
▁짝퉁	-13583
▁김구라	-13584
▁추석	-13585
투기	-13586
하셔서	-13587
주는게	-13588
.0	-13589
▁엉터리	-13590
▁챙기고	-13591
심원	-13592
▁도망쳐	-13593
왕의	-13594
▁황당	-13595
▁한번은	-13596
▁씹어	-13597
▁낄	-13598
▁낳은	-13599
▁원해요	-13600
▁배워라	-13601
동은	-13602
▁망하고	-13603
▁제외한	-13604
▁김은	-13605
정신차	-13606
난다고	-13607
시간은	-13608
▁세무	-13609
▁자수	-13610
▁해야죠	-13611
▁꼬맹	-13612
▁더위	-13613
▁게임이	-13614
오네	-13615
▁지낸	-13616
▁체결	-13617
▁엄마의	-13618
작전	-13619
▁이벤	-13620
동으로	-13621
▁거대	-13622
▁편견	-13623
▁않았지	-13624
▁주었다	-13625
▁팔아서	-13626
부산	-13627
꾸라지	-13628
▁설명할	-13629
거려	-13630
▁앉혀	-13631
▁가는거	-13632
시키기	-13633
▁버려라	-13634
▁선택의	-13635
그렇지	-13636
▁의사를	-13637
▁걘	-13638
계란	-13639
▁언론사	-13640
▁중국어	-13641
▁동급	-13642
▁허세	-13643
▁사장이	-13644
이었다고	-13645
ᅲᅮ	-13646
our	-13647
▁설립된	-13648
이득	-13649
▁페이스	-13650
신지	-13651
▁동반	-13652
▁로맨스	-13653
▁리버풀	-13654
지켜	-13655
롭지	-13656
빠지게	-13657
때매	-13658
영은	-13659
자리를	-13660
▁댓가를	-13661
▁살인을	-13662
하는건가	-13663
▁취득	-13664
▁걸려서	-13665
▁이따위	-13666
누나	-13667
▁선을	-13668
▁얜	-13669
▁유니폼	-13670
아야지	-13671
▁거임	-13672
▁아리	-13673
량의	-13674
▁박지원	-13675
만달러	-13676
read	-13677
선발	-13678
생각이	-13679
▁멍청아	-13680
▁생기고	-13681
이상은	-13682
금도	-13683
렬한	-13684
▁시대를	-13685
네시아	-13686
▁땅이	-13687
▁먹기	-13688
▁주셔서	-13689
▁가구	-13690
▁단체로	-13691
▁씁쓸	-13692
놓는	-13693
?-	-13694
▁눈물을	-13695
▁말하기	-13696
▁줄래	-13697
국내	-13698
▁가공	-13699
▁후려	-13700
▁거라면	-13701
▁만나지	-13702
▁소름끼	-13703
▁슬프다	-13704
챙겨	-13705
▁판결을	-13706
안의	-13707
다니면서	-13708
러리	-13709
▁행복을	-13710
▁안걸	-13711
어제	-13712
▁대갈	-13713
▁키우고	-13714
▁레인	-13715
▁명예를	-13716
▁결심	-13717
▁대면	-13718
▁1/	-13719
▁꾀	-13720
물가	-13721
린이	-13722
호식	-13723
ml	-13724
▁노벨상	-13725
▁안갈	-13726
놓을	-13727
▁마시는	-13728
▁시작할	-13729
당신은	-13730
▁저러고	-13731
▁그럴까	-13732
▁라이언	-13733
▁봤으면	-13734
oun	-13735
▁부임	-13736
▁두꺼	-13737
▁심하다	-13738
겠단	-13739
▁풋볼	-13740
▁말았	-13741
▁일가	-13742
▁준우승	-13743
▁미쳤다	-13744
▁아미	-13745
▁같지만	-13746
▁최고야	-13747
▁싸웠	-13748
▁수염	-13749
커가	-13750
▁못쓰	-13751
▁롯데는	-13752
▁보안관	-13753
교회	-13754
▁어설	-13755
꼬박	-13756
▁아놔	-13757
▁나두	-13758
▁입단	-13759
생각을	-13760
▁MBC	-13761
바퀴	-13762
ory	-13763
▁결혼도	-13764
▁싫지만	-13765
대니	-13766
▁유연	-13767
▁스승	-13768
▁치밀	-13769
▁호랑	-13770
에서부터	-13771
▁돈좀	-13772
어디서	-13773
▁못들어	-13774
▁의원님	-13775
인거야	-13776
할때는	-13777
뜨고	-13778
▁대원	-13779
꺼라고	-13780
▁한걸	-13781
▁뭔가요	-13782
대통령을	-13783
사는데	-13784
▁아야	-13785
▁원한다	-13786
지난	-13787
▁조금은	-13788
폰을	-13789
등한	-13790
▁여전	-13791
아이돌	-13792
주머니	-13793
▁어른이	-13794
댕이	-13795
▁선진	-13796
▁눈깔	-13797
▁비는	-13798
▁힌	-13799
▁kg	-13800
▁노망	-13801
▁오렌	-13802
찍고	-13803
▁됐나	-13804
▁창출	-13805
대행	-13806
세워	-13807
▁다쳤	-13808
한다는게	-13809
박혀	-13810
중입니다	-13811
ld	-13812
▁더구나	-13813
▁ph	-13814
▁xx	-13815
▁매도	-13816
있어도	-13817
▁아내와	-13818
▁무렵	-13819
▁풍부	-13820
▁취미	-13821
▁무혐의	-13822
▁정이	-13823
▁외국에	-13824
렸죠	-13825
▁방위	-13826
▁이년	-13827
애국	-13828
너가	-13829
▁대권	-13830
▁무너뜨	-13831
▁따르는	-13832
셔널	-13833
티스	-13834
피가	-13835
▁농단	-13836
들이는	-13837
▁무신	-13838
▁승마	-13839
▁위선	-13840
▁적합	-13841
디스	-13842
할걸	-13843
▁일한	-13844
▁기어나	-13845
▁동부	-13846
▁짝이	-13847
▁폭탄을	-13848
▁신문에	-13849
▁비키	-13850
▁못하니	-13851
▁대립	-13852
▁살아온	-13853
▁불러요	-13854
▁삼성도	-13855
무조건	-13856
▁사태를	-13857
▁앰	-13858
킬로	-13859
▁안함	-13860
▁이의	-13861
▁남지	-13862
▁아작	-13863
적으로도	-13864
▁원조	-13865
▁좋으	-13866
▁밝혀진	-13867
데가	-13868
▁때를	-13869
▁내말	-13870
안한	-13871
▁흔한	-13872
▁미래에	-13873
원숭	-13874
▁아프다	-13875
나가서	-13876
을때는	-13877
▁수만	-13878
▁치러	-13879
시스코	-13880
자네	-13881
uc	-13882
▁츠	-13883
들게	-13884
▁아아	-13885
시나요	-13886
▁반응이	-13887
림을	-13888
▁인맥	-13889
▁속하는	-13890
남의	-13891
▁발굴	-13892
기업은	-13893
▁부장	-13894
▁업적	-13895
▁도둑놈	-13896
▁신경을	-13897
▁절차	-13898
▁하던지	-13899
▁낱	-13900
▁사이가	-13901
새기	-13902
▁법인세	-13903
▁녀석을	-13904
▁따윈	-13905
▁체력	-13906
▁키울	-13907
▁무거운	-13908
진않	-13909
밝혀	-13910
▁여신	-13911
아닐	-13912
▁해낼	-13913
▁남주	-13914
▁발생한	-13915
깁니다	-13916
일수록	-13917
라에	-13918
나를	-13919
▁무겁	-13920
▁넘치는	-13921
ial	-13922
▁어디있	-13923
명이나	-13924
▁계속해	-13925
▁박유천	-13926
▁순서	-13927
▁주실	-13928
▁줄도	-13929
보상	-13930
해외	-13931
▁잘들	-13932
▁부러워	-13933
6%	-13934
금리	-13935
▁고르	-13936
마지막	-13937
없다는	-13938
▁대신에	-13939
▁올게요	-13940
▁우월	-13941
겄다	-13942
▁쟤가	-13943
해져서	-13944
관심	-13945
▁최순	-13946
▁어울리	-13947
길로	-13948
중을	-13949
▁피는	-13950
▁호랑이	-13951
▁,,	-13952
▁장갑	-13953
▁자기도	-13954
▁발명	-13955
▁이곳은	-13956
▁왜죠	-13957
▁캠프	-13958
기라도	-13959
치면서	-13960
▁그네가	-13961
▁전하	-13962
길에	-13963
루가	-13964
할땐	-13965
▁뜻이죠	-13966
yp	-13967
▁안보여	-13968
▁책상	-13969
최고의	-13970
▁교차로	-13971
.4	-13972
포함	-13973
들에게도	-13974
▁급한	-13975
▁해냈	-13976
▁그러자	-13977
▁저에게	-13978
▁죄값	-13979
줍니다	-13980
▁들려요	-13981
▁자의	-13982
▁생태	-13983
▁우아	-13984
▁통신사	-13985
▁삼국	-13986
러운줄	-13987
▁등급	-13988
▁타락	-13989
▁일하러	-13990
▁소지	-13991
연대	-13992
달에	-13993
복귀	-13994
▁마을에	-13995
▁판단을	-13996
▁없을듯	-13997
▁기둥	-13998
▁심어	-13999
▁밸	-14000
티노	-14001
▁천문학	-14002
▁감지	-14003
자국	-14004
아닙	-14005
▁니미	-14006
박스	-14007
나가면	-14008
전용	-14009
▁싸지	-14010
ide	-14011
온이	-14012
▁넘은	-14013
▁걸레	-14014
▁최대의	-14015
미리	-14016
▁잘되	-14017
새끼들이	-14018
▁강점	-14019
▁굉장한	-14020
일가	-14021
▁개월	-14022
▁체계	-14023
입을	-14024
▁응징	-14025
▁점차	-14026
▁창업	-14027
정수	-14028
▁똥을	-14029
▁했었지	-14030
▁눈먼	-14031
▁하겠냐	-14032
일의	-14033
▁보답	-14034
▁전지현	-14035
▁포그바	-14036
▁혜택을	-14037
▁증거는	-14038
맨날	-14039
▁나라망	-14040
▁차려라	-14041
재로	-14042
정리	-14043
▁ᅡ	-14044
목에	-14045
▁스미스	-14046
▁향후	-14047
평화	-14048
냐구	-14049
양심	-14050
▁공황	-14051
▁가지마	-14052
▁동북	-14053
▁발전을	-14054
쯤은	-14055
바닥에	-14056
직에	-14057
했었지	-14058
치며	-14059
▁자이	-14060
▁반가워	-14061
▁말이나	-14062
안다	-14063
혜택	-14064
▁연인	-14065
▁인건비	-14066
트맨	-14067
▁왕의	-14068
▁만지	-14069
아시아	-14070
▁정권의	-14071
▁악당	-14072
▁요시	-14073
▁mar	-14074
▁볼때	-14075
절이	-14076
▁시시	-14077
대나	-14078
드에	-14079
봤으면	-14080
했니	-14081
▁그도	-14082
▁간만에	-14083
▁쑈	-14084
▁선수로	-14085
▁즐라탄	-14086
▁불순	-14087
▁오페	-14088
▁마스터	-14089
▁ᄉᄁ	-14090
▁뽑을	-14091
이구	-14092
일어	-14093
▁품질	-14094
▁너무도	-14095
▁고전	-14096
▁뚜렷	-14097
▁야만	-14098
리는건	-14099
하셔	-14100
▁동쪽	-14101
것이지	-14102
▁장례식	-14103
▁내돈	-14104
▁특허	-14105
우병우	-14106
▁첨부터	-14107
▁보자구	-14108
하란	-14109
을까봐	-14110
▁마른	-14111
▁느낀다	-14112
▁중반	-14113
▁ac	-14114
▁기사도	-14115
▁탈당	-14116
목숨	-14117
여론	-14118
겼는데	-14119
▁움직일	-14120
는다는	-14121
▁오후에	-14122
보군	-14123
▁우산	-14124
▁기를	-14125
▁불펜	-14126
▁많다는	-14127
께선	-14128
일당	-14129
▁이브	-14130
라는건	-14131
병으로	-14132
▁어딘가	-14133
▁여성의	-14134
▁뛸	-14135
실장	-14136
▁희대의	-14137
새가	-14138
▁날조	-14139
▁김치년	-14140
▁해쳐	-14141
▁나에	-14142
▁남았다	-14143
▁체제	-14144
인기	-14145
투리	-14146
▁분포	-14147
▁저런걸	-14148
였다는	-14149
학의	-14150
▁보컬	-14151
▁카톡	-14152
▁않으니	-14153
▁어딘지	-14154
▁정기	-14155
여자들	-14156
들입니다	-14157
▁보신	-14158
▁빠지고	-14159
▁이곳을	-14160
▁지킨	-14161
▁안되네	-14162
들인데	-14163
▁먹여살	-14164
▁우상	-14165
좋은데	-14166
▁시청자	-14167
▁저기에	-14168
마시고	-14169
▁재계약	-14170
들끼리	-14171
▁좋다는	-14172
상품	-14173
▁밭	-14174
▁파렴치	-14175
▁감독을	-14176
림이	-14177
▁농사	-14178
▁서쪽	-14179
오프	-14180
수있게	-14181
▁윙	-14182
▁지극	-14183
▁ᄀᄀ	-14184
▁장마	-14185
▁꾸미	-14186
▁에피	-14187
한테만	-14188
파를	-14189
▁두지	-14190
▁권력이	-14191
▁활발	-14192
진핑	-14193
▁선동에	-14194
▁남긴	-14195
▁남았어	-14196
▁예전엔	-14197
▁병이	-14198
▁우익	-14199
▁호기	-14200
▁식량	-14201
★★★★	-14202
▁짤라	-14203
금의	-14204
▁갖추	-14205
▁개꿀	-14206
▁가식	-14207
▁물어볼	-14208
ect	-14209
는거랑	-14210
스스로	-14211
부르크	-14212
있다는	-14213
할만한	-14214
여대	-14215
▁백악	-14216
▁말이요	-14217
릴라	-14218
수야	-14219
▁수준을	-14220
▁그녀와	-14221
▁바르샤	-14222
▁조정석	-14223
버리지	-14224
▁갠	-14225
댄다	-14226
청구	-14227
했잖아요	-14228
▁아파요	-14229
▁낡은	-14230
▁먹이	-14231
▁한자	-14232
것같아	-14233
코가	-14234
부리	-14235
▁실어	-14236
▁문제의	-14237
▁승리를	-14238
지옥	-14239
▁만주	-14240
폐기	-14241
하기엔	-14242
▁가끔씩	-14243
▁안되냐	-14244
▁이승엽	-14245
했단	-14246
▁되겠어	-14247
▁우승을	-14248
▁두목	-14249
▁할랄	-14250
▁성적이	-14251
▁흐르는	-14252
뿐인	-14253
▁못봤	-14254
ode	-14255
▁얼마를	-14256
!'	-14257
개나	-14258
보안	-14259
▁부패한	-14260
▁사로잡	-14261
▁용인	-14262
▁남기고	-14263
▁웨스트	-14264
나야	-14265
▁지나친	-14266
업에	-14267
▁공룡	-14268
▁마이너	-14269
릴듯	-14270
찮은	-14271
도없는	-14272
▁도끼	-14273
▁대학원	-14274
▁버려야	-14275
▁정규직	-14276
▁쉰	-14277
내로	-14278
하시지	-14279
▁않겠다	-14280
▁재밋	-14281
▁표현의	-14282
뇌물	-14283
번은	-14284
종은	-14285
▁출신의	-14286
▁ᄒᄃᄃ	-14287
▁주저	-14288
▁리처	-14289
▁사후	-14290
▁증세	-14291
네들이	-14292
치나	-14293
설을	-14294
▁넣을	-14295
▁보지도	-14296
년이상	-14297
등에	-14298
란한	-14299
▁표를	-14300
▁성희롱	-14301
플러	-14302
▁여유가	-14303
▁제이슨	-14304
▁심문	-14305
질하고	-14306
등의	-14307
▁가혹	-14308
▁쇼를	-14309
▁결성	-14310
하는건지	-14311
▁재건	-14312
▁경찰도	-14313
▁33	-14314
▁보군	-14315
▁온몸	-14316
▁패거리	-14317
절을	-14318
었나요	-14319
▁로이	-14320
▁독재자	-14321
▁정윤회	-14322
일까지	-14323
▁국방부	-14324
가지한다	-14325
▁모자란	-14326
▁왤	-14327
설이	-14328
▁이상을	-14329
애미	-14330
▁개칭	-14331
과정	-14332
aid	-14333
▁세월이	-14334
(3	-14335
환을	-14336
▁마루	-14337
▁골드	-14338
▁세인트	-14339
▁들통	-14340
▁횃	-14341
▁진압	-14342
셨네요	-14343
▁부인을	-14344
▁전날	-14345
▁불공평	-14346
감이다	-14347
▁달라질	-14348
▁없거든	-14349
인용	-14350
카메	-14351
▁와봐	-14352
▁계획은	-14353
▁싶진	-14354
▁왓	-14355
▁정의는	-14356
▁해쳐먹	-14357
▁인간도	-14358
햇다	-14359
▁저랑	-14360
겼어요	-14361
▁진동	-14362
이쁘	-14363
▁승점	-14364
▁역전	-14365
세상에	-14366
▁나간다	-14367
폰이	-14368
무식	-14369
▁년을	-14370
▁토해	-14371
▁남자도	-14372
고의	-14373
▁못찾	-14374
▁커버	-14375
▁쌍둥이	-14376
▁운명을	-14377
▁방패	-14378
▁자자	-14379
▁거리에	-14380
IA	-14381
▁전후	-14382
▁어울려	-14383
기념	-14384
▁바보야	-14385
▁졸업생	-14386
▁아버님	-14387
▁통하는	-14388
높은	-14389
▁내쫓	-14390
▁캐리	-14391
붙어	-14392
연속	-14393
▁안해요	-14394
만약	-14395
▁입수	-14396
▁30%	-14397
▁않기	-14398
▁형을	-14399
▁팀에	-14400
되는지	-14401
뭔가	-14402
▁귀여워	-14403
▁위험에	-14404
▁수의	-14405
▁타팀	-14406
▁맞지만	-14407
▁맞음	-14408
거부	-14409
김치	-14410
▁도배	-14411
▁중이	-14412
어지고	-14413
▁위험을	-14414
▁명분	-14415
▁테드	-14416
▁허허	-14417
기사는	-14418
국과	-14419
▁사립	-14420
▁한명이	-14421
구경	-14422
▁미성년	-14423
▁열쇠를	-14424
▁속은	-14425
▁짬	-14426
▁부유	-14427
▁엔씨	-14428
덩어	-14429
한이	-14430
▁신변	-14431
▁싶었다	-14432
▁통진당	-14433
테인	-14434
컴퓨터	-14435
▁김재규	-14436
▁포르노	-14437
▁헬렌	-14438
▁전기를	-14439
밑에	-14440
았지만	-14441
건은	-14442
▁면도	-14443
▁미혼	-14444
▁이불	-14445
▁기존의	-14446
▁안되니	-14447
▁븅	-14448
▁뿔	-14449
ore	-14450
▁반지	-14451
▁마저	-14452
▁세력이	-14453
▁동지	-14454
이냐고	-14455
▁언론을	-14456
▁여기야	-14457
▁차리고	-14458
사냐	-14459
ert	-14460
▁길고	-14461
▁지점	-14462
▁꽃을	-14463
▁베이비	-14464
▁귀에	-14465
▁맹구	-14466
▁의자	-14467
▁가벼운	-14468
끄는	-14469
▁방이	-14470
▁암흑	-14471
▁개념이	-14472
▁역겹	-14473
▁사이버	-14474
▁늙어서	-14475
▁트로	-14476
죽이고	-14477
▁낮추	-14478
▁시키면	-14479
▁못하네	-14480
만이라도	-14481
▁공모	-14482
의혹	-14483
▁육체	-14484
▁현장에	-14485
▁일일	-14486
이제는	-14487
▁쇄	-14488
예산	-14489
ens	-14490
▁아빠랑	-14491
▁형태로	-14492
▁문체	-14493
▁대학에	-14494
▁까다	-14495
▁쟤는	-14496
▁나갔다	-14497
▁살인마	-14498
티드	-14499
물질	-14500
▁부문	-14501
위험	-14502
▁맨시티	-14503
디를	-14504
▁강경	-14505
▁둘을	-14506
▁제인	-14507
피를	-14508
▁쓰기	-14509
▁증권	-14510
▁실수로	-14511
▁대표팀	-14512
▁시위를	-14513
▁31	-14514
▁먹자	-14515
▁찾아내	-14516
거에	-14517
나봐요	-14518
뻔뻔	-14519
▁재발	-14520
▁북핵	-14521
곳으로	-14522
▁뭘요	-14523
▁가족과	-14524
▁터무니	-14525
▁힘내라	-14526
▁미끼	-14527
▁돈이나	-14528
▁표정이	-14529
▁고구려	-14530
▁나이트	-14531
에라이	-14532
▁한겨	-14533
▁가져온	-14534
▁껄	-14535
▁취해	-14536
▁될거다	-14537
티아	-14538
▁목숨이	-14539
▁아휴	-14540
▁게임은	-14541
26	-14542
았으니	-14543
▁변기	-14544
▁잡았어	-14545
▁케이크	-14546
군과	-14547
볼래	-14548
스톤	-14549
▁유정	-14550
▁윤리	-14551
▁벨기에	-14552
세다	-14553
▁접어	-14554
들이냐	-14555
▁살아가	-14556
거의	-14557
신청	-14558
▁나선	-14559
▁상사	-14560
할수가	-14561
▁있는걸	-14562
혜교	-14563
▁이별	-14564
▁입대	-14565
▁뺑	-14566
▁말해라	-14567
▁찾아봐	-14568
▁말해도	-14569
▁영혼이	-14570
▁거라는	-14571
▁보고서	-14572
▁모리	-14573
▁프로포	-14574
하는것은	-14575
▁힙합	-14576
들까지	-14577
▁더워서	-14578
efa	-14579
구마	-14580
비행	-14581
▁팀의	-14582
▁시민의	-14583
▁시점	-14584
▁한해	-14585
에어	-14586
▁배는	-14587
▁팔면	-14588
▁단어를	-14589
법의	-14590
생긴	-14591
▁시의	-14592
▁우리나	-14593
본인	-14594
▁쥐새끼	-14595
하거든요	-14596
소식	-14597
▁my	-14598
▁부근	-14599
래프트	-14600
층으로	-14601
▁달리는	-14602
▁정치는	-14603
▁잃게	-14604
▁킬러	-14605
▁그랬죠	-14606
▁보이면	-14607
▁먹으러	-14608
▁신선한	-14609
▁자들은	-14610
▁아니까	-14611
▁198	-14612
▁뻥튀	-14613
▁바위	-14614
▁감탄	-14615
모리	-14616
▁벌어진	-14617
욕이	-14618
▁제법	-14619
▁카지노	-14620
안해도	-14621
국적	-14622
스피	-14623
ne	-14624
이유는	-14625
▁무단	-14626
반응	-14627
▁총이	-14628
▁소재로	-14629
▁딕	-14630
휴일	-14631
▁드물	-14632
▁용기를	-14633
어려	-14634
▁미상	-14635
▁앤드	-14636
▁좋군	-14637
는디	-14638
진다고	-14639
▁됐다고	-14640
▁조치를	-14641
▁자야	-14642
위원장	-14643
아닌가요	-14644
▁임진	-14645
저렇게	-14646
▁대략	-14647
▁소금	-14648
▁기록이	-14649
▁좋았다	-14650
▁특집	-14651
▁카더라	-14652
▁영주	-14653
▁지름	-14654
한화	-14655
▁관대	-14656
▁시장이	-14657
▁담아	-14658
▁아쉬운	-14659
놈을	-14660
전략	-14661
▁보험료	-14662
▁정상이	-14663
▁선조	-14664
▁이윤	-14665
▁할망	-14666
동맹	-14667
천이	-14668
▁질서	-14669
삼아	-14670
▁옳지	-14671
▁언론들	-14672
기게	-14673
▁막대한	-14674
운동을	-14675
력의	-14676
▁찾아가	-14677
토가	-14678
▁날카	-14679
▁나이를	-14680
▁바꾸는	-14681
카가	-14682
남도의	-14683
으시죠	-14684
▁뿐인데	-14685
기회	-14686
협정	-14687
▁우물	-14688
퀴들	-14689
▁용서해	-14690
▁분쟁	-14691
▁없었을	-14692
▁지문	-14693
도에서	-14694
▁똑똑히	-14695
▁의외로	-14696
▁동화	-14697
▁못잡	-14698
잘하고	-14699
▁김희	-14700
▁비교적	-14701
크라이나	-14702
▁셋째	-14703
희가	-14704
▁특검에	-14705
▁나가게	-14706
인한	-14707
▁옆으로	-14708
조용	-14709
▁김제	-14710
▁선량한	-14711
▁700	-14712
▁더욱더	-14713
▁엥	-14714
▁허무	-14715
▁논란이	-14716
▁침해	-14717
뿐이지	-14718
▁바뀌면	-14719
▁개망신	-14720
▁선택한	-14721
▁환생	-14722
셨군요	-14723
▁상처가	-14724
▁시간끌	-14725
▁이새끼	-14726
中國	-14727
지키	-14728
▁되어버	-14729
방향	-14730
했었다	-14731
▁줄께	-14732
▁신랑	-14733
▁존재가	-14734
▁태반	-14735
▁깨끗이	-14736
▁주인님	-14737
▁라운드	-14738
▁중이다	-14739
▁생색	-14740
집회는	-14741
▁발전이	-14742
▁하룻밤	-14743
원칙	-14744
▁한복	-14745
돈도	-14746
같아서	-14747
▁없도록	-14748
왔고	-14749
성근	-14750
▁호수	-14751
▁말았다	-14752
▁상당한	-14753
▁비자금	-14754
▁영화에	-14755
우니까	-14756
▁쳐다보	-14757
시니	-14758
■■	-14759
▁주둔	-14760
판에서	-14761
▁않다는	-14762
▁초록	-14763
▁개인이	-14764
▁핀란드	-14765
▁눕	-14766
▁계승	-14767
▁안잡	-14768
▁챙피	-14769
▁김신	-14770
▁자긴	-14771
▁루머	-14772
▁판에	-14773
▁스카이	-14774
대통령의	-14775
▁조약	-14776
▁끝이다	-14777
지다	-14778
같으니	-14779
▁김영삼	-14780
▁사찰	-14781
▁프렌	-14782
▁했나요	-14783
ge	-14784
▁첼시	-14785
▁뛰어내	-14786
율은	-14787
짓이	-14788
blog	-14789
▁화나	-14790
먹어서	-14791
▁연쇄	-14792
▁훤	-14793
▁즐기고	-14794
이라고는	-14795
▁할꺼	-14796
▁기준이	-14797
걸세	-14798
산물	-14799
▁34	-14800
데이트	-14801
▁놈들아	-14802
▁유머	-14803
▁물가가	-14804
▁프라	-14805
안한다	-14806
▁대책을	-14807
▁않았던	-14808
기전	-14809
▁기업에	-14810
▁숨어서	-14811
쪽팔	-14812
▁명백한	-14813
하였으나	-14814
▁그외	-14815
▁한효	-14816
▁거래를	-14817
▁내로	-14818
능력이	-14819
▁나머진	-14820
▁통하여	-14821
▁신속	-14822
▁쳐도	-14823
총을	-14824
▁의상	-14825
대통령님	-14826
구야	-14827
▁성창호	-14828
▁개막	-14829
▁작업을	-14830
보이고	-14831
▁앞두고	-14832
▁핵폭탄	-14833
▁필요없	-14834
▁남들이	-14835
▁육아	-14836
소리도	-14837
♨♨♨♨	-14838
성적	-14839
▁덕분	-14840
▁이치	-14841
터에	-14842
▁답없다	-14843
~~!	-14844
▁메르스	-14845
분해	-14846
▁만남	-14847
치는거	-14848
▁백날	-14849
▁정통	-14850
▁밤이	-14851
할지도	-14852
▁이번이	-14853
등은	-14854
배운	-14855
▁그러시	-14856
불법	-14857
왔으면	-14858
nhn	-14859
▁에어콘	-14860
▁증거도	-14861
▁무인	-14862
▁봐줄	-14863
▁자란	-14864
원짜리	-14865
▁몹시	-14866
▁재밌어	-14867
거릴	-14868
야지요	-14869
이었을	-14870
증은	-14871
▁ᄁ	-14872
▁부당	-14873
da	-14874
▁약속해	-14875
었니	-14876
▁멈출	-14877
▁부적	-14878
▁말장난	-14879
▁보좌	-14880
▁엿먹	-14881
▁현빈	-14882
지은	-14883
라는거	-14884
네스	-14885
인대	-14886
▁경매	-14887
▁열려	-14888
▁공주님	-14889
▁평창	-14890
▁언제고	-14891
▁카이	-14892
갔지	-14893
잇는	-14894
▁안어울	-14895
▁지역을	-14896
▁양의	-14897
일부터	-14898
▁비싸서	-14899
▁;;	-14900
ᄋᄋᄋᄋ	-14901
▁죄값을	-14902
내년	-14903
▁cd	-14904
▁엘지가	-14905
▁찾아볼	-14906
지사	-14907
아저씨	-14908
▁혈압	-14909
▁거겠지	-14910
▁곧바로	-14911
▁군대는	-14912
▁음식이	-14913
웃음	-14914
티스트	-14915
임에	-14916
▁서식	-14917
▁올랐다	-14918
▁자산	-14919
▁일으켰	-14920
▁주시오	-14921
ile	-14922
▁쉬게	-14923
▁리그의	-14924
▁아빠도	-14925
▁넣어서	-14926
그가	-14927
▁안올	-14928
여라	-14929
중간	-14930
살다	-14931
▁컨트롤	-14932
ps	-14933
▁2,	-14934
▁안볼	-14935
▁도요	-14936
▁성을	-14937
담을	-14938
▁설사	-14939
했었어	-14940
▁아팠	-14941
▁한국남	-14942
▁망설	-14943
▁조영	-14944
의원은	-14945
vs	-14946
▁총으로	-14947
▁입력	-14948
▁적혀	-14949
▁도적	-14950
▁발렌	-14951
▁여혐	-14952
해줘라	-14953
더미	-14954
▁슬로	-14955
▁자르	-14956
▁펩	-14957
▁나타날	-14958
▁민족의	-14959
분별	-14960
▁좀만	-14961
▁침투	-14962
▁노예로	-14963
사전	-14964
▁답은	-14965
▁보편	-14966
▁시그	-14967
먹는다	-14968
역은	-14969
▁조명	-14970
보고싶다	-14971
▁사법부	-14972
벌어	-14973
대다	-14974
▁있을듯	-14975
iz	-14976
짓고	-14977
네ᄏᄏ	-14978
안으로	-14979
▁그깟	-14980
▁소멸	-14981
▁왔으면	-14982
경험	-14983
▁논쟁	-14984
같아요	-14985
당신이	-14986
에게만	-14987
▁잔인한	-14988
수당	-14989
행은	-14990
▁얻는	-14991
이치	-14992
더가	-14993
년이다	-14994
▁싣	-14995
렸나	-14996
▁캐서	-14997
▁la	-14998
승장구	-14999
▁유능한	-15000
하차	-15001
▁삶에	-15002
▁중졸	-15003
▁들어본	-15004
▁철저한	-15005
ᄐᄐ	-15006
▁사대	-15007
▁고생이	-15008
▁그들과	-15009
▁안되서	-15010
주교	-15011
▁신호를	-15012
▁존스	-15013
셨지	-15014
▁과감	-15015
▁비비	-15016
▁팩	-15017
▁제품을	-15018
▁준공	-15019
▁코메	-15020
▁토마	-15021
하리	-15022
▁왕창	-15023
▁먹게	-15024
발언	-15025
▁왔죠	-15026
▁위법	-15027
▁경험을	-15028
▁어딨지	-15029
▁건들	-15030
▁낮아	-15031
▁헐리	-15032
▁혐의로	-15033
계로	-15034
천시	-15035
▁지구가	-15036
▁밥은	-15037
▁심정	-15038
할수록	-15039
빠져	-15040
치자	-15041
▁훗날	-15042
가는건	-15043
방해	-15044
▁완화	-15045
▁그전에	-15046
▁다른거	-15047
질하는	-15048
▁모은	-15049
▁얄	-15050
▁세번째	-15051
▁안뽑	-15052
▁고령	-15053
안하는	-15054
28	-15055
머스	-15056
▁거나	-15057
▁노리	-15058
▁전쟁에	-15059
소문	-15060
일단	-15061
▁좋소	-15062
멋대로	-15063
제목	-15064
▁연료	-15065
▁찾았다	-15066
락이	-15067
▁저능	-15068
었겠지	-15069
하거라	-15070
▁마을을	-15071
▁화려한	-15072
▁휩쓸	-15073
▁무작정	-15074
회전	-15075
▁간의	-15076
▁혼자가	-15077
귀한	-15078
▁장착	-15079
▁중도	-15080
▁개업한	-15081
함의	-15082
▁책이	-15083
▁섰	-15084
해서라도	-15085
차게	-15086
상이다	-15087
까고	-15088
▁꽤나	-15089
▁아플	-15090
▁by	-15091
▁총에	-15092
▁파탄	-15093
▁막는	-15094
▁없다구	-15095
▁겁쟁이	-15096
▁물어뜯	-15097
하느냐	-15098
▁수립	-15099
▁나하고	-15100
▁입에서	-15101
숙이	-15102
연은	-15103
죄는	-15104
▁내주	-15105
을때도	-15106
▁뭐가요	-15107
BO	-15108
악의	-15109
시트	-15110
▁길에서	-15111
▁낙하산	-15112
▁통행	-15113
화물	-15114
▁정책이	-15115
년이면	-15116
▁피할	-15117
폰으로	-15118
ost	-15119
▁SN	-15120
▁당겨	-15121
업은	-15122
▁군의	-15123
▁굶주	-15124
▁나폴	-15125
▁모자를	-15126
원래	-15127
▁검정	-15128
투스	-15129
▁상자	-15130
▁월터	-15131
▁쓰냐	-15132
갔으면	-15133
▁올려야	-15134
▁재미없	-15135
▁전화로	-15136
▁박신	-15137
▁총장	-15138
▁가죽	-15139
▁침대에	-15140
ord	-15141
좋아요	-15142
준거	-15143
▁또라	-15144
겠더라	-15145
소와	-15146
▁새끼가	-15147
기구	-15148
▁타카	-15149
▁여기다	-15150
▁샬	-15151
타자	-15152
쿠라	-15153
▁95	-15154
▁리드	-15155
점도	-15156
▁성의	-15157
▁안써	-15158
▁있기를	-15159
▁대개	-15160
▁좋더라	-15161
▁그네야	-15162
▁먹었어	-15163
더이상	-15164
▁너네가	-15165
▁물가는	-15166
역이다	-15167
▁얼굴로	-15168
▁다물	-15169
▁알레	-15170
▁sv	-15171
▁얘도	-15172
▁예쁘게	-15173
▁재능이	-15174
크에	-15175
▁저질러	-15176
하를	-15177
▁no	-15178
▁초래	-15179
▁순진한	-15180
▁자연의	-15181
▁안통	-15182
▁모집	-15183
.7	-15184
▁콤	-15185
▁슈퍼맨	-15186
▁노리타	-15187
라미	-15188
유치	-15189
이민	-15190
던게	-15191
▁안받	-15192
▁엠비	-15193
정권이	-15194
끄네	-15195
▁죽이면	-15196
대와	-15197
곡을	-15198
요원	-15199
있지만	-15200
▁다이빙	-15201
▁못하냐	-15202
바보	-15203
편을	-15204
쟁이들	-15205
해보면	-15206
▁임원	-15207
한마디	-15208
▁음악가	-15209
난리	-15210
▁가다	-15211
▁오르는	-15212
▁전재산	-15213
진영	-15214
▁이기면	-15215
양은	-15216
▁옵션	-15217
▁왔소	-15218
▁참전	-15219
이었네	-15220
터로	-15221
▁놓아	-15222
▁얻고	-15223
였군	-15224
▁없는지	-15225
세도	-15226
못한다	-15227
▁어떠냐	-15228
헌법	-15229
수없는	-15230
▁인류의	-15231
▁꽝	-15232
▁날개	-15233
▁작가님	-15234
두리	-15235
▁개신	-15236
▁곳이야	-15237
▁상관이	-15238
▁인정할	-15239
겟냐	-15240
▁유산	-15241
나중에	-15242
▁벗어날	-15243
사야	-15244
▁끊고	-15245
치않	-15246
▁금발	-15247
▁조용한	-15248
했으니까	-15249
▁외교부	-15250
▁욕먹을	-15251
슬라	-15252
▁쪽이	-15253
버린다	-15254
▁전경련	-15255
대야	-15256
▁고스톱	-15257
성명	-15258
▁날로	-15259
▁머냐	-15260
▁확산	-15261
▁보는거	-15262
고위	-15263
▁닦아	-15264
▁브레	-15265
▁문화를	-15266
▁마사지	-15267
▁백퍼	-15268
비싼	-15269
연맹	-15270
한잔	-15271
▁사임	-15272
▁의도가	-15273
무게	-15274
자리가	-15275
살기	-15276
▁바늘	-15277
▁망치는	-15278
화와	-15279
▁내서	-15280
▁당첨	-15281
▁동해	-15282
▁사시	-15283
▁유용	-15284
▁없구만	-15285
▁닭을	-15286
▁될것	-15287
▁전도	-15288
▁샌프란	-15289
▁죽인다	-15290
▁말리	-15291
▁여인	-15292
▁걸리는	-15293
드네	-15294
카스	-15295
▁스폰	-15296
▁br	-15297
할거면	-15298
▁아는게	-15299
▁연구를	-15300
▁타고난	-15301
▁괴롭히	-15302
▁않았죠	-15303
▁내년엔	-15304
▁he	-15305
▁그따	-15306
▁바가	-15307
▁야당은	-15308
오냐	-15309
보내고	-15310
보려고	-15311
▁자신은	-15312
▁경우에	-15313
▁있더라	-15314
▁에혀	-15315
▁잘됐네	-15316
▁보시	-15317
▁쩝	-15318
▁이며	-15319
▁도시를	-15320
▁비주얼	-15321
▁상대를	-15322
▁호모	-15323
▁천안	-15324
담당	-15325
▁아비	-15326
▁직후	-15327
나가고	-15328
▁어쨋든	-15329
헌재	-15330
질않	-15331
▁많지만	-15332
막고	-15333
▁수송	-15334
▁쪽에	-15335
▁먹어요	-15336
중근	-15337
▁오우	-15338
▁실패한	-15339
은택	-15340
이라니까	-15341
▁참조	-15342
지않다	-15343
▁제프	-15344
▁애들아	-15345
▁잘하네	-15346
▁불명	-15347
▁해소	-15348
▁비선실	-15349
▁지냈어	-15350
생들	-15351
인구	-15352
▁최후	-15353
▁맞아야	-15354
▁매력이	-15355
▁잘들어	-15356
▁얇	-15357
로니	-15358
▁남에게	-15359
▁받기	-15360
▁이넘	-15361
▁콜린	-15362
▁떠드는	-15363
▁쓰세요	-15364
▁통산	-15365
▁행진	-15366
▁당당히	-15367
▁믿어야	-15368
▁옷은	-15369
있는게	-15370
됐지	-15371
속도	-15372
▁교묘	-15373
하겠나	-15374
▁개조	-15375
지시	-15376
▁릴리	-15377
▁주거	-15378
▁북한과	-15379
▁맛있게	-15380
존재	-15381
▁bo	-15382
▁초월	-15383
▁헌데	-15384
년차	-15385
▁럭	-15386
에서요	-15387
▁아이스	-15388
▁걷고	-15389
▁살만	-15390
▁가시죠	-15391
▁존재를	-15392
공화국의	-15393
▁배로	-15394
▁빠는	-15395
▁이처럼	-15396
▁tvn	-15397
▁동작	-15398
27	-15399
▁간주	-15400
▁DNA	-15401
는건가요	-15402
자니	-15403
▁베풀	-15404
▁사이먼	-15405
▁문장	-15406
▁등과	-15407
▁너처럼	-15408
▁어려서	-15409
▁유느님	-15410
▁이집트	-15411
마의	-15412
▁대역	-15413
▁오실	-15414
▁죽겠다	-15415
했을텐데	-15416
이러니	-15417
▁각성	-15418
▁저쩌	-15419
▁되풀이	-15420
▁물갈이	-15421
▁포스터	-15422
하는건데	-15423
▁보트	-15424
▁실명	-15425
▁국가적	-15426
▁우즈	-15427
랬잖아	-15428
▁맞으면	-15429
▁중대한	-15430
▁술은	-15431
▁안하지	-15432
▁단일	-15433
▁방향을	-15434
▁다수의	-15435
▁드러나	-15436
▁여론이	-15437
ᅩᅩ	-15438
▁뮌	-15439
ᄉᄉᄉᄉ	-15440
▁늘려	-15441
▁좋냐	-15442
▁완전한	-15443
ECD	-15444
▁배상	-15445
▁빼고는	-15446
▁자신도	-15447
창조	-15448
▁나는데	-15449
라이트	-15450
▁독자	-15451
▁뿐이	-15452
▁영수	-15453
프로가	-15454
풍이	-15455
▁부리	-15456
▁선풍기	-15457
대통	-15458
▁술에	-15459
▁싶냐	-15460
태극기	-15461
란걸	-15462
▁수신	-15463
▁비리를	-15464
▁착하고	-15465
ich	-15466
▁도주	-15467
▁양파	-15468
투를	-15469
▁말라는	-15470
▁『	-15471
이니깐	-15472
▁용감한	-15473
벗고	-15474
적으론	-15475
▁모두의	-15476
▁알았나	-15477
▁원더	-15478
▁패턴	-15479
▁났어요	-15480
▁매매	-15481
▁장르	-15482
로서는	-15483
▁온거야	-15484
▁모금	-15485
또라이	-15486
▁생명의	-15487
▁골로	-15488
▁민망	-15489
보고싶	-15490
날은	-15491
▁시드니	-15492
태를	-15493
▁눈도	-15494
태우	-15495
▁MB	-15496
▁부시	-15497
▁동경	-15498
▁어둡	-15499
▁집값이	-15500
▁등산복	-15501
▁최경환	-15502
▁하자는	-15503
one	-15504
따윈	-15505
▁ᄆᄎ	-15506
▁바뀌고	-15507
다르	-15508
생의	-15509
팔고	-15510
한국은	-15511
▁최상	-15512
▁시국	-15513
▁직원이	-15514
▁안젤	-15515
▁투자를	-15516
▁해줘라	-15517
▁달에	-15518
▁영리	-15519
놈도	-15520
▁인디	-15521
이었나	-15522
바란다	-15523
었을까	-15524
▁조회	-15525
▁풀고	-15526
▁박명수	-15527
▁기대해	-15528
주신	-15529
말자	-15530
▁아카데	-15531
▁영남	-15532
▁빠지면	-15533
▁부모를	-15534
악을	-15535
▁남아서	-15536
▁감상	-15537
▁협의	-15538
까지나	-15539
~♡	-15540
▁시사	-15541
▁목적은	-15542
▁입법	-15543
▁잠도	-15544
▁생명이	-15545
▁퀄	-15546
▁가축	-15547
▁출국	-15548
▁간부	-15549
▁선거구	-15550
하는사람	-15551
▁발목	-15552
▁뻐	-15553
▁주작	-15554
기사를	-15555
▁어땠어	-15556
가시	-15557
▁잡히	-15558
▁진단	-15559
▁어떨지	-15560
▁묻혀	-15561
이나라	-15562
▁넉	-15563
느라고	-15564
린게	-15565
▁칠레	-15566
각을	-15567
태현	-15568
▁실체	-15569
되었던	-15570
았다는	-15571
분한	-15572
▁두려운	-15573
▁싶어도	-15574
▁있는듯	-15575
설치	-15576
▁사부님	-15577
▁유승준	-15578
▁멜로	-15579
▁복구	-15580
▁일러	-15581
▁시간만	-15582
▁자식아	-15583
보네요	-15584
▁가상	-15585
▁국왕	-15586
만드는	-15587
▁따지고	-15588
▁전교조	-15589
라네	-15590
▁마치고	-15591
▁미국산	-15592
▁자식은	-15593
▁댈	-15594
▁재산이	-15595
▁뽑고	-15596
▁안죽	-15597
정우	-15598
▁상식이	-15599
나옴	-15600
▁없을까	-15601
▁원전	-15602
▁버렸다	-15603
▁태후	-15604
안가	-15605
▁섭외	-15606
▁잃을	-15607
사회의	-15608
▁낳아	-15609
▁퓨	-15610
▁동일한	-15611
▁애인이	-15612
▁좋아질	-15613
▁인사를	-15614
린다는	-15615
▁국민에	-15616
할까봐	-15617
▁줘봐	-15618
▁가담	-15619
▁타협	-15620
▁한꺼	-15621
▁연락을	-15622
▁주유	-15623
▁못하나	-15624
▁향한	-15625
▁알아냈	-15626
kg	-15627
중일	-15628
▁군주	-15629
▁세금도	-15630
▁후면	-15631
차이즈	-15632
물도	-15633
▁갤노트	-15634
▁여러번	-15635
▁180	-15636
국가가	-15637
너도	-15638
▁참견	-15639
▁아이콘	-15640
▁봉쇄	-15641
▁넣어라	-15642
▁문화가	-15643
▁엘리엇	-15644
▁이끌고	-15645
▁땄	-15646
▁갔으면	-15647
▁지시를	-15648
▁일과	-15649
▁돈이면	-15650
▁본부	-15651
▁소음	-15652
이럴	-15653
판단	-15654
▁줬어요	-15655
학원	-15656
▁몸값	-15657
▁사치	-15658
▁종사	-15659
식사	-15660
기에는	-15661
▁답답한	-15662
▁엘지는	-15663
▁화장품	-15664
▁숭배	-15665
29	-15666
년뒤	-15667
▁결방	-15668
▁유교	-15669
허가	-15670
▁놓을	-15671
궁창	-15672
릴수	-15673
▁신뢰를	-15674
▁못받	-15675
▁배제	-15676
▁이니	-15677
▁불구속	-15678
▁물은	-15679
▁장미	-15680
▁오보	-15681
▁값을	-15682
▁안본다	-15683
통제	-15684
렸을때	-15685
소추	-15686
▁뭔지도	-15687
▁이승만	-15688
클리	-15689
어마한	-15690
▁느껴지	-15691
▁치료를	-15692
▁권위	-15693
▁대가를	-15694
▁해서요	-15695
▁세습	-15696
▁퀴	-15697
▁동상	-15698
▁서브	-15699
▁딘	-15700
▁위태	-15701
▁얘기만	-15702
말의	-15703
▁못해도	-15704
무역	-15705
▁후로	-15706
어른	-15707
▁레지	-15708
마시	-15709
▁정해	-15710
훈이	-15711
▁유럽의	-15712
연습	-15713
일수	-15714
▁너희를	-15715
▁바란	-15716
간다는	-15717
▁나같은	-15718
▁명은	-15719
▁빛나는	-15720
▁얌전히	-15721
▁한명도	-15722
▁아홉	-15723
마저도	-15724
▁넣으면	-15725
▁홋	-15726
▁제발좀	-15727
▁신성	-15728
▁좋았을	-15729
▁그야	-15730
▁나쁜놈	-15731
▁보내서	-15732
주려고	-15733
▁되겠죠	-15734
▁때만	-15735
▁보태	-15736
▁술먹고	-15737
▁기회는	-15738
▁,,,	-15739
▁어릴때	-15740
▁셋이	-15741
▁재미도	-15742
루는	-15743
▁제군	-15744
관계를	-15745
색으로	-15746
▁금연	-15747
▁주장을	-15748
▁순찰	-15749
▁받아도	-15750
▁인기를	-15751
.-	-15752
▁잦	-15753
박사	-15754
▁과잉	-15755
집안	-15756
▁댓글로	-15757
▁처먹고	-15758
▁오스	-15759
▁싶소	-15760
▁대체로	-15761
▁본인도	-15762
▁집구석	-15763
ᄀᄏ	-15764
걸리	-15765
했거든	-15766
▁가방을	-15767
▁용기가	-15768
▁미야	-15769
▁자들	-15770
상대로	-15771
▁케이티	-15772
사령	-15773
커녕	-15774
▁메시지	-15775
▁철밥통	-15776
▁있을거	-15777
▁할일이	-15778
▁틀고	-15779
▁제국의	-15780
▁호텔에	-15781
▁거주한	-15782
되는건	-15783
▁일들을	-15784
▁학사	-15785
초가	-15786
평등	-15787
▁거스	-15788
▁비타	-15789
▁욕은	-15790
해야해	-15791
▁일본국	-15792
▁없는듯	-15793
▁찌그러	-15794
초를	-15795
하듯이	-15796
▁오지랖	-15797
랐어	-15798
▁괜한	-15799
▁스텝	-15800
▁대머리	-15801
▁아몰랑	-15802
릭스	-15803
강한	-15804
판은	-15805
▁외환	-15806
▁많은지	-15807
돌려	-15808
▁통수	-15809
키우	-15810
호구	-15811
▁세의	-15812
비교	-15813
▁징그	-15814
▁이런일	-15815
으리	-15816
▁하마	-15817
▁저절로	-15818
▁강아	-15819
▁구출	-15820
▁소형	-15821
▁있대	-15822
▁시장에	-15823
▁싶고	-15824
▁부르면	-15825
유예	-15826
ans	-15827
▁합계	-15828
다가도	-15829
되었는데	-15830
부문	-15831
▁도청	-15832
국인	-15833
▁넘들이	-15834
결을	-15835
▁앞으론	-15836
꺼고	-15837
었다가	-15838
군대	-15839
▁당시의	-15840
▁분을	-15841
▁거친	-15842
▁당원	-15843
▁비유	-15844
▁옮기	-15845
▁애한테	-15846
▁톨	-15847
었거든	-15848
쓰지	-15849
▁정차	-15850
찾아	-15851
▁열애	-15852
▁은하	-15853
▁너야	-15854
주면서	-15855
층에서	-15856
▁두들겨	-15857
그나	-15858
▁완공	-15859
거리지	-15860
임은	-15861
▁오는데	-15862
가입	-15863
▁게으	-15864
타나	-15865
드와	-15866
비슷	-15867
▁공립	-15868
▁정신좀	-15869
▁먼가	-15870
▁파멸	-15871
▁굵	-15872
표는	-15873
▁뒤지	-15874
▁미르	-15875
▁소리도	-15876
문제를	-15877
▁돌을	-15878
▁문열	-15879
▁과거를	-15880
▁젊고	-15881
▁시댁	-15882
생각은	-15883
▁딱딱	-15884
▁처분	-15885
억이면	-15886
▁시진핑	-15887
▁역으로	-15888
깨비	-15889
▁데는	-15890
▁전송	-15891
도하고	-15892
▁어쩌냐	-15893
▁원인은	-15894
이라면서	-15895
대포	-15896
뜯어	-15897
▁거들	-15898
▁소모	-15899
▁제재	-15900
0000	-15901
져야한다	-15902
대접	-15903
▁진리	-15904
각이	-15905
어야죠	-15906
어에	-15907
▁급격	-15908
▁철회	-15909
▁견뎌	-15910
2)	-15911
3.	-15912
누군	-15913
▁높게	-15914
▁박쥐	-15915
▁정권은	-15916
▁죽음이	-15917
없는거	-15918
▁바꾸면	-15919
ite	-15920
▁우규	-15921
▁조준	-15922
▁작품이	-15923
▁집안에	-15924
▁터지고	-15925
=>	-15926
▁쫒아	-15927
▁뿜	-15928
▁유력	-15929
▁뺀	-15930
다만	-15931
▁애쓴다	-15932
▁인쇄	-15933
▁한거지	-15934
▁모시	-15935
할때까지	-15936
▁뚫고	-15937
▁앞을	-15938
▁겜	-15939
치냐	-15940
▁상원	-15941
▁지팡	-15942
▁타이거	-15943
▁강철	-15944
▁구명	-15945
▁안하나	-15946
▁언론도	-15947
▁헌법을	-15948
코는	-15949
▁아가야	-15950
▁합쳐	-15951
▁기사만	-15952
▁의식이	-15953
도리	-15954
청소	-15955
▁편곡	-15956
▁노트북	-15957
▁엄한	-15958
▁그림이	-15959
▁타면	-15960
더니만	-15961
▁버렸어	-15962
▁싫은데	-15963
▁뚜껑	-15964
▁아파서	-15965
▁공중파	-15966
사법	-15967
참여	-15968
▁소고기	-15969
▁정부야	-15970
▁김용	-15971
▁맑은	-15972
▁채권	-15973
▁손해배	-15974
▁그랜	-15975
▁분노를	-15976
▁떠들고	-15977
▁우라	-15978
전환	-15979
▁창원	-15980
해보자	-15981
▁없단다	-15982
해줘서	-15983
▁가져왔	-15984
주소	-15985
▁EU	-15986
▁밥도	-15987
▁내놓고	-15988
혔어	-15989
▁단기	-15990
▁지랄	-15991
▁믿을수	-15992
▁말해줄	-15993
▁이분은	-15994
▁고수	-15995
▁마음도	-15996
▁멈추지	-15997
▁변신	-15998
▁욱일	-15999
▁전역	-16000
당해서	-16001
▁녹화	-16002
▁역을	-16003
ure	-16004
▁개구리	-16005
▁시민들	-16006
드나	-16007
▁것뿐	-16008
▁라틴	-16009
▁김무성	-16010
▁방식이	-16011
▁권혁	-16012
▁원시	-16013
대가리들	-16014
의원들이	-16015
▁챙기는	-16016
류는	-16017
뜩이나	-16018
▁책임지	-16019
▁써요	-16020
▁무의미	-16021
▁왤케	-16022
▁의견이	-16023
되었다고	-16024
▁나비	-16025
▁잭슨	-16026
등으로	-16027
▁용서를	-16028
▁똘똘	-16029
▁소매	-16030
지하철	-16031
▁맘껏	-16032
▁뽑는	-16033
▁염병할	-16034
▁충격을	-16035
때로	-16036
..!!	-16037
▁가족의	-16038
▁말지	-16039
▁신비	-16040
▁순간에	-16041
▁잔소리	-16042
▁횟	-16043
▁곳곳에	-16044
▁빠져서	-16045
▁사는거	-16046
▁흥해라	-16047
한줄	-16048
적이라	-16049
▁헤어지	-16050
▁고모	-16051
▁열매	-16052
종범	-16053
▁주위를	-16054
▁쓰나	-16055
▁몽골	-16056
▁범법	-16057
▁습관	-16058
▁이름만	-16059
▁간직	-16060
구녕	-16061
▁스릴	-16062
야할	-16063
▁너머	-16064
▁화산	-16065
▁드래곤	-16066
브스	-16067
▁조리	-16068
없지만	-16069
▁도무지	-16070
▁보내지	-16071
▁건조	-16072
▁쓰던	-16073
▁때로는	-16074
▁인스타	-16075
end	-16076
수만	-16077
▁걔는	-16078
▁혼이	-16079
▁술이	-16080
오히려	-16081
▁행위를	-16082
▁곳도	-16083
▁심해	-16084
▁주방	-16085
▁못알아	-16086
▁시국에	-16087
것과	-16088
▁관측	-16089
▁벌벌	-16090
▁존슨	-16091
▁소름돋	-16092
▁작곡가	-16093
플레	-16094
▁못했던	-16095
웠습니다	-16096
놨네	-16097
▁성동	-16098
▁설명을	-16099
▁해제	-16100
들이죠	-16101
▁한화가	-16102
난거	-16103
▁라도	-16104
▁유리한	-16105
▁구워	-16106
▁불빛	-16107
감독님	-16108
이닝	-16109
진행	-16110
퍼스	-16111
▁됐을	-16112
▁겪어	-16113
▁데려온	-16114
▁시야	-16115
많은데	-16116
언론이	-16117
▁전기차	-16118
함으로	-16119
▁마드리	-16120
▁민간인	-16121
통과	-16122
▁pd	-16123
귀를	-16124
되기도	-16125
전라도	-16126
▁몇푼	-16127
▁쓰라고	-16128
▁계실	-16129
▁그애	-16130
말든	-16131
▁유효	-16132
▁야스	-16133
집으로	-16134
해야하는	-16135
눈치	-16136
바일	-16137
용도	-16138
▁백제	-16139
한심한	-16140
▁드러운	-16141
▁ost	-16142
▁국민도	-16143
▁있었음	-16144
들한테는	-16145
▁나라면	-16146
스러울	-16147
▁죽어가	-16148
다행	-16149
못하면	-16150
▁배역	-16151
▁달콤한	-16152
▁오스카	-16153
▁해마다	-16154
.9	-16155
▁증거로	-16156
▁비어	-16157
▁줄게요	-16158
▁깽	-16159
석규	-16160
▁아네	-16161
족의	-16162
▁엘쥐	-16163
하겠군	-16164
릴까	-16165
이틀	-16166
▁양복	-16167
▁수준에	-16168
▁특검도	-16169
▁마샬	-16170
아쉽	-16171
확실	-16172
▁생성	-16173
기사에	-16174
▁의지가	-16175
▁미쿡	-16176
주는거	-16177
▁이른바	-16178
늙은	-16179
토를	-16180
아니지	-16181
▁싸움을	-16182
▁해야만	-16183
년생	-16184
▁co	-16185
▁보드	-16186
려던	-16187
우를	-16188
▁걷는	-16189
▁드럼	-16190
▁기대를	-16191
▁이간	-16192
▁한발	-16193
▁교수가	-16194
방지	-16195
▁세르	-16196
▁보이냐	-16197
~5	-16198
▁떠넘	-16199
▁돈의	-16200
▁속이고	-16201
이길	-16202
▁본보	-16203
▁몸으로	-16204
▁하는걸	-16205
정도의	-16206
디다	-16207
▁망명	-16208
▁종신형	-16209
▁지극히	-16210
▁구걸	-16211
▁소리만	-16212
▁기숙	-16213
▁80%	-16214
▁잘생겼	-16215
▁급하게	-16216
키아	-16217
▁핑계로	-16218
▁얼룩	-16219
▁바람을	-16220
▁쓰면서	-16221
을려고	-16222
▁만드네	-16223
▁노리고	-16224
가져	-16225
기아	-16226
성형	-16227
▁실검	-16228
▁욕도	-16229
hy	-16230
소니	-16231
▁고딩	-16232
▁너흰	-16233
안고	-16234
▁아시는	-16235
▁하셨죠	-16236
▁빅터	-16237
▁비싸다	-16238
▁먹을래	-16239
벨트	-16240
▁발암	-16241
▁대령님	-16242
▁나누어	-16243
▁잘가라	-16244
▁훈련을	-16245
데려	-16246
손에	-16247
아픈	-16248
파일	-16249
▁비열한	-16250
▁높고	-16251
▁쉬워	-16252
▁애야	-16253
▁연휴	-16254
집회에	-16255
▁동생을	-16256
보통	-16257
▁스페셜	-16258
가만	-16259
▁어우	-16260
되겠네	-16261
▁잘할	-16262
결이	-16263
놔야	-16264
▁내시	-16265
▁몽둥	-16266
엇다	-16267
▁카드를	-16268
징글	-16269
▁훈장	-16270
쇼핑	-16271
형제	-16272
베리	-16273
▁지출	-16274
▁학생이	-16275
▁귀엽고	-16276
▁없더라	-16277
미르	-16278
per	-16279
▁명시	-16280
▁이보다	-16281
▁대상은	-16282
▁이루고	-16283
▁지나지	-16284
▁잘된	-16285
▁쓸어버	-16286
▁벤츠	-16287
피고	-16288
▁까도	-16289
▁저작	-16290
▁크기	-16291
▁37	-16292
▁카우	-16293
▁서민은	-16294
▁지켰	-16295
▁차가운	-16296
순환	-16297
▁외야	-16298
들과는	-16299
▁어제는	-16300
▁일해서	-16301
▁800	-16302
▁관람	-16303
▁범인이	-16304
▁총은	-16305
했어야지	-16306
▁무선	-16307
▁이행	-16308
▁로맨틱	-16309
▁몇가지	-16310
▁ww	-16311
▁속셈	-16312
꾼이	-16313
놔서	-16314
▁습격	-16315
▁지롤	-16316
▁틀렸어	-16317
되자	-16318
송이	-16319
있다면	-16320
카이도	-16321
▁먹어서	-16322
▁뺏어	-16323
▁입장이	-16324
태웅	-16325
있죠	-16326
비서	-16327
▁안겨	-16328
▁오르면	-16329
인디	-16330
▁시선	-16331
▁패널	-16332
다니며	-16333
수나	-16334
▁누르	-16335
▁이국	-16336
▁변해	-16337
▁계엄령	-16338
가정	-16339
되죠	-16340
▁길어	-16341
▁몇이나	-16342
시여	-16343
▁규칙을	-16344
▁두가지	-16345
▁훔쳤	-16346
스타일	-16347
지금도	-16348
▁드나	-16349
▁산다고	-16350
.”	-16351
▁wor	-16352
열이	-16353
▁희한	-16354
▁올리지	-16355
▁짱깨들	-16356
보나	-16357
▁청화	-16358
▁누워서	-16359
▁조여옥	-16360
작업	-16361
▁ed	-16362
째로	-16363
해주길	-16364
▁세금만	-16365
▁오렌지	-16366
▁제자리	-16367
▁냉동	-16368
▁항해	-16369
▁핵무기	-16370
고한	-16371
진게	-16372
▁양상	-16373
블로	-16374
▁유난	-16375
▁잠잠	-16376
▁측면	-16377
주의적	-16378
ass	-16379
▁사우디	-16380
파의	-16381
▁모범	-16382
▁붙은	-16383
앉아	-16384
▁식사를	-16385
▁컷	-16386
▁위스키	-16387
▁의식을	-16388
측은	-16389
▁많았다	-16390
▁클릭	-16391
▁출퇴근	-16392
▁날을	-16393
하우스	-16394
질도	-16395
잡아서	-16396
▁게시	-16397
▁성향	-16398
린데	-16399
▁나리	-16400
▁이원	-16401
▁회피	-16402
▁사기를	-16403
▁하시지	-16404
그러냐	-16405
▁루니	-16406
▁그들도	-16407
일베	-16408
▁ᄉᄉ	-16409
▁주겠다	-16410
연의	-16411
▁업그	-16412
김정은	-16413
죽음	-16414
▁대동	-16415
▁북부	-16416
▁김경숙	-16417
▁다니지	-16418
▁보내면	-16419
▁기분은	-16420
▁차례야	-16421
▁신천지	-16422
파괴	-16423
▁연간	-16424
퍼가	-16425
▁문명	-16426
▁미모	-16427
!✔	-16428
부패	-16429
▁위생	-16430
▁전복	-16431
화하고	-16432
▁태어날	-16433
담이	-16434
▁극히	-16435
▁도니	-16436
▁닛	-16437
▁압수	-16438
▁원나잇	-16439
백이	-16440
▁깔아	-16441
▁끝나지	-16442
▁노리는	-16443
ice	-16444
팬들이	-16445
하셔야	-16446
죽은	-16447
▁공적	-16448
▁장래	-16449
▁자선	-16450
▁창작	-16451
▁날도	-16452
▁사귄	-16453
▁진료	-16454
▁질병	-16455
▁정해진	-16456
이라는걸	-16457
▁겐	-16458
박근혜가	-16459
까는	-16460
▁특권	-16461
이만	-16462
▁1~2	-16463
icle	-16464
쉽게	-16465
▁구미	-16466
▁발견한	-16467
당으로	-16468
▁사적인	-16469
공학	-16470
반을	-16471
연애	-16472
▁걸음	-16473
▁서버	-16474
인종	-16475
저스	-16476
▁요소	-16477
▁쿠테	-16478
진거	-16479
▁일인	-16480
▁차선	-16481
▁신성한	-16482
걸린	-16483
▁물었다	-16484
▁특유의	-16485
▁겁이	-16486
▁잘지	-16487
실수	-16488
팀을	-16489
벌써	-16490
▁농협	-16491
▁재고	-16492
매도	-16493
불안	-16494
▁없으며	-16495
▁팬들은	-16496
▁한국과	-16497
▁혹시나	-16498
▁쓸어	-16499
되지만	-16500
▁실력을	-16501
98%	-16502
▁금속	-16503
▁브렉	-16504
▁서면	-16505
▁잊은	-16506
▁탈북	-16507
▁하늘의	-16508
▁두뇌	-16509
▁반전	-16510
▁기쁜	-16511
▁조대	-16512
▁초상	-16513
네들은	-16514
▁자초	-16515
▁저가	-16516
▁문제임	-16517
▁해결될	-16518
신데	-16519
치킨	-16520
▁엠씨	-16521
▁쿠바	-16522
▁증말	-16523
..??	-16524
▁같았어	-16525
▁나중엔	-16526
▁애국자	-16527
▁갈수	-16528
▁평일	-16529
▁국익	-16530
▁버전	-16531
롭다	-16532
▁개망	-16533
▁꿈은	-16534
▁딱봐도	-16535
▁보이게	-16536
▁신경써	-16537
▁목적을	-16538
▁쪽은	-16539
빠들	-16540
▁통보	-16541
무늬	-16542
인원	-16543
포가	-16544
▁끝은	-16545
▁찌질이	-16546
▁반발	-16547
▁바꿔서	-16548
▁그것에	-16549
▁다치게	-16550
▁집사	-16551
▁삼촌이	-16552
▁였	-16553
▁바나나	-16554
는거에요	-16555
대원	-16556
재원	-16557
▁은행에	-16558
▁저쪽에	-16559
▁핵개발	-16560
충격	-16561
▁골빈	-16562
▁세부	-16563
▁입다	-16564
줄알고	-16565
▁바빠서	-16566
▁불편한	-16567
▁웃긴게	-16568
찍어	-16569
층을	-16570
▁뜻인지	-16571
▁초반에	-16572
▁난리야	-16573
▁전의	-16574
▁훌륭해	-16575
드레	-16576
▁김상	-16577
▁듣게	-16578
▁원년	-16579
▁한것	-16580
ly	-16581
▁벼슬	-16582
▁인정해	-16583
론의	-16584
▁본데	-16585
▁테임	-16586
▁재개	-16587
▁있었소	-16588
▁좌좀들	-16589
▁가져갈	-16590
▁어렵지	-16591
변경	-16592
이나마	-16593
맞게	-16594
▁선두	-16595
▁조니	-16596
감과	-16597
썩은	-16598
▁방학	-16599
할때도	-16600
▁꼬마야	-16601
▁왔는지	-16602
는거보면	-16603
▁생김	-16604
▁뭣이	-16605
▁온도	-16606
일거야	-16607
▁공직자	-16608
달이	-16609
▁레오	-16610
▁인조	-16611
▁땅에서	-16612
해본	-16613
▁진영	-16614
▁밑바닥	-16615
극혐	-16616
▁스탈	-16617
▁마약을	-16618
▁정수	-16619
▁그토록	-16620
넣어	-16621
▁비스	-16622
▁등에서	-16623
더슨	-16624
▁갑작	-16625
▁던지고	-16626
▁의경	-16627
뮤니	-16628
▁반항	-16629
▁핥	-16630
▁고유	-16631
▁숨은	-16632
판으로	-16633
무한	-16634
파에	-16635
▁거미	-16636
분양	-16637
▁말과	-16638
▁담화	-16639
프다	-16640
▁발이	-16641
▁훈훈	-16642
대만	-16643
▁노가다	-16644
▁다른게	-16645
▁국장	-16646
▁에이미	-16647
▁이만큼	-16648
▁단정	-16649
▁마무	-16650
▁여덟	-16651
대가리가	-16652
▁농촌	-16653
▁크로스	-16654
으면서도	-16655
▁미치는	-16656
▁죽여라	-16657
▁두는	-16658
▁교육부	-16659
▁뉴욕에	-16660
▁다문화	-16661
봉사	-16662
진의	-16663
▁잠실	-16664
광이	-16665
액을	-16666
▁봤죠	-16667
▁승용	-16668
▁창고	-16669
▁밀어붙	-16670
▁뜨겁	-16671
방위	-16672
▁한마리	-16673
▁가거라	-16674
▁멋지고	-16675
▁직업을	-16676
적에	-16677
▁지니고	-16678
▁금고	-16679
▁뿐이죠	-16680
▁이씨	-16681
▁안쓰고	-16682
ies	-16683
▁이로	-16684
▁드러난	-16685
쉬고	-16686
▁분단	-16687
▁싸다	-16688
▁송혜교	-16689
▁알겠냐	-16690
▁현실에	-16691
니들은	-16692
카는	-16693
▁두명	-16694
주의로	-16695
▁마시면	-16696
냐는	-16697
무효	-16698
▁소니	-16699
▁반장님	-16700
▁NC	-16701
▁장학	-16702
새끼가	-16703
▁유격	-16704
▁날아가	-16705
▁놀라게	-16706
▁프레드	-16707
옆에	-16708
▁원천	-16709
▁최하	-16710
▁같다는	-16711
▁뜻으로	-16712
경제를	-16713
▁터지는	-16714
거니까	-16715
▁붐	-16716
▁비온다	-16717
같은소리	-16718
▁상류	-16719
▁밝혀야	-16720
과연	-16721
▁잡힌	-16722
▁나한텐	-16723
▁교토	-16724
▁호위	-16725
▁욕하지	-16726
보이는데	-16727
나갔	-16728
팀에	-16729
한거다	-16730
대갈	-16731
▁조나	-16732
▁쉬세요	-16733
47	-16734
35	-16735
전엔	-16736
▁입는	-16737
하리라	-16738
▁잡으러	-16739
▁밥맛	-16740
▁무도는	-16741
▁죽겠어	-16742
감옥	-16743
주의와	-16744
▁신분증	-16745
생은	-16746
민아	-16747
숙한	-16748
ung	-16749
▁도려	-16750
아까	-16751
날듯	-16752
부부	-16753
▁장소를	-16754
▁쏘지	-16755
▁운용	-16756
▁긁어	-16757
▁크지	-16758
▁빨래	-16759
▁싶나	-16760
▁싸인	-16761
▁걸어서	-16762
▁못사는	-16763
▁연락해	-16764
프라	-16765
호도	-16766
▁야채	-16767
▁피해는	-16768
레일리아	-16769
만불	-16770
관계가	-16771
▁비추	-16772
▁제대	-16773
만들어서	-16774
▁형평	-16775
▁저들을	-16776
▁소리로	-16777
▁해서는	-16778
년전부터	-16779
말만	-16780
▁갖춰	-16781
▁김구	-16782
▁투수가	-16783
▁박정	-16784
▁뽀뽀	-16785
▁지우	-16786
▁ap	-16787
▁썼다	-16788
해야돼	-16789
▁독특한	-16790
▁잡아요	-16791
▁기지	-16792
나는데	-16793
▁이어폰	-16794
▁하더만	-16795
▁마취	-16796
버리자	-16797
▁날은	-16798
▁하구	-16799
▁하기로	-16800
▁절벽	-16801
할때가	-16802
▁본질을	-16803
▁이병헌	-16804
정책을	-16805
하믄	-16806
▁전까진	-16807
▁우기	-16808
▁항목	-16809
▁집회에	-16810
▁피곤해	-16811
▁번만	-16812
▁바라지	-16813
▁안가고	-16814
▁리즈	-16815
햇는데	-16816
▁가득한	-16817
▁비로소	-16818
▁빠지는	-16819
질듯	-16820
▁에반	-16821
▁인양	-16822
▁뜻대로	-16823
▁벌어서	-16824
▁분노가	-16825
▁생계	-16826
뭐야	-16827
날을	-16828
▁필름	-16829
▁정부도	-16830
▁사정이	-16831
포트	-16832
▁불체	-16833
카를	-16834
▁해경	-16835
을지도	-16836
▁KBO	-16837
▁누리	-16838
보이지	-16839
거리면서	-16840
▁국회가	-16841
ary	-16842
▁총수	-16843
▁논문	-16844
▁페미니	-16845
▁갸	-16846
과거	-16847
▁te	-16848
▁돕는	-16849
보유	-16850
자요	-16851
▁앨런	-16852
억짜리	-16853
▁하나에	-16854
▁실내	-16855
▁찝	-16856
▁주입	-16857
▁효과를	-16858
막이	-16859
▁생방송	-16860
실의	-16861
으란	-16862
▁구멍이	-16863
잠수	-16864
▁로봇이	-16865
생겼	-16866
태가	-16867
▁재방	-16868
▁살았다	-16869
▁후에는	-16870
▁쫙	-16871
듣는	-16872
거지로	-16873
인다고	-16874
▁머리도	-16875
가봐	-16876
▁복원	-16877
▁수첩	-16878
▁연령	-16879
▁용어	-16880
▁국내에	-16881
▁대국	-16882
▁250	-16883
▁제목이	-16884
다가는	-16885
지들이	-16886
뱅이	-16887
▁찾게	-16888
▁왔구나	-16889
▁추잡한	-16890
민의	-16891
보복	-16892
▁신경도	-16893
▁원주민	-16894
▁의논	-16895
남녀	-16896
터스	-16897
▁아울	-16898
▁한통속	-16899
분히	-16900
시하는	-16901
▁이익이	-16902
▁사료	-16903
김대중	-16904
▁상대방	-16905
▁열리는	-16906
▁나을듯	-16907
▁▴	-16908
겨라	-16909
장어	-16910
▁국세	-16911
▁표본	-16912
대왕	-16913
이었소	-16914
▁가면서	-16915
남용	-16916
▁쓸쓸	-16917
▁주인은	-16918
▁현상이	-16919
모아	-16920
▁균형	-16921
▁잃어	-16922
▁내라	-16923
▁숫자가	-16924
▁쌔	-16925
▁선박	-16926
▁청탁	-16927
▁자르고	-16928
공간	-16929
▁걸러	-16930
▁없어야	-16931
▁특성	-16932
▁연상	-16933
ment	-16934
자들만	-16935
jtbc	-16936
▁광신도	-16937
▁사람에	-16938
소수	-16939
▁스톤	-16940
리니까	-16941
▁재밌다	-16942
고발	-16943
▁득표	-16944
▁만났어	-16945
가니	-16946
지수	-16947
합리	-16948
▁거길	-16949
▁오시	-16950
▁정도껏	-16951
적의	-16952
▁막기	-16953
▁볼수있	-16954
▁판타지	-16955
▁글이	-16956
둬요	-16957
블리	-16958
만해	-16959
증에	-16960
▁악마가	-16961
▁빨고	-16962
▁연맹	-16963
▁들어보	-16964
▁해야함	-16965
ix	-16966
▁보았	-16967
▁학대	-16968
▁됩니까	-16969
▁수비수	-16970
▁한순간	-16971
실패	-16972
▁산소	-16973
▁짱께	-16974
▁잘됐다	-16975
린지	-16976
▁광대	-16977
▁안했다	-16978
르도	-16979
▁플랫	-16980
었어도	-16981
▁유키	-16982
▁빚내서	-16983
▁삿	-16984
▁두배	-16985
같지도	-16986
▁눈앞에	-16987
▁반도체	-16988
65	-16989
▁구한	-16990
▁걸까요	-16991
▁이슬	-16992
밖으로	-16993
▁그립다	-16994
▁그네는	-16995
▁깼	-16996
▁김선	-16997
구에서	-16998
▁얼만데	-16999
▁fe	-17000
부동산	-17001
▁뉴질	-17002
▁살고있	-17003
프의	-17004
▁띄워	-17005
북도의	-17006
질의	-17007
저가	-17008
▁쓰는게	-17009
▁알아봐	-17010
였냐	-17011
▁가든	-17012
▁시원한	-17013
▁이태리	-17014
▁자네와	-17015
SD	-17016
의회	-17017
▁하진	-17018
▁조건이	-17019
게이	-17020
..,	-17021
▁밟아	-17022
타의	-17023
▁씨의	-17024
▁짖어	-17025
가리고	-17026
▁됐네요	-17027
▁무리한	-17028
▁수백만	-17029
팬들은	-17030
▁서인국	-17031
▁코카	-17032
회사가	-17033
▁근혜야	-17034
▁리처드	-17035
▁개털	-17036
▁마쓰	-17037
▁겨울에	-17038
그나마	-17039
▁나오니	-17040
지경	-17041
처가	-17042
적이라고	-17043
거잖아	-17044
▁맞나요	-17045
▁겔	-17046
할배	-17047
▁점유	-17048
▁그런말	-17049
해야겠다	-17050
▁경관	-17051
▁싫어해	-17052
▁양이	-17053
▁하더군	-17054
▁썅	-17055
곳을	-17056
글로	-17057
내란	-17058
▁아실	-17059
소리야	-17060
시와	-17061
▁단백	-17062
▁어딨냐	-17063
▁방송사	-17064
인터넷	-17065
▁법안	-17066
▁푸틴	-17067
스럽네	-17068
급은	-17069
▁재혼	-17070
▁제어	-17071
▁합성	-17072
이거나	-17073
필요한	-17074
▁다까	-17075
▁공연을	-17076
주십시오	-17077
공동	-17078
▁욕망	-17079
시키들	-17080
▁코끼리	-17081
코치	-17082
▁가정을	-17083
▁경찰의	-17084
억울	-17085
▁놈아	-17086
상태가	-17087
만하지	-17088
ind	-17089
▁서른	-17090
▁엄마와	-17091
▁의혹이	-17092
김에	-17093
▁재임	-17094
▁치졸	-17095
▁기운이	-17096
▁추격	-17097
▁힐링	-17098
▁말레이	-17099
마인	-17100
▁되면서	-17101
▁유나이	-17102
환자	-17103
전에는	-17104
▁두달	-17105
▁서장	-17106
손손	-17107
▁개탄	-17108
지우지	-17109
▁먹는거	-17110
▁카피	-17111
▁동창	-17112
▁박스	-17113
▁백번	-17114
▁운송	-17115
박고	-17116
▁사재	-17117
▁닮았	-17118
▁개수작	-17119
▁범인은	-17120
▁툭하면	-17121
▁살아도	-17122
▁지키기	-17123
둘다	-17124
▁건강을	-17125
▁있구만	-17126
no	-17127
▁엄중	-17128
▁적색	-17129
사건이	-17130
▁내려야	-17131
▁운명이	-17132
▁ad	-17133
▁든든	-17134
▁에도	-17135
▁포위	-17136
▁박근헤	-17137
나쁘	-17138
들좀	-17139
▁무릎을	-17140
▁새우	-17141
▁소수의	-17142
막을	-17143
▁국기	-17144
베이스	-17145
▁아들아	-17146
논리	-17147
▁데로	-17148
▁진흙	-17149
▁골라서	-17150
▁영역	-17151
▁탱크	-17152
▁파도	-17153
▁타이완	-17154
▁감이	-17155
▁전염	-17156
▁타워	-17157
▁변함	-17158
▁불려	-17159
▁엘리트	-17160
▁김씨	-17161
운동가	-17162
▁사탄	-17163
▁초청	-17164
▁하워드	-17165
당초	-17166
▁속아	-17167
▁마음껏	-17168
한거임	-17169
▁안토니	-17170
▁며느리	-17171
카오	-17172
▁맥도	-17173
시부터	-17174
젤레스	-17175
칩니다	-17176
▁아래에	-17177
▁엿같은	-17178
해줬	-17179
▁대성	-17180
▁종교가	-17181
▁하여금	-17182
으시고	-17183
▁추모	-17184
▁맡기고	-17185
▁캐서린	-17186
상대	-17187
▁식의	-17188
넘들은	-17189
▁작품은	-17190
▁기용	-17191
▁옷도	-17192
▁다투	-17193
▁미나	-17194
▁비례	-17195
▁col	-17196
▁발표한	-17197
종합	-17198
명박	-17199
▁종로	-17200
▁퍼뜨	-17201
청년	-17202
▁닫고	-17203
▁있길	-17204
▁내리면	-17205
▁챙길	-17206
▁위원회	-17207
▁자퇴	-17208
▁할께	-17209
니당	-17210
왜란	-17211
퍼드	-17212
잘하는	-17213
팬이지만	-17214
▁뒷통수	-17215
▁만나요	-17216
차기	-17217
▁장원	-17218
▁협회	-17219
▁가보자	-17220
파로	-17221
▁트위	-17222
▁섹스를	-17223
▁데스	-17224
것같음	-17225
이상이	-17226
▁날리고	-17227
▁부리는	-17228
▁부가	-17229
▁처벌이	-17230
▁굴복	-17231
질이나	-17232
▁캐릭	-17233
였는지	-17234
▁의무를	-17235
▁광장	-17236
▁나게	-17237
▁돼야	-17238
▁세울	-17239
밀한	-17240
싸게	-17241
▁좋은일	-17242
란게	-17243
자루	-17244
▁애써	-17245
▁밝히는	-17246
파리	-17247
▁들아	-17248
함도	-17249
▁냉장고	-17250
원인	-17251
▁장면을	-17252
세습	-17253
원과	-17254
▁국고	-17255
▁늦지	-17256
▁안의	-17257
ber	-17258
▁붙어서	-17259
▁텐데요	-17260
마사	-17261
▁복종	-17262
▁트집	-17263
▁손대지	-17264
키를	-17265
여기서	-17266
가냐	-17267
숟가락	-17268
▁짭새	-17269
집회를	-17270
가장	-17271
▁되자	-17272
▁니퍼트	-17273
▁당신에	-17274
▁쩐다	-17275
한건데	-17276
▁지역은	-17277
▁대외	-17278
▁돌려줘	-17279
디에	-17280
sid	-17281
다구요	-17282
분들도	-17283
▁덩치	-17284
▁상무	-17285
▁화제	-17286
▁가증	-17287
스트라	-17288
준다면	-17289
▁뒤질	-17290
▁리차	-17291
▁묘사	-17292
▁이면	-17293
▁원인을	-17294
서니	-17295
그들	-17296
암튼	-17297
불편	-17298
▁섬에	-17299
지면서	-17300
▁다루는	-17301
색은	-17302
기분	-17303
물며	-17304
▁유린	-17305
▁이순신	-17306
▁체코	-17307
▁모르네	-17308
▁외계인	-17309
데리	-17310
▁군림	-17311
▁복합	-17312
버림	-17313
문재인	-17314
▁노력이	-17315
▁신공항	-17316
티는	-17317
her	-17318
▁보름	-17319
▁치루	-17320
▁여기를	-17321
틀어	-17322
▁나라야	-17323
애나	-17324
▁정찰	-17325
▁브루스	-17326
질서	-17327
▁경사	-17328
▁정화	-17329
면제	-17330
▁카라	-17331
▁갈래요	-17332
▁지지를	-17333
▁헥	-17334
살때	-17335
▁끝냈	-17336
하지않고	-17337
▁애나	-17338
▁탈을	-17339
엇는데	-17340
물러	-17341
▁한물	-17342
▁국제적	-17343
▁초과	-17344
노는	-17345
으시오	-17346
▁일부는	-17347
▁김준	-17348
▁유병언	-17349
▁헌재가	-17350
세우	-17351
>>>	-17352
▁징글	-17353
하다구	-17354
안정	-17355
천군	-17356
커피	-17357
비와	-17358
▁까닭	-17359
▁요정	-17360
▁시궁창	-17361
석방	-17362
맞춰	-17363
▁두어	-17364
▁맞춰서	-17365
▁변희	-17366
▁시체가	-17367
▁올라오	-17368
▁인하여	-17369
▁얕	-17370
▁몇시간	-17371
▁여학생	-17372
▁크림	-17373
/2	-17374
백을	-17375
웠지	-17376
▁버림	-17377
▁보완	-17378
▁패러	-17379
▁고마운	-17380
▁짙	-17381
싶네	-17382
▁뮌헨	-17383
▁기억에	-17384
▁입사	-17385
세상이	-17386
▁유망주	-17387
▁지내는	-17388
열면	-17389
▁일종	-17390
▁잡아먹	-17391
대며	-17392
헌날	-17393
▁조세	-17394
▁경쟁력	-17395
유도	-17396
▁기막	-17397
▁관계는	-17398
▁일일이	-17399
▁작전을	-17400
해보세요	-17401
▁참모	-17402
▁박주	-17403
▁해수	-17404
▁무언가	-17405
▁재벌들	-17406
▁국어	-17407
▁위치에	-17408
▁담뱃	-17409
▁유희	-17410
▁일체	-17411
문제로	-17412
물산	-17413
사인	-17414
▁투표를	-17415
▁찡	-17416
▁개거품	-17417
▁전쟁의	-17418
▁검찰에	-17419
▁에밀리	-17420
▁정체가	-17421
매한	-17422
▁주자	-17423
▁힘은	-17424
교육을	-17425
▁이쁘게	-17426
손석희	-17427
▁속도를	-17428
▁주어진	-17429
▁산에	-17430
▁요한	-17431
라면서	-17432
▁그러네	-17433
▁덧붙	-17434
▁비트	-17435
▁통상	-17436
▁있느냐	-17437
85	-17438
▁영어로	-17439
무엇	-17440
▁세트	-17441
▁의회	-17442
▁동기	-17443
▁세븐	-17444
▁중세	-17445
▁아지	-17446
▁사령관	-17447
해에	-17448
끼가	-17449
▁굴지	-17450
▁이게다	-17451
리스트가	-17452
▁피워	-17453
대면서	-17454
▁댓글은	-17455
▁나뉘	-17456
거라구	-17457
떨어지	-17458
▁이래요	-17459
▁수여	-17460
▁처방	-17461
이미지	-17462
▁되네요	-17463
▁유승민	-17464
발생	-17465
▁치자	-17466
안하냐	-17467
▁구하는	-17468
에의	-17469
▁놓여	-17470
▁뉴스가	-17471
▁위하는	-17472
▁붙이고	-17473
▁예술가	-17474
▁박아	-17475
▁노예가	-17476
▁영국이	-17477
▁곧장	-17478
▁산으로	-17479
▁지냈다	-17480
메리칸	-17481
▁고기를	-17482
▁할거다	-17483
멘트	-17484
▁쓰래기	-17485
▁랑	-17486
그저	-17487
유죄	-17488
▁시키지	-17489
▁표창원	-17490
발의	-17491
우리도	-17492
▁양심을	-17493
▁각자의	-17494
다는거야	-17495
지않는다	-17496
▁韓	-17497
잡은	-17498
시야	-17499
찬다	-17500
만원을	-17501
▁기대가	-17502
▁알기나	-17503
▁묻은	-17504
▁베니	-17505
▁운반	-17506
▁느끼지	-17507
▁아쉽네	-17508
▁취한	-17509
▁낫다고	-17510
까이	-17511
▁리사	-17512
▁암컷	-17513
▁신뢰가	-17514
없어도	-17515
▁맛있어	-17516
졌음	-17517
▁탁월	-17518
▁짧게	-17519
▁나쁘게	-17520
▁불만이	-17521
▁수없이	-17522
▁와이지	-17523
전과	-17524
▁비스트	-17525
▁슛	-17526
▁ai	-17527
▁충분해	-17528
▁만만한	-17529
▁쓰이는	-17530
▁학교는	-17531
노라	-17532
▁svg	-17533
▁보스턴	-17534
▁ne	-17535
▁해상	-17536
년까지	-17537
▁단어가	-17538
▁리치	-17539
▁평상	-17540
끝나고	-17541
▁그당시	-17542
▁반응을	-17543
▁죄인이	-17544
연수	-17545
자키	-17546
님들이	-17547
차원	-17548
▁동영	-17549
▁방수	-17550
▁테레	-17551
▁어쩌나	-17552
▁올라와	-17553
▁주름	-17554
▁태우	-17555
▁봤다고	-17556
▁혈세로	-17557
▁명박	-17558
▁UN	-17559
▁줄리아	-17560
화한	-17561
▁좌절	-17562
▁지독	-17563
▁본인들	-17564
▁유대인	-17565
주인공	-17566
기름	-17567
품은	-17568
▁씩	-17569
▁때론	-17570
▁매각	-17571
라스틱	-17572
돌아간다	-17573
▁fm	-17574
▁둘중	-17575
▁지디	-17576
▁현혹	-17577
으셨어요	-17578
호흡	-17579
▁샹	-17580
한테나	-17581
▁칠푼이	-17582
▁믿음을	-17583
▁저사람	-17584
잖습니까	-17585
닫고	-17586
▁조아	-17587
이라는거	-17588
덕분에	-17589
덕한	-17590
▁서방	-17591
▁해답	-17592
▁괴물이	-17593
▁물건은	-17594
▁깎아	-17595
▁민심을	-17596
왕조	-17597
▁감빵	-17598
개한	-17599
다를	-17600
두요	-17601
움은	-17602
▁뽑으면	-17603
▁알겠니	-17604
▁어쩌죠	-17605
▁맞냐	-17606
청이	-17607
▁된거지	-17608
▁깔고	-17609
▁75	-17610
▁됐군	-17611
▁약탈	-17612
꾸나	-17613
▁스텔	-17614
겠느냐	-17615
▁격리	-17616
▁부진	-17617
▁지향	-17618
김영	-17619
장하고	-17620
분석	-17621
▁따름	-17622
▁번의	-17623
▁폭등	-17624
▁나네	-17625
방망이	-17626
▁내려놓	-17627
▁사는지	-17628
▁기세	-17629
▁임무는	-17630
것같아요	-17631
▁수술을	-17632
즈니	-17633
▁춘천	-17634
▁원래는	-17635
▁번에	-17636
▁열광	-17637
대학원	-17638
하셨죠	-17639
▁강력히	-17640
▁생기지	-17641
▁많네요	-17642
범은	-17643
▁가니	-17644
▁오류	-17645
할려면	-17646
▁조원	-17647
▁범죄가	-17648
▁이끄는	-17649
말라	-17650
▁똥칠	-17651
▁져야	-17652
▁춰	-17653
단으로	-17654
데나	-17655
봤나	-17656
▁하트	-17657
▁바르게	-17658
▁생활이	-17659
승을	-17660
▁억제	-17661
▁장인	-17662
▁잘해야	-17663
승리	-17664
▁저리가	-17665
대리	-17666
사이에	-17667
▁볼래	-17668
▁어디죠	-17669
~30	-17670
▁따를	-17671
▁하버드	-17672
1=	-17673
자식이	-17674
▁남편과	-17675
▁김승	-17676
▁막히	-17677
▁국회는	-17678
▁그것만	-17679
기밀	-17680
랭이	-17681
▁공업	-17682
▁아프게	-17683
어렵	-17684
▁마귀	-17685
▁원수	-17686
천국	-17687
적일	-17688
▁불황	-17689
사무소	-17690
▁가이드	-17691
▁서로의	-17692
▁움직이	-17693
으시면	-17694
▁특이한	-17695
▁두면	-17696
▁사도	-17697
▁삼아	-17698
리세요	-17699
▁의혹을	-17700
▁김혜	-17701
▁무더	-17702
▁보기에	-17703
년안에	-17704
▁멋진데	-17705
▁줄래요	-17706
▁오키	-17707
▁변질	-17708
▁늦어서	-17709
해달라고	-17710
▁욕만	-17711
중이야	-17712
▁돈없는	-17713
▁아까워	-17714
▁주권	-17715
더구만	-17716
▁위주로	-17717
이즈	-17718
화도	-17719
▁트랜	-17720
▁비싸고	-17721
▁일본어	-17722
▁저러니	-17723
겠다는데	-17724
▁이십	-17725
▁매연	-17726
▁벤치	-17727
▁벽을	-17728
입으로	-17729
▁사랑과	-17730
▁환자가	-17731
당도	-17732
▁같기도	-17733
▁와줘서	-17734
모니	-17735
▁낫겠다	-17736
▁무궁	-17737
▁이천	-17738
▁포터	-17739
남편	-17740
야해	-17741
▁얘들	-17742
iver	-17743
▁외교관	-17744
▁위너	-17745
▁넣어야	-17746
▁jo	-17747
▁한푼도	-17748
▁거랑	-17749
하고요	-17750
▁얼굴만	-17751
▁제도를	-17752
▁싶음	-17753
▁하지요	-17754
▁형량	-17755
▁블로그	-17756
불능	-17757
▁안산	-17758
▁에밀	-17759
▁경제에	-17760
▁올해의	-17761
▁있기에	-17762
벌을	-17763
▁닫아	-17764
리그의	-17765
▁박영선	-17766
▁클레어	-17767
실망	-17768
man	-17769
▁정동	-17770
▁미끄러	-17771
리노	-17772
이걸	-17773
▁글구	-17774
▁70%	-17775
▁되세요	-17776
▁어그로	-17777
킨스	-17778
▁년의	-17779
이한	-17780
들었다	-17781
바스	-17782
뽑아	-17783
▁사러	-17784
▁올렸	-17785
te	-17786
▁주주	-17787
▁테리	-17788
변이	-17789
▁차은택	-17790
▁이산	-17791
있었는데	-17792
ys	-17793
봤지	-17794
지냐	-17795
▁맏	-17796
민석	-17797
▁안개	-17798
▁거리로	-17799
▁불이익	-17800
▁묵묵	-17801
▁청혼	-17802
갔고	-17803
실력	-17804
▁상태를	-17805
채널	-17806
▁mb	-17807
독일	-17808
저녁	-17809
▁나눌	-17810
다보면	-17811
▁개성	-17812
▁미인	-17813
년으로	-17814
▁한단	-17815
▁혼내	-17816
▁삼족을	-17817
때나	-17818
▁감고	-17819
▁바램	-17820
▁경찰관	-17821
사벽	-17822
▁산을	-17823
▁말할수	-17824
▁이성을	-17825
'(	-17826
▁니시	-17827
▁국회에	-17828
▁요즘엔	-17829
시키려고	-17830
회복	-17831
안되면	-17832
▁망해도	-17833
▁포크	-17834
▁강등	-17835
▁생긴다	-17836
소릴	-17837
▁언제는	-17838
▁거덜	-17839
▁모독	-17840
▁건강에	-17841
▁그런것	-17842
연구소	-17843
ions	-17844
미세먼지	-17845
▁사육	-17846
▁도망갈	-17847
도박	-17848
활동을	-17849
택시	-17850
줄이야	-17851
▁되겠군	-17852
단속	-17853
슬리	-17854
▁옆집	-17855
▁못했을	-17856
받침	-17857
▁많냐	-17858
나오게	-17859
▁싸우지	-17860
▁불쌍해	-17861
▁지옥에	-17862
▁개떡	-17863
▁포트	-17864
든데	-17865
호선	-17866
▁가냐	-17867
▁기업인	-17868
▁카타르	-17869
▁못이	-17870
▁지들도	-17871
▁떠나면	-17872
▁실력도	-17873
민들	-17874
▁드림	-17875
▁선생이	-17876
▁대학을	-17877
▁캐시	-17878
기에서	-17879
▁납니다	-17880
진실	-17881
▁단편	-17882
▁유권	-17883
질까	-17884
▁빨랑	-17885
▁짓는	-17886
▁스모	-17887
▁요약	-17888
▁행동에	-17889
▁넣는	-17890
▁했어도	-17891
▁분명한	-17892
였소	-17893
▁우리만	-17894
▁악랄	-17895
▁알겠소	-17896
요구	-17897
▁세련	-17898
체스터	-17899
▁냄새를	-17900
▁알겠죠	-17901
▁찍어서	-17902
▁외쳐	-17903
이던데	-17904
주시길	-17905
람쥐	-17906
ace	-17907
같은건	-17908
▁남편의	-17909
▁해냈어	-17910
책은	-17911
▁작아	-17912
한다는데	-17913
▁놈도	-17914
▁해를	-17915
미술	-17916
투브	-17917
무새	-17918
불허	-17919
열을	-17920
시대가	-17921
▁관련자	-17922
▁되기를	-17923
시다시피	-17924
▁가실	-17925
▁현직	-17926
▁선물로	-17927
▁저랬	-17928
▁야구를	-17929
▁삽질	-17930
▁심장을	-17931
▁자유가	-17932
▁시대는	-17933
순히	-17934
▁소행	-17935
사는게	-17936
▁녀석들	-17937
▁드려요	-17938
▁아이구	-17939
하기위해	-17940
▁걱정을	-17941
▁모두다	-17942
▁팁	-17943
▁허술	-17944
데리고	-17945
▁에라	-17946
▁많이들	-17947
▁말거라	-17948
▁판사님	-17949
▁구하러	-17950
▁롯데가	-17951
▁받으며	-17952
▁재판을	-17953
▁골을	-17954
▁우결	-17955
▁나이는	-17956
▁발견된	-17957
▁죽도록	-17958
보냐	-17959
▁55	-17960
▁발상	-17961
▁암만	-17962
▁포기한	-17963
▁하우스	-17964
련다	-17965
▁인과	-17966
▁핵을	-17967
프로는	-17968
▁쎈	-17969
수라	-17970
▁종특	-17971
그래요	-17972
▁가문	-17973
수없다	-17974
ᅵᅵᅵᅵ	-17975
▁느꼈다	-17976
▁음악이	-17977
스럽지	-17978
▁복수를	-17979
장기	-17980
▁기만	-17981
▁밥이	-17982
계산	-17983
▁왔던	-17984
▁계절	-17985
▁면세	-17986
▁반려	-17987
▁악용	-17988
▁나란히	-17989
▁분명해	-17990
할겁니다	-17991
레가	-17992
▁간지	-17993
▁강정호	-17994
▁것이죠	-17995
~.	-17996
추를	-17997
팬이	-17998
▁뜻이다	-17999
▁비용이	-18000
▁애국심	-18001
▁싫음	-18002
▁탄탄	-18003
▁파울	-18004
▁고가	-18005
▁육지	-18006
▁꺽	-18007
▁우덜	-18008
▁바로잡	-18009
▁보여서	-18010
▁중공	-18011
▁남한테	-18012
▁보기싫	-18013
▁켈리	-18014
▁난리를	-18015
▁하거든	-18016
받기	-18017
일뿐이다	-18018
데서	-18019
면은	-18020
▁재미로	-18021
억엔	-18022
▁삼겹	-18023
했구만	-18024
▁맡았다	-18025
족은	-18026
▁다뤄	-18027
이동	-18028
▁테크	-18029
재판소	-18030
▁기뻐요	-18031
ii	-18032
취를	-18033
▁깊게	-18034
▁권한을	-18035
▁혼란을	-18036
▁사슴	-18037
▁개설	-18038
▁똥개	-18039
모어	-18040
모가지	-18041
▁망해야	-18042
▁스피드	-18043
▁나설	-18044
▁실리	-18045
▁웃김	-18046
▁화폐	-18047
▁마신	-18048
▁식탁	-18049
▁가지만	-18050
▁꽃길만	-18051
▁주면서	-18052
성향	-18053
▁향상	-18054
▁한석규	-18055
낫다	-18056
▁타지	-18057
▁제안을	-18058
▁자폭	-18059
▁나오나	-18060
곳도	-18061
▁추악	-18062
기계	-18063
리언	-18064
▁아인	-18065
전문가	-18066
그제	-18067
끌어	-18068
조나	-18069
▁분할	-18070
골을	-18071
▁《	-18072
꼴이	-18073
지말라고	-18074
▁불러야	-18075
▁뿌리를	-18076
▁김우	-18077
▁유포	-18078
▁포유	-18079
▁이벤트	-18080
셨을	-18081
▁망가뜨	-18082
▁람	-18083
잇다	-18084
▁정당화	-18085
▁돌연	-18086
▁살리고	-18087
▁지인	-18088
들여서	-18089
▁IT	-18090
33	-18091
▁써야지	-18092
ov	-18093
▁이르는	-18094
두산	-18095
▁수배	-18096
▁일으킬	-18097
▁약해	-18098
▁있을것	-18099
▁치안	-18100
당했다	-18101
▁월급을	-18102
반성	-18103
▁쳐서	-18104
없는게	-18105
▁눈에는	-18106
▁말처럼	-18107
▁위증죄	-18108
▁분의	-18109
▁숨길	-18110
▁버리면	-18111
▁적화	-18112
▁틀렸	-18113
▁외에는	-18114
▁인식이	-18115
▁코를	-18116
▁두사람	-18117
▁cr	-18118
▁법리	-18119
▁유진	-18120
▁배트맨	-18121
▁잘못됐	-18122
▁중산층	-18123
▁두루	-18124
▁밤은	-18125
행위를	-18126
▁바람직	-18127
근이	-18128
빠리	-18129
챙기	-18130
▁결제	-18131
▁당하지	-18132
거를	-18133
▁정서	-18134
▁톡	-18135
의의	-18136
▁멈췄	-18137
▁슬쩍	-18138
▁도구	-18139
▁건데요	-18140
▁그래픽	-18141
▁반찬	-18142
▁차원	-18143
▁당시에	-18144
▁두둔	-18145
국가에서	-18146
▁듬	-18147
▁로사	-18148
▁뻘짓	-18149
▁안희	-18150
알지	-18151
▁리듬	-18152
먹게	-18153
▁경찰청	-18154
▁수시로	-18155
▁가리지	-18156
년들이	-18157
역대	-18158
▁밀러	-18159
▁슬리	-18160
유로	-18161
▁받았고	-18162
▁테니스	-18163
▁뉘우	-18164
▁린다	-18165
▁올거야	-18166
버둥	-18167
▁양도	-18168
▁이듬	-18169
▁지르	-18170
때를	-18171
컨대	-18172
▁고졸	-18173
▁대인	-18174
사기꾼	-18175
▁강을	-18176
월드컵	-18177
시청률	-18178
▁모바일	-18179
▁세계는	-18180
▁하기도	-18181
▁외곽	-18182
시에서	-18183
▁웃는다	-18184
▁갖추고	-18185
▁있겠네	-18186
▁강대국	-18187
▁일년에	-18188
▁집안이	-18189
▁피같은	-18190
▁번지	-18191
▁비둘	-18192
▁몬스터	-18193
▁우리땅	-18194
고싶다	-18195
▁도피	-18196
▁친정	-18197
▁놓으면	-18198
▁의원이	-18199
멜라	-18200
▁비자	-18201
월부터	-18202
▁가져야	-18203
▁맞췄	-18204
▁아바타	-18205
검색	-18206
▁기성용	-18207
▁버티는	-18208
앨범	-18209
만큼도	-18210
▁나오기	-18211
▁기계가	-18212
▁뻔하다	-18213
다는거지	-18214
▁yg	-18215
월까지	-18216
해봤자	-18217
▁포인트	-18218
▁길러	-18219
다니까	-18220
▁영화의	-18221
▁들린다	-18222
셔츠	-18223
▁알바비	-18224
먹음	-18225
파크	-18226
▁엄지	-18227
▁잔디	-18228
▁이방	-18229
기들이	-18230
▁될지도	-18231
▁사실에	-18232
▁재용이	-18233
쪽으로는	-18234
영원	-18235
옛날	-18236
직업	-18237
▁들게	-18238
▁지성	-18239
▁사악	-18240
▁피땀	-18241
▁사진도	-18242
▁외로운	-18243
▁불에	-18244
▁부부가	-18245
▁알아볼	-18246
▁낮에	-18247
▁우정	-18248
▁칼럼	-18249
▁경향이	-18250
짜고	-18251
▁수퍼	-18252
▁니네들	-18253
▁달라는	-18254
▁꿨	-18255
▁이케	-18256
▁상영	-18257
이들은	-18258
▁기아가	-18259
놈들도	-18260
▁버터	-18261
스트로	-18262
▁병을	-18263
▁시끄럽	-18264
▁위원장	-18265
식도	-18266
느냐고	-18267
▁자유의	-18268
▁해결해	-18269
▁무지한	-18270
댔어	-18271
인이면	-18272
▁시간과	-18273
넘는	-18274
페이스	-18275
▁것들아	-18276
▁애플이	-18277
▁처리할	-18278
학회	-18279
▁헤엄	-18280
▁주차장	-18281
▁안철	-18282
▁남조선	-18283
패를	-18284
▁손은	-18285
▁조금도	-18286
▁착하게	-18287
▁안락	-18288
기상청	-18289
▁됐으면	-18290
대네	-18291
▁실용	-18292
▁소외	-18293
▁죗	-18294
▁때나	-18295
▁코믹	-18296
쓰네	-18297
진보	-18298
▁유쾌	-18299
▁공기가	-18300
규제	-18301
취업	-18302
구장창	-18303
▁그랬던	-18304
▁이기사	-18305
▁했으나	-18306
▁데도	-18307
▁집필	-18308
▁내뱉	-18309
▁밝힐	-18310
보는게	-18311
▁압력	-18312
▁연세	-18313
▁가치도	-18314
▁은근히	-18315
은퇴	-18316
▁강하고	-18317
▁내에서	-18318
▁당신네	-18319
▁할래요	-18320
▁루크	-18321
▁스무	-18322
▁우째	-18323
▁좋군요	-18324
ish	-18325
▁퇴물	-18326
▁전국에	-18327
▁에피소	-18328
▁개리	-18329
▁대서	-18330
▁절친	-18331
▁무자	-18332
▁것이야	-18333
▁실력은	-18334
▁이런말	-18335
느끼	-18336
▁왕조	-18337
▁곳이다	-18338
▁받는게	-18339
▁영국은	-18340
▁별루	-18341
▁절단	-18342
▁차릴	-18343
니스탄	-18344
살짜리	-18345
▁털어서	-18346
▁줏	-18347
못함	-18348
양의	-18349
▁말라구	-18350
▁헤어진	-18351
▁안간	-18352
▁위기에	-18353
▁챔스	-18354
이라네	-18355
강을	-18356
▁광고를	-18357
▁대공	-18358
▁재직	-18359
▁허튼	-18360
▁본다면	-18361
▁사전에	-18362
▁그만한	-18363
▁데려올	-18364
▁부인의	-18365
▁염색	-18366
▁재위	-18367
▁김광현	-18368
▁추하다	-18369
▁꽃이	-18370
▁안본	-18371
시장이	-18372
▁모자랄	-18373
거라는	-18374
▁국회의	-18375
▁닐	-18376
폭발	-18377
미사일	-18378
▁서민이	-18379
.)	-18380
수비	-18381
▁미행	-18382
▁제네	-18383
▁부류	-18384
▁분해	-18385
▁후엔	-18386
가고인의	-18387
pt	-18388
교가	-18389
도어	-18390
자한테	-18391
▁저녁을	-18392
▁강해	-18393
▁대거	-18394
▁청주	-18395
▁기습	-18396
▁시녀	-18397
▁수수료	-18398
▁차이를	-18399
▁적고	-18400
했군요	-18401
▁따라갈	-18402
구성	-18403
밀히	-18404
▁박종	-18405
공직	-18406
▁아따	-18407
-2	-18408
▁볼일	-18409
▁해독	-18410
▁약이	-18411
랬어요	-18412
왔다고	-18413
▁잘나가	-18414
심의	-18415
었으며	-18416
▁동생은	-18417
▁엄태웅	-18418
어휴	-18419
▁개척	-18420
▁학문	-18421
내리	-18422
▁남극	-18423
▁독서	-18424
견이	-18425
▁종업	-18426
▁보여줬	-18427
▁앉은	-18428
▁보냈어	-18429
▁안보는	-18430
▁알텐데	-18431
▁지나고	-18432
ai	-18433
피디	-18434
▁바에	-18435
이고요	-18436
▁검찰도	-18437
▁드리고	-18438
▁무료로	-18439
▁쓰잘	-18440
▁했다가	-18441
▁썬	-18442
▁남발	-18443
▁노무	-18444
인거다	-18445
국장	-18446
할매	-18447
사회에서	-18448
▁괴로	-18449
듯하다	-18450
▁상상이	-18451
▁재판관	-18452
오바	-18453
집도	-18454
필더	-18455
▁나올까	-18456
선다	-18457
연장	-18458
▁면에서	-18459
▁털고	-18460
쳐먹는	-18461
▁197	-18462
애플	-18463
▁글러	-18464
▁누나가	-18465
카페	-18466
▁합창	-18467
▁동일본	-18468
▁운전을	-18469
▁킴	-18470
▁상주	-18471
▁근거로	-18472
▁돌리는	-18473
▁줄거리	-18474
천명	-18475
▁살리는	-18476
리얼	-18477
현상	-18478
▁새키	-18479
▁오글	-18480
▁회색	-18481
▁팔지	-18482
▁보람	-18483
▁수준은	-18484
▁있냐고	-18485
한심하다	-18486
날도	-18487
린은	-18488
▁약점	-18489
▁주는데	-18490
▁테일러	-18491
▁해줄게	-18492
애니	-18493
틀고	-18494
▁꼴도	-18495
▁디자이	-18496
저거	-18497
▁신규	-18498
▁옳고	-18499
있었다	-18500
자들아	-18501
▁비밀이	-18502
▁갈께	-18503
▁놓쳤	-18504
▁없니	-18505
▁여의도	-18506
JTBC	-18507
▁man	-18508
▁비밀로	-18509
▁시기가	-18510
TA	-18511
▁밥먹고	-18512
▁봉급	-18513
▁심히	-18514
사이드	-18515
▁빠지게	-18516
널드	-18517
▁호르	-18518
▁메이져	-18519
▁이용할	-18520
▁깜박	-18521
▁걸어가	-18522
▁패트릭	-18523
▁다니면	-18524
▁설령	-18525
▁부리고	-18526
가치	-18527
▁던질	-18528
▁완벽해	-18529
▁쿼	-18530
사회가	-18531
▁장난이	-18532
▁현황	-18533
그것이	-18534
번을	-18535
아녀	-18536
▁사직	-18537
▁신정	-18538
▁이도	-18539
▁봤을때	-18540
산부	-18541
▁트렁	-18542
보았다	-18543
편의	-18544
▁허경영	-18545
거로	-18546
▁경향	-18547
▁일부가	-18548
하는거임	-18549
▁커뮤니	-18550
▁자작	-18551
▁것일까	-18552
▁저따	-18553
▁볼게요	-18554
▁총각	-18555
▁소스	-18556
▁원하고	-18557
▁이득을	-18558
▁대안	-18559
미디어	-18560
▁알아내	-18561
▁구형	-18562
▁정계	-18563
▁손도	-18564
▁시그널	-18565
좌좀	-18566
▁같나	-18567
▁울지	-18568
▁것이니	-18569
▁지키지	-18570
▁나들	-18571
▁나무를	-18572
▁보조금	-18573
▁외치고	-18574
싶지	-18575
웠고	-18576
▁망칠	-18577
쓰는데	-18578
▁대선때	-18579
▁정권에	-18580
하는거죠	-18581
▁찿	-18582
날드	-18583
▁기사화	-18584
과장	-18585
▁박멸	-18586
▁환경을	-18587
▁말했던	-18588
마련	-18589
겄네	-18590
망정	-18591
▁적의	-18592
▁그만들	-18593
ub	-18594
▁차관	-18595
▁어렵고	-18596
▁있기는	-18597
가능한	-18598
사실을	-18599
▁있고요	-18600
▁마츠	-18601
▁내려서	-18602
▁얘기한	-18603
▁4%	-18604
▁난무	-18605
박근혜는	-18606
다니깐	-18607
▁먹는데	-18608
▁막지	-18609
릴려고	-18610
▁전성기	-18611
▁레즈	-18612
▁붙잡고	-18613
▁CIA	-18614
▁갔었어	-18615
▁지켜라	-18616
▁당했다	-18617
골이	-18618
▁건네	-18619
▁저택	-18620
▁횃불	-18621
iss	-18622
▁도는	-18623
▁바빴	-18624
▁지령	-18625
▁뻥튀기	-18626
환은	-18627
▁없다니	-18628
▁월급이	-18629
클라	-18630
▁막혀	-18631
▁숨이	-18632
순간에	-18633
▁비켜요	-18634
▁블라	-18635
▁보너스	-18636
스럽네요	-18637
▁고액	-18638
▁터치	-18639
▁죽음에	-18640
▁지나간	-18641
▁망했다	-18642
▁퉁	-18643
맛이	-18644
▁말구	-18645
▁맴버	-18646
▁콜롬	-18647
▁대상을	-18648
1)	-18649
▁검사를	-18650
▁궁금한	-18651
▁연봉이	-18652
▁의심이	-18653
▁남미	-18654
▁똥만	-18655
▁자기만	-18656
▁점이다	-18657
국민연금	-18658
매국노	-18659
▁쓴다고	-18660
부상	-18661
운운	-18662
▁공과	-18663
봤지만	-18664
버릇	-18665
▁토지	-18666
시하고	-18667
례가	-18668
▁화해	-18669
▁YG	-18670
▁qu	-18671
▁그늘	-18672
▁양육	-18673
▁낯짝	-18674
사고가	-18675
▁민심이	-18676
▁퍼져	-18677
▁편리	-18678
▁잠재적	-18679
▁님들	-18680
▁내어	-18681
▁조용해	-18682
▁했었어	-18683
▁과격	-18684
▁나뿐	-18685
▁그때도	-18686
▁반지를	-18687
졌죠	-18688
▁남동생	-18689
▁특급	-18690
도도	-18691
▁가본	-18692
▁후속	-18693
▁바다를	-18694
▁부족해	-18695
▁공조	-18696
▁시동	-18697
▁자리는	-18698
까리	-18699
▁핑크	-18700
하시나요	-18701
▁꺼야	-18702
▁거짓을	-18703
▁조건을	-18704
테인먼트	-18705
▁정부탓	-18706
▁했구나	-18707
시안	-18708
▁멀지	-18709
▁갚을	-18710
▁좋긴	-18711
▁통장	-18712
▁안해서	-18713
▁박태	-18714
▁능력은	-18715
▁멋있어	-18716
▁탁상	-18717
",	-18718
▁보시오	-18719
▁서민을	-18720
저우	-18721
▁비오	-18722
다는것	-18723
화학	-18724
▁케인	-18725
____	-18726
▁로스앤	-18727
▁안가는	-18728
봐주	-18729
▁빚이	-18730
▁치뤄	-18731
▁던지는	-18732
▁입금	-18733
▁이것만	-18734
▁연계	-18735
▁포로	-18736
▁의문의	-18737
▁좋구나	-18738
.^^	-18739
명만	-18740
▁금강	-18741
▁직권	-18742
려야한다	-18743
48	-18744
여사	-18745
▁겪고	-18746
▁일에는	-18747
그러니까	-18748
▁마셔요	-18749
선도	-18750
▁던진	-18751
▁이룩	-18752
▁지도를	-18753
수출	-18754
ase	-18755
▁받는데	-18756
▁신동엽	-18757
아니라고	-18758
▁몰살	-18759
▁사흘	-18760
▁번호를	-18761
▁지나서	-18762
▁왕국	-18763
▁저요	-18764
▁한적	-18765
코프	-18766
▁값이	-18767
▁저도요	-18768
▁미녀	-18769
▁차이는	-18770
나리	-18771
▁눈과	-18772
▁손상	-18773
▁음력	-18774
▁관계자	-18775
▁기름값	-18776
▁뜻이지	-18777
민을	-18778
▁곡을	-18779
▁이륙	-18780
▁치마	-18781
그램이	-18782
마리가	-18783
▁뇌물을	-18784
▁줬으면	-18785
▁관종	-18786
같은게	-18787
▁무섭지	-18788
▁흘려	-18789
문도	-18790
내리고	-18791
▁그분은	-18792
kw	-18793
▁보던	-18794
지마요	-18795
▁레코드	-18796
▁김은숙	-18797
▁나니	-18798
▁자세한	-18799
하고있는	-18800
취한	-18801
▁가엾	-18802
년에는	-18803
▁썻	-18804
요청	-18805
▁강릉	-18806
▁통째로	-18807
비나	-18808
▁강탈	-18809
▁시범	-18810
▁줄줄	-18811
▁보살펴	-18812
▁신경안	-18813
협력	-18814
▁우두	-18815
▁조져	-18816
▁SNS	-18817
▁시절에	-18818
여진	-18819
▁적대	-18820
▁조수	-18821
▁자이언	-18822
▁한다구	-18823
거리로	-18824
다간	-18825
▁성공을	-18826
셨습니까	-18827
좋음	-18828
▁문젠	-18829
▁베어	-18830
▁않는가	-18831
▁약속이	-18832
▁음식은	-18833
죄인	-18834
▁이단	-18835
교의	-18836
즈키	-18837
▁동안에	-18838
▁가이	-18839
당연히	-18840
▁헌법에	-18841
목적	-18842
▁기저	-18843
▁동서	-18844
▁이현	-18845
▁출현	-18846
계열	-18847
▁노려	-18848
▁매튜	-18849
▁요리를	-18850
아침에	-18851
▁내용도	-18852
▁싶었던	-18853
▁낀	-18854
ica	-18855
면피	-18856
이연합	-18857
▁보호를	-18858
거란	-18859
지대	-18860
해볼	-18861
▁호화	-18862
▁단죄	-18863
▁거였어	-18864
▁올해도	-18865
고등	-18866
부자	-18867
수배	-18868
질구	-18869
▁문어	-18870
▁훔치	-18871
▁개처럼	-18872
▁고통이	-18873
박을	-18874
지길	-18875
▁제약	-18876
▁도덕적	-18877
미스	-18878
▁친중	-18879
성군	-18880
▁리스	-18881
▁그분이	-18882
▁표현을	-18883
쓰냐	-18884
증으로	-18885
▁형사님	-18886
따로	-18887
▁포수	-18888
▁후계	-18889
묻은	-18890
▁개별	-18891
▁리오	-18892
업무	-18893
▁겠어	-18894
▁주는게	-18895
▁나서는	-18896
▁동물을	-18897
▁가속	-18898
▁웃음이	-18899
누진세	-18900
병우는	-18901
만원으로	-18902
▁나더러	-18903
▁미친짓	-18904
▁군대도	-18905
▁깍아	-18906
▁방침	-18907
일이나	-18908
▁디스크	-18909
▁朴	-18910
▁순간을	-18911
▁쓰는거	-18912
▁힘내요	-18913
▁사회는	-18914
선진국	-18915
▁공격수	-18916
▁방식을	-18917
아깝다	-18918
▁되돌려	-18919
▁보검이	-18920
▁발뺌	-18921
▁아닥	-18922
▁아니길	-18923
내게	-18924
▁장모	-18925
▁하아	-18926
▁됐소	-18927
▁계기가	-18928
▁제압	-18929
연봉제	-18930
▁거품이	-18931
▁도시의	-18932
▁오페라	-18933
▁한민족	-18934
CTV	-18935
▁설쳐	-18936
▁태양의	-18937
▁대박나	-18938
그마	-18939
▁서두르	-18940
는요	-18941
르의	-18942
영업	-18943
▁엉망이	-18944
갑다	-18945
▁피눈	-18946
▁그리도	-18947
▁혀를	-18948
▁보네요	-18949
▁뭐임	-18950
같아도	-18951
▁사랑할	-18952
▁뽑았	-18953
▁속일	-18954
러시아	-18955
▁몰아가	-18956
▁밝힌	-18957
▁비단	-18958
▁도리	-18959
▁무모	-18960
▁▶	-18961
▁화나게	-18962
제공	-18963
변을	-18964
위와	-18965
▁꼴랑	-18966
▁손목	-18967
▁최고지	-18968
거가	-18969
▁간판	-18970
▁못사	-18971
▁치욕	-18972
단체가	-18973
비아의	-18974
▁하겠나	-18975
비율	-18976
▁기구	-18977
▁가전	-18978
▁치유	-18979
▁폭도	-18980
▁선물이	-18981
▁소식은	-18982
▁야동	-18983
▁김수현	-18984
▁몰랐네	-18985
오른	-18986
▁좋으니	-18987
▁말들이	-18988
이재용	-18989
유리	-18990
청원	-18991
▁방송이	-18992
러드	-18993
▁개국	-18994
▁놈들도	-18995
▁고물	-18996
▁반반	-18997
▁배신자	-18998
▁ᄑ	-18999
당하면	-19000
▁듣보잡	-19001
병은	-19002
사다	-19003
소연	-19004
▁다하는	-19005
▁성공할	-19006
맨이	-19007
(19	-19008
▁아웅	-19009
▁치우고	-19010
살면	-19011
▁또래	-19012
▁개이득	-19013
사부	-19014
▁신축	-19015
▁이은	-19016
해보고	-19017
▁못하다	-19018
▁몸무게	-19019
측이	-19020
▁박혀	-19021
▁폭탄이	-19022
아메리카	-19023
시세끼	-19024
거같음	-19025
▁죽어요	-19026
▁더운데	-19027
▁높여	-19028
▁조윤	-19029
▁말했죠	-19030
▁화합	-19031
가는게	-19032
▁김유정	-19033
▁태도가	-19034
-4	-19035
▁링컨	-19036
▁폴리	-19037
▁됐는지	-19038
▁오토바	-19039
▁인질	-19040
말인가	-19041
▁드네요	-19042
개입	-19043
▁마셨	-19044
▁보수를	-19045
▁이즈	-19046
▁하인	-19047
내일	-19048
▁김국	-19049
지않을	-19050
하든지	-19051
▁1,2	-19052
▁브라보	-19053
▁선장님	-19054
▁하라구	-19055
만큼이나	-19056
조사를	-19057
▁독일에	-19058
킵시다	-19059
▁입맛에	-19060
▁끝도	-19061
▁안될까	-19062
개선	-19063
▁먹칠	-19064
▁뭐여	-19065
▁전무	-19066
▁par	-19067
▁어두워	-19068
하자마자	-19069
▁무법	-19070
▁사토	-19071
▁제보	-19072
▁닥치	-19073
때려	-19074
주식	-19075
현아	-19076
▁제왕	-19077
엄마가	-19078
▁길이다	-19079
▁날에	-19080
▁불통	-19081
▁여가	-19082
▁절실	-19083
▁챙겼	-19084
▁처넣	-19085
▁구하고	-19086
▁시장님	-19087
▁의사는	-19088
당연	-19089
▁sy	-19090
해산	-19091
▁편향	-19092
▁먹었다	-19093
▁올시즌	-19094
▁말씀해	-19095
▁미치지	-19096
▁비율이	-19097
손을	-19098
말고는	-19099
▁부인과	-19100
논란	-19101
들리	-19102
올로	-19103
황교	-19104
▁케미	-19105
▁간신히	-19106
▁노부	-19107
▁동감	-19108
ont	-19109
▁보충	-19110
▁샘플	-19111
구니가	-19112
▁때면	-19113
▁석탄	-19114
으라구	-19115
한다니	-19116
▁대지	-19117
▁깨닫게	-19118
▁뒤늦게	-19119
▁부모는	-19120
지않으면	-19121
되든	-19122
▁삽니다	-19123
그레	-19124
우선	-19125
일드	-19126
▁검찰의	-19127
▁손해를	-19128
▁마늘	-19129
▁도와준	-19130
▁이래라	-19131
▁정직한	-19132
하니까요	-19133
PL	-19134
▁드문	-19135
▁드시	-19136
▁상륙	-19137
하나가	-19138
▁입주	-19139
▁틀리	-19140
▁스카우	-19141
▁기호	-19142
▁별의	-19143
▁ag	-19144
▁골수	-19145
▁코가	-19146
▁언능	-19147
▁아니구	-19148
▁할려면	-19149
▁영세	-19150
순시리	-19151
▁건드리	-19152
▁동물이	-19153
▁엘시티	-19154
▁영상을	-19155
▁질문은	-19156
▁짓이다	-19157
▁ᅩ	-19158
▁분량	-19159
▁싶다는	-19160
강이	-19161
▁단위	-19162
▁슈돌	-19163
갔다고	-19164
▁알수가	-19165
▁여자로	-19166
주에서	-19167
port	-19168
차원에서	-19169
67	-19170
▁주류	-19171
▁괜찮고	-19172
▁남자야	-19173
▁사나이	-19174
▁짱개들	-19175
1%	-19176
위권	-19177
▁천원	-19178
꺼예요	-19179
시간만	-19180
진도	-19181
▁떠벌	-19182
▁일의	-19183
담은	-19184
▁놀란	-19185
아이들	-19186
에게나	-19187
▁일본군	-19188
새끼들아	-19189
먹을려고	-19190
▁깨우	-19191
▁빈곤	-19192
▁너보다	-19193
니네	-19194
▁거기로	-19195
▁가격에	-19196
▁위험이	-19197
▁자살을	-19198
▁짝짝	-19199
orea	-19200
▁모른척	-19201
▁바그네	-19202
▁일해야	-19203
박아	-19204
운전은	-19205
▁나누고	-19206
▁뒤에는	-19207
▁안되죠	-19208
▁판정	-19209
말종	-19210
▁실감	-19211
▁수령	-19212
▁윤아	-19213
지라	-19214
▁결혼해	-19215
▁언니는	-19216
▁추가로	-19217
▁안치	-19218
▁허니	-19219
지않냐	-19220
▁넘버	-19221
▁재무	-19222
▁주마	-19223
▁되었지	-19224
▁숟가락	-19225
▁알고도	-19226
부름	-19227
▁잘함	-19228
책에	-19229
▁한패	-19230
▁싸워야	-19231
평균	-19232
▁깔려	-19233
▁듭니다	-19234
가기	-19235
▁이네	-19236
▁나쁘진	-19237
▁좋을까	-19238
옷을	-19239
▁불가피	-19240
▁우수한	-19241
▁릭	-19242
▁씬	-19243
대냐	-19244
▁발버둥	-19245
▁이어서	-19246
▁쌤	-19247
출석	-19248
▁보호해	-19249
들임	-19250
▁삼류	-19251
[...]
