[UNK]	0
<s>	0
</s>	0
[PAD]	0
[CLS]	0
[MASK]	0
[SEP]	0
▁ㅇ	-0
ㅏㄴ	-1
ㅡㄴ	-2
ㅇㅣ	-3
ㅡㄹ	-4
▁ㄱ	-5
▁ㅈ	-6
ㅏㄹ	-7
ㄷㅏ	-8
▁ㅅ	-9
▁ㅁ	-10
ㅈㅣ	-11
ㄱㅗ	-12
ㅏㅇ	-13
ㅓㄴ	-14
▁ㅎ	-15
ㄷㅗ	-16
▁ㅂ	-17
ㅣㄴ	-18
ㄱㅏ	-19
▁ㄴ	-20
ㅕㄴ	-21
ㅓㅇ	-22
▁ㅇㅣ	-23
..	-24
ㄷㅡㄹ	-25
ㅏㅁ	-26
ㅇㅓ	-27
ㅏㄱ	-28
ㅇㅡㄹ	-29
ㅎㅏㄴ	-30
▁ㄷ	-31
ㅜㄴ	-32
ㅇㅔ	-33
ㅜㄹ	-34
ㅇㅡㄴ	-35
ㅜㄱ	-36
ㅓㄹ	-37
ㄴㅡㄴ	-38
ㅅㅓ	-39
ㅅㅣ	-40
ㅡㅁ	-41
ㅎㅐ	-42
ㅕㅇ	-43
ㅇㅣㄴ	-44
ㄱㅔ	-45
▁ㅊ	-46
ㅗㅇ	-47
ㄱㅣ	-48
ㄱㅓ	-49
ㅗㄴ	-50
ㅎㅏ	-51
ㅗㄹ	-52
ㅐㅇ	-53
ㄷㅔ	-54
ㅗㄱ	-55
▁ㅇㅏㄴ	-56
ㅁㅏㄴ	-57
ㅓㄱ	-58
ㅓㅁ	-59
ㅋㅋ	-60
ㅇㅏ	-61
ㄹㅏ	-62
ㅜㅇ	-63
ㅏㄴㅡㄴ	-64
ㅗㅅ	-65
...	-66
ㅝㄴ	-67
▁ㅍ	-68
▁ㅇㅓ	-69
ㄷㅐ	-70
ㅣㄹ	-71
ㅈㅏ	-72
ㅣㅁ	-73
▁ㄷㅏ	-74
ㄱㅜㄱ	-75
ㅇㅛ	-76
ㅗㅁ	-77
▁ㅎㅏㄴ	-78
ㅈㅔ	-79
▁ㅌ	-80
ㅡㅇ	-81
▁ㅈㅣ	-82
▁ㅇㅏ	-83
▁ㄷㅐ	-84
ㅇㅢ	-85
▁ㅇㅣㄹ	-86
▁ㄸ	-87
ㅇㅣㄹ	-88
ㅈㅓㅇ	-89
▁ㄷㅗ	-90
▁ㅈㅓㅇ	-91
ㅕㄱ	-92
ㅗㅎ	-93
▁ㄱㅏ	-94
ㄴㅣ	-95
ㅓㅂ	-96
ㄹㅗ	-97
▁ㅇㅣㅆ	-98
ㄷㅚ	-99
ㅇㅡㄹㅗ	-100
ㅅㅏㅇ	-101
▁ㄱㅡㄹ	-102
ㄲㅏ	-103
ㅕㄹ	-104
ㅐㄱ	-105
▁ㄱㅣ	-106
ㅎㅏㄴㅡㄴ	-107
ㅇㅡㅁ	-108
ㅅㅔ	-109
ㅇㅑ	-110
ㅁㅣㄴ	-111
▁ㅅㅏㄹ	-112
ㄹㅣ	-113
ㅁㅕㄴ	-114
ㅈㅏㅇ	-115
ㅏㄹㅏ	-116
ㅅㅏ	-117
ㅅㅜ	-118
ㅂㅜ	-119
▁ㅇㅓㅄ	-120
▁ㄱㅜㄱ	-121
ㄱㅡㅁ	-122
ㅎㅏㄱㅗ	-123
▁ㅁㅏ	-124
ㅂㄴㅣ	-125
▁ㅆ	-126
▁ㅅㅣ	-127
ㅆㄷㅏ	-128
ㅅㅓㅇ	-129
ㅈㅣㄴ	-130
ㄱㅓㄴ	-131
▁ㄱㅡ	-132
ㄱㅘ	-133
ㅇㅝㄴ	-134
ㅂㅗ	-135
ㅂㄴㅣㄷㅏ	-136
ㄷㅡㄹㅇㅣ	-137
ㅈㅜ	-138
ㄱㅓㅅ	-139
ㅎㅘ	-140
▁ㄲ	-141
ㅇㅓㅂ	-142
ㅅㅡ	-143
ㅑㅇ	-144
ㅅㅣㄴ	-145
!!	-146
▁ㅎㅏ	-147
▁ㅋ	-148
ㅈㅓㄴ	-149
ㄴㅔ	-150
ㄷㅡ	-151
▁ㅇㅣㄴ	-152
ㅎㅏㄱ	-153
ㄴㅏ	-154
ㅏㅁㅕㄴ	-155
▁ㅎㅐ	-156
▁ㄱㅓ	-157
ㅇㅔㅅㅓ	-158
ㅎㅏㄹ	-159
▁ㅈㅓㄴ	-160
ㅇㅏㄴ	-161
▁ㅈㅣㄴ	-162
ㅁㅏㄹ	-163
▁ㅈㅏㄹ	-164
ㄴㅡㄴㄷㅔ	-165
ㄱㅏㄴ	-166
ㅅㅣㄹ	-167
▁ㅂㅏ	-168
ㅋㅋㅋㅋ	-169
ㅐㅁ	-170
ㅈㅓㄱ	-171
ㅓㅎ	-172
▁ㄷㅚ	-173
▁ㅃ	-174
▁ㅅㅜ	-175
ㅊㅣ	-176
▁1	-177
▁ㅅㅏ	-178
ㄹㅡㄹ	-179
....	-180
ㄷㅗㅇ	-181
ㅐㄴ	-182
▁ㅁㅏㄹ	-183
ㅣㄴㅡㄴ	-184
ㅜㅁ	-185
ㄷㅏㄴ	-186
ㅜㅅ	-187
ㄷㅓㄴ	-188
~~	-189
ㄱㅏㄱ	-190
▁ㅁㅗㅅ	-191
▁ㄱㅡㄴ	-192
ㅎㅣ	-193
ㅇㅣㅆ	-194
ㅣㅇ	-195
??	-196
▁ㄱㅐ	-197
ㅇㅓㅄ	-198
▁ㅅㅐㅇ	-199
ㅅㅏㄹ	-200
▁ㅈㅔ	-201
ㅅㅏㄴ	-202
▁ㄱㅗㅇ	-203
ㄷㅡㄴ	-204
▁ㅈㅏ	-205
ㅇㅣㅁ	-206
▁ㅈㅗㅎ	-207
ㅉㅏ	-208
ㅌㅗㅇ	-209
▁ㅅㅔ	-210
▁ㅁㅣ	-211
ㄱㅔㅆ	-212
▁ㄴㅐ	-213
ㅂㅏ	-214
ㅈㅜㅇ	-215
▁ㅈㅜㅇ	-216
ㅇㅣㄷㅏ	-217
▁ㄴㅏ	-218
▁ㅁㅏㄴ	-219
▁ㅂㅗ	-220
ㄴㅕㄴ	-221
ㄹㅕ	-222
ㄱㅓㄹ	-223
ㅡㄱ	-224
ㄷㅏㅇ	-225
▁ㄱㅜㄱㅁㅣㄴ	-226
▁ㄷㅗㄴ	-227
ㅁㅏ	-228
ㅇㅠ	-229
▁ㅅㅏㄹㅏㅁ	-230
ㅇㅓㅆ	-231
ㅂㅣ	-232
ㄷㅡㄹㅇㅡㄴ	-233
▁ㄴㅓㅁ	-234
ㄱㅏㅌ	-235
ㅈㅜㄴ	-236
ㅇㅡㅁㅕㄴ	-237
▁ㅇㅜㄹ	-238
▁ㅂㅜ	-239
▁ㅉ	-240
ㅘㄴ	-241
▁ㅇㅏㄴㅣ	-242
ㅅㅣㅁ	-243
▁ㅂㅏㄱ	-244
▁ㅁㅏㄶ	-245
ㅌㅔ	-246
ㅈㅣㄱ	-247
▁ㅂㅣ	-248
▁ㅅㅏㅇ	-249
ㅂㅗㄴ	-250
ㄷㅏㄴㅡㄴ	-251
ㄷㅏㄱㅗ	-252
▁ㅇㅕ	-253
ㅂㅜㄴ	-254
ㅎㅚ	-255
▁ㅇㅙ	-256
ㄱㅡㄹ	-257
▁ㄷㅓ	-258
ㅅㅐㅇ	-259
ㅎㅏㄱㅔ	-260
ㄱㅡㄴ	-261
ㅎㅐㅆ	-262
▁ㅇㅕㄴ	-263
▁ㅁㅝ	-264
ㅅㅣㄱ	-265
ㅊㅔ	-266
▁ㅇㅗㄹ	-267
ㅅㅓㄴ	-268
▁ㅇㅠ	-269
ㅂㅏㄹ	-270
▁ㄷㅡㄹ	-271
ㅕㅆ	-272
▁ㅇㅏㄹ	-273
▁ㄴㅏㅇ	-274
ㄸㅐ	-275
▁ㅎㅏㄹ	-276
▁ㅁㅜ	-277
ㅇㅓㅇ	-278
ㅎㅏㅁㅕㄴ	-279
▁ㄱㅏㅌ	-280
▁ㅂㅜㄹ	-281
ㅡㅂ	-282
▁ㅊㅚ	-283
ㅈㅣㄹ	-284
ㅈㅏㄱ	-285
ㅓㅎㄱㅔ	-286
ㄱㅜ	-287
ㅈㅣㅁㅏㄴ	-288
ㅎㅐㅅㅓ	-289
▁ㅇㅛ	-290
▁ㅅㅏㅁ	-291
▁ㄴㅏㅁ	-292
▁ㅋㅋ	-293
▁ㅇㅓㄹ	-294
ㄲㅏㅈㅣ	-295
▁ㅈㅣㄴㅉㅏ	-296
▁ㄱㅓㅅ	-297
▁ㅁㅜㄴ	-298
ㅇㅕㄴ	-299
▁ㅁㅗㄹ	-300
▁ㅎㅏㄴㅡㄴ	-301
ㅌㅡ	-302
▁ㅇㅏㄶ	-303
ㄱㅖ	-304
ㅌㅓ	-305
ㅊㅏ	-306
ㅈㅐ	-307
ㄱㅗㅇ	-308
ㄹㅕㅇ	-309
ㄴㅑ	-310
ㅂㅓㄴ	-311
▁ㄱㅕㅇ	-312
ㄹㅕㄱ	-313
▁ㅅㅐㅇㄱㅏㄱ	-314
ㅎㅐㅇ	-315
▁2	-316
ㅣㄱㅗ	-317
▁ㅎㅘ	-318
▁ㅈㅓ	-319
ㅁㅕㅇ	-320
ㄷㅡㅅ	-321
ㅂㅜㄹ	-322
▁ㅈㅓㄹ	-323
▁ㅂㅏㄹ	-324
ㄱㅜㄴ	-325
ㅝㄹ	-326
▁ㄷㅏㅇ	-327
ㅇㅣㄹㅏ	-328
▁ㄷㅏㄹ	-329
▁ㅈㅏㄱ	-330
▁ㅇㅣㄹㅓㄴ	-331
00	-332
ㅇㅕㅇ	-333
▁ㅇㅟ	-334
ㅇㅕ	-335
▁ㅎㅐㅇ	-336
ㅇㅣㄴㅏ	-337
ㅂㅏㄱ	-338
ㄱㅏㅇ	-339
ㅂㅏㅇ	-340
ㅂㅘ	-341
ㅈㅗ	-342
▁ㅈㅏㅇ	-343
▁ㅈㅜ	-344
ㅊㅓㅇ	-345
ㄷㅚㄴ	-346
▁ㅇㅔ	-347
▁ㅇㅐ	-348
▁ㄱㅣㅁ	-349
ㄷㅏㄹ	-350
ㅇㅣㄴㄷㅔ	-351
ㄴㅐ	-352
▁ㅅㅣㄴ	-353
ㅎㅏㅈㅣ	-354
ㅇㅛㅇ	-355
ㅛㅇ	-356
ㅇㅓㄱ	-357
ㅅㅜㄴ	-358
▁ㅅㅓㅇ	-359
▁ㄱㅕㄹ	-360
ㅅㅗ	-361
▁ㅇㅓㄴ	-362
ㅎㅖ	-363
ㅍㅡㄹ	-364
ㅈㅏㄹ	-365
ㅁㅣ	-366
ㅇㅣㅂ	-367
▁ㄴㅏㄹ	-368
ㅁㅜㄹ	-369
ㅎㅏㄴㄷㅏ	-370
▁ㅂㅏㄷ	-371
ㅓㅅ	-372
ㅁㅓㄱ	-373
▁ㅈㅗㅁ	-374
▁ㅎㅏㄴㄱㅜㄱ	-375
▁ㄴㅗ	-376
ㄱㅕㅇ	-377
▁ㅁㅏㅇ	-378
ㅂㅓㅂ	-379
ㅈㅜㄹ	-380
▁ㅈㅣㅂ	-381
▁ㅅㅏㅁㅅㅓㅇ	-382
▁ㅁㅗ	-383
▁ㄱㅡㄴㅑㅇ	-384
ㅇㅓㄴ	-385
ㄱㅏㅁ	-386
▁ㅁㅓㄱ	-387
ㅗㅁㅕㄴ	-388
ㅈㅗㄱ	-389
ㅇㅟ	-390
ㄱㅐ	-391
▁ㅁㅜㄹ	-392
▁ㅂㅏㄴ	-393
ㅅㅔㅇㅛ	-394
ㅇㅏㅇ	-395
ㅡㄴㅡㄴ	-396
ㄷㅐㄹㅗ	-397
ㅌㅗㅇㄹㅕㅇ	-398
ㅎㅏㅁ	-399
ㅣㄱㅏ	-400
▁ㅂㅗㄴ	-401
ㅊㅓㄹ	-402
▁ㅇㅣㅈㅔ	-403
ㄱㅓㅁ	-404
ㅂㅓㄹ	-405
ㅎㅏㄷㅏ	-406
▁ㄴㅓㅁㅜ	-407
▁ㅈㅣㄱㅡㅁ	-408
ㅡㅌ	-409
ㅁㅜㄴ	-410
ㄱㅝㄴ	-411
▁ㄴㅜ	-412
▁3	-413
ㅎㅐㅇㅑ	-414
ㅇㅏㅆ	-415
▁ㅎㅕㄴ	-416
ㅅㅗㄱ	-417
ㄱㅣㄹ	-418
▁ㅈㅜㅇㄱㅜㄱ	-419
ㅣㄱ	-420
▁ㅈㅜㄱ	-421
▁ㄱㅡㄹㅓㄴ	-422
▁ㄱㅡㅁ	-423
ㅎㅐㄹㅏ	-424
▁ㅇㅏㄴㅣㄴ	-425
▁ㅋㅋㅋㅋ	-426
ㄱㅡㅂ	-427
▁ㄹ	-428
▁ㅇㅣㅆㄴㅡㄴ	-429
▁ㄷㅏㄴ	-430
▁ㄴㅏㄹㅏ	-431
ㅇㅘ	-432
ㅁㅗㅅ	-433
ㄷㅗㄴ	-434
▁ㅇㅖ	-435
ㅍㅜㅁ	-436
ㅊㅜㄹ	-437
ㅂㅏㄷ	-438
ㅂㅗㄷㅏ	-439
▁ㅇㅕㅇ	-440
ㅡㅅ	-441
▁ㅌㅡㄱ	-442
▁ㄱㅘ	-443
▁ㅇㅕㄹ	-444
ㅂㅜㅌㅓ	-445
ㄱㅏㅌㅇㅡㄴ	-446
ㅍㅗㄴ	-447
ㄱㅣㅇㅓㅂ	-448
ㄱㅘㄴ	-449
▁ㄱㅏㅁ	-450
▁ㅅㅓㄴ	-451
ㄷㅣ	-452
ㅂㅏㄴ	-453
ㅓㄹㅏ	-454
ㅈㅣㅂ	-455
▁ㅊㅏㅁ	-456
!!!	-457
ㅠㅠ	-458
▁ㄴㅏㄴ	-459
ㅎㅕㅇ	-460
▁ㅇㅝㄴ	-461
ㅎㅏㄴㅌㅔ	-462
ㅈㅗㅁ	-463
ㅇㅣㄱㅗ	-464
ㅅㅜㄹ	-465
ㄷㅡㅇ	-466
▁ㅅㅣㄹ	-467
▁ㄱㅖ	-468
ㅣㄲㅏ	-469
ㄴㅏㄴ	-470
ㅈㅓ	-471
ㅅㅡㅂㄴㅣㄷㅏ	-472
ㅂㅐ	-473
▁ㄱㅏㅇ	-474
ㅇㅓㅅㅓ	-475
▁ㅈㅗ	-476
ㅇㅔㄱㅔ	-477
ㄹㅗㄴ	-478
▁ㅇㅕㄱ	-479
▁ㅁㅏㄴㄷㅡㄹ	-480
▁ㅇㅏㅁ	-481
▁.	-482
▁ㄷㅗㅇ	-483
ㅅㅏㄹㅏㅁ	-484
▁ㄷㅐㅌㅗㅇㄹㅕㅇ	-485
ㄴㅏㄹ	-486
ㅗㄹㅣ	-487
▁ㅂㅏㅇ	-488
▁ㅈㅐ	-489
ㄱㅓㅇ	-490
ㄱㅡㄴㅎㅖ	-491
▁ㅇㅚ	-492
▁ㄸㅗ	-493
▁ㄱㅡㄹㅐ	-494
ㅊㅣㄴ	-495
ㅎㅕㄴ	-496
ㅐㅁㅜㄴ	-497
▁ㅈㅓㅇㅁㅏㄹ	-498
▁ㄱㅗ	-499
ㅊㅓㄴ	-500
ㅈㅗㅇ	-501
▁ㅇㅢ	-502
ㄱㅏㄹ	-503
ㄱㅛ	-504
ㄹㅏㄱㅗ	-505
ㅇㅐ	-506
▁ㅇㅏㅍ	-507
▁ㅎㅣㅁ	-508
ㅏㄱㅔ	-509
▁ㅈㅓㄱ	-510
ㅈㅣㅅ	-511
ㄱㅏㅄ	-512
ㄷㅜ	-513
▁ㄷㅐㅎㅏㄴ	-514
▁ㅇㅓㄸ	-515
ㅅㅣㅋ	-516
ㅍㅏㄴ	-517
▁ㅁㅜㄴㅈㅔ	-518
▁ㄱㅘㄴ	-519
▁ㅇㅗ	-520
ㄱㅣㄴ	-521
▁ㅂㅓㅂ	-522
ㅣㅁㅕㄴ	-523
▁ㅅㅔㄱㅡㅁ	-524
ㅅㅓㄱ	-525
ㅈㅕ	-526
ㅇㅣㅈㅣ	-527
ㅁㅣㄴㄱㅜㄱ	-528
▁ㅁㅏㅈ	-529
ㄹㅣㄴ	-530
▁ㅂㅓㄹ	-531
▁ㅇㅏㅇㅣ	-532
ㅣㄷㅡㄹ	-533
▁ㅃㅏㄹ	-534
▁ㅊㅓㅇ	-535
ㅁㅏㄴㅇㅝㄴ	-536
ㄷㅗㄹ	-537
ㅍㅣ	-538
▁ㅎㅐㅆ	-539
ㅕㅊ	-540
ㄱㅔㅆㄷㅏ	-541
▁ㄱㅓㄴ	-542
ㅂㅗㄱ	-543
▁ㄴㅗㄹ	-544
▁ㅂㅜㄴ	-545
ㄴㅏㅇ	-546
ㅡㄱㅗ	-547
ㄷㅙ	-548
▁ㅇㅑ	-549
▁ㅇㅜㄹㅣㄴ	-550
ㅊㅏㄹ	-551
▁ㄱㅏㄱ	-552
ㄹㅠ	-553
▁ㅇㅣㅂ	-554
ㅜㄹㅣ	-555
▁ㅊㅏ	-556
▁5	-557
ㅈㅓㅁ	-558
▁ㅋㅋㅋ	-559
▁ㅎㅏㄱㅗ	-560
▁ㄷㅗㄹ	-561
ㅁㅏㅇ	-562
▁ㅁㅏㄶㅇㅣ	-563
▁ㄱㅏㄴ	-564
▁ㅂㅐ	-565
▁ㅅㅗㄴ	-566
▁ㅅㅗ	-567
▁ㅅㅏㄱ	-568
ㅈㅚ	-569
ㅌㅏ	-570
ㄹㅏㄴ	-571
ㅎㅗ	-572
▁ㅁㅜㅅ	-573
ㅎㅏㅇ	-574
▁ㅁㅝㄴ	-575
ㅣㄹㅡㄹ	-576
▁ㅈㅗㅇ	-577
ㅈㅛ	-578
ㅈㅓㄱㅇㅡㄹㅗ	-579
▁ㅇㅓㅁ	-580
▁ㄱㅜ	-581
▁ㄱㅏㅌㅇㅡㄴ	-582
ㅔㅇㅛ	-583
▁ㅆㅡㄹ	-584
ㅗㅅㅓㄴ	-585
▁ㅂㅏㄱㄱㅡㄴㅎㅖ	-586
ㅊㅓㄹㅓㅁ	-587
▁ㅅㅓㄹ	-588
▁ㄱㅣㅇㅓㅂ	-589
ㄱㅓㅈㅣ	-590
ㅎㅏㅂㄴㅣㄷㅏ	-591
ㅅㅡㄹ	-592
▁ㄱㅔ	-593
▁ㅇㅘ	-594
ㅈㅣㄱㅗ	-595
▁ㅂㅏㄲ	-596
ㅅㅗㅇ	-597
▁ㄱㅓㄹ	-598
ㅈㅓㄹ	-599
ㄱㅜㄴㅏ	-600
ㅅㅜㄴㅅㅣㄹ	-601
▁ㅇㅏㄴㄷㅚ	-602
ㅇㅖ	-603
▁ㅇㅓㅄㄴㅡㄴ	-604
ㄴㅗㅁ	-605
ㅇㅓㅇㅑ	-606
ㅈㅝ	-607
ㅈㅡㅇ	-608
ㅈㅐㅇ	-609
ㅔㄹ	-610
ㅎㅕ	-611
▁ㅂㅘ	-612
ㅇㅡㄴㅣ	-613
ㅈㅏㄷㅡㄹ	-614
ㅌㅐ	-615
▁ㅎㅚ	-616
▁ㅅㅜㄴ	-617
ㄱㅓㅅㄷㅗ	-618
ㅇㅜ	-619
▁ㅁㅜㅅㅡㄴ	-620
ㅇㅣㅂㄴㅣㄷㅏ	-621
▁ㅇㅜㄹㅣ	-622
ㅈㅣㅁ	-623
▁ㅇㅗㄴ	-624
ㅇㅏㅅㅓ	-625
ㅈㅣㄴㅡㄴ	-626
ㅈㅗㅎ	-627
ㅊㅕ	-628
ㅋㅋㅋ	-629
▁ㅁㅕㅊ	-630
ㅎㅗㄴ	-631
▁ㅈㅜㄹ	-632
▁ㅅㅣㅁ	-633
ㅏㅁㅏ	-634
▁ㅈㅣㄱ	-635
▁ㄴㅜㄴ	-636
▁ㅅㅏㄴ	-637
▁ㅇㅛㄱ	-638
ㅈㅓㄱㅇㅣㄴ	-639
ㄴㅏㅁ	-640
.....	-641
▁ㄷㅏㄹㅡㄴ	-642
ㅇㅓㅇㅛ	-643
▁ㅅㅓㅁ	-644
ㅁㅜ	-645
▁10	-646
▁ㅁㅣㄱㅜㄱ	-647
▁ㅈㅏㅂ	-648
▁ㄷㅐㅎㅏㄴㅁㅣㄴㄱㅜㄱ	-649
ㅇㅣㅆㄴㅡㄴ	-650
ㅇㅏㄱ	-651
ㄷㅓㄹㅏ	-652
▁ㅇㅣㄴㄱㅏㄴ	-653
ㅐㅁㅜㄴㅇㅔ	-654
ㅈㅣㄷㅗ	-655
▁ㅍㅣ	-656
~~~	-657
▁ㅇㅓㅉ	-658
▁ㄴㅜㅈㅣㄴ	-659
▁ㅅㅣㅍ	-660
ㅈㅜㄱ	-661
▁ㅅㅗㄹ	-662
ㅅㅏㅁ	-663
▁ㅇㅜㅅ	-664
ㄴㅔㅇㅛ	-665
▁ㅈㅓㅇㅂㅜ	-666
ㅍㅏ	-667
▁ㅈㅗㅎㅇㅡㄴ	-668
▁4	-669
ㅇㅏㄶ	-670
ㅗㅂ	-671
ㅆㄷㅏㄱㅗ	-672
▁ㄲㅡㅌ	-673
ㅊㅐㄱ	-674
▁ㅌㅗㅇ	-675
▁ㅇㅏㄱ	-676
ㄱㅕ	-677
???	-678
ㄷㅡㄹㅇㅏ	-679
ㅓㄹㅣ	-680
ㅅㅣㅍ	-681
ㅇㅕㄱ	-682
ㅅㄱㅡㄹ	-683
ㅎㅢ	-684
!!!!	-685
ㅂㅕㅇ	-686
▁ㅁㅣㄹ	-687
▁ㄴㅗㅁ	-688
ㅎㅐㄷㅗ	-689
ㅈㅏㄴ	-690
▁ㅁㅣㄴ	-691
▁ㅇㅣㄹㅂㅗㄴ	-692
▁ㅁㅐ	-693
▁ㄴㅡ	-694
ㅁㅏㄹㄱㅗ	-695
ㅇㅓㅄㄴㅡㄴ	-696
ㅈㅏㄱㅏ	-697
ㅌㅏㄴ	-698
▁ㅇㅑㅇ	-699
ㅇㅔㄴ	-700
▁ㅅㅓㅁㅣㄴ	-701
▁ㅅㅐ	-702
▁ㅇㅣㅁ	-703
▁ㅇㅓㅄㄷㅏ	-704
ㅐㅁㅣ	-705
ㅁㅐ	-706
▁ㅊㅚㅅㅜㄴㅅㅣㄹ	-707
▁ㅍㅗㄱ	-708
ㅈㅏㄶ	-709
ㅜㄴㅡㄴ	-710
ㅔㄱㅣ	-711
ㅍㅛ	-712
▁ㅍㅏㄹ	-713
ㅎㅏㄴㅔ	-714
ㄷㅡㄱ	-715
ㅎㅐㄱ	-716
▁ㅈㅓㄴㄱㅣ	-717
▁ㅍㅏㄴ	-718
ㅆㅣ	-719
ㄹㅐ	-720
^^	-721
▁ㅌㅡㄱㄱㅓㅁ	-722
ㅡㅡ	-723
ㅏㅇㅔ	-724
▁ㄱㅏㄹ	-725
▁ㄱㅗㅅ	-726
ㅏㄱㅗ	-727
ㅇㅑㅇ	-728
ㅓㄹㅇㅓ	-729
ㄱㅓㄷㅏ	-730
ㅍㅕㄴ	-731
ㅋㅋㅋㅋㅋㅋㅋㅋ	-732
ㄱㅔㅆㅈㅣ	-733
ㅇㅓㄷㅗ	-734
ㅆㄴㅡㄴㄷㅔ	-735
ㄱㅜㄹ	-736
▁ㅁㅏㄱ	-737
ㅗㅎㄱㅗ	-738
▁ㅍㅣㄹ	-739
ㄷㅓㄴㄷㅔ	-740
▁ㅈㅚ	-741
▁ㄱㅕㅇㅈㅔ	-742
▁ㅇㅕㄴㄱㅣ	-743
ㅇㅑㄱ	-744
▁ㅇㅏㅈㅣㄱ	-745
▁ㄱㅓㅁ	-746
ㅐㅇㅜ	-747
ㅇㅣㄴㄱㅏ	-748
ㄴㅣㅁ	-749
ㅈㅏㅂ	-750
ㅕㅇㅑ	-751
ㄷㅡㄹㄷㅗ	-752
ㄷㅏㄱㅏ	-753
▁ㄷㅚㄴ	-754
▁ㄴㅜㄱ	-755
▁ㄷㅡㅇ	-756
ㅇㅣㄹㅏㄱㅗ	-757
ㅇㅣㄴㅔ	-758
▁ㅂㅗㅇ	-759
ㅗㄴㅡㄴ	-760
ㅌㅐㄱ	-761
▁ㅇㅓㄹㅁㅏㄴ	-762
,,	-763
ㅇㅣㄹㅏㅇ	-764
ㅈㅓㅇㄷㅗ	-765
▁ㅎㅘㄱ	-766
▁ㅂㅗㄱㅗ	-767
ㅇㅣㄴㅑ	-768
▁ㅇㅣㅁㅣ	-769
▁ㅍㅕㅇ	-770
ㄹㅣㄴㅡㄴ	-771
ㄷㅓ	-772
ㅂㄷㅏ	-773
ㅂㅗㄱㅗ	-774
OO	-775
▁ㄷㅟ	-776
▁ㅂㅕㄴ	-777
ㅁㅕㄴㅅㅓ	-778
▁ㅎㅏㄴㅏ	-779
ㅃㅏ	-780
▁ㄷㅐㅅㄱㅡㄹ	-781
▁ㅇㅣㅅㅏㅇ	-782
ㅂㅅㅣ	-783
ㅏㄹㅣ	-784
ㅇㅣㅇㅑ	-785
▁ㅎㅐㅇㅑ	-786
▁ㄱㅡㄹㅣㄱㅗ	-787
ㅈㅜㄴㅡㄴ	-788
▁ㅎㅏㅈㅣ	-789
OOO	-790
▁ㄱㅡㄹㅓㅁ	-791
▁ㅇㅝㄹ	-792
▁ㅊㅜㄹ	-793
ㅇㅝㄹ	-794
ㅇㅣㄱ	-795
▁ㅎㅏㄴㄷㅏ	-796
▁ㄱㅣㄹ	-797
ㅁㅗ	-798
ㅂㅗㅇ	-799
ㅅㅐ	-800
▁ㅁㅕㅇ	-801
ㄷㅚㄴㅡㄴ	-802
ㅇㅣㄱㅏ	-803
▁ㄱㅛ	-804
ㅎㅏㄴㅡㄴㄷㅔ	-805
ㅌㅔㄴ	-806
▁ㄸㅐ	-807
ㄴㅗ	-808
▁ㅈㅓㅇㅅㅣㄴ	-809
▁ㅇㅣㅆㄷㅏ	-810
ㅎㅜ	-811
ㅈㅜㄱㅗ	-812
▁ㅇㅏㄴㅣㄹㅏ	-813
▁ㅈㅓㅇㅊㅣ	-814
ㄹㅕㄴ	-815
ㅍㅏㄹ	-816
▁ㅎㅏㅁㅕㄴ	-817
ㅗㅅㅏ	-818
▁ㅎㅏㅇ	-819
▁ㅊㅣㄴ	-820
ㅋㅔ	-821
ㄹㅓ	-822
▁ㅇㅣㄹㅓㅎㄱㅔ	-823
ㄷㅚㄴㄷㅏ	-824
ㅇㅏㅇㅑ	-825
▁ㅌㅏㄴ	-826
ㅎㅘㄴ	-827
ㄱㅕㄹ	-828
▁ㅅㅗㄱ	-829
ㅎㅏㄴㅏ	-830
▁ㄷㅏㄺ	-831
▁ㅇㅓㄹㅁㅏㄴㅏ	-832
▁ㅇㅣㅂㅓㄴ	-833
▁ㄱㅣㅅㅏ	-834
ㅅㅓㄹ	-835
▁ㅎㅏㄱ	-836
▁ㅇㅘㄴ	-837
ㅔㄴ	-838
▁ㅈㅡㅇ	-839
ㅡㄷ	-840
▁ㄱㅡㄴㄷㅔ	-841
▁ㄴㅣ	-842
▁ㄱㅡㄹㅓㅎㄱㅔ	-843
ㅌㅡㄹ	-844
▁ㄱㅡㅁㅏㄴ	-845
ㅊㅏㅇ	-846
ㄹㅏㅇ	-847
ㄷㅏㅁ	-848
▁ㅇㅓㄸㅓㅎㄱㅔ	-849
▁ㅈㅓㄹㅓㄴ	-850
ㅈㅡㅁ	-851
▁ㄷㅚㄹ	-852
ㅇㅣㅁㅕㄴ	-853
ㅅㅡㅇ	-854
ㅓㅈㅣ	-855
ㅇㅏㅁ	-856
▁ㄷㅏㅅㅣ	-857
▁ㄷㅜ	-858
▁ㅂㅜㄱ	-859
▁ㅇㅣㄱㅔ	-860
▁ㅂㅣㅆ	-861
ㄱㅡ	-862
ㅇㅣㄴㅡㄴ	-863
▁ㅈㅐㅁㅣ	-864
▁ㄴㅜㄱㅏ	-865
ㄱㅜㄱㅁㅣㄴ	-866
ㅎㅏㄴㅑ	-867
▁ㅇㅜㄹㅣㄴㅏㄹㅏ	-868
▁ㅇㅜ	-869
ㅏㅇㅛ	-870
▁ㄷㅐㄱㅣㅇㅓㅂ	-871
▁ㄴㅐㄱㅏ	-872
ㅂㅜㄱ	-873
ㄷㅓㄴㅣ	-874
▁ㅂㅕㄹ	-875
ㅋㅓㄴ	-876
ㅇㅏㄹ	-877
ㅌㅣㅇ	-878
ㅈㅏㄴㅡㄴ	-879
▁ㅊㅜㅇ	-880
ㄷㅡㄹㅇㅢ	-881
▁ㄱㅖㅅㅗㄱ	-882
ㅕㄱㅗ	-883
ㅣㄹㅗ	-884
▁ㄱㅘㅇ	-885
ㅎㅘㅇ	-886
ㄷㅡㄹㅇㅡㄹ	-887
ㅋㅡㅁ	-888
▁ㅈㅏㄹㅁㅗㅅ	-889
▁ㅈㅗㅎㅇㅏ	-890
▁ㅂㅗㅁㅕㄴ	-891
▁ㅍㅣㄹㅇㅛ	-892
ㅇㅔㄴㅡㄴ	-893
▁ㄱㅜㄴ	-894
▁20	-895
ㅂㅏㄲ	-896
ㅎㅘㄹ	-897
ㄴㅡㄴㄷㅏ	-898
ㄱㅣㄴㅡㄴ	-899
ㅅㅣㄱㅏㄴ	-900
ㅂㅗㅁㅕㄴ	-901
▁ㄸㅗㄱ	-902
▁ㅇㅡㅇ	-903
ㅌㅔㄴㄷㅔ	-904
▁ㅁㅣㄷ	-905
▁ㅍㅕㄴ	-906
ㄹㅣㄱㅗ	-907
▁ㅇㅏㄴㅣㄱㅗ	-908
ㅣㄲ	-909
▁ㅇㅒ	-910
ㅇㅔㄷㅗ	-911
ㅈㅏㄶㅇㅏ	-912
▁ㅅㅣㅋ	-913
▁ㅌㅜ	-914
▁ㄴㅏㅇㅘ	-915
▁ㅇㅓㄴㄹㅗㄴ	-916
ㅅㅏㄴㅡㄴ	-917
ㅇㅣㄹㅏㄴ	-918
ㅊㅏㅁ	-919
▁ㅎㅘㄴ	-920
▁ㅊㅜ	-921
ㅇㅣㄴㅇㅣ	-922
ㅈㅗㅅㅓㄴ	-923
▁ㅇㅓㄷㅣ	-924
ㄱㅐㅇ	-925
ㅂㅗㄹ	-926
ㅕㅁ	-927
ㅃㅏㄹ	-928
▁ㅂㅗㄱ	-929
ㄹㅕㄱㅗ	-930
ㅇㅓㅆㄷㅏ	-931
▁ㅈㅣㄹ	-932
ㅃㅡㄴ	-933
ㄱㅓㅇㅑ	-934
▁ㅁㅗㄷㅡㄴ	-935
ㅡㄹㄹ	-936
ㅇㅜㄹ	-937
ㄱㅠ	-938
▁ㅊㅓㄴ	-939
▁ㅇㅣㅇㅠ	-940
ㅅㅗㄹㅣ	-941
ㅁㅜㅇ	-942
▁ㅎㅐㄱ	-943
▁ㅈㅔㅂㅏㄹ	-944
▁ㅋㅡㄴ	-945
ㅂㅐㄱ	-946
▁ㅇㅓㄴㅈㅔ	-947
▁ㅇㅔㅇㅓ	-948
▁7	-949
ㄱㅏㅈㅣ	-950
ㅊㅜㅇ	-951
▁OOO	-952
▁ㅂㅗㄹ	-953
ㅔㅇㅣ	-954
▁ㅊㅕ	-955
▁ㅈㅔㄷㅐㄹㅗ	-956
▁ㅁㅏㄶㅇㅡㄴ	-957
ㄴㅓㅁ	-958
ㅏㄹㅡㄹ	-959
▁ㅁㅏㄴㄷㅡㄴ	-960
ㅅㅓㄴㅡㄴ	-961
▁ㅅㅟ	-962
▁ㄱㅏㄱㅕㄱ	-963
▁ㅅㅏㅅㅣㄹ	-964
▁ㅇㅣㄱㅓㄴ	-965
ㅇㅣㄴㅈㅣ	-966
ㅂㅅㅣㄷㅏ	-967
ㅇㅣㅅㅏㅇ	-968
ㅎㅏㅂ	-969
ㅎㅏㄹㅏ	-970
ㅇㅓㅄㅇㅣ	-971
ㅎㅐㅆㄷㅏ	-972
▁ㅌㅏㄴㅎㅐㄱ	-973
▁ㄷㅙ	-974
▁ㅊㅏㅇ	-975
▁ㅌㅡㄹ	-976
ㄹㅏㄷㅗ	-977
▁ㅅㅣㅀ	-978
▁ㅎㅜ	-979
;;	-980
▁ㄷㅗㄱ	-981
▁ㄷㅜㄹ	-982
▁ㄷㅚㄴㅡㄴ	-983
▁ㄷㅏㅇㅇㅕㄴ	-984
ㄱㅕㄱ	-985
▁ㅅㅗㅇ	-986
▁ㅇㅡㅁ	-987
▁ㅎㅏㅁ	-988
ㅜㅜ	-989
ㅂㅓㅁ	-990
ㅎㅎ	-991
ㅇㅓㅆㄴㅡㄴㄷㅔ	-992
▁ㄱㅕㄹㅎㅗㄴ	-993
▁...	-994
▁ㅊㅓㄹ	-995
▁ㄴㅗㅇ	-996
ㅇㅕㄹ	-997
▁ㅂㅐㄱ	-998
ㅣㄹㅣ	-999
▁6	-1000
ㄲㅣ	-1001
▁ㅎㅣㅁㄷㅡㄹ	-1002
ㄹㅛ	-1003
ㄹㅑㅇ	-1004
▁ㅇㅏㅈㅜ	-1005
ㅈㅜㅇㅢ	-1006
▁ㄲㅗㄹ	-1007
ㅜㅅㅗㄱ	-1008
ㅇㅓㄱㅏ	-1009
▁ㅁㅝㄹ	-1010
▁ㅇㅛㅈㅡㅁ	-1011
ㅇㅗㄹ	-1012
▁ㅇㅓㅁㅊㅓㅇ	-1013
▁ㅇㅜㄴ	-1014
▁ㅇㅕㄴㅇㅖ	-1015
ㄷㅗㅇㅇㅏㄴ	-1016
▁..	-1017
▁ㄱㅕㄹㄱㅜㄱ	-1018
ㅂㅓ	-1019
▁ㅈㅗㄴ	-1020
ㅅㅐㄱ	-1021
▁ㅅㅏㄴㅡㄴ	-1022
ㄹㅏㄱ	-1023
▁ㅈㅗㄱ	-1024
▁ㅃㅏㄹㄹㅣ	-1025
▁ㅎㅏㄴㅂㅓㄴ	-1026
▁ㅍㅗ	-1027
ㄱㅔㅆㄴㅔ	-1028
▁ㄲㅗㄱ	-1029
ㅁㅏㄶ	-1030
ㅍㅗㄱ	-1031
▁100	-1032
ㄹㅣㄹ	-1033
▁ㅅㅗㄹㅈㅣㄱ	-1034
ㅓㅇㅜㄴ	-1035
▁ㅍㅖ	-1036
▁ㅎㅎ	-1037
▁ㅍㅡㄹ	-1038
▁ㄸㅓㄹㅇㅓ	-1039
▁ㄷㅏㅁ	-1040
▁ㅇㅡㄴ	-1041
▁ㅅㅏㄹㅏㅁㄷㅡㄹ	-1042
ㅂㅕㄴ	-1043
ㅇㅡㄹㄲㅏ	-1044
ㅍㅗ	-1045
ㅍㅐ	-1046
▁ㄸㅏㄹ	-1047
ㅇㅣㄹㅏㄷㅗ	-1048
▁ㅈㅏㄱㅣ	-1049
ㄷㅚㄹ	-1050
▁ㄱㅡㄹㅓㅎ	-1051
ㅆㅣㄱ	-1052
ㅎㅠ	-1053
▁ㅇㅕㄱㅣ	-1054
ㅇㅗ	-1055
ㄱㅜㅁㅏㄴ	-1056
▁ㅁㅗㄱ	-1057
ㅇㅓㅄㄷㅏ	-1058
▁ㅌㅏ	-1059
▁ㅊㅐㄱ	-1060
ㅇㅓㄹㅏ	-1061
▁ㄷㅓㄹ	-1062
ㅃㅜㄴ	-1063
ㅅㅗㄹ	-1064
ㅓㄴㅏ	-1065
ㅈㅣㅇ	-1066
▁ㅆㅡ	-1067
▁ㄱㅜㄱㅁㅣㄴㄷㅡㄹ	-1068
▁ㅆㅡㄹㅔㄱㅣ	-1069
ㅇㅣㄹㅏㄴㅡㄴ	-1070
ㅈㅣㅇㅏㄶ	-1071
▁ㅇㅔㅇㅓㅋㅓㄴ	-1072
▁ㄴㅡㄲ	-1073
ㅅㅟ	-1074
ㅅㅏㄱ	-1075
▁ㄷㅏㅂ	-1076
ㅈㅕㅆ	-1077
ㅁㅗㄹ	-1078
▁ㅊㅜㄱ	-1079
▁ㄴㅡㄹ	-1080
▁ㅎㅗㄱ	-1081
ㄷㅓㄱ	-1082
ㄸㅐㅁㅜㄴㅇㅔ	-1083
ㅁㅜㅇㅝㄴ	-1084
ㅈㅓㄴㅇㅔ	-1085
ㅎㅏㅁㅕㄴㅅㅓ	-1086
▁ㄴㅏㅇㅗㄴ	-1087
▁ㅊㅟ	-1088
▁ㅎㅔㄹ	-1089
▁ㅁㅏㄹㄱㅗ	-1090
ㅇㅏㅇㅛ	-1091
ㅌㅣ	-1092
ㄷㅗㄱ	-1093
▁ㅅㅏㄹㅏㅁㅇㅣ	-1094
▁ㅂㅕㅇ	-1095
ㅊㅣㄴㅡㄴ	-1096
▁ㅎㅗㄴ	-1097
▁ㄴㅐㄴ	-1098
~~~~	-1099
ㅈㅜㅇㅇㅔ	-1100
ㅎㅏㄱㅣ	-1101
▁ㅁㅗㄹㅡ	-1102
ㅈㅜㅅㅔㅇㅛ	-1103
ㅁㅗㄱ	-1104
▁ㄱㅣㄷㅐ	-1105
ㅐㅇㅑ	-1106
ㄱㅣㄱㅏ	-1107
▁ㄱㅟ	-1108
ㄲㅔ	-1109
▁ㅂㅗㅅ	-1110
ㄹㅠㄹ	-1111
ㅅㅗㄴ	-1112
▁ㅇㅕㅈㅏ	-1113
▁ㅇㅑㄱ	-1114
▁ㅅㅗㄹㅈㅣㄱㅎㅣ	-1115
▁ㅅㅣㄱ	-1116
ㅇㅣㅆㄷㅏ	-1117
▁ㅁㅔ	-1118
ㄱㅏㅇㅛ	-1119
▁ㄴㅓㅎ	-1120
ㅡㅁㅕㄴ	-1121
ㅊㅜㄱ	-1122
ㅊㅗ	-1123
▁ㅃㅏ	-1124
▁ㅁㅗㄷㅜ	-1125
▁ㅅㅣㄱㅏㄴ	-1126
▁ㅇㅓㅄㅇㅓ	-1127
ㅆㄴㅔ	-1128
ㅕㅂ	-1129
▁ㅇㅘㄴㅈㅓㄴ	-1130
ㄱㅏㅌㅇㅣ	-1131
ㅇㅜㄴ	-1132
▁ㄱㅔㅇㅣㅁ	-1133
......	-1134
▁ㄴㅜㅈㅣㄴㅅㅔ	-1135
ㅇㅏㅁㅓㄱ	-1136
▁ㄸㅗㅇ	-1137
▁ㅠㅠ	-1138
ㄷㅏㄴㅣ	-1139
▁ㄴㅏㄹㅏㄱㅏ	-1140
ㅇㅣㄴㄷㅡㄹ	-1141
▁ㅅㅔㅅㅏㅇ	-1142
▁ㅇㅣㅎㅐ	-1143
▁ㅁㅓㄴ	-1144
▁ㅇㅚㄱㅜㄱ	-1145
▁ㅇㅕㄱㅅㅣ	-1146
▁ㅊㅏㄹ	-1147
ㅏㄴㄷㅏ	-1148
ㄱㅓㄴㄷㅔ	-1149
▁ㅂㅏㅇㅅㅗㅇ	-1150
▁ㅈㅘ	-1151
▁ㅃㅗㅂ	-1152
ㅗㅎㅓㅁ	-1153
▁ㄸㅐㅁㅜㄴㅇㅔ	-1154
ㅏㅌㅡ	-1155
▁ㅉㅏㅇ	-1156
ㅕㄹㅏ	-1157
ㅆㅓ	-1158
▁ㄱㅓㅈㅣㅅ	-1159
ㅍㅕㅇ	-1160
ㅇㅡ	-1161
▁ㅇㅓㄹㄱㅜㄹ	-1162
ㅇㅏㄹㅏ	-1163
ㅂㅗㅅ	-1164
ㅎㅏㄴㅡㄴㄱㅔ	-1165
ㅊㅜ	-1166
ㄱㅣㅁ	-1167
▁ㅈㅜㄴ	-1168
ㅅㅣㄴㅡㄴ	-1169
▁ㅃㅐ	-1170
▁ㅎㅏㅂ	-1171
ㄷㅐㅇ	-1172
▁ㄱㅡㄹㅐㄷㅗ	-1173
ㄴㅡㅇ	-1174
▁ㅉㅣㄱ	-1175
ㅎㅏㄴㅣ	-1176
ㅆㅈㅣ	-1177
▁ㄴㅏㅇㅗ	-1178
▁ㄱㅜㄱㄱㅏ	-1179
▁ㄴㅔ	-1180
ㅂㅡㄹ	-1181
ㅂㅕㄹ	-1182
ㅂㅘㄹㅏ	-1183
▁ㅈㅓㅇㄷㅗ	-1184
ㄷㅗㅇㅅㅏㄴ	-1185
▁ㅅㅏㅇㅛㅇ	-1186
????	-1187
▁ㅍㅐㄴ	-1188
▁ㄱㅗㄹ	-1189
ㅅㅏㅇㅔ	-1190
ㅙㄴ	-1191
ㅣㄴㅔ	-1192
▁ㅈㅗㅅㅓㄴ	-1193
ㅌㅏㄹ	-1194
▁ㄷㅡㄹㅏㅁㅏ	-1195
▁"	-1196
▁ㅇㅏㄹㄱㅗ	-1197
▁ㄱㅜㄱㅎㅚ	-1198
▁ㄹㅣ	-1199
▁ㅇㅓㅂ	-1200
ㄱㅓㄴㅑ	-1201
ㅎㅏㄴㄱㅓ	-1202
ㅎㅏㄴㅡㄴㄱㅓ	-1203
ㅋㅡ	-1204
▁ㅇㅏㄴㅣㄴㄱㅏ	-1205
▁ㅈㅣㅅ	-1206
ㄱㅣㅇㅔ	-1207
ㄱㅏㅅㅓ	-1208
▁ㅊㅏㅈ	-1209
ㄴㅏㄹㅏ	-1210
ㅈㅓㅇㅂㅜ	-1211
▁ㅌㅏㄹ	-1212
ㅂㄴㅣㄲㅏ	-1213
ㄲㅓ	-1214
▁ㅁㅏㄹㅇㅣ	-1215
▁8	-1216
▁ㄱㅝㄴ	-1217
▁ㄱㅓㄱ	-1218
▁ㅇㅗㄴㅡㄹ	-1219
ㅇㅣㄴㅣ	-1220
ㅅㅏㄱㅏ	-1221
ㄱㅓㅅㅇㅣ	-1222
▁ㅅㅏㅎㅚ	-1223
▁ㄴㅣㄷㅡㄹ	-1224
▁ㄴㅜㅈㅣㄴㅈㅔ	-1225
ㅅㅜㄱ	-1226
▁ㄴㅓ	-1227
▁ㅅㅡㅌ	-1228
▁ㅇㅏㅈㅣㄱㄷㅗ	-1229
ㅊㅚ	-1230
ㄱㅗㅅ	-1231
▁ㄱㅜㅅㅗㄱ	-1232
ㅐㅇㅛㅇ	-1233
ㅈㅓㅂ	-1234
▁ㅅㅜㅈㅜㄴ	-1235
▁ㅂㅜㄱㅎㅏㄴ	-1236
ㅋㅣ	-1237
▁ㅊㅚㄱㅗ	-1238
ㅅㅐㅇㄱㅏㄱ	-1239
▁ㅁㅓㅅ	-1240
▁ㅅㅔㄱㅖ	-1241
▁ㅋㅋㅋㅋㅋㅋㅋㅋ	-1242
▁ㅆㅏ	-1243
ㅕㅅㅓ	-1244
ㅎㅏㄴㄷㅏㄱㅗ	-1245
ㄷㅙㅈㅣ	-1246
▁ㅈㅓㅁ	-1247
▁ㄱㅡㄱㅔ	-1248
ㅋㅏ	-1249
ㅊㅔㄱㅏ	-1250
ㄸㅏㅇ	-1251
ㅈㅗㄴ	-1252
▁ㅇㅓㄱ	-1253
ㅍㅡ	-1254
ㄴㅡㄴㅈㅣ	-1255
▁ㅇㅓㅄㄱㅗ	-1256
ㅂㅜㅇ	-1257
ㄲㅡㄹ	-1258
ㅇㅡㄹㄸㅐ	-1259
▁ㅂㅏㄹㅗ	-1260
▁ㅉㅉ	-1261
▁ㅈㅓㄹㄷㅐ	-1262
▁ㄷㅏㅇㅡㅁ	-1263
ㄷㅏㅂ	-1264
▁ㅁㅓㄱㄱㅗ	-1265
ㄱㅏㄴㅡㄴ	-1266
ㅊㅏㄴ	-1267
ㅎㅐㅆㄴㅡㄴㄷㅔ	-1268
ㄷㅣㅇ	-1269
ㅊㅓㄱ	-1270
ㅎㅏㅈㅏ	-1271
▁ㅅㅜㄴㅅㅣㄹ	-1272
▁ㅉㅏ	-1273
▁ㄱㅓㅇ	-1274
ㅉㅗㄱ	-1275
▁ㅇㅏㅍㅇㅡㄹㅗ	-1276
ㅁㅓㄱㄱㅗ	-1277
▁ㄱㅏㅌㅇㅣ	-1278
ㅌㅏㄱ	-1279
▁ㅇㅓㄷ	-1280
▁ㅎㅕㄴㅅㅣㄹ	-1281
ㅓㄴㅔ	-1282
ㅌㅜ	-1283
▁ㅅㅣㅈㅏㄱ	-1284
ㄲㅗㄹ	-1285
ㅝㅅㅓ	-1286
▁ㄱㅡㄹㅐㅅㅓ	-1287
▁ㄱㅗㅇㅁㅜㅇㅝㄴ	-1288
▁ㄴㅗㅍ	-1289
▁ㅌㅐ	-1290
▁ㅇㅏㅇㅣㅍㅗㄴ	-1291
ㄷㅚㅁㅕㄴ	-1292
▁ㅊㅗ	-1293
▁ㅎㅕㅇ	-1294
000	-1295
▁ㄱㅜㄹ	-1296
▁ㅅㅏㄹㅏㅇ	-1297
▁ㅇㅣㅆㄴㅡㄴㄷㅔ	-1298
▁ㅇㅜㄹㅣㄴㅏㄹ	-1299
ㅂㅏㄲㅇㅔ	-1300
ㅆㅇㅡㅁㅕㄴ	-1301
ㅅㅜㄱㅏ	-1302
ㅓㄴㅡㄴ	-1303
▁ㄸㅏㄱ	-1304
▁ㅅㅡ	-1305
▁9	-1306
▁ㅍㅏ	-1307
▁ㅂㅜㄷㅗㅇㅅㅏㄴ	-1308
▁ㅅㅗㅂㅣ	-1309
▁ㅊㅐㄱㅇㅣㅁ	-1310
ㅣㅂ	-1311
ㄱㅘㅇ	-1312
▁ㅇㅕㅇㅎㅘ	-1313
▁ㅎㅓㄴ	-1314
ㅌㅡㄴ	-1315
ㅌㅡㄱ	-1316
ㄴㅡㄴㄱㅔ	-1317
ㄱㅣㄹㅡㄹ	-1318
ㅇㅣㅌㅣㅇ	-1319
ㅊㅣㄱㅗ	-1320
▁ㅁㅣㅊㅣㄴ	-1321
ㅇㅚ	-1322
ㄹㅣㅁ	-1323
▁ㅎㅐㄹㅏ	-1324
▁ㄷㅐㄷㅏㄴ	-1325
ㅎㅏㄴㄷㅔ	-1326
▁ㅂㅣㄹ	-1327
▁ㅍㅛ	-1328
▁ㅁㅜㄷㅗ	-1329
ㅈㅣㅁㅏㄹㅏ	-1330
▁ㄱㅓㄱㅈㅓㅇ	-1331
▁ㄱㅜㅇ	-1332
▁ㅁㅐㄴ	-1333
▁ㅇㅏㅇ	-1334
ㅈㅣㅁㅏㄹㄱㅗ	-1335
▁ㅇㅟㅎㅐ	-1336
ㅇㅠㄹ	-1337
ㅊㅡㅇ	-1338
ㅅㅏㄹㅡㄹ	-1339
▁ㅇㅓㄸㅓㄴ	-1340
▁ㅈㅣㅇ	-1341
ㄹㅔ	-1342
ㅈㅣㄱㅏ	-1343
ㅊㅐ	-1344
ㄱㅕㄴ	-1345
▁ㄴㅏㄱ	-1346
▁ㄱㅙㄴ	-1347
▁ㄷㅓㅇ	-1348
▁ㅆㅡㄴㅡㄴ	-1349
▁30	-1350
▁ㅇㅣㄱㅓ	-1351
ㅇㅓㄹ	-1352
ㅜㄱㅣ	-1353
ㅅㅓㅇㅇㅣ	-1354
▁ㅎㅐㅇㅚ	-1355
▁ㅊㅣ	-1356
▁ㅈㅓㅇㄱㅝㄴ	-1357
▁ㄸㅏㅇ	-1358
▁ㅍㅗㄴ	-1359
ㄷㅓㄹ	-1360
▁ㄱㅏㅈ	-1361
ㅆㅏㅇ	-1362
▁ㅇㅣㅆㅇㅡㄹ	-1363
▁ㅅㅗㅅ	-1364
▁ㄱㅓㅂ	-1365
▁ㅌㅓ	-1366
▁ㅂㅏㄺ	-1367
▁ㅇㅝㄹㄱㅡㅂ	-1368
▁ㅂㅓㅁ	-1369
ㅊㅣㅁ	-1370
ㅈㅣㄴㅉㅏ	-1371
ㄱㅣㄷㅗ	-1372
ㅉㅉ	-1373
▁ㅎㅠ	-1374
ㄲㅐ	-1375
▁ㅈㅣㅋ	-1376
ㅅㅣㄱㅗ	-1377
▁ㅅㅏㄹㅏㅁㄷㅡㄹㅇㅣ	-1378
ㅊㅏㅍㅣ	-1379
▁ㄱㅗㄱ	-1380
▁ㅂㅏㅂ	-1381
▁ㅅㅗㄹㅣ	-1382
ㅡㄱㅔ	-1383
▁ㄴㅗㅌㅡ	-1384
▁ㅊㅐㅇ	-1385
ㅁㅏㅈ	-1386
▁ㅈㅓㄴㅂㅜ	-1387
ㅁㅏㄴㅋㅡㅁ	-1388
ㅐㄴㅜㄹㅣ	-1389
ㄷㅚㄱㅗ	-1390
▁ㅆㅓㄱ	-1391
ㅗㅅㅂㅜㄹ	-1392
ㅎㅓㅁ	-1393
▁ㅂㅗㅇㅕ	-1394
▁ㅂㅐㅇ	-1395
ㅎㅑㅇ	-1396
▁ㅇㅏㄴㅣㅁ	-1397
ㄹㅗㅇ	-1398
▁ㅍㅣㅎㅐ	-1399
ㄱㅓㄴㅈㅣ	-1400
ㅎㅛ	-1401
▁ㅎㅗㅇ	-1402
▁ㄴㅗㄹㅐ	-1403
▁ㅁㅗㅇ	-1404
ㅆㅡㄹ	-1405
▁ㄷㅏㅇㅅㅣㄴ	-1406
ㄷㅐㅌㅗㅇㄹㅕㅇ	-1407
ㅂㄱㅔ	-1408
▁ㅅㅓ	-1409
▁ㄱㅏㅈㅏㅇ	-1410
▁ㄱㅏㅈㅓㅇ	-1411
▁ㅁㅏㅇㅡㅁ	-1412
▁ㅊㅏㄱ	-1413
▁ㅋㅏ	-1414
▁ㅁㅏㅅ	-1415
▁ㄷㅔ	-1416
▁ㅁㅏㄴㄷㅡㄹㅇㅓ	-1417
ㅓㅂㅓㄹ	-1418
▁ㄹㅗ	-1419
▁ㅅㅣㅊㅓㅇ	-1420
ㅁㅓㄴ	-1421
▁ㅈㅗㅅㅏ	-1422
ㄱㅓㄴㄱㅏ	-1423
▁ㄱㅏㅂ	-1424
▁ㄱㅓㅁㅊㅏㄹ	-1425
........	-1426
▁ㅈㅏㅁ	-1427
ㄷㅐㅊㅔ	-1428
ㅡㄹㅗ	-1429
▁ㅇㅣㄹㅂㅏㄴ	-1430
▁ㅇㅏㄴㅣㄷㅏ	-1431
ㄱㅓㅅㄷㅡㄹ	-1432
ㅡㄴㄷㅏ	-1433
ㅂㅜㄴㅡㄴ	-1434
▁ㄱㅐㄹ	-1435
ㄴㅡㄴㄱㅓ	-1436
▁ㅇㅐㅍㅡㄹ	-1437
ㅇㅣㄷㅡㄹ	-1438
ㅇㅣㅅ	-1439
▁ㅁㅏㅁ	-1440
ㅎㅏㄹㅅㅜ	-1441
ㄸㅐㅁ	-1442
▁ㄴㅚ	-1443
▁ㅎㅏㄱㅔ	-1444
▁ㄱㅗㅁ	-1445
▁ㄲㅏ	-1446
▁ㅎㅏㄹㅜ	-1447
ㅅㅣㅂ	-1448
▁ㅇㅏㄴㅡㄴ	-1449
ㄱㅡㄴㅔ	-1450
ㅜㄴㅏ	-1451
ㄲㅜ	-1452
ㅅㅜㅇ	-1453
▁ㅎㅏㄴㅡㄴㄷㅔ	-1454
ㄷㅐㅎㅏㄴ	-1455
ㅈㅗㄱㅓㄴ	-1456
▁ㄱㅏㄴㅡㅇ	-1457
ㅇㅕㅆ	-1458
ㅅㅡㄹㅓㅂ	-1459
ㅇㅠㄱ	-1460
▁ㅈㅔㅇㅣㄹ	-1461
ㅓㅄ	-1462
▁ㄷㅣ	-1463
▁ㅁㅓㄹ	-1464
▁ㄲㅗ	-1465
▁ㅇㅣㅆㅇㅓㅆ	-1466
▁ㅅㅏㄱㅗ	-1467
ㄷㅏㄱ	-1468
▁ㅅㅜㄹ	-1469
▁ㄷㅗㄴㅇㅣ	-1470
▁ㅇㅛㅇ	-1471
ㅊㅏㄶ	-1472
▁ㄱㅜㄱㄴㅐ	-1473
▁ㅊㅗㅇ	-1474
▁ㅂㅓ	-1475
▁ㅇㅡㅇㅇㅝㄴ	-1476
▁ㄴㅏㄷㅗ	-1477
▁ㅃㅓㄴ	-1478
ㅏㄴㅡㄴㄷㅔ	-1479
ㅏㅁㅏㄴ	-1480
ㅊㅏㄱ	-1481
▁ㅇㅣㄴㅈㅓㅇ	-1482
ㅡㅇㄹㅕㄱ	-1483
ㅎㅏㅅㅔㅇㅛ	-1484
▁ㅈㅗㄱㅡㅁ	-1485
ㅇㅏㄴㅣ	-1486
▁ㅍㅖㅈㅣ	-1487
ㅊㅣㄹ	-1488
ㅐㅅㅓ	-1489
▁ㄱㅏㅌㄷㅏ	-1490
▁ㅎㅢ	-1491
▁ㅡㅡ	-1492
▁ㅈㅜㅇㅇㅛ	-1493
▁ㅈㅣㅇㅝㄴ	-1494
▁ㄴㅗㄴ	-1495
ㅇㅢㅇㅝㄴ	-1496
▁ㅂㅐㅇㅜ	-1497
▁ㅇㅕㄴㅇㅖㅇㅣㄴ	-1498
ㄱㅏㄱㅗ	-1499
▁ㄱㅣㅇㅓㄱ	-1500
▁ㅅㅜㅇㅣㅂ	-1501
ㅊㅜㄴ	-1502
ㅎㅏㅇㅕ	-1503
▁ㅎㅗ	-1504
▁ㄱㅣㄷㅏㄹ	-1505
ㅇㅓㅅ	-1506
ㄱㅓㄴㅏ	-1507
ㅏㄹㅏㄱㅗ	-1508
▁ㅇㅓㅊㅏㅍㅣ	-1509
▁ㄱㅐㅇㅣㄴ	-1510
ㅉㅐ	-1511
ㅎㅐㅇㅛ	-1512
▁ㅈㅓㅇㅊㅐㄱ	-1513
ㅊㅟ	-1514
ㅜㅂ	-1515
ㅂㅏㅂ	-1516
▁ㅇㅏㅂ	-1517
ㄷㅗㄹㅗㄱ	-1518
ㄱㅓㅅㅇㅣㄷㅏ	-1519
ㅏㅈㅣ	-1520
ㅆㄴㅑ	-1521
ㅅㅣㅁㅎㅣ	-1522
▁ㅋㅋㅋㅋㅋ	-1523
▁ㅇㅣㅈㅔㄴ	-1524
ㄴㅏㅇㅛ	-1525
ㅍㅡㄹㅗ	-1526
▁ㅎㅐㄷㅗ	-1527
▁ㅁㅝㄱㅏ	-1528
▁ㅆㅏㅇ	-1529
ㅈㅐㅁ	-1530
▁?	-1531
▁ㅅㅏㄴㅇㅓㅂ	-1532
▁ㄱㅡㅂ	-1533
▁ㅁㅗㄹㅡㄴㅡㄴ	-1534
ㅇㅘㄷㅐ	-1535
ㅂㅜㅂㅜㄴ	-1536
▁ㄱㅘㄴㅅㅣㅁ	-1537
ㄹㅣㅅ	-1538
▁ㄱㅜㄱㅁㅣㄴㅇㅣ	-1539
ㄷㅐㄱㅏㄹ	-1540
▁ㄴㅗㅎ	-1541
▁ㄱㅑㅇ	-1542
ㅊㅓ	-1543
▁ㅁㅓㅇ	-1544
ㄷㅚㅁ	-1545
▁ㅎㅔㄹㅈㅗㅅㅓㄴ	-1546
ㄷㅡㄹㅁㅏㄴ	-1547
▁ㅇㅓㅄㅇㅐ	-1548
▁ㅍㅜㄹ	-1549
▁ㅎㅏㅂㄴㅣㄷㅏ	-1550
▁ㅅㅓㅇㅜㄹ	-1551
ㄱㅣㄱㅗ	-1552
▁ㅉㅗㄱ	-1553
ㅇㅣㄹㅓㄴ	-1554
▁ㄷㅡㅅ	-1555
▁ㄷㅏㄷㅡㄹ	-1556
▁ㅈㅐㅂㅓㄹ	-1557
ㄷㅡㄹㅇㅔㄱㅔ	-1558
▁ㅂㅜㅁ	-1559
▁ㅇㅗㄹㄹㅕ	-1560
▁ㅎㅘㅇ	-1561
ㅈㅏㄷㅡㄹㅇㅣ	-1562
▁ㄱㅏㅈㅣㄱㅗ	-1563
ㅂㅗㄴㅡㄴ	-1564
▁~	-1565
▁ㅈㅗㅎㄱㅔㅆㄷㅏ	-1566
ㅐㄱㅗ	-1567
▁ㅂㅗㄴㅡㄴ	-1568
▁ㅇㅏㄴㅣㅁㅕㄴ	-1569
ㅈㅏㅇㅇㅣ	-1570
ㅈㅐㅇㅛㅇ	-1571
ㅍㅣㄹ	-1572
▁'	-1573
▁ㅎㅏㄴㅅㅣㅁ	-1574
ㅍㅖ	-1575
ㄷㅜㄱ	-1576
▁ㄷㅚㄴㄷㅏ	-1577
10	-1578
▁ㅈㅣㅂㄱㅏㅄ	-1579
▁ㅂㅗㅎㅓㅁ	-1580
▁ㅇㅏㄴㅣㄹ	-1581
ㅂㅗㄴㅣ	-1582
ㅂㅘㅇㅑ	-1583
▁ㅂㅣㅈ	-1584
▁ㄴㅏㄴㅡㄴ	-1585
ㅏㅇㅔㅅㅓ	-1586
ㄷㅜㄹ	-1587
▁ㅇㅓㅇ	-1588
▁ㅇㅏㅁㅜ	-1589
▁ㄷㅡㄷ	-1590
ㅅㅔㄱㅡㅁ	-1591
▁ㄱㅣㅅㅜㄹ	-1592
ㅜㅇㅛ	-1593
ㅅㄷㅏ	-1594
ㅎㅏㄹㄸㅐ	-1595
▁ㄴㅠ	-1596
▁ㅁㅗㅁ	-1597
ㅈㅣㄴㄷㅏ	-1598
▁ㅈㅏㅇㄴㅏㄴ	-1599
ㅅㅣㅍㄷㅏ	-1600
▁ㄱㅡㄱ	-1601
▁ㅇㅔㄹ	-1602
ㄱㅗㄱ	-1603
ㅇㅏㅆㄷㅏ	-1604
ㅅㅡㅁ	-1605
ㅎㅏㄴㄱㅔ	-1606
▁ㅈㅏㅅㅣㄴ	-1607
▁ㅅㅏㅇㅎㅘㅇ	-1608
▁ㅈㅐㅅㅏㄴ	-1609
▁ㅎㅐㅅㅓ	-1610
▁ㄴㅏㅇㅗㄴㅡㄴ	-1611
▁ㄱㅓㅈㅣㅅㅁㅏㄹ	-1612
ㅣㄴㅏ	-1613
▁ㄱㅜㄱㅁㅣㄴㅇㅡㄹ	-1614
ㅅㅣㄱㅣㄹ	-1615
▁ㄱㅐㄷㅙㅈㅣ	-1616
▁ㅊㅓㅇㅡㅁ	-1617
▁ㅊㅗㅅㅂㅜㄹ	-1618
ㅈㅏㄹㅡㄹ	-1619
ㅍㅓ	-1620
▁ㅎㅘㄹ	-1621
▁ㅇㅏㄱㅍㅡㄹ	-1622
ㅌㅚ	-1623
▁ㄷㅗㄴㅇㅡㄹ	-1624
ㄲㅏㅇㅛ	-1625
ㅈㅗㄹ	-1626
▁ㅈㅗㅅ	-1627
▁ㄱㅏㅌㅇㅡㄴㄷㅔ	-1628
ㅂㅡㄹㄹㅣㅅ	-1629
▁ㄱㅡㄱㅓㄹ	-1630
▁ㅇㅓㅄㅇㅣ	-1631
▁ㄷㅐㅂㅏㄱ	-1632
▁ㅁㅜㅈㅗㄱㅓㄴ	-1633
ㅝㅇㅑ	-1634
▁ㅇㅏㅁㅜㄹㅣ	-1635
ㅅㅜㄷㅗ	-1636
▁ㅅㅡㅇ	-1637
ㅎㅐㅇㅑㅈㅣ	-1638
ㅂㅏㄷㄱㅗ	-1639
▁ㄱㅓㅇㅢ	-1640
▁ㅋㅓ	-1641
ㄱㅏㅌㄷㅏ	-1642
ㄴㅗㅁㄷㅡㄹ	-1643
ㄱㅔㅆㅈㅣㅁㅏㄴ	-1644
ㅏㄴㅣ	-1645
ㄹㅏㄴㅡㄴ	-1646
ㅇㅔㅅㅓㄴ	-1647
ㅕㄴㅡㄴ	-1648
▁ㄱㅜㄱㅁㅣㄴㄷㅡㄹㅇㅣ	-1649
▁ㅈㅐㅁㅣㅆ	-1650
▁ㅈㅗㄹ	-1651
ㄷㅓㄴㄱㅏ	-1652
▁ㄴㅜㄱㅜ	-1653
ㅐㄷㅗ	-1654
ㄱㅟ	-1655
▁ㅇㅣㄴㅅㅐㅇ	-1656
▁ㅂㅓㅁㅈㅚ	-1657
▁ㅎㅐㅇㅂㅗㄱ	-1658
▁ㄱㅡㄹㅓ	-1659
ㅍㅣㅇ	-1660
ㅇㅔㅅㅓㄴㅡㄴ	-1661
ㅎㅗㄱ	-1662
▁ㅆㅡㄴ	-1663
ㅎㅘㄱ	-1664
ㅆㅡ	-1665
▁ㅈㅓㄴㅅㅔ	-1666
▁ㅎㅐㄱㅕㄹ	-1667
ㅗㅅㄷㅔ	-1668
ㅇㅛㄱㅡㅁ	-1669
▁ㄷㅗㄷㅐㅊㅔ	-1670
ㅇㅛㄱ	-1671
ㄷㅡㄴㅡㄴ	-1672
ㅌㅓㄹ	-1673
▁ㅂㅣㅇ	-1674
ㅓㅇㅑ	-1675
▁ㅊㅓㅇㅇㅘㄷㅐ	-1676
▁ㅈㅏㄴ	-1677
ㄱㅔㅆㄴㅑ	-1678
ㄸㅏㄴ	-1679
ㅇㅣㅇㅓㅆ	-1680
▁ㅎㅏㅇㅅㅏㅇ	-1681
ㅋㅔㅅ	-1682
ㄹㅣㅁㅕㄴ	-1683
▁ㅎㅘㅇㅣㅌㅣㅇ	-1684
ㅇㅓㅄㄱㅗ	-1685
▁ㅆㅓ	-1686
ㅇㅡㅁㅕㄴㅅㅓ	-1687
ㅉㅣㄱ	-1688
ㅅㅡㅌㅡ	-1689
▁ㄷㅐㅊㅜㄹ	-1690
ㅋㅋㅋㅋㅋㅋㅋㅋㅋㅋㅋㅋㅋㅋㅋㅋ	-1691
▁ㅂㅏㄷㅇㅏ	-1692
ㅎㅏㅁㅕ	-1693
ㅇㅏㅍ	-1694
ㄷㅡㄹㅇㅓ	-1695
▁ㅇㅕㄹㅅㅣㅁㅎㅣ	-1696
▁ㄴㅏㅇㅗㄹ	-1697
ㅘㅆ	-1698
ㅇㅕㄴㄱㅡㅁ	-1699
ㅂㅐㅇ	-1700
ㅉㅏㄱ	-1701
▁ㅈㅓㅂ	-1702
▁s	-1703
▁ㅇㅣㄴㅌ	-1704
▁ㄲㅡㄹ	-1705
▁ㄴㅏㅈ	-1706
ㅇㅙ	-1707
▁ㅈㅗㅈㅏㄱ	-1708
ㄲㅣㄷㅡㄹ	-1709
ㅏㄹㅗ	-1710
ㄱㅏㅂ	-1711
ㄹㅓㄱ	-1712
▁ㅂㅏㄴㄷㅐ	-1713
▁ㅊㅣㅁ	-1714
ㄱㅓㄹㅣ	-1715
ㅓㅁㅓㄱ	-1716
▁ㅁㅓㄹㅣ	-1717
▁ㅈㅏㅅㅣㄱ	-1718
▁ㅇㅟㅎㅏㄴ	-1719
▁ㄴㅏㅁㅈㅏ	-1720
ㅁㅗㄴ	-1721
ㅅㅜㅇㅣㅆ	-1722
ㅎㅕㄱ	-1723
▁ㅂㅜㅌ	-1724
▁ㄸㅏㄹㅏ	-1725
▁ㅇㅣㅆㄱㅗ	-1726
▁ㅇㅐㄷㅡㄹ	-1727
ㅏㅇㅑ	-1728
▁ㄴㅡㅇㄹㅕㄱ	-1729
▁ㅇㅒㄱㅣ	-1730
ㅅㅕㅆ	-1731
▁ㄱㅓㅅㅇㅣㄷㅏ	-1732
ㅃㅓㄴ	-1733
▁ㅎㅘㄱㅅㅣㄹ	-1734
20	-1735
ㅅㅜㄹㅗㄱ	-1736
ㄴㅏㄱ	-1737
▁50	-1738
▁ㅎㅕㄴㄷㅐ	-1739
▁ㅇㅣㅈㅐㅇㅛㅇ	-1740
ㄲㅏㅇ	-1741
ㅎㅏㅈㅣㅁㅏㄴ	-1742
▁ㅂㅜㅅ	-1743
▁ㄴㅏㄹㅏㄹㅡㄹ	-1744
ㅇㅣㄹㅇㅣ	-1745
▁ㄱㅜㄴㄷㅐ	-1746
▁ㅈㅟ	-1747
▁ㄷㅏㅁㅂㅐ	-1748
▁ㅋㅐ	-1749
ㅇㅣㄴㅇㅡㄴ	-1750
▁ㄱㅣㅂㅗㄴ	-1751
▁ㅃㅜㄴ	-1752
▁ㅈㅣㄴㅅㅣㅁ	-1753
ㄷㅓㅇ	-1754
ㅑㄱ	-1755
ㅣㄹㅕ	-1756
ㅈㅜㅁㅕㄴ	-1757
ㅇㅏㅆㄴㅡㄴㄷㅔ	-1758
▁ㅈㅓㅇㅂㅜㄱㅏ	-1759
ㅃㅏㅇ	-1760
▁ㅁㅣㄴㅈㅜ	-1761
ㄷㅜㅇ	-1762
ㄷㅓㅁㅏㄴ	-1763
ㅎㅣㅁ	-1764
▁ㅇㅏㄴㄷㅚㄴㅡㄴ	-1765
▁-	-1766
▁ㄴㅏㅃㅡㄴ	-1767
ㄱㅕㅇㅈㅔ	-1768
▁ㅈㅓㄴㄱㅣㅅㅔ	-1769
ㅇㅣㅈㅔ	-1770
ㅊㅗㅇ	-1771
ㄸㅐㄴ	-1772
ㅣㄲㅏㄴ	-1773
▁ㄴㅕㄴ	-1774
ㅈㅝㅇㅑ	-1775
ㄱㅏㄱㅏ	-1776
▁ㅎㅚㅅㅏ	-1777
▁ㅁㅗㅅㅡㅂ	-1778
ㄱㅕㅆ	-1779
▁ㅂㅡㄹㄹ	-1780
ㅈㅗㅎㅇㅡㄴ	-1781
▁ㅇㅏㄶㄴㅡㄴ	-1782
ㄷㅏㄴㅡㄴㄷㅔ	-1783
▁ㅂㅔ	-1784
ㅜㅎㅕㄴ	-1785
ㅇㅏㄴㅣㄴ	-1786
▁ㅌㅐㅇ	-1787
▁ㄱㅠ	-1788
ㅇㅏㄷㅗ	-1789
▁ㅂㅓㄴ	-1790
▁ㅅㅏㄹㅏㅁㅇㅡㄴ	-1791
ㅏㅇㅢ	-1792
ㅈㅏㄹㅣ	-1793
▁ㄲㅐ	-1794
ㅅㅡㅂ	-1795
▁ㅈㅣㄷㅡㄹ	-1796
//	-1797
▁ㄱㅣㅎㅚ	-1798
ㅅㅣㄷㅐ	-1799
▁ㄴㅣㄷㅡㄹㅇㅣ	-1800
▁ㅅㅏㄱㅣ	-1801
ㅋㅋㅋㅋㅋ	-1802
ㄸㅗ	-1803
▁ㅁㅗㄹㄹㅏ	-1804
▁,	-1805
ㄹㅕㄱㅇㅣ	-1806
▁ㄷㅡㄹㅇㅓㅇ	-1807
ㅇㅓㅁ	-1808
▁ㅊㅏㄹㅏㄹㅣ	-1809
ㅍㅜㅇ	-1810
▁ㅈㅓㅇㅇㅠ	-1811
ㅆㅣㄴ	-1812
ㅈㅔㅍㅜㅁ	-1813
▁ㅇㅏㄴㅣㄴㅑ	-1814
▁ㅈㅓㄹㅓㅎㄱㅔ	-1815
ㅇㅜㄱ	-1816
▁ㄱㅡㄹㅣ	-1817
▁ㅇㅗㄹㅐ	-1818
ㅁㅝ	-1819
▁ㅇㅓㄴㅡ	-1820
▁ㄹㅗㅅㄷㅔ	-1821
ㅏㄷㅏ	-1822
▁ㅋㅣㅇ	-1823
ㅎㅏㄱㅔㅆ	-1824
▁ㅇㅏㅍㅏㅌㅡ	-1825
▁ㅅㅡㄹ	-1826
▁ㅊㅔ	-1827
ㅜㄹㅗ	-1828
▁ㅇㅝㄴㄹㅐ	-1829
ㄱㅡㄹㅓㄴ	-1830
ㄷㅡㄹㄱㅗ	-1831
ㅇㅔㅅㅓㄷㅗ	-1832
ㅂㅘㅆ	-1833
▁ㅎㅓㄹ	-1834
▁ㅎㅏㄴㅈㅓㄴ	-1835
ㄻㅇㅡㄴ	-1836
ㅂㅗㄱㅓㅁ	-1837
ㅓㅂㅜㄴ	-1838
▁ㅁㅓ	-1839
▁ㄱㅓㅅㅇㅣ	-1840
▁ㄷㅡㄹㅇㅓ	-1841
ㄱㅓㅅㅇㅡㄴ	-1842
▁ㅂㅣㄴ	-1843
ㅂㅜㅌ	-1844
ㄴㅗㄹ	-1845
▁ㅇㅓㅉㅣ	-1846
▁ㅎㅐㄴ	-1847
▁ㅎㅝㄹ	-1848
ㅝㄹㅏ	-1849
ㅈㅣㅁㅏ	-1850
ㄷㅟ	-1851
▁ㅁㅜㄴㅈㅔㄱㅏ	-1852
▁ㅎㅗㄴㅈㅏ	-1853
ㅃㅡ	-1854
▁ㅌㅐㄱ	-1855
▁ㅊㅓㅂㅓㄹ	-1856
▁ㅌㅚ	-1857
ㄸㅏㄱ	-1858
▁ㅇㅜㄹㅣㄱㅏ	-1859
▁ㄱㅓㅅㄷㅗ	-1860
▁ㅇㅓㄹㅁㅏ	-1861
▁ㅇㅣㅇㅛㅇ	-1862
▁ㅇㅡㄴㅎㅐㅇ	-1863
ㅈㅣㄱㅡㅁ	-1864
,,,	-1865
▁ㅅㅓㄴㄷㅗㅇ	-1866
▁ㅇㅣㄹㅡㅁ	-1867
▁ㅆㅏㄱ	-1868
ㅇㅡㄹㄷㅡㅅ	-1869
▁ㅈㅔㅍㅜㅁ	-1870
▁ㅈㅓㅇㅅㅏㅇ	-1871
▁ㅇㅏㅅㅟ	-1872
▁ㄱㅓㄷ	-1873
▁ㄱㅏㅈㅗㄱ	-1874
▁ㅇㅗㅎ	-1875
ㅈㅏㄴㅏ	-1876
▁ㅇㅣㅇㅑ	-1877
▁ㅂㅏㄲㅇㅔ	-1878
▁ㄷㅐㅊㅔ	-1879
▁ㅁㅣㅊ	-1880
▁ㅇㅗㄹㄹㅏ	-1881
▁(	-1882
▁ㅡ	-1883
▁ㄷㅏㅇㅇㅕㄴㅎㅣ	-1884
▁ㅅㅓㅇㄱㅘ	-1885
ㅎㅏㄴㄱㅓㄴ	-1886
ㅎㅏㄴㄷㅏㄴㅡㄴ	-1887
ㅎㅓㄴ	-1888
▁ㅅㅏㅁㅅㅓㅇㅇㅣ	-1889
▁ㅎㅕㅂ	-1890
ㅈㅣㄴㄱㅜㄱ	-1891
▁ㄱㅓㅈㅣ	-1892
▁ㅅㅣㅍㄷㅏ	-1893
▁ㄱㅜㄱㅁㅣㄴㅇㅢ	-1894
▁ㄱㅜㄱㅈㅓㅇ	-1895
▁ㅅㅐㄴㅜㄹㅣ	-1896
▁ㅊㅜㄱㅎㅏ	-1897
ㅠㄹ	-1898
▁ㅁㅣㄹㅐ	-1899
ㅈㅣㅁㅕㄴ	-1900
▁ㅎㅏㅈㅣㅁㅏㄴ	-1901
▁ㅅㅡㅁ	-1902
ㅋㅡㄹ	-1903
▁ㅋㅡㄹ	-1904
▁ㅅㅏㅇㅓㅂ	-1905
▁ㅅㅏㅈㅣㄴ	-1906
▁ㄷㅟㅅ	-1907
▁ㅁㅐㄴㄴㅏㄹ	-1908
▁ㄸㅐㅁㅜㄴ	-1909
ㅌㅏㅇ	-1910
▁ㄱㅜㅇㄱㅡㅁ	-1911
▁ㅇㅜㅇ	-1912
ㄱㅓㄱㅗ	-1913
ㅋㅗ	-1914
▁ㅊㅓ	-1915
▁ㄴㅡㄲㅣㅁ	-1916
ㅂㅣㄴ	-1917
ㄱㅗㅇㅎㅏㅇ	-1918
▁ㅂㅣㄱㅛ	-1919
ㅁㅕ	-1920
ㅇㅏㄱㅏ	-1921
ㅇㅓㅇㅑㅈㅣ	-1922
▁ㄱㅡㄷㅗㅇㅇㅏㄴ	-1923
▁ㅁㅕㄴ	-1924
ㅌㅓㄹㅣ	-1925
▁ㅂㅜㄹㅆㅏㅇ	-1926
▁ㅅㅜㅁ	-1927
▁ㅎㅓ	-1928
ㅓㅁㅕㄴ	-1929
▁ㄱㅓㄱㅣ	-1930
ㅆㅡㄴㅡㄴ	-1931
ㄱㅗㄹ	-1932
ㅣㄲㅜㄴ	-1933
ㄹㅣㄱㅏ	-1934
ㅅㅣㅈㅏㅇ	-1935
ㅗㄱㅡㄹ	-1936
▁ㄷㅐㅌㅗㅇㄹㅕㅇㅇㅣ	-1937
▁ㅅㅔㅇㅝㄹ	-1938
▁ㅅㅏㄱㅓㄴ	-1939
ㄱㅓㅅㅇㅡㄹ	-1940
▁ㅁㅜㄱ	-1941
▁ㅂㅜㅅㅏㄴ	-1942
▁ㄱㅏㄴㅡㄴ	-1943
ㄴㅗㅇ	-1944
▁ㅁㅓㄴㅈㅓ	-1945
ㅁㅏㄴㅎㅏㄴ	-1946
▁ㅇㅏㄶㄱㅗ	-1947
▁ㅂㅗㄴㅐ	-1948
ㅇㅡㄹㅌㅔㄴㄷㅔ	-1949
▁ㅇㅓㅈㅔ	-1950
▁ㅈㅣㄴㅅㅣㄹ	-1951
▁ㅂㅣㅆㅏㄴ	-1952
ㅈㅓㅇㄱㅝㄴ	-1953
ㅇㅐㄱ	-1954
▁ㄱㅜㄱㅎㅚㅇㅢㅇㅝㄴ	-1955
ㅅㅜㅈㅜㄴ	-1956
ㅍㅐㄴ	-1957
ㅅㅣㅀ	-1958
▁ㅈㅏㄲㅜ	-1959
ㄹㅣㄱ	-1960
▁ㅃㅏㄹㄱㅐㅇ	-1961
▁ㅅㅏㄷㅡ	-1962
ㅎㅏㄷㅓㄴ	-1963
▁ㄱㅙㄴㅊㅏㄶ	-1964
▁ㄸㅓ	-1965
▁ㅅㅓㅂ	-1966
ㄱㅓㅅㄷㅡㄹㅇㅣ	-1967
ㅈㅓㅇㅇㅣ	-1968
ㅈㅣㅁㅏㄱ	-1969
▁ㄷㅐㅂㅜㅂㅜㄴ	-1970
▁ㄴㅚㅁㅜㄹ	-1971
▁ㅆㅡㄱㅗ	-1972
ㅈㅔㄹㅗ	-1973
▁ㅅㅏㄹㅏㅁㄷㅡㄹㅇㅡㄴ	-1974
▁ㄱㅕㄹㄱㅘ	-1975
ㄱㅗㅇㅣㅆ	-1976
ㅋㅣㅇ	-1977
▁ㄴㅗㅁㅜㅎㅕㄴ	-1978
▁ㅈㅣㄱㅇㅝㄴ	-1979
▁ㄴㅏㅇㅣ	-1980
▁ㅂㅗㄱㅣ	-1981
▁ㅇㅓㅉㅓㄹ	-1982
▁S	-1983
ㄴㅏㄱㅔ	-1984
▁ㅍㅕㅇㅅㅐㅇ	-1985
ㅅㅏㅁㅗ	-1986
▁ㄱㅖㄹㅏㄴ	-1987
▁ㅅㅣㅈㅏㅇ	-1988
▁ㄷㅏㅇㅈㅏㅇ	-1989
ㄱㅓㄹㄹㅗ	-1990
▁ㄷㅐㅅㅏㅇ	-1991
▁ㅇㅏㄶㅇㅡㄴ	-1992
ㅆㅇㅡㅁ	-1993
ㅏㄷㅗ	-1994
ㅇㅗㄴ	-1995
ㅘㅅㅓ	-1996
▁ㅇㅛㄱㅡㅁ	-1997
ㅎㅏㄴㅡㄴㄱㅓㄴ	-1998
▁ㅇㅓㅄㅇㅡㅁ	-1999
ㅇㅏㅂ	-2000
▁ㅁㅗㄹㅡㄴ	-2001
▁ㄱㅣㅈㅏ	-2002
▁15	-2003
▁ㄱㅣㄴ	-2004
▁ㅇㅠㄴ	-2005
!!!!!	-2006
▁ㄴㅗㄷㅗㅇ	-2007
▁ㅇㅏㄴㄴㅏㅇ	-2008
ㄹㅣㅂ	-2009
ㅏㅇㅣ	-2010
ㅌㅐㅇ	-2011
▁ㅇㅣㅆㄴㅏ	-2012
ㄱㅏㅈ	-2013
ㅈㅓㅇㅇㅡㄴ	-2014
ㄹㅕㅅㅓ	-2015
ㄴㅏㄴㅡㄴ	-2016
▁ㅅㅜㅅㅏ	-2017
▁ㅂㅏㄲㅟ	-2018
ㅉㅏㅇ	-2019
▁ㅇㅣㅆㅇㅡㅁㅕㄴ	-2020
▁ㅇㅗㅅ	-2021
ㄷㅐㄴㅡㄴ	-2022
ㅅㅐㅇㅎㅘㄹ	-2023
ㄲㅣㄹㅣ	-2024
▁!	-2025
▁ㅁㅜㅅㅓㅇ	-2026
▁ㅈㅡㅇㄱㅓ	-2027
▁ㅂㅜㅇ	-2028
ㅋㅓ	-2029
ㄴㅏㅅㅓ	-2030
▁ㅇㅣㄹㄷㅏㄴ	-2031
▁ㅂㅏㄹㅈㅓㄴ	-2032
▁ㅂㅜㄹㅂㅓㅂ	-2033
▁ㅅㅓㅁㅣㄴㄷㅡㄹ	-2034
ㅣㄴㄷㅏ	-2035
▁ㄴㅓㅎㅢ	-2036
▁ㅂㅕㄴㅎ	-2037
ㅁㅓㄱㄴㅡㄴ	-2038
ㅅㅣㄱㅇㅡㄹㅗ	-2039
ㄱㅏㅈㅣㄱㅗ	-2040
ㅁㅂㅓ	-2041
▁ㄱㅡㄹㅓㄴㄷㅔ	-2042
▁ㅇㅣㅆㅇㅡㅁ	-2043
ㄱㅏㅁㅕㄴ	-2044
▁ㄸㅏ	-2045
▁ㅁㅓㅇㅊㅓㅇ	-2046
▁ㅌㅜㅈㅏ	-2047
ㄱㅡㄴㅑㅇ	-2048
ㅣㅈㅣ	-2049
ㅌㅏㅅ	-2050
ㅌㅗ	-2051
▁ㅊㅏㄴ	-2052
ㅕㅇㅈㅔ	-2053
ㅇㅣㄴㄱㅏㄴ	-2054
ㄱㅣㅅㅏ	-2055
ㅘㅇ	-2056
ㅇㅡㅇ	-2057
ㅁㅜㄴㅈㅔ	-2058
▁ㅉㅣ	-2059
ㅍㅜㄹ	-2060
ㅏㅅㅓ	-2061
ㄷㅗㅇㅏㄴ	-2062
▁ㅎㅣㅁㄷㅡㄴ	-2063
ㄴㅣㄲㅏ	-2064
ㅋㅗㄴ	-2065
▁....	-2066
▁ㄱㅗㅅㅐㅇ	-2067
▁ㅁㅝㄴㄱㅏ	-2068
▁ㄱㅏㅁㅅㅏ	-2069
▁ㅅㅗㄴㅎㅐ	-2070
▁ㅠ	-2071
ㅡㄹㅏ	-2072
ㅈㅡ	-2073
ㄲㅏㄴ	-2074
ㄱㅡㄱ	-2075
▁ㅎㅏㅁㅕㄴㅅㅓ	-2076
▁ㄷㅐㅇ	-2077
▁ㅂㅗㄴㅇㅣㄴ	-2078
ㄷㅐㄱㅏ	-2079
ㄱㅏㅌㅇㅡㄴㄷㅔ	-2080
▁ㅇㅣㅆㅅㅡㅂㄴㅣㄷㅏ	-2081
ㅇㅜㅅ	-2082
▁ㅁㅏㄴㄷㅡㄴㅡㄴ	-2083
▁ㄱㅝㄴㄹㅕㄱ	-2084
▁ㅎㅔ	-2085
ㅈㅣㄹㅡㄹ	-2086
▁ㅅㅣㄴㄱㅕㅇ	-2087
▁ㄱㅜㅁ	-2088
▁ㅇㅏㄹㅂㅏ	-2089
▁ㅇㅗㅎㅣㄹㅕ	-2090
ㅏㄶ	-2091
ㄱㅔㅅ	-2092
▁ㅇㅣㅇㅠㄱㅏ	-2093
▁ㄴㅣㄱㅏ	-2094
▁ㄴㅗㄹㅕㄱ	-2095
▁ㅍㅗㄱㅌㅏㄴ	-2096
▁ㄷㅡㄹㅇㅓㄱㅏ	-2097
ㅇㅣㄴㄷㅡㅅ	-2098
▁ㄱㅕㄹㅈㅓㅇ	-2099
ㄱㅠㄴ	-2100
▁ㅂㅡㄹㄹㅐㄱ	-2101
ㅎㅐㅆㄷㅓㄴ	-2102
▁ㅎㅓㅅ	-2103
▁ㅍㅗㅋㅔㅅ	-2104
ㅇㅡㄴㅣㄲㅏ	-2105
ㅕㅆㄷㅏ	-2106
▁ㅅㅣㅊㅓㅇㄹㅠㄹ	-2107
▁ㅇㅓㄹㅕㅇ	-2108
▁ㄲㅡ	-2109
▁ㄱㅡㄸㅐ	-2110
▁ㅂㅏㄷㄱㅗ	-2111
▁ㄸㅡㄷ	-2112
▁ㄴㅐㅇㅛㅇ	-2113
▁ㄱㅐㄱ	-2114
▁ㅆㅣ	-2115
▁ㅇㅓㅄㄴㅡㄴㄷㅔ	-2116
ㅂㅗㄴㅔ	-2117
▁ㅇㅏㄴㄷㅚㄴㄷㅏ	-2118
ㄷㅡㄹㅎㅏㄴㅌㅔ	-2119
--	-2120
ㅆㅡㄱㅗ	-2121
ㅉㅏㄹㅣ	-2122
▁ㄱㅐㅂㅏㄹ	-2123
ㅇㅣㅆㄱㅗ	-2124
ㅔㅅㅓ	-2125
ㅕㅁㅕㄴ	-2126
ㄴㅏㄴㄷㅏ	-2127
▁ㄱㅕㅇㅈㅐㅇ	-2128
ㅎㅐㅆㅇㅡㅁㅕㄴ	-2129
ㅇㅣㄴㄷㅏ	-2130
▁ㅌㅣ	-2131
▁ㅁㅏㅈㅣㅁㅏㄱ	-2132
▁ㄷㅓㄱ	-2133
▁ㅁㅗㅅㅎㅏㄴㅡㄴ	-2134
ㅅㅏㄱㅗ	-2135
▁ㅎㅕㄹ	-2136
ㄱㅡㄹㅣㄱㅗ	-2137
ㅈㅣㅁㅏㄹ	-2138
ㄷㅓㄹㅏㄷㅗ	-2139
ㅗㄹㅡㄹ	-2140
▁ㅂㅏㄱㅂㅗㄱㅓㅁ	-2141
▁ㅊㅣㅇ	-2142
ㅈㅏㄱㅣ	-2143
▁ㄱㅐㄴ	-2144
▁ㅊㅣㄹ	-2145
ㅠㅠㅠㅠ	-2146
▁ㅌㅓㄹ	-2147
ㅇㅘㄴ	-2148
ㅇㅣㄹㅏㅁㅕㄴ	-2149
ㅝㅆ	-2150
▁ㅈㅓㅇㅂㅜㄴㅡㄴ	-2151
ㅈㅕㅅㅓ	-2152
ㅣㄴㅑ	-2153
▁ㄴㅜㄱㅜㄴ	-2154
▁ㅂㅕㄹㄹㅗ	-2155
ㅓㅂㄷㅏ	-2156
ㅈㅓㅇㅅㅣㄴ	-2157
▁ㅇㅏㄴㅎㅏㄱㅗ	-2158
▁ㅂㅗㄷㅏ	-2159
▁ㅂㅏㄹㅏ	-2160
ㅂㅜㄴㄷㅡㄹ	-2161
▁ㅎㅏㄴㄱㅜㄱㅇㅡㄴ	-2162
ㅇㅡㄴㄷㅔ	-2163
▁ㅂㅏㄷㅇㅡㄹ	-2164
ㅁㅏㄴㅇㅔ	-2165
▁ㅍㅏㅇ	-2166
▁ㅅㅏㄹㅏ	-2167
ㅂㅕㄱ	-2168
▁ㅈㅗㅎㄱㅔㅆ	-2169
ㅈㅕㅇㅑ	-2170
ㅎㅐㅆㄷㅏㄱㅗ	-2171
▁ㄱㅜㄱㄱㅏㅇ	-2172
ㅈㅘ	-2173
▁ㅎㅟ	-2174
▁ㄷㅏㄱ	-2175
▁ㄱㅜㄱㅁㅣㄴㅇㅕㄴㄱㅡㅁ	-2176
ㄲㅗ	-2177
ㅂㅘㄷㅗ	-2178
ㅁㅏㅅ	-2179
ㅇㅓㅂㅊㅔ	-2180
▁ㅇㅣㅇㅣㄱ	-2181
▁ㅈㅜㄴㅡㄴ	-2182
▁200	-2183
ㅅㅡㅅ	-2184
ㄱㅓㅇㅏㄴ	-2185
ㅎㅏㄷㅏㄱㅗ	-2186
ㄷㄱㅗ	-2187
▁ㄷㅗㄷㅜㄱ	-2188
ㅘㄹㅏ	-2189
ㅉㅡㅁ	-2190
▁ㅇㅣㄹㅇㅓㄴ	-2191
▁ㄴㅐㄹㅕ	-2192
ㅎㅏㅅㅣ	-2193
ㄱㅣㄹㅗ	-2194
▁ㅋㅋㅋㅋㅋㅋ	-2195
ㅈㅓㄱㅇㅣ	-2196
▁ㅎㅐㅆㄴㅡㄴㄷㅔ	-2197
▁ㅈㅓㄴㅎㅕ	-2198
▁ㅇㅘㅇ	-2199
ㄹㅗㅇㅜㄴ	-2200
▁ㅁㅗㅅㅎㅏㄴ	-2201
ㅈㅓㅇㅁㅏㄹ	-2202
ㅗㄱㅡㄹㅐㅁ	-2203
▁ㄴㅣㄴㅔ	-2204
ㅍㅔ	-2205
ㄷㅡㅁ	-2206
▁ㄱㅗㅇㄱㅐ	-2207
▁ㅅㅏㅎㅕㅇ	-2208
▁ㄱㅡㄹㅓㄹ	-2209
.......	-2210
▁ㅇㅏㄴㅌㅏ	-2211
▁A	-2212
▁ㄷㅡㄹㅏㅁ	-2213
ㄷㅗㄱㅏ	-2214
ㄷㅡㅅㅣ	-2215
ㅓㄴㅔㅅ	-2216
▁ㄱㅡㅇ	-2217
ㅂㅏㅇㅅㅗㅇ	-2218
ㅇㅗㄱ	-2219
▁ㅈㅗㄴㅈㅐ	-2220
▁ㅁㅜㄹㄹㅗㄴ	-2221
▁ㅇㅣㅅ	-2222
▁ㅈㅜㅁ	-2223
ㄱㅏㄱㅕㄱ	-2224
▁ㅇㅣㅆㅈㅣ	-2225
ㄹㅣㄴㄷㅏ	-2226
▁ㄱㅘㄴㄹㅕㄴ	-2227
ㅋㅣㄴ	-2228
ㅕㅇㅛ	-2229
▁ㄱㅘㅇㄱㅗ	-2230
▁ㅇㅣㅆㅇㅓ	-2231
ㅎㅜㄴ	-2232
▁ㄱㅡㄱㅓ	-2233
▁ㄱㅓㅅㅇㅡㄴ	-2234
ㄹㅏㄹ	-2235
▁ㄴㅏㄴㄹㅣ	-2236
▁ㄹㅔ	-2237
ㅈㅓㅇㅎㅢ	-2238
ㅇㅣㄴㅈㅜㄹ	-2239
ㄴㅕ	-2240
ㄴㅗㅎㄱㅗ	-2241
▁ㅇㅑㅇㅅㅣㅁ	-2242
▁ㅇㅏㄴㅂㅗ	-2243
ht	-2244
ㅈㅜㅇㄱㅜㄱ	-2245
▁ㅇㅖㄴㅡㅇ	-2246
ㅈㅓㅇㅎㅏㄴ	-2247
▁ㅈㅏㅊㅔㄱㅏ	-2248
ㄷㅏㄴㅡㄴㄱㅔ	-2249
▁ㄴㅏㅈㅜㅇㅇㅔ	-2250
▁ㅅㅏㄱㅘ	-2251
ㄲㅡㅌ	-2252
ㄲㅓㄹ	-2253
ㅁㅕㅇㅇㅣ	-2254
▁ㅎㅖ	-2255
▁ㅅㅐㅇㄱㅏㄱㅇㅣ	-2256
ㅎㅐㅅ	-2257
▁ㅈㅓㄱㅇㅛㅇ	-2258
▁ㅁㅓㄱㅇㅡㄹ	-2259
▁ㄱㅓㄴㄱㅏㅇ	-2260
ㅂㅔ	-2261
▁ㄱㅡㄴㅔ	-2262
ㄱㅜㅇ	-2263
ㄲㅡㅁ	-2264
▁ㄷㅐㅅㅓㄴ	-2265
▁ㅅㅓㄹㅗ	-2266
▁ㅇㅏㄴㅣㄴㄷㅔ	-2267
ㅠㄴ	-2268
▁ㅍㅗㅋㅔㅅㅁㅗㄴ	-2269
ㅅㅜㅁ	-2270
▁ㅈㅓㄻㅇㅡㄴ	-2271
▁ㅇㅖㅅ	-2272
▁ㅅㅏㅇㄱㅘㄴ	-2273
▁ㅎㅡㅇ	-2274
▁ㅇㅣㅆㅇㅡㄴㅣ	-2275
▁ㅇㅏㄵ	-2276
ㄲㅏㅂ	-2277
▁ㅇㅣㄴㅅㅏㅇ	-2278
ㅈㅏㅇㅔ	-2279
▁ㅌㅡㄱㅎㅣ	-2280
▁ㄱㅕㅇㅇㅕㅇ	-2281
ㅇㅓㅆㅇㅡㅁㅕㄴ	-2282
▁ㅁㅗㅅㅎㅏㄱㅗ	-2283
ㄱㅜㅁ	-2284
ㅅㅕㄴ	-2285
▁ㅇㅕㄴㅂㅗㅇ	-2286
ㄴㅐㄴ	-2287
▁ㅊㅚㅅㅗ	-2288
▁ㅂㅏㄺㅎㅕ	-2289
ㄹㅕㅇㅑ	-2290
ㄱㅣㅁㅏㄴ	-2291
▁ㅇㅏㄶㅇㅏㅆ	-2292
▁ㅍㅗㄱㅂㅏㄹ	-2293
▁ㅅㅜㄴㅅㅣㄹㅇㅣ	-2294
ㄷㄷ	-2295
ㄷㅓㄴㅈㅣ	-2296
ㄱㅓㄷㅡㄴ	-2297
ㄱㅓㅇㅣㅁ	-2298
▁ㄱㅐㄹㄹㅓㄱ	-2299
ㄱㅏㄹㅡㄹ	-2300
ㅁㅓㄱㅇㅡㄹ	-2301
▁ㅌㅗㅇㅅㅣㄴ	-2302
▁ㅂㅜㄴㅁㅕㅇ	-2303
▁ㅈㅜㄱㅗ	-2304
▁ㄱㅗㄷ	-2305
ㄷㅚㅈㅣ	-2306
▁ㅎㅣㅁㄴㅐ	-2307
▁ㅁㅝㄴㅑ	-2308
▁ㅇㅑㄷㅏㅇ	-2309
ㅇㅣㅈㅣㅁㅏㄴ	-2310
ㄷㅏㄺ	-2311
▁ㅎㅐㅇㅑㅈㅣ	-2312
▁ㄱㅡㄹㅓㅁㅕㄴ	-2313
ㅅㅡㅌ	-2314
▁ㅅㅓㄴㅌㅐㄱ	-2315
▁ㅉㅏㅈㅡㅇ	-2316
▁ㅂㅡㄹ	-2317
>>	-2318
▁ㅈㅓㅇㅇㅢ	-2319
ㅎㅕㅂ	-2320
▁ㅇㅏㄹㅇㅏ	-2321
ㄷㅡㅅㅇㅣ	-2322
▁ㅈㅗㅎㄷㅏ	-2323
ㄴㅏㅁㅕㄴ	-2324
▁ㄴㅏㅎ	-2325
▁ㄴㅡㄺ	-2326
ㅊㅓㄴㅇㅝㄴ	-2327
▁ㅅㅏㅇㅣ	-2328
▁ㄴㅠㅅㅡ	-2329
▁ㄱㅏㅁㅏㄴ	-2330
▁ㅂㅏㅇㅂㅓㅂ	-2331
ㅁㅏㄴㄷㅡㄹ	-2332
ㅎㅏㄹㄷㅡㅅ	-2333
ㅁㅕㅇㅂㅏㄱ	-2334
▁ㅈㅗㅇㅂㅜㄱ	-2335
ㅅㅣㅋㅕ	-2336
ㅎㅏㄴㄱㅜㄱ	-2337
▁ㅁㅣㅌ	-2338
▁ㅎㅝㄹㅆㅣㄴ	-2339
ㅎㅏㅈㅣㅁㅏㄹㄱㅗ	-2340
ㅎㅟ	-2341
▁ㅁㅜㄴㅡㅇ	-2342
▁ㄹㅏ	-2343
ㅅㅏㄹㅏㅁㄷㅡㄹ	-2344
ㅅㅡㄴ	-2345
▁ㅁㅜㄴㅈㅐ	-2346
ㅈㅏㄹㅗ	-2347
▁ㅈㅏㄷㅗㅇ	-2348
ㅈㅡㄴ	-2349
▁ㄴㅐㅁ	-2350
▁40	-2351
ㅋㅗㄹ	-2352
▁ㅌㅐㅂㅡㄹㄹㅣㅅ	-2353
▁ㅇㅠㄱ	-2354
bc	-2355
ㄸㅗㄱ	-2356
ㅈㅏㄱㅗ	-2357
ㅇㅣㄷㅡㄴ	-2358
ㅇㅓㅂㅓㄹ	-2359
▁ㅍㅐ	-2360
ㄷㅏㅇㅎㅣ	-2361
ㅆㅡㄴ	-2362
▁ㄱㅜㅈㅗ	-2363
▁ㅈㅏㅂㅇㅏ	-2364
▁ㅈㅏㅇㅅㅏ	-2365
▁ㅈㅗㅇㅛㅇ	-2366
ㅅㅔㄴ	-2367
▁ㅁㅏㄹㅏ	-2368
ㅎㅐㅈㅜ	-2369
ㅈㅗㅅ	-2370
▁ㅇㅣㅆㄴㅔ	-2371
ㅇㅓㄱㅏㄴㅡㄴ	-2372
ㅇㅣㅆㄴㅡㄴㄷㅔ	-2373
▁ㅜㅜ	-2374
▁ㅋㅓㅁ	-2375
▁ㄴㅐㅇ	-2376
▁ㄱㅡㄴㅏㅁㅏ	-2377
ㅅㅏㄹㅏㅁㅇㅣ	-2378
▁ㅇㅣㄴㅏㄹ	-2379
ㄹㅏㅁ	-2380
▁ㅈㅐㅁ	-2381
▁ㅇㅓㅄㄴㅔ	-2382
▁ㅎㅏㄴㅈㅣㄴ	-2383
ㄸㅏ	-2384
▁ㅎㅐㅇㄷㅗㅇ	-2385
▁ㅎㅏㄴㅡㄴㄱㅓ	-2386
ㄹㅕㅁㅕㄴ	-2387
▁ㄱㅡㄷㅐㄹㅗ	-2388
ㅈㅏㄷㅡㄹㅇㅡㄴ	-2389
ㅁㅏㄱ	-2390
▁ㅅㅡㅁㅏㅌㅡ	-2391
▁ㅅㅡㅅ	-2392
ㅉㅣ	-2393
▁ㅅㅏㄹㅇㅏ	-2394
ㅇㅓㅄㅇㅓ	-2395
▁ㅇㅖㅈㅓㄴ	-2396
ㅓㄱㅗ	-2397
ㅗㅅㅡ	-2398
▁ㅁㅜㅅㅣ	-2399
ㅓㅇㅝ	-2400
ㅇㅠㅇ	-2401
ㅅㅓㅇㅇㅡㄹ	-2402
ㅅㅗㄱㅣㅇㅓㅂ	-2403
▁ㄷㅓㄹㅓㅇㅜㄴ	-2404
ㄷㅐㄱㅏㄹㅣ	-2405
▁ㅂㅗㄴㅣ	-2406
▁ㄲㅡㅌㄲㅏㅈㅣ	-2407
ㅂㅗㅁ	-2408
ㅎㅗㅇ	-2409
ㅆㄴㅏ	-2410
▁ㄴㅗㅁㄷㅡㄹ	-2411
ㅋㅋㅋㅋㅋㅋ	-2412
▁ㅃㅏㅇ	-2413
ㅈㅣㄱㅔ	-2414
▁ㅇㅓㄹㅣㄴ	-2415
ㄷㅚㅇㅓ	-2416
▁ㅁㅓㄱㄴㅡㄴ	-2417
▁ㄲㅏㅁ	-2418
▁ㅂㅣㅅㅡㅅ	-2419
▁ㅊㅜㅇㅂㅜㄴ	-2420
ㄱㅏㄴㅡㅇ	-2421
ㄱㅡㄹㅜㅂ	-2422
ㅜㄹㅡㄹ	-2423
▁ㅂㅗㄴㄷㅏ	-2424
▁ㅇㅓㄷㅣㅅㅓ	-2425
ㅈㅐㅅㅓㄱ	-2426
ㅁㅏㄷㅏ	-2427
▁ㅅㅓㅇㄱㅗㅇ	-2428
▁ㅆㅏㄴ	-2429
ㅎㅏㄹㅏㄱㅗ	-2430
▁ㅎㅏㄴㅡㄴㄱㅔ	-2431
▁ㅈㅣㅈㅣ	-2432
ㅇㅡㄴㄱㅓ	-2433
▁ㅌㅔ	-2434
▁ㅈㅓㅇㅂㅜㅇ	-2435
▁ㅇㅏㅇㅣㄷㅗㄹ	-2436
ㄴㅜ	-2437
ㅁㅐㄴ	-2438
ㅁㅏㄹㅏ	-2439
▁ㄱㅚ	-2440
ㅎㅏㄴㅂㅓㄴ	-2441
▁ㅇㅣㅈ	-2442
▁ㅅㅔㅇㅝㄹㅎㅗ	-2443
ㅊㅓㅂ	-2444
ㅁㅜㄴㅎㅚ	-2445
ㅈㅏㅇㅢ	-2446
ㅇㅣㄹㅡㄹ	-2447
ㅈㅏㄱㅡㅁ	-2448
▁ㅎㅐㅆㄷㅏ	-2449
ㅣㅅㅡ	-2450
▁ㄱㅗㅅㅗ	-2451
ㄸㅏㄹ	-2452
ㅈㅝㄹㅏ	-2453
ㅎㅘㄱㅏ	-2454
ㅊㅣㄹㅡㄹ	-2455
▁ㅇㅣㄴㅌㅓㄴㅔㅅ	-2456
▁ㄴㅗㄱ	-2457
ㅅㅣㄱㅇㅣ	-2458
▁ㅂㅏㄱㅅㅏㅁㅗ	-2459
▁ㅇㅣㅁㅕㅇㅂㅏㄱ	-2460
50	-2461
ㅇㅣㄹㅏㄴㅣ	-2462
▁ㅊㅓㅁ	-2463
▁ㅂㅜㄲㅡㄹ	-2464
ㄱㅓㅂㄴㅣㄷㅏ	-2465
▁ㅇㅣㄱㅣ	-2466
▁ㅎㅏㄴㄷㅏㄹ	-2467
▁ㅈㅡㄹ	-2468
▁ㅇㅏㄹㅇㅏㅅㅓ	-2469
ㄸㅗㅇ	-2470
ㅂㅣㅇ	-2471
▁ㄲㅏㄹ	-2472
▁ㄴㅗㅇㅖ	-2473
▁ㄴㅓㄴ	-2474
▁ㄱㅏㅅㅓ	-2475
▁ㅌㅜㅍㅛ	-2476
ㄸㅓㄹㅇㅓ	-2477
!!!!!!!!	-2478
ㅇㅝ	-2479
▁ㅁㅗㄹㅡㄱㅗ	-2480
▁ㅇㅏㄴㄷㅙ	-2481
▁ㅅㅐㅇㄱㅏㄱㅎㅐ	-2482
▁ㄲㅗㅊ	-2483
ㅇㅏㅇㅣ	-2484
▁ㅍㅓ	-2485
▁ㅇㅓㅇㅣ	-2486
ㅊㅡㄱ	-2487
ㅁㅏㄹㅇㅣ	-2488
ㅂㄷㅏㅂ	-2489
▁ㅅㅜㄷㅗ	-2490
ㅣㅁㅕㄴㅅㅓ	-2491
▁ㅁㅜㅇ	-2492
ㅈㅣㅇㅛ	-2493
▁ㅇㅜㄹㅣㄴㅏㄹㅏㄴㅡㄴ	-2494
ㅗㄴㄷㅏ	-2495
ㄲㅓㅅ	-2496
▁ㄱㅣㅂㅜㄴ	-2497
ㄱㅣㅊㅜㄴ	-2498
tp	-2499
▁ㅂㅏㄱㄱㅡㄴㅔ	-2500
ㅎㅕㅁ	-2501
ㅂㅣㄹ	-2502
ㅗㅎㅏㅁ	-2503
ㄴㅕㄴㅇㅔ	-2504
▁ㅂㅣㄹㅣ	-2505
▁ㄸㅟ	-2506
ㅅㅏㅇㅇㅣ	-2507
▁L	-2508
ㄴㅐㄱㅗ	-2509
▁ㅎㅕㄴㅈㅐ	-2510
ㄱㅐㅇㅝㄹ	-2511
▁ㄷㅚㄱㅗ	-2512
▁ㅇㅣㅁㅣㅈㅣ	-2513
▁ㄷㅓㅂ	-2514
▁ㅈㅣㄱㅡㅁㅇㅡㄴ	-2515
▁ㅈㅓㅇㅅㅣㄴㅊㅏㄹ	-2516
▁:	-2517
▁ㅈㅓㅇㅈㅜㄴ	-2518
ㄷㅡㄹㄱㅘ	-2519
ㄹㅓㄴ	-2520
ㅇㅘㅅㅓ	-2521
ㅅㅏㅁㅅㅓㅇ	-2522
▁ㄴㅏㅇㅗㅁㅕㄴ	-2523
ㅎㅐㅇㅑㅎㅏㄴㄷㅏ	-2524
▁ㅂㅓㅌ	-2525
ㅇㅏㅊㅣ	-2526
ㅈㅓㅇㅊㅐㄱ	-2527
▁ㅁㅜㄷ	-2528
ㅏㄱㅏ	-2529
ㅈㅏㅇㅇㅡㄹ	-2530
▁ㅈㅓㅁㅈㅓㅁ	-2531
ㄴㅕㄴㅇㅣ	-2532
▁ㅅㅐㄱ	-2533
ㅅㅣㅋㅣㄱㅗ	-2534
▁ㅊㅣㄴㅇㅣㄹ	-2535
ㅈㅗㅎㅇㅏ	-2536
▁ㅇㅗㅇ	-2537
▁ㅂㅐㅌㅓㄹㅣ	-2538
ㅎㅏㄴㅡㄴㅈㅣ	-2539
ㅎㅏㅅㅣㄴ	-2540
▁ㅇㅣㅆㄴㅑ	-2541
▁ㅈㅜㅅㅣㄱ	-2542
▁ㅁㅏㅈㄴㅡㄴ	-2543
▁ㅅㅏㄹㄱㅗ	-2544
▁ㅇㅓㄱㅇㅜㄹ	-2545
▁ㅇㅣㄱㅓㅅ	-2546
ㅂㅏㄷㄴㅡㄴ	-2547
▁I	-2548
▁ㅈㅓㅇㅇㅠㄹㅏ	-2549
ㅐㅇㅛ	-2550
▁ㅈㅡㄱ	-2551
ㄷㅡㄴㅈㅣ	-2552
▁ㅅㅐㅇㅅㅏㄴ	-2553
ㅛㄴ	-2554
ㅌㅗㅇㅂㅓㅂ	-2555
http	-2556
ㄷㅐㅈㅜㅇ	-2557
▁ㅇㅣㅃ	-2558
▁ㅈㅏㅇㅠ	-2559
▁ㅎㅡㄹ	-2560
▁ㅇㅣㄹㅇㅣ	-2561
ㅇㅣㄴㅔㅇㅛ	-2562
▁ㅇㅓㄴㅍㅡㄹ	-2563
ㅂㅐㅇㅜ	-2564
▁ㅇㅏㄹㅇㅏㅆ	-2565
▁ㄱㅘㄴㄹㅣ	-2566
▁ㅇㅣㅆㄷㅏㄴㅡㄴ	-2567
ㅈㅗㅇㅝㄴ	-2568
▁ㅅㅛ	-2569
▁ㅅㅏㅁㅅㅓㅇㅇㅡㄴ	-2570
://	-2571
▁ㅇㅓㅄㅇㅓㅅㅓ	-2572
▁ㅈㅜㅂㅕㄴ	-2573
ㄱㅓㅅㄱㅏㅌ	-2574
30	-2575
▁ㄲㅏㅈㅣ	-2576
ㅂㅏㄹㅗ	-2577
▁ㅁㅏㄶㄷㅏ	-2578
▁ㅅㅡㅁㅏㅌㅡㅍㅗㄴ	-2579
▁ㅇㅜㅅㄱㅣㄴ	-2580
ㅁㅁㅏ	-2581
ㅇㅣㄱㅔ	-2582
ㅁㅐㅇ	-2583
▁ㅈㅓㄱㅓ	-2584
▁ㅇㅏㄴㅑ	-2585
ㄱㅓㄱㅏㅌ	-2586
▁ㅁㅣㄷㄱㅗ	-2587
ㅍㅜㄴ	-2588
ㄱㅏㄴㄷㅏ	-2589
▁ㅂㅜㅈㅗㄱ	-2590
▁12	-2591
ㅆㅇㅓ	-2592
▁ㅂㅘㅇㅑ	-2593
▁ㅅㅔㄱㅡㅁㅇㅡㄹㅗ	-2594
ㅌㅔㄹ	-2595
▁ㅂㅜㄷㅏㅁ	-2596
▁ㅇㅣㅁㄱㅡㅁ	-2597
▁ㄱㅜㄷ	-2598
▁ㅇㅗㄱ	-2599
▁ㅇㅙㄴ	-2600
ㄴㅏㄱㅗ	-2601
▁ㅇㅐㄱㅜㄱ	-2602
ㅈㅣㅇㅝㄴ	-2603
▁ㅅㅣㅀㅇㅓ	-2604
▁ㅂㅜㅌㅓ	-2605
ㅊㅗㅇㅔ	-2606
▁ㅈㅣㄱㅈㅓㅂ	-2607
▁ㅁㅜㅎㅏㄴ	-2608
▁ㅇㅣㄴㄱㅏㄴㄷㅡㄹ	-2609
▁ㅆㅏㄱㅔ	-2610
ㅁㅣㄹ	-2611
▁ㄷㅐㄱㅏㄹ	-2612
ㅈㅏㅁ	-2613
ㅌㅡㄱㄱㅓㅁ	-2614
ㅇㅣㄴㄷㅡㄹㅇㅣ	-2615
▁ㄸㅏㄴ	-2616
▁ㅁㅏㄹㄷㅗ	-2617
ㅎㅐㅈㅜㄴ	-2618
▁ㅎㅏㄴㅔ	-2619
▁ㅂㅏㄷㄴㅡㄴ	-2620
▁ㅇㅣㅆㄷㅏㄱㅗ	-2621
▁ㅇㅣㄹㅓㄹ	-2622
ㅆㄱㅗ	-2623
▁ㄱㅗㅇㅂㅜ	-2624
▁ㅍㅏㄴㅁㅐ	-2625
ㄴㅡ	-2626
ㅅㅜㄴㅡㄴ	-2627
▁ㄷㅐㅎㅏㄱ	-2628
▁ㅁㅏㄴㄷㅡㄹㄱㅗ	-2629
ㅈㅗㅅㅏ	-2630
ㅂㅗㅈㅏ	-2631
ㅜㄱㅗ	-2632
ㅎㅏㄴㅔㅇㅛ	-2633
ㅇㅓㅆㅇㅡㅁ	-2634
ㄲㅏㅂㄷㅏ	-2635
▁ㅂㅏㄴㄷㅡㅅㅣ	-2636
▁ㅍㅏㄴㄷㅏㄴ	-2637
▁ㅅㅡㅅㅡㄹㅗ	-2638
▁ㅇㅕㄹㅡㅁ	-2639
▁201	-2640
▁ㅈㅣㅁ	-2641
▁ㅇㅠㅈㅐㅅㅓㄱ	-2642
▁ㅊㅓㄹㅓㅁ	-2643
▁ㅂㅏㄴㅅㅓㅇ	-2644
ㅕㅆㄴㅡㄴㄷㅔ	-2645
▁ㅍㅣㅇ	-2646
▁ㅇㅏㄶㅇㅡㄹ	-2647
ㅇㅘㅇ	-2648
▁ㄷㅚㅈㅣ	-2649
▁ㄱㅡㄱㅓㅅㄷㅗ	-2650
ㅇㅜㅇ	-2651
▁ㅍㅐㄱ	-2652
▁ㄲㅜㅁ	-2653
▁ㅂㅏㅂㅗ	-2654
ㄸㅐㄴㅡㄴ	-2655
▁ㅈㅓㅈㅣㄹ	-2656
ㄸㅡㄷ	-2657
ㅓㄴㅣ	-2658
ㅇㅣㅇㅔ	-2659
ㅅㅏㅇㄷㅗ	-2660
ㅅㅜㄹㅡㄹ	-2661
▁ㅇㅕㅅㅓㅇ	-2662
▁ㅎㅘㄹㄷㅗㅇ	-2663
▁ㅃㅓㄴㅃㅓㄴ	-2664
▁ㄷㅗㅇㄴㅔ	-2665
▁ㅁㅜㅇㅓㅅ	-2666
▁ㄷㅗㄴㅂㅓㄹ	-2667
▁ㅈㅣㅇㅕㄱ	-2668
▁ㅂㅘㄷㅗ	-2669
ㄷㅡㅍㅗㄴ	-2670
ㅎㅏㄴㅣㄲㅏ	-2671
ㅁㅗㅇ	-2672
ㅇㅕㅇㅎㅘ	-2673
▁ㄲㅡㄶ	-2674
▁ㅇㅏㄲ	-2675
co	-2676
ㅁㅏㄶㅇㅡㄴ	-2677
ㅌㅔㅁ	-2678
ㄷㅗㄴㅇㅣ	-2679
ㅇㅓㄴㅐ	-2680
ㅂㅗㄷㅏㄴ	-2681
▁ㅇㅣㅀ	-2682
ㅌㅣㅁ	-2683
▁ㄷㅚㅁㅕㄴ	-2684
▁ㅋㅓㄴ	-2685
▁ㅇㅕㄹㅗㄴ	-2686
▁ㄴㅜㄹ	-2687
▁ㅎㅓㄴㅈㅐ	-2688
ㅂㅗㅎㅓㅁ	-2689
▁ㅂㅕㅇㅅㅣㄴ	-2690
ㅎㅣㄴ	-2691
ㅕㅇㅇㅓㅂ	-2692
▁ㅁㅏㄶㅇㅏ	-2693
ㅋㅡㄴ	-2694
▁ㅂㅜㄹㅍㅕㄴ	-2695
▁ㅇㅖㅅㄴㅏㄹ	-2696
ㅅㅣㄹㅣ	-2697
▁ㅋㅡ	-2698
▁ㄷㅗㄹㄹㅕ	-2699
▁ㄱㅡㄹㅓㄴㅣ	-2700
▁ㅅㅏㄴㅇㅓㅂㅇㅛㅇ	-2701
ㅅㅏㄴㅇㅓㅂ	-2702
ㄱㅓㄹㅏ	-2703
▁ㅎㅏㄴㄷㅏㄱㅗ	-2704
▁ㅇㅣㅎㅐㄱㅏ	-2705
▁ㄷㅗㄹㅇㅏㅇ	-2706
▁ㅅㅣㅇㅝㄴ	-2707
▁ㅅㅜㅊㅜㄹ	-2708
▁ㅇㅝㄹㅅㅔ	-2709
▁ㅇㅣㄴㅏㄹㅏ	-2710
ㅈㅓㅎ	-2711
▁ㅅㅐㅇㅎㅘㄹ	-2712
ㅂㅣㄱㅏ	-2713
ㄱㅏㄴㅇㅔ	-2714
▁ㄱㅏㅈㅓㅇㅇㅛㅇ	-2715
ㅆㅏ	-2716
▁ㅈㅚㄷㅏ	-2717
▁ㄱㅘㅇㅕㄴ	-2718
▁ㅇㅡㅇㅇㅝㄴㅎㅏㅂㄴㅣㄷㅏ	-2719
ㅅㅓㅁㅣㄴ	-2720
ㄴㅕㄴㅈㅓㄴ	-2721
▁ㅅㅓㄹㅎㅕㄴ	-2722
▁ㅈㅜㅇㅅㅗㄱㅣㅇㅓㅂ	-2723
▁ㅂㅓㄹㅆㅓ	-2724
▁ㅈㅏㅅㅏㄹ	-2725
▁ㄱㅗㅇㅎㅏㅇ	-2726
▁ㄷㅓㅇㅣㅅㅏㅇ	-2727
ㄱㅓㅁㅕㄴ	-2728
ㄱㅡㄴㄷㅔ	-2729
▁ㅇㅣㅇㅑㄱㅣ	-2730
▁ㅁㅜㄹㄱㅓㄴ	-2731
▁ㅅㅠ	-2732
▁ㅎㅏㄴㅑ	-2733
▁ㄷㅡ	-2734
▁ㅎㅕㄱ	-2735
▁ㄱㅜㄱㅅㅏㄴ	-2736
▁ㅂㅘㄹㅏ	-2737
▁ㅎㅏㄷㅏ	-2738
ㅇㅣㅆㅇㅡㅁ	-2739
▁ㅇㅣㄺ	-2740
ㅈㅓㄴㄱㅣ	-2741
ㅈㅏㅇㅣㄴ	-2742
ㄱㅔㅇㅣㅁ	-2743
▁ㅍㅡㄹㅗㄱㅡㄹㅐㅁ	-2744
ㄹㅗㄱ	-2745
▁ㄴㅏㅅ	-2746
▁ㅂㅏㄹㅏㅁ	-2747
ㅇㅓㅄㅇㅡㅁ	-2748
ㄹㅣㅈㅣ	-2749
ㄱㅓㅅㅁㅏㄴ	-2750
▁ㄴㅗㅈㅗ	-2751
▁ㅅㅏㄹㄱㅣ	-2752
ㅈㅟ	-2753
▁ㅈㅔㄱ	-2754
▁ㅈㅏㄱㅍㅜㅁ	-2755
ㄹㅣㄹㅡㄹ	-2756
▁ㅇㅓㅄㅈㅣ	-2757
ㄷㅏㅇㅎㅏㄴ	-2758
ㅊㅐㅇ	-2759
▁ㅇㅏㄴㅈㅓㄴ	-2760
ㅏㄴㅑ	-2761
▁ㄷㅜㄹㄷㅏ	-2762
▁ㅇㅣㅈㅔㄴㅡㄴ	-2763
▁ㅁㅏㄹㅇㅡㄹ	-2764
ㅎㅚㅅㅏ	-2765
ㅇㅏㅇㅑㅈㅣ	-2766
▁ㅇㅣㅇㅓ	-2767
ㄷㅏㅁㅕㄴ	-2768
▁ㄴㅏㄹㅏㄴㅡㄴ	-2769
▁ㅇㅏㅇㅖ	-2770
▁ㅍㅡㄹㅗ	-2771
▁ㅃㅏㄹㄱㅐㅇㅇㅣ	-2772
ㅂㅏㄷㅇㅏ	-2773
▁ㅈㅓㄴㄱㅣㅇㅛㄱㅡㅁ	-2774
▁ㅇㅠㅈㅣ	-2775
▁ㅎㅗㄱㅜ	-2776
▁ㄸㅓㄱ	-2777
▁ㅈㅓㄴㅁㅜㄴ	-2778
▁ㄱㅣㅁㅇㅕㅇ	-2779
tbc	-2780
▁ㅎㅛ	-2781
ㄷㅗㄴㅇㅡㄹㅗ	-2782
▁ㅅㅏㄱㅣㄲㅜㄴ	-2783
ㅍㅏㅇ	-2784
ㅈㅓㅇㅊㅣ	-2785
▁ㄱㅏㅇㄴㅏㅁ	-2786
▁ㄷㅐㅇㅜ	-2787
▁a	-2788
▁ㄱㅡㄱㅓㄴ	-2789
▁ㅇㅣㄴㄱㅣ	-2790
ㅎㅏㅂㅅㅣㄷㅏ	-2791
▁ㄱㅓㅅㅇㅡㄹ	-2792
▁ㅌㅏㄱ	-2793
ㅇㅝㄴㅇㅣ	-2794
▁ㄴㅐㄴㅕㄴ	-2795
▁ㅎㅏㄴㅏㄷㅗ	-2796
▁ㄸㅔ	-2797
▁ㅂㅘㅆ	-2798
▁ㅊㅓㅇㅁㅜㄴㅎㅚ	-2799
ㄱㅘㄴㄱㅖ	-2800
▁ㄱㅘㄴㄱㅖ	-2801
▁ㅇㅔㄴ	-2802
▁ㅇㅓㅄㅇㅡㅁㅕㄴ	-2803
▁ㅅㅗㅁ	-2804
ㅈㅣㄹㅗ	-2805
▁ㅁㅗㅅㅎㅏㄱㅔ	-2806
▁~~	-2807
▁ㅁㅜㅅㅣㄱ	-2808
▁ㅇㅗㄹㅎㅐ	-2809
▁ㅎㅕㄴㄱㅡㅁ	-2810
▁ㄷㅚㅇㅓ	-2811
ㄷㅏㄹㅡㄴ	-2812
▁ㅇㅣㅂㅓㄴㅇㅔ	-2813
▁ㄲㅜㄹ	-2814
▁ㅍㅏㄱ	-2815
ㅈㅓㅇㅇㅡㄹ	-2816
▁^^	-2817
▁ㅁㅣㄱㅐ	-2818
ㄱㅜㄱㅏ	-2819
▁ㅈㅏㅇㅕㄴ	-2820
ㅗㄱㅗ	-2821
▁ㄱㅏㅈㅣㄴ	-2822
▁ㄴㅡㅈ	-2823
▁ㅍㅗㄱㅣ	-2824
▁ㅂㅕㄴㅎㅗㅅㅏ	-2825
▁ㄸㅗㄱㄱㅏㅌㅇㅡㄴ	-2826
ㅎㅏㄱㅣㄹ	-2827
▁ㄲㅓ	-2828
ㄷㅜㄱㅗ	-2829
ㅓㅂㄱㅔ	-2830
ㄹㅏㅇㅣ	-2831
ㅎㅐㅆㅇㅡㅁ	-2832
▁ㅁㅣㄹㅇㅑㅇ	-2833
ㄱㅐㄱ	-2834
▁ㅅㅣㄷㅐ	-2835
▁ㄱㅣㄹㅔㄱㅣ	-2836
ㅁㅔ	-2837
▁ㅁㅏㅌ	-2838
ㅂㅗㄱㅣ	-2839
ㅇㅠㄴ	-2840
▁ㅅㅗㄷㅡㄱ	-2841
ㄲㅏㄹ	-2842
ㄸㅐㅁㅜㄴ	-2843
ㅎㅐㅆㄴㅔ	-2844
▁ㄷㅡㄹㄱㅗ	-2845
▁ㅇㅕㅍ	-2846
▁ㅇㅕㅁ	-2847
▁ㅅㅓㄴㅈㅣㄴㄱㅜㄱ	-2848
▁ㄱㅜㄱㅁㅣㄴㄷㅡㄹㅇㅡㄴ	-2849
ㅊㅣㄱ	-2850
ㄱㅣㅁㅜㄴ	-2851
ㅇㅣㅆㄴㅔ	-2852
ㅇㅣㄹㅗ	-2853
▁ㅇㅕㄱㄷㅐ	-2854
▁ㅈㅣㄷㅡㄹㅇㅣ	-2855
▁ㅎㅏㅁㄲㅔ	-2856
▁ㅈㅣㄱㅡㅁㄷㅗ	-2857
▁ㅈㅏㄹㅏㅇ	-2858
▁ㅇㅏㄴㄷㅚㄴ	-2859
▁ㄷㅏㅇㅇㅕㄴㅎㅏㄴ	-2860
▁ㅂㅗㅅㅜ	-2861
ㄸㅏㅇㅟ	-2862
▁ㅂㅗㅅㅏㅇ	-2863
▁ㅈㅣㄴㅎㅐㅇ	-2864
▁ㅂㅜㅁㅗ	-2865
ㅎㅓ	-2866
▁ㄸㅓㄹ	-2867
▁ㅎㅓㄴㅂㅓㅂ	-2868
ㄹㅓㅂ	-2869
▁ㅇㅏㅁㅜㄱ	-2870
▁ㅇㅓㅄㅇㅡㄹ	-2871
▁ㄱㅐㅁ	-2872
ㅇㅣㄴㅇㅢ	-2873
▁ㄱㅐㄹㄹㅓㄱㅅㅣ	-2874
ㅅㅛ	-2875
ㅇㅣㄴㄱㅓ	-2876
▁ㄷㅏㅂㄷㅏㅂ	-2877
ㄲㅓㄴ	-2878
ㄴㅏㅂ	-2879
▁ㄷㅗㄹㅇㅏㄱ	-2880
▁ㅇㅏㄶㄴㅡㄴㄷㅏ	-2881
ㅁㅏㄴㅇㅣ	-2882
ㅍㅣㄹㅇㅛ	-2883
▁ㄱㅐㅍㅏㄴ	-2884
▁ㄴㅓㄴㅔ	-2885
▁ㅂㅣㅈㅓㅇ	-2886
ㅅㅣㅋㅕㄹㅏ	-2887
▁ㄷㅗㄴㅇㅡㄹㅗ	-2888
▁ㅎㅡㄴ	-2889
ㅗㅎㅗ	-2890
▁ㄱㅠㅈㅔ	-2891
▁ㅌㅗ	-2892
ㅇㅔㅁㅏㄴ	-2893
▁t	-2894
▁ㅅㅣㅂ	-2895
ㅇㅐㄷㅡㄹ	-2896
▁ㅁㅏㄶㅇㅡㄴㄷㅔ	-2897
▁ㅇㅣㅅㅏㅇㅎㅏㄴ	-2898
▁ㄷㅓㄴ	-2899
ㅜㅇㅢ	-2900
ㄸㅐㅁㅇㅔ	-2901
▁ㅅㅐㅇㄱㅣㄴ	-2902
▁ㅇㅣㄹㅓ	-2903
ㄷㅏㅇㅇㅣ	-2904
ㄷㅐㅎㅏㄴㅁㅣㄴㄱㅜㄱ	-2905
▁ㅉㅏㅇㄲㅐ	-2906
▁ㅈㅜㄱㅇㅡㄹ	-2907
BC	-2908
▁ㄱㅏㅁㅇㅗㄱ	-2909
ㅅㅣㅋㅣ	-2910
▁ㅇㅢㅁㅣ	-2911
▁ㅈㅣㄱㅡㅁㄲㅏㅈㅣ	-2912
▁ㅉㅏㄹ	-2913
▁ㅇㅕㅈㅏㄱㅏ	-2914
▁ㅊㅚㅈㅓ	-2915
▁G	-2916
;;;	-2917
▁ㄱㅣㅇㅓㅂㅇㅣ	-2918
ㅏㄴㅡㄴㄱㅔ	-2919
▁ㅇㅕㄱㅣㅅㅓ	-2920
▁ㅁㅜㄴㅎㅘ	-2921
▁ㅈㅣㅋㅕ	-2922
ㅇㅣㅂㅓ	-2923
0%	-2924
ㅅㅓㅂ	-2925
▁ㅆㅏㄹ	-2926
▁ㄷㅏㅎㅐㅇ	-2927
ㅊㅕㅁㅓㄱ	-2928
▁ㅇㅕㄹㅓㅂㅜㄴ	-2929
▁ㅌㅏㅅ	-2930
ㅅㅣㅁㅇㅣ	-2931
ㄱㅜㄱㄱㅏ	-2932
▁ㄱㅏㅄ	-2933
▁ㅅㅣㅁㅣㄴ	-2934
ㅎㅏㄹㄲㅏ	-2935
▁ㅎㅏㄴㅣ	-2936
▁ㅈㅝ	-2937
ㅁㅕㅊ	-2938
▁11	-2939
▁ㄷㅐㅈㅜㅇ	-2940
ㅍㅏㄱ	-2941
▁ㅂㅜㅈㅓㅇ	-2942
▁ㅇㅣㅈㅓㅇㄷㅗ	-2943
ㄷㅚㅅㅓ	-2944
▁ㅇㅔㅎㅠ	-2945
▁ㅊㅚㅅㅜㄴㅅㅣㄹㅇㅣ	-2946
▁j	-2947
▁ㅇㅜㄹㅣㄴㅡㄴ	-2948
ㅍㅡㄴ	-2949
▁ㅅㅜㄱ	-2950
ㅆㄷㅏㄴㅡㄴ	-2951
ㅃㅜㄹ	-2952
▁ㄸㅓㄴ	-2953
ㅈㅜㄱㅏ	-2954
▁ㅈㅏㄱㅜㄱ	-2955
▁ㄷㅏㄴㅌㅗㅇㅂㅓㅂ	-2956
ㅃㅗㅂ	-2957
ㅂㅜㄹㅡㄹ	-2958
▁ㄴㅏㄹㅏㅇㅔ	-2959
▁ㄴㅡㄹㅇㅓㄴ	-2960
▁ㅇㅜㄴㅇㅕㅇ	-2961
▁ㅈㅜㅇㄱㅜㄱㅇㅣ	-2962
▁ㄴㅏㅇㅘㅅㅓ	-2963
ㅓㅅㄷㅗ	-2964
ㄸㅡㄹ	-2965
ㄷㅗㄹㅗ	-2966
▁ㄷㅓㅁ	-2967
▁18	-2968
▁ㄱㅡㄹㅓㅎㅈㅣ	-2969
▁ㅇㅣㅂㄴㅣㄷㅏ	-2970
▁ㄱㅣㅁㄱㅣㅊㅜㄴ	-2971
▁ㅊㅓㅅ	-2972
▁ㅈㅏㄹㅣ	-2973
▁ㅊㅜㄹㅇㅕㄴ	-2974
ㅃㅏㄹㄹㅣ	-2975
▁ㄱㅜㄱㅁㅣㄴㅇㅡㄴ	-2976
▁ㅇㅣㅂㅈㅏㅇ	-2977
▁ㅇㅣㅆㅇㅓㅇㅑ	-2978
ㅅㅗㄷㅡㄱ	-2979
ㅓㄹㅏㄷㅗ	-2980
▁ㅇㅣㄹㅇㅡㄹ	-2981
▁ㄷㅡㅇㄷㅡㅇ	-2982
▁ㅇㅣㅎㅗㄴ	-2983
?!	-2984
ㅎㅔ	-2985
▁ㅅㅏㄻ	-2986
▁ㅈㅔㄹ	-2987
ㅈㅏㄷㅗ	-2988
▁ㅇㅣㄸㅏㄴ	-2989
ㅅㅏㄱㅓㄴ	-2990
▁ㅇㅣㄱㅓㄹ	-2991
ㅅㅏㅇㅔㅅㅓ	-2992
ㅊㅓㅁㅓㄱ	-2993
▁ㄱㅓㅍㅜㅁ	-2994
▁ㄴㅏㄱㅏ	-2995
▁ㄱㅡㄴㅎㅖ	-2996
▁ㅅㅐㄹㅗㅇㅜㄴ	-2997
▁ㅇㅓㅄㄷㅏㄱㅗ	-2998
▁ㅇㅕㄴㅇㅐ	-2999
ㄸㅐㅁㅏㄷㅏ	-3000
▁ㄸㅗㄱㄱㅏㅌ	-3001
ㅐㅁㅐ	-3002
▁ㄸㅗㄹ	-3003
ㅈㅕㄹㅏ	-3004
ㄱㅠㅈㅣㄱ	-3005
▁ㅎㅓㅇ	-3006
▁ㅇㅣㅁㅣㄴ	-3007
▁ㄱㅗㅇㅅㅏㄴ	-3008
▁ㅇㅔㄹㅈㅣ	-3009
▁ㅈㅣㅂㅇㅔ	-3010
ㄷㅡㄹㅇㅣㄷㅏ	-3011
▁ㅂㅓㅅ	-3012
▁ㄱㅡㅁㄹㅣ	-3013
ㅎㅏㄹㅕㄱㅗ	-3014
▁ㅇㅜㅂㅕㅇ	-3015
▁ㅈㅜㄴㅂㅣ	-3016
ㅡㅇㅘ	-3017
ㅇㅣㅁㅕ	-3018
ㅊㅣㄱㅏ	-3019
ㅇㅣㄹㅇㅡㄹ	-3020
▁ㅁㅜㄹㄱㅏ	-3021
ㅂㅏㄷㅇㅡㄹ	-3022
▁ㅂㅏㄱㅈㅓㅇㅎㅢ	-3023
▁i	-3024
ㅇㅣㄴㅇㅡㄹ	-3025
ㅅㅏㄹㅏㅁㅇㅡㄴ	-3026
ㅈㅣㄴㅏ	-3027
▁ㄱㅛㅎㅘㄴ	-3028
ㅎㅏㅈㅣㅁㅏㄹㅏ	-3029
▁ㅈㅏㅊㅔ	-3030
ㄷㅗㄹㅡㄹ	-3031
ㅇㅣㅇㅕ	-3032
▁ㅊㅚㅇㅏㄱ	-3033
ㅂㅏㄱㄱㅡㄴㅎㅖ	-3034
▁ㄷㅜㄹㅇㅣ	-3035
▁ㅅㅜㅅㅣㅂ	-3036
▁ㄷㅗㄹㅇㅏ	-3037
▁ㅅㅗㅅㅗㄱ	-3038
▁ㅎㅏㄹㅅㅜ	-3039
▁ㄷㅐㅎㅐ	-3040
▁ㅈㅓㄴㅇㅔ	-3041
▁ㅈㅏㅇㅕㅇㅇㅓㅂ	-3042
▁ㅇㅏㄴㄷㅡㄹ	-3043
▁M	-3044
ㅜㅁㅕㄴ	-3045
ㅇㅓㅆㄷㅓㄴ	-3046
ㅁㅜㄹㅇㅣ	-3047
▁ㅂㅏㄱㄱㅡㄴㅎㅖㄱㅏ	-3048
▁ㅅㅐㅇㄱㅏㄱㅎㅏㄴㅡㄴ	-3049
▁ㅇㅔㄱ	-3050
▁ㅇㅣㄴㄱㅏㄴㅇㅣ	-3051
▁ㅁㅣㄴㅈㅜㅈㅜㅇㅢ	-3052
▁ㅇㅟㅎㅐㅅㅓ	-3053
▁ㅁㅐㄱ	-3054
ㅈㅣㅈㅣ	-3055
ㅆㅇㅡㄹ	-3056
▁ㄱㅛㅇㅠㄱ	-3057
ㅈㅓㅎㅣ	-3058
ㅅㅔㅅㅏㅇ	-3059
ㅇㅣㄴㅅㅏㅇ	-3060
ㅂㅣㅊ	-3061
▁ㄷㅐㅊㅐㄱ	-3062
▁ㅅㅟㅂㄱㅔ	-3063
ㅎㅐㅆㄱㅗ	-3064
▁ㅅㅏㅁㅓㄱ	-3065
ㅎㅕㄹ	-3066
▁ㄷㅙㅈㅣ	-3067
ㄱㅔㅆㄷㅏㄱㅗ	-3068
ㅇㅣㄷㅗ	-3069
▁ㅎㅏㄱㅣ	-3070
ㅇㅣㄹㅇㅡㄴ	-3071
ㄱㅡㄹㅐㄷㅗ	-3072
ㄴㅜㄴ	-3073
▁ㄱㅗㅇㅇㅠ	-3074
▁ㅁㅔㅁㅂㅓ	-3075
▁ㅇㅟㅎㅓㅁ	-3076
ㄷㅐㅍㅗㄴ	-3077
▁ㄱㅜㄷㅇㅣ	-3078
▁ㄱㅣㅅㅏㄹㅡㄹ	-3079
▁ㅍㅜㅁ	-3080
ㅅㅏㅎㅚ	-3081
ㅂㅗㄴㄷㅏ	-3082
▁ㄴㅏㅁㅇㅢ	-3083
▁ㅅㅓㄹㅊㅣ	-3084
▁ㅎㅏㅈㅣㅁㅏㄹㄱㅗ	-3085
ㅅㅏㄹㅏㅇ	-3086
▁ㅈㅓㄴㅅㅔㄱㅖ	-3087
ㅇㅓㄴㄹㅗㄴ	-3088
ㅎㅚㄱ	-3089
ㅡㅈㅣ	-3090
▁ㅇㅡㅁㅅㅣㄱ	-3091
▁ㅎㅘㄱㅅㅣㄹㅎㅣ	-3092
ㅇㅣㅁㄱㅡㅁ	-3093
ㅋㅐ	-3094
▁ㄱㅕㅇㅇㅜ	-3095
▁ㄱㅏㄱㅔ	-3096
▁m	-3097
ㅅㅗㅅ	-3098
▁ㅂㅜㅈㅏ	-3099
ㅇㅕㄴㄱㅣ	-3100
ㄹㅏㅅㅓ	-3101
ㅆㄷㅓㄴ	-3102
▁ㄱㅙㄴㅎㅣ	-3103
ㄹㅕㄱㅇㅡㄹ	-3104
▁ㄱㅜㄱㅡㄹ	-3105
ㄱㅓㄴㅡㄴ	-3106
▁ㄱㅜㄱㅈㅔ	-3107
▁ㄷㅗㅇㅜㅁ	-3108
ㄲㅜㄴ	-3109
▁ㅇㅣㄹㅣ	-3110
ㅈㅗㅈㅏㄱ	-3111
ㅁㅜㅅ	-3112
ㅘㅇㅑ	-3113
▁ㅈㅓㄴㅈㅐㅇ	-3114
▁ㅈㅗㅎㅇㅏㅆ	-3115
▁ㅈㅣㅂㄷㅏㄴ	-3116
ㅎㅏㅈㅣㅇㅏㄶ	-3117
▁ㄱㅣㅈㅜㄴ	-3118
▁ㄴㅜㄴㅊㅣ	-3119
▁ㄴㅏㅅㅓ	-3120
▁ㄱㅕㄴ	-3121
ㄴㅣㄷㅏ	-3122
ㅇㅣㅇㅠ	-3123
ㄱㅚ	-3124
▁ㅇㅣㅃㅡㄴ	-3125
▁ㅎㅏㄴㅡㄹ	-3126
▁ㅅㅓㄱ	-3127
ㅎㅏㄱㅣㄴ	-3128
▁ㅇㅠㅌㅗㅇ	-3129
ㄱㅣㄹㅛ	-3130
ㅐㄴㄷㅡ	-3131
▁ㅎㅘㄱㅇㅣㄴ	-3132
▁ㅇㅕㅇㅇㅝㄴ	-3133
▁ㅎㅐㄴㄷㅡㅍㅗㄴ	-3134
ㅈㅗㄱㅕㅇㅈㅔ	-3135
ㄷㅣㅇㅓ	-3136
ㄷㅗㄴㅡㄴ	-3137
▁ㅁㅗㄹㅡㄱㅔㅆ	-3138
▁ㅇㅣㄹㅓㄴㄱㅓ	-3139
ㄹㅚ	-3140
▁ㄷㅐㅍㅛ	-3141
ㄱㅡㄹㅓㅁ	-3142
er	-3143
ㄹㅏㅁㅕㄴ	-3144
ㄷㅐㅅㄱㅡㄹ	-3145
ㅎㅏㄹㅓ	-3146
ㄷㅡㄹㅏㅁㅏ	-3147
▁ㄱㅐㅅㅗㄹㅣ	-3148
▁ㄱㅗㄱㅐㄱ	-3149
▁T	-3150
ㅅㅏㄹㅗ	-3151
▁ㅇㅐㅊㅗㅇㅔ	-3152
▁ㅎㅐㅊㅔ	-3153
▁ㅎㅏㅈㅏ	-3154
▁ㅇㅏㄴㅁㅓㄱ	-3155
ㅅㅡㅌㅏ	-3156
▁ㅇㅏㄴㅣㄹㅏㄱㅗ	-3157
ㄴㅓ	-3158
ㅕㄴㅏ	-3159
ㄲㅜㄹ	-3160
ㅆㅡㅁ	-3161
▁ㅇㅟㅅ	-3162
▁ㅊㅏㅈㅇㅏ	-3163
~!	-3164
ㅈㅣㄴㅔ	-3165
▁ㅈㅣㅂㅇㅔㅅㅓ	-3166
ㅠㅠㅠ	-3167
ㅇㅣㅌㅡ	-3168
▁ㄷㅗㅇㅘ	-3169
ㅇㅣㄱㅓㄴ	-3170
▁ㅎㅎㅎ	-3171
▁ㅎㅖㅌㅐㄱ	-3172
▁ㅎㅏㄴㅁㅏ	-3173
ㅏㄴㅔ	-3174
▁ㄹㅗㅂㅗㅅ	-3175
▁ㅇㅏㅇㅣㅇㅠ	-3176
▁ㅇㅏㅁㅜㄱㅓㅅㄷㅗ	-3177
▁ㅇㅐㄱ	-3178
▁500	-3179
ㅇㅜㄹㅣ	-3180
▁ㅁㅜㄴㅈㅐㅇㅣㄴ	-3181
ㅇㅣㄱㅣ	-3182
ㅂㅜㄹㅁㅐ	-3183
ㅣㅂㄴㅣㄷㅏ	-3184
ㅕㅅ	-3185
ㅊㅡ	-3186
ㄱㅓㄹㅏㄱㅗ	-3187
ㅈㅏㅇㅇㅡㄴ	-3188
ㅁㅜㄱ	-3189
▁ㅈㅔㅁㅗㄱ	-3190
▁300	-3191
ㄷㅐㅅㅏㅇ	-3192
ㅂㅜㄴㅇㅣ	-3193
ㅈㅔㅂㅏㄹ	-3194
▁ㅇㅏㄹㄹㅕ	-3195
▁ㅁㅕㅊㄴㅕㄴ	-3196
▁ㅁㅏㄹㅇㅏㅁㅓㄱ	-3197
▁ㅋㅡㄱㅔ	-3198
▁ㅇㅣㄹㅐㅅㅓ	-3199
ㄱㅜㄴㅇㅛ	-3200
▁ㅅㅏㄹㅇㅏㄴ	-3201
▁ㅅㅣㅁㄱㅏㄱ	-3202
ㅅㅡㄱㅏ	-3203
ㅇㅕㅎㅐㅇ	-3204
ㅈㅓㄴㅈㅏ	-3205
▁ㅈㅗㅎㅇㅏㅎㅏㄴㅡㄴ	-3206
▁ㄱㅐㅇ	-3207
▁ㄱㅡㅈㅓ	-3208
▁ㄷㄷ	-3209
ㄱㅏㅁㅇㅣ	-3210
▁ㅎㅕㄹㅅㅔ	-3211
▁ㅂㅏㄹㅏㅂㄴㅣㄷㅏ	-3212
ㅇㅓㄱㅏㄹ	-3213
▁ㅎㅘㄴㅂㅜㄹ	-3214
ㄷㅓㅁ	-3215
ㅍㅓㅇ	-3216
ㅂㅏㅇㅇㅔ	-3217
▁ㅇㅜㅁ	-3218
▁ㅎㅜㄹ	-3219
ㅓㄹㅏㄱㅗ	-3220
ㅂㅔㄹ	-3221
▁ㅇㅏㄶㄴㅏ	-3222
ㅇㅓㅆㅈㅣ	-3223
▁ㅃㅐㄱㅗ	-3224
▁ㄷㅗㄴㅇㅡㄴ	-3225
ㅅㅡㅂㄴㅣㄲㅏ	-3226
ㄲㅡㅅ	-3227
ㅆㅣㄱㅏ	-3228
▁ㄱㅏㅂㅈㅏㄱㅣ	-3229
ㅁㅝㄴ	-3230
ㄹㅑㄱ	-3231
▁ㅁㅜㄴㅈㅔㄴㅡㄴ	-3232
,,,,	-3233
▁19	-3234
ㅂㅗㄴㅐ	-3235
▁ㅅㅐㄴㅜㄹㅣㄷㅏㅇ	-3236
▁ㅇㅓㅁㅊㅓㅇㄴㅏㄴ	-3237
ㅠㄴㅅㅓㄴ	-3238
▁ㅂㅓㅂㅇㅡㄹ	-3239
▁ㅇㅣㅆㅇㅓㅅㅓ	-3240
▁ㄴㅏㄹㅏㅇㅔㅅㅓ	-3241
▁ㅉㅗ	-3242
ㅘㄹ	-3243
ㅇㅓㄷㅡㄹ	-3244
ㅊㅚㅅㅜㄴㅅㅣㄹ	-3245
ㅈㅏㅁㅏㄴ	-3246
ㄱㅔㅆㅈㅛ	-3247
ㅇㅣㄴㄱㅏㅇㅛ	-3248
▁ㅇㅞ	-3249
ㅎㅏㄴㄱㅓㅅ	-3250
ㅇㅓㅆㄴㅏ	-3251
▁ㅂㅏㄴㄱㅣㅁㅜㄴ	-3252
▁ㅊㅜㄹㅅㅣ	-3253
▁ㅈㅏㄱㅣㄱㅏ	-3254
▁ㅈㅗㅎㅇㅡㄴㄷㅔ	-3255
ㅕㄷㅗ	-3256
▁ㅂㅏㅁ	-3257
ㅇㅕㅁ	-3258
ㅎㅏㅎㅏ	-3259
▁ㅋㅗ	-3260
▁ㅎㅘㄴㄱㅕㅇ	-3261
ㅈㅣㄱㅇㅝㄴ	-3262
ㅋㅟ	-3263
▁ㅇㅖㅅㅏㅇ	-3264
ㅈㅣㄴㅇㅜㄱ	-3265
▁ㄴㅐㄱㅗ	-3266
▁ㅈㅓㄴㅎㅘ	-3267
ㄱㅣㅅㅜㄹ	-3268
ㅇㅣㅆㅇㅓ	-3269
ㅂㄱㅗ	-3270
ㄸㅔ	-3271
▁http	-3272
▁ㄷㅗㄲㅐ	-3273
▁ㄱㅏㅈㅣ	-3274
ㅎㅏㅅㅕㅆ	-3275
▁ㅈㅓㅇㅊㅣㅇㅣㄴ	-3276
▁ㅈㅣㄴㅏㄴ	-3277
ㅎㅐㅂㅗ	-3278
ㄷㅚㅂㄴㅣㄷㅏ	-3279
ㄴㅗㅁㄷㅡㄹㅇㅣ	-3280
▁ㅋㅔ	-3281
ㅅㅐㄲㅣ	-3282
ㅅㅜㅅㅏ	-3283
ㅎㅐㅈㅜㅅㅔㅇㅛ	-3284
▁c	-3285
ㅎㅐㅈㅝ	-3286
ㅁㅏㄶㅇㅣ	-3287
▁ㅈㅔㅈㅏㄱ	-3288
ㅊㅗㄴ	-3289
▁ㄴㅏㅂ	-3290
▁ㄴㅓㄹ	-3291
ㄱㅜㄱㅇㅣ	-3292
▁ㅊㅣㄴㄱㅜ	-3293
▁ㅁㅏㅇㅎㅏㄹ	-3294
▁ㅈㅣㄱㅏ	-3295
▁ㄱㅘㅇㅎㅢ	-3296
ㅎㅐㅆㅈㅣ	-3297
ㅌㅔㄴㅣ	-3298
▁ㅇㅣㄴㅗㅁ	-3299
ㅈㅐㅅㅏㄴ	-3300
▁ㅋㅋㅋㅋㅋㅋㅋ	-3301
▁ㅂㅗㅇㅣ	-3302
▁ㄱㅣㄱㅏㄱ	-3303
▁ㅂㅕㄴㅎㅗ	-3304
ㅇㅏㅈㅜ	-3305
▁ㅇㅗㄹㄹㅣ	-3306
▁ㅁㅏㅊㅏㄴ	-3307
▁ㅇㅓㅁㅁㅏ	-3308
▁ㄱㅡㄹㅐㅇㅑ	-3309
▁ㅇㅑㅇㅇㅏㅊㅣ	-3310
▁ㅂㅐㅂㅜㄹ	-3311
▁ㅅㅡㅌㅏ	-3312
▁ㄱㅣㄹㅡㅁ	-3313
▁ㅈㅗㅅㅣㅁ	-3314
▁ㅋㅏㄷㅡ	-3315
ㅋㅋㅋㅋㅋㅋㅋ	-3316
▁ㅇㅓㅄㅇㅡㄴㅣ	-3317
ㄷㅏㄴㄷㅏ	-3318
ㅇㅣㄹㄲㅏ	-3319
▁ㅋㅏㄹ	-3320
ㅈㅐㅍㅏㄴ	-3321
ㅎㅐㅈㅜㄴㅡㄴ	-3322
▁ㄸㅡㅅ	-3323
ㄸㅐㄲㅏㅈㅣ	-3324
▁ㄱㅕㅇㅊㅏㄹ	-3325
ㅊㅕㄴ	-3326
▁ㅂㅗㅁ	-3327
ㅎㅏㄷㅏㄱㅏ	-3328
▁ㅍㅕㅇㄱㅠㄴ	-3329
▁ㅈㅣㄷㅗ	-3330
ㅊㅕㅅㅓ	-3331
ㅅㅣㅋㅣㄴㅡㄴ	-3332
com	-3333
▁ㅂㅜㅌㅏㄱ	-3334
▁ㅌㅣㅂㅣ	-3335
▁ㅂㅣㄱ	-3336
ㅌㅏㄴㅎㅐㄱ	-3337
▁ㅇㅓㄹㅕㅂ	-3338
ㅗㄹㅗ	-3339
ㅎㅎㅎㅎ	-3340
▁ㅇㅏㅁㅏ	-3341
ㅃㅐ	-3342
ㅈㅏㅂㄱㅗ	-3343
ㄷㅚㄴㅡㄴㄷㅔ	-3344
ㅂㅗㄷㅏㄴㅡㄴ	-3345
ㅇㅓㄸ	-3346
▁ㅆㅡㅁㅕㄴ	-3347
▁ㅇㅕㅈㅏㄷㅡㄹ	-3348
ㅇㅣㅆㄴㅏ	-3349
ㅣㅇㅘ	-3350
ㅇㅓㅆㄴㅔ	-3351
ㅅㅏㅇㅓㅂ	-3352
▁ㅎㅢㅁㅏㅇ	-3353
ㅂㅜㄹㅗ	-3354
ㅇㅟㅎㅐ	-3355
▁ㄱㅡㅁㅏㄴㅋㅡㅁ	-3356
▁ㅈㅘㅍㅏ	-3357
ㅍㅗㄱㅎㅐㅇ	-3358
▁ㅂㅏㄷㅇㅡㄴ	-3359
▁ㅇㅏㄴㅣㅈㅣ	-3360
▁ㄱㅜㅁㅐ	-3361
▁ㅎㅏㅅㅔㅇㅛ	-3362
ㅎㅏㄴㅡㄴㄱㅓㅅ	-3363
ㅎㅏㄷㅏㄴㅡㄴ	-3364
▁ㅌㅡㄹㅓㅁ	-3365
ㄹㅠㄴ	-3366
▁ㅅㅏㄱㅟ	-3367
ㅇㅣㅆㄱㅔ	-3368
ㅉㅡㅅ	-3369
▁ㅅㅔㄱㅡㅁㅇㅡㄹ	-3370
▁C	-3371
▁ㄷㅏㄹㄹㅏ	-3372
ㅇㅜㄴㅡㄴ	-3373
ㄴㅕㄴㄷㅐ	-3374
▁ㅂㅣㅊ	-3375
ㅎㅐㅇㅜㄴ	-3376
ㅡㄴㅔ	-3377
▁ㄱㅏㅁㅕㄴ	-3378
▁ㄱㅏㅂㅈㅣㄹ	-3379
ㅣㅁㅇㅣ	-3380
▁ㅊㅏㅇㅈㅗㄱㅕㅇㅈㅔ	-3381
ㅇㅕㅅㅓ	-3382
ㅓㅂㅠ	-3383
ㅎㅐㅈㅣㄴ	-3384
ㅇㅣㅆㄴㅑ	-3385
ㄷㅐㅇㅢ	-3386
▁ㅅㅏㄴㄷㅏ	-3387
ㅇㅕㅇㅅㅏㅇ	-3388
ㅇㅣㄹㅃㅜㄴ	-3389
ㅈㅕㅆㄷㅏ	-3390
ㅅㅏㅇㅛㅇ	-3391
ㅇㅓㅆㄱㅗ	-3392
▁ㅎㅏㄴㄱㅜㄱㅇㅔㅅㅓ	-3393
ㅈㅏㄹㅁㅗㅅ	-3394
▁ㅍㅜㅇ	-3395
ㄴㅓㅁㅜ	-3396
ㅈㅜㄹㅇㅏㄹ	-3397
▁ㄱㅡㄹㅓㅎㄱㅗ	-3398
ㅏㅇㅘ	-3399
ㄸㅐㄷㅗ	-3400
▁ㄸㅏㄹㅗ	-3401
ㅇㅣㅆㅇㅡㅁㅕㄴ	-3402
ㄷㅏㄹㄹㅏㄱㅗ	-3403
ㅅㅏㄴㄷㅏ	-3404
ㄱㅏㅇㅓㅄ	-3405
▁ㅈㅗㅎㄱㅗ	-3406
▁ㅊㅣㅋㅣㄴ	-3407
▁ㅈㅗㅇㅛㅇㅎㅣ	-3408
ㄴㅕㄴㄷㅗㅇㅇㅏㄴ	-3409
ㅇㅣㄹㅂㅗㄴ	-3410
▁ㅇㅓㅇㅜㄹ	-3411
~~~~~	-3412
▁ㄸㅐㄹㅕ	-3413
ㅇㅣㄴㅣㄲㅏ	-3414
ㅈㅜㄱㅣ	-3415
ㅅㅣㅇㅔ	-3416
ㅑㅈㅣ	-3417
▁ㄲㅡㅌㄴㅏ	-3418
ㅕㅂㄷㅏ	-3419
▁ㅍㅏㅇㅓㅂ	-3420
ㄱㅓㅇㅔ	-3421
▁ㄸㅗㄱㄱㅏㅌㅇㅣ	-3422
▁=	-3423
▁ㅇㅕㅇㅇㅓㅂ	-3424
ㅅㅣㄴㅇㅣ	-3425
▁ㅈㅣㄱㅈㅏㅇ	-3426
▁ㅇㅜㄱ	-3427
▁ㅋㅗㅇ	-3428
ㅅㅏㅇㅢ	-3429
ㄱㅔㅆㄴㅏ	-3430
ㅇㅜㄹㅣㄴ	-3431
ㅎㅏㄹㄱㅔ	-3432
..?	-3433
▁ㅂㅗㄱㄱㅟ	-3434
ㅌㅡㄴㅡㄴ	-3435
▁ㄱㅓㄴㅁㅜㄹ	-3436
▁ㅎㅏㄴㅅㅣㅁㅎㅏㄴ	-3437
▁ㅆㅏㅎ	-3438
▁ㅂㅣㅆㅏㄱㅔ	-3439
▁ㅅㅏㅇㄷㅐ	-3440
▁ㅈㅓㄴㅊㅔ	-3441
ㅎㅏㄱㅔㅆㅈㅣ	-3442
▁ㅈㅏㄷㅗㅇㅊㅏ	-3443
▁ㅁㅕㄹ	-3444
ㅇㅏㄴㅐ	-3445
▁ㄴㅣㄷㅡㄹㅇㅡㄴ	-3446
ㅇㅡㄴㅎㅐㅇ	-3447
ㄱㅗㄱㅣ	-3448
ㅅㅣㄷㅏ	-3449
▁ㄱㅡㅁㅇㅠㅇ	-3450
▁ㅂㅏㄲㅝ	-3451
▁ㅅㅏㅈㅏㅇ	-3452
▁ㅆㅓㄱㅇㅡㄴ	-3453
ㅇㅡㄹㅗㄴ	-3454
ㅗㅎㅇㅡㄴ	-3455
▁ㄱㅓㅅㄷㅡㄹ	-3456
ㅎㅏㄴㄷㅏㅁㅕㄴ	-3457
▁LG	-3458
ㅇㅣㅇㅕㅆ	-3459
▁ㅇㅕㄱㅅㅏ	-3460
▁ㅎㅏㅂㅇㅢ	-3461
▁ㄱㅘㅎㅏㄱ	-3462
▁ㅈㅜㅇㅣㄴ	-3463
▁ㄱㅖㅅㅏㄴ	-3464
▁ㄹㅣㅋㅗㄹ	-3465
ㅊㅏㅈ	-3466
ㅏㄱㅣ	-3467
ㅗㅈㅣ	-3468
▁ㅇㅗㄴㄱㅏㅈ	-3469
ㅈㅣㅂㅎㅚ	-3470
ㄴㅕㄴㄱㅏㄴ	-3471
▁70	-3472
ㅍㅗㄱㅌㅏㄴ	-3473
▁ㅌㅜㄱ	-3474
ㅇㅣㄹㅇㅔ	-3475
▁ㄴㅜㄱㅜㄹ	-3476
ㅎㅐㅆㄷㅏㄴㅡㄴ	-3477
▁ㅂㅣㅆㅏ	-3478
ㅏㄴㅏ	-3479
ㅅㅓㅇㅑ	-3480
▁ㅈㅓㄴㄱㅣㄹㅛ	-3481
▁ㄷㅏㅁㅂㅐㄱㅏㅄ	-3482
▁ㅅㅏㄹㅏㅁㅇㅡㄹ	-3483
▁ㅁㅓㅇㅊㅓㅇㅎㅏㄴ	-3484
▁ㅃㅣㅇ	-3485
▁ㅂㅏㄷㅇㅏㅆ	-3486
▁ㅂㅜㄹㅇㅏㄴ	-3487
ㅈㅏㄶㅇㅏㅇㅛ	-3488
▁ㄷㅚㅁ	-3489
ㅈㅗㅈㅓㅇ	-3490
▁ㅈㅏㄱㅕㄱ	-3491
▁ㅅㅐㅇㄱㅕㅆ	-3492
▁ㄷㅚㄴㅡㄴㄷㅔ	-3493
▁ㅇㅐㄷㅡㄹㅇㅣ	-3494
ㄷㅡㄷ	-3495
▁ㅁㅏㄴㅋㅡㅁ	-3496
▁ㅁㅗㄴ	-3497
▁ㄱㅗㅇㄱㅣㅇㅓㅂ	-3498
▁ㅈㅓㄱㄷㅏㅇㅎㅣ	-3499
▁ㅊㅜㅇㅂㅜㄴㅎㅣ	-3500
ㅏㄴㅡㄴㄱㅓ	-3501
▁ㅈㅐㄱ	-3502
▁ㅈㅏㄹㅅㅐㅇ	-3503
ㄸㅡㅅ	-3504
ㅈㅏㅇㅑ	-3505
▁ㄴㅗㅎㄱㅗ	-3506
▁ㅉㅏㅇㄱㅐ	-3507
▁ㅅㅜㄱㅗ	-3508
ㅈㅏㅇㅔㄱㅔ	-3509
▁ㅅㅣㄹㄹㅕㄱ	-3510
▁ㄷㅐㄷㅏㄴㅎㅏㄴ	-3511
ㄷㅜㄴ	-3512
▁ㅅㅐㅇㄱㅏㄱㅇㅡㄹ	-3513
ㅇㅗㅇ	-3514
ㅂㅡ	-3515
ㅇㅣㅇㅣㄱ	-3516
ㅊㅓㄴㅇㅓㄱ	-3517
ㄱㅜㄱㅁㅣㄴㅇㅣ	-3518
▁ㅂㅜㅍㅐ	-3519
▁ㅇㅙㅇㅣㄹ	-3520
ㅅㅗㅎ	-3521
▁ㄷㅜㄱㅗ	-3522
▁ㅎㅠㄷㅐㅍㅗㄴ	-3523
▁ㅎㅏㅊㅏ	-3524
▁ㅌㅐㄱㅡㄱ	-3525
▁ㅇㅟㅈㅡㅇ	-3526
▁ㅇㅏㅁㅜㄹ	-3527
▁ㅈㅜㅇㄱㅜㄱㅇㅡㄴ	-3528
ㄴㅗㅌㅡ	-3529
ㅕㅆㄴㅔ	-3530
ㅇㅓㅄㄴㅔ	-3531
▁ㅎㅏㅊㅓㅇ	-3532
ㅈㅜㄷㅗ	-3533
▁ㄱㅗㅇㅈㅏㅇ	-3534
ㅅㅡㄹㅓㅂㄷㅏ	-3535
ㄹㅏㄴㅂㅓㅂ	-3536
ㅂㅜㄴㅇㅔ	-3537
▁ㅈㅏㅂㅗㄴ	-3538
▁ㄹㅏㄱㅗ	-3539
▁ㅈㅣㄱㅜ	-3540
ㅇㅡㄹㅅㅜ	-3541
ㅁㅣㄷ	-3542
▁ㄷㅓㅇㅜㄱ	-3543
▁ㅇㅜㅅㅓㄴ	-3544
▁ㅎㅏㅈㅣㅁㅏㄹㅏ	-3545
▁ㅍㅕㄴㅇㅢ	-3546
ㄴㅗㅈㅗ	-3547
▁ㅌㅓㅈㅣ	-3548
ㅂㅓㄴㅡㄴ	-3549
**	-3550
▁ㄷㅐㅅㅣㄴ	-3551
▁ㅋㅐㄹㅣㄱ	-3552
▁ㄱㅕㅇㅈㅔㄱㅏ	-3553
▁ㅈㅜㅈㅏㅇ	-3554
▁ㅁㅐㄹㅕㄱ	-3555
▁ㅇㅓㅉㅐ	-3556
ㅅㅏㅅㅣㄹ	-3557
▁ㅅㅣㅀㄷㅏ	-3558
ㅅㅓㄱㅎㅢ	-3559
▁ㅅㅓㅇㅈㅏㅇ	-3560
ㅅㅣㅋㅕㅇㅑ	-3561
ㅎㅣㄴㅡㄴ	-3562
▁ㅈㅓㅇㅈㅏㄱ	-3563
▁ㄱㅏㅁㅏㄴㅎㅣ	-3564
ne	-3565
TBC	-3566
ㅎㅏㅅㅣㄴㅡㄴ	-3567
▁ㅇㅗㄹㅡㄴ	-3568
▁ㅅㅣㅍㅇㅡㄴ	-3569
▁ㅇㅏㄴㅣㅇㅑ	-3570
ㄷㅗㅈㅓㄴ	-3571
ㅐㅂ	-3572
▁ㄲㅗㅁ	-3573
ㅅㅓㅇㅇㅡㄴ	-3574
▁ㄱㅣㅁㄷㅐㅈㅜㅇ	-3575
▁ㄲㅐㄲㅡㅅ	-3576
▁ㅈㅓㅇㅈㅜㄴㅇㅕㅇ	-3577
▁ㅍㅏㄹㅇㅏㅁㅓㄱ	-3578
▁ㅇㅓㅄㅅㅡㅂㄴㅣㄷㅏ	-3579
ㅁㅓㄹㅣ	-3580
▁ㅂㅗㄱㅓㅁ	-3581
▁ㅈㅓㅇㅎㅘㄱ	-3582
▁ㅈㅜㅇㄱㅜㄱㅇㅔ	-3583
▁ㅅㅗㅎ	-3584
▁ㄴㅣㅁ	-3585
ㅏㅇㅓㅄ	-3586
ㅈㅏㄹㅏㅇ	-3587
▁ㄴㅐㄴㅡㄴ	-3588
ㄷㅔㄹ	-3589
▁ㅇㅣㅇㅠㄴㅡㄴ	-3590
ㅇㅓㄴㅗㅎㄱㅗ	-3591
ㄱㅔㅆㄷㅏㄴㅡㄴ	-3592
ㅅㅡㄹㅓㅂㄱㅔ	-3593
▁ㅇㅓㄹㅕㅇㅜㄴ	-3594
▁ㅅㅜㅇㅣㄱ	-3595
ㅐㅁㅓㄱ	-3596
ㅜㅁㅕㅇ	-3597
ㅉㅏㄹㅗ	-3598
▁ㅇㅗㄹㄹㅣㄴ	-3599
▁ㅍㅏㄴㄱㅕㄹ	-3600
▁ㅇㅣㅈㅣㄴㅇㅜㄱ	-3601
▁ㄱㅏㅅ	-3602
ㅅㅔㄹㅕㄱ	-3603
ㅈㅏㄴㅣㅁ	-3604
▁ㅈㅗㅇㅠㄴㅅㅓㄴ	-3605
ㅈㅕㄴ	-3606
ㅈㅗㅊㅏ	-3607
ㅣㄹㅏㅇ	-3608
ㅆㄷㅏㄱㅏ	-3609
▁ㄷㅡㄹㅇㅣ	-3610
▁k	-3611
▁ㅇㅓㅎㅠ	-3612
▁ㄱㅡㄹㅜㅂ	-3613
▁ㅅㅜㄴㄱㅏㄴ	-3614
▁ㅈㅘㅃㅏㄹ	-3615
ㅓㄱㅜ	-3616
▁ㄱㅏㅍ	-3617
ㅇㅣㅂㅓㄴ	-3618
▁ㅈㅐㅍㅏㄴ	-3619
▁ㅁㅏㄴㅇㅑㄱ	-3620
▁ㅁㅜㄱㅣ	-3621
▁ㅅㅏㄹㅏㅁㄷㅗ	-3622
ㅎㅘㅁㅜㄴ	-3623
ㄱㅓㄱ	-3624
▁ㅈㅣㄴㅏ	-3625
ㄱㅣㄹㄹㅐ	-3626
▁ㅁㅏㅇㅣㄴ	-3627
▁ㅇㅣㄷㅡㄱ	-3628
ㄷㅐㅊㅜㄹ	-3629
▁ㄴㅏㅇㅗㄴㄷㅏ	-3630
ㅉㅏㄹ	-3631
▁ㅇㅜㅂㅕㅇㅇㅜ	-3632
ㄷㅏㅅㅣ	-3633
ㅎㅏㄷㅓㄹㅏ	-3634
ㄷㅡㄱㄱㅝㄴ	-3635
▁ㅌㅡㄱㄱㅓㅁㅇㅣ	-3636
ㅎㅏㄴㅁㅣㄴㄱㅜㄱ	-3637
ou	-3638
ㅈㅣㄴㅇㅣ	-3639
▁ㅅㅣㄴㄱㅗ	-3640
ㅅㅡㅌㅔㅁ	-3641
▁ㅁㅐㅇㅣㄹ	-3642
▁ㅁㅏㄹㅎㅏㄴㅡㄴ	-3643
ㅍㅣㄱ	-3644
▁ㅇㅠㄹㅓㅂ	-3645
▁ㅇㅚㄱㅛ	-3646
▁ㄱㅏㅅㅡㅁ	-3647
▁ㄱㅕㅇㅇㅠ	-3648
▁ㅈㅜㅌㅐㄱ	-3649
▁ㅆㅡㄹㄷㅔ	-3650
▁ㅇㅠㅇㅣㄹ	-3651
▁ㄸㅓㄴㅏ	-3652
▁ㅅㅣㄱㄷㅏㅇ	-3653
▁ㄴㅗㅍㅇㅡㄴ	-3654
ㅈㅣㄹㅇㅣ	-3655
▁ㅇㅕㄴㄱㅡㅁ	-3656
ㅁㅓㄴㅣ	-3657
▁ㄱㅗㅌㅗㅇ	-3658
▁ㅇㅏㅈㅜㅁㅁㅏ	-3659
▁ㅃㅏㄱ	-3660
▁ㅇㅜㄹㅣㄷㅗ	-3661
ㅅㅏㅇㅇㅡㄹ	-3662
ㅊㅝ	-3663
▁ㅁㅜㄴㅓ	-3664
▁ㅂㅗㄱㅈㅣ	-3665
▁ㄴㅓㅁㅇㅓ	-3666
▁ㄱㅓㄴㅅㅓㄹ	-3667
ㅕㅆㅇㅡㅁㅕㄴ	-3668
▁ㅂㅡㄹㄹㅐㄱㄹㅣ	-3669
▁ㅇㅣㅆㅈㅣㅁㅏㄴ	-3670
▁ㅁㅏㄴㄷㅡㄹㅇㅓㅅㅓ	-3671
▁ㄱㅓㅂㄴㅏ	-3672
▁ㅁㅗㅈ	-3673
ㄴㅕㄴㄷㅗ	-3674
▁ㅊㅐㅇㄱㅕ	-3675
▁ㄴㅏㅁㅍㅕㄴ	-3676
ㅎㅐㅈㅜㄹ	-3677
ㄴㅡㄴㄱㅏ	-3678
ㅂㅏㄷㅇㅡㄴ	-3679
▁ㅇㅣㄴㅌㅓㅂㅠ	-3680
500	-3681
▁!!	-3682
▁ㅋㅣ	-3683
ㄱㅡㄹㅐ	-3684
ㄷㅏㄴㄱㅖ	-3685
▁ㄱㅕㄹㄹㅗㄴ	-3686
~^^	-3687
ㅣㅁㅕ	-3688
▁ㅇㅔㅁ	-3689
▁ㅁㅣㄴㅈㅗㄱ	-3690
▁0	-3691
▁ㅁㅗㄹㅡㄱㅔㅆㄷㅏ	-3692
ㅓㅁㅜ	-3693
ㅂㅜㄱㅏ	-3694
▁ㅎㅏㄹㅇㅣㄴ	-3695
ㅃㅏㅈㅣㄴ	-3696
▁ㄴㅜㄴㅁㅜㄹ	-3697
▁ㅈㅓㄴㄹㅏㄷㅗ	-3698
ㄱㅣㅁㅕㄴ	-3699
▁ㅂㅜㄴㅇㅑㅇ	-3700
▁ㅈㅣㅂㅏㅇ	-3701
ㅂㅣㄹㅡㄹ	-3702
ㅗㅁㅣ	-3703
▁g	-3704
▁ㅂㅏㄹㅅㅐㅇ	-3705
▁ㅇㅣㅆㅇㅡㄹㄲㅏ	-3706
ㅇㅣㄴㄷㅡㄹㅇㅡㄴ	-3707
▁ㅈㅜㅇㅇㅛㅎㅏㄴ	-3708
▁ㅈㅏㄹㅁㅗㅅㄷㅚㄴ	-3709
▁ㄸㅐㅁ	-3710
▁ㅈㅗㄴㄴㅏ	-3711
▁ㅅㅔㄴ	-3712
▁ㅇㅕㄹㅓ	-3713
!!!!!!	-3714
▁ㅇㅗㄹㄹㅣㄱㅗ	-3715
id	-3716
ㄱㅡㅁㅏㄴ	-3717
▁ㅇㅓㅄㄷㅏㄴㅡㄴ	-3718
ㅈㅔㄱㅏ	-3719
▁ㄱㅏㅈㄱㅗ	-3720
▁ㅂㅓㄹㅇㅓ	-3721
▁p	-3722
ㅂㅘㅆㅈㅏ	-3723
ㅇㅣㅅㅡ	-3724
▁ㅈㅣㄱㅇㅓㅂ	-3725
ㅎㅏㄱㅔㅆㄷㅏ	-3726
ㅓㅇㅢ	-3727
▁ㅋㅗㄴ	-3728
ㄲㅏㅇㅜㄴ	-3729
ㅊㅏㄴㅡㄴ	-3730
▁ㅁㅗㅅㅎㅏㄹ	-3731
▁ㅈㅜㅇㄱㅏㄴ	-3732
▁ㅇㅣㄱㅓㅅㄷㅗ	-3733
▁ㄷㅗㄴㄷㅗ	-3734
ㅇㅡㄹㅗㄷㅗ	-3735
ㅅㅣㄴㅏ	-3736
▁ㅈㅏㅇㄱㅘㄴ	-3737
▁ㅎㅡㄱ	-3738
▁ㄷㅐㅎㅕㅇ	-3739
▁ㅇㅏㄴㄴㅐ	-3740
▁ㄱㅓㅅㄷㅡㄹㅇㅣ	-3741
ㅅㅏㄷㅡㄹ	-3742
▁ㄴㅐㄹㅕㅇ	-3743
▁ㅎㅏㄴㄷㅏㄴㅡㄴ	-3744
▁ㅁㅣㅇㅏㄴ	-3745
ㅎㅐㅈㅜㄱㅗ	-3746
▁ㄱㅣㅅㅏㄴ	-3747
▁ㅁㅐㅇ	-3748
ㄸㅐㅂㅜㅌㅓ	-3749
▁ㅍㅣㄹㅇㅛㅎㅏㄴ	-3750
▁ㅂㅏㄱㄱㅡㄴㅎㅖㄴㅡㄴ	-3751
ㅁㅏㄹㄹㅗ	-3752
▁ㄷㅜㅂㅓㄴ	-3753
▁ㅎㅐㅆㅇㅡㅁㅕㄴ	-3754
▁ㄴㅘ	-3755
▁ㅃㅜㄹ	-3756
ㅎㅟㅈㅐ	-3757
▁ㅎㅏㄴㄱㅜㄱㅇㅣ	-3758
▁ㄷㅐㅅ	-3759
▁ㅉㅗㅁ	-3760
ㄱㅜㄱㅇㅔ	-3761
▁ㅎㅏㄴㄱㅜㄱㅇㅔ	-3762
ㅅㅏㄹㅏㅁㄷㅡㄹㅇㅣ	-3763
ㅍㅏㄹㅇㅣ	-3764
▁ㅊㅓㅁㅓㄱ	-3765
ㅂㅓㄹㅣㄱㅗ	-3766
ㅁㅐㄱ	-3767
▁ㄷㅏㄴㅅㅜㄴ	-3768
ㅇㅒ	-3769
▁ㅎㅏㄴㅌㅔ	-3770
▁ㄱㅏㅌㅇㅡㅁ	-3771
▁ㄱㅣㅁㅈㅓㅇㅇㅡㄴ	-3772
▁jtbc	-3773
ㅊㅏㅁㅇㅔ	-3774
▁ㅈㅓㅇㄹㅣ	-3775
▁ㅊㅟㄱㅡㅂ	-3776
▁ㄴㅔㅇㅣㅂㅓ	-3777
▁ㅇㅣㄴㄱㅗㅇ	-3778
▁ㄴㅗㅁㄷㅡㄹㅇㅣ	-3779
ㄴㅣㅇ	-3780
▁ㄱㅣㅁㅎㅐ	-3781
ㅎㅐㅆㅇㅡㄹ	-3782
ㄴㅐㄱㅏ	-3783
ㄸㅏㄹㅏ	-3784
▁ㅈㅏㄹㅅㅏㄹ	-3785
▁ㅂㅜㄴㅇㅟ	-3786
▁ㅎㅘㅈㅏㅇ	-3787
ㅅㅣㅁㅕㄴ	-3788
▁ㅁㅐㄱㅜㄱ	-3789
▁ㅈㅣㅂㅇㅏㄴ	-3790
ㅕㅆㅇㅡㅁ	-3791
▁ㅁㅏㅊㅏㄴㄱㅏㅈㅣ	-3792
▁ㅅㅣㄹㅁㅏㅇ	-3793
▁ㅍㅗㅎㅏㅁ	-3794
ㅎㅏㄷㅓㄴㄷㅔ	-3795
▁ㄷㅐㅌㅗㅇㄹㅕㅇㅇㅡㄴ	-3796
▁ㅇㅟㄴ	-3797
▁ㅎㅠㅇ	-3798
▁ㅅㅏㄹㄹㅕ	-3799
▁ㅊㅚㄱㅗㅇㅢ	-3800
▁ㄷㅏㅂㅇㅣ	-3801
ㄲㅏㅂㅘ	-3802
ㅊㅚㄱㅗ	-3803
ㅜㅁㅏㄴ	-3804
ㅎㅏㄷㅓㄴㅣ	-3805
▁ㅈㅒ	-3806
▁ㅊㅓㅇㄴㅕㄴ	-3807
▁ㅎㅐㅈㅜㅅㅔㅇㅛ	-3808
▁ㄷㅚㅂㄴㅣㄷㅏ	-3809
▁ㅂㅗㄱㅗㅅㅣㅍ	-3810
?????	-3811
▁ㄷㅗㄱㅇㅣㄹ	-3812
ㅈㅐㅇㅇㅣ	-3813
ㅂㅣㄹㅣ	-3814
▁ㅊㅜㅇㄱㅕㄱ	-3815
▁ㅂㅜㄹㄹㅓ	-3816
ㄱㅖㄱㅏ	-3817
ㅈㅔㅇㅔ	-3818
▁O	-3819
ㄷㅏㅇㅡㅁ	-3820
▁ㅈㅔㄱㅋㅣ	-3821
▁ㅂㅗㅁㅕㄴㅅㅓ	-3822
ㅇㅣㄴㄷㅗ	-3823
▁ㅈㅏㅃㅏ	-3824
ㄷㅡㄴㄱㅏ	-3825
▁ㄱㅐㄴㅕㅁ	-3826
bs	-3827
ㅅㅜㅈㅓ	-3828
ㅅㅔㄹㅡㄹ	-3829
ㅟㅇㅔ	-3830
▁ㄴㅡㄲㅕ	-3831
▁ㅇㅏㅁㅜㄷㅗ	-3832
ㅎㅘㄹㅡㄹ	-3833
▁ㅇㅢㅎㅗㄱ	-3834
ㄹㅕㄴㅡㄴ	-3835
ㅈㅏㅇㅇㅔ	-3836
▁ㅅㅏㅌㅐ	-3837
▁ㄱㅖㅇㅑㄱ	-3838
▁ㅈㅣㄴㅈㅓㅇㅎㅏㄴ	-3839
▁1000	-3840
▁ㅇㅖㅃ	-3841
.1	-3842
▁ㅁㅏㄹㅇㅡㄴ	-3843
▁ㅇㅣㄹㅈㅏㄹㅣ	-3844
▁/	-3845
ㄱㅗㅅㅣㅍ	-3846
ㅊㅣㅁㅕㄴ	-3847
▁ㅊㅓㄱ	-3848
▁ㅍㅓㅇ	-3849
ㅅㅏㄷㅗ	-3850
▁ㅅㅐㄲㅣㄷㅡㄹ	-3851
▁ㄱㅛㅊㅔ	-3852
ㅇㅣㅇ	-3853
▁ㅊㅓㄹㅣ	-3854
▁ㅁㅣㄹㅇㅓ	-3855
▁ㅇㅛㄱㅅㅣㅁ	-3856
ㅇㅓㅉ	-3857
ㄷㅐㄱㅗ	-3858
ㅁㅏㄴㅁㅕㅇ	-3859
▁ㅁㅏㄹㄹㅗ	-3860
ㄴㅡㄴㄱㅓㄴ	-3861
ㄲㅓㄷㅏ	-3862
ㅅㅣㅈㅓㄹ	-3863
ㄱㅘㄴㄹㅣ	-3864
ㅈㅣㅇㅕㄱ	-3865
▁ㅇㅣㄹㅐ	-3866
▁ㅊㅜㅇㅈㅓㄴ	-3867
▁ㅈㅓㅇㅅㅣㄴㅂㅕㅇ	-3868
~!!	-3869
ㅃㅡㄷㅏ	-3870
▁ㅇㅕㄴㄱㅜ	-3871
▁ㅇㅏㄴㅣㅂㄴㅣㄷㅏ	-3872
ㅁㅜㅅㅡㄴ	-3873
ㄱㅔㅆㅇㅓ	-3874
▁o	-3875
▁ㅅㅓㅂㅣㅅㅡ	-3876
ㅋㅗㅇ	-3877
ㄷㅏㄴㅊㅔ	-3878
ㅇㅏㄴㅣㄹㅏ	-3879
ㄷㅏㅇㅜㄴ	-3880
▁ㅎㅏㄱㄱㅛ	-3881
▁ㄱㅣㅂㅜ	-3882
ㅏㅅ	-3883
ㅑㄹ	-3884
▁ㅂㅜㅁㅗㄴ	-3885
▁ㅇㅑㅇㅅㅔ	-3886
▁ㅂㅘㅆㄴㅡㄴㄷㅔ	-3887
▁60	-3888
ㅈㅐㅁㅣ	-3889
▁ㄴㅐㄹ	-3890
▁ㅎㅔㅇㅓ	-3891
ㅈㅏㅅㅣㄱ	-3892
▁ㄱㅜㄹㅡㅁ	-3893
▁ㄱㅗㅇㄱㅗㅇ	-3894
▁ㅈㅓㅇㅎㅕㅇ	-3895
ㅏㅁㅕ	-3896
ㅈㅓㄹㅓㄴ	-3897
ㅡㄹㅣ	-3898
▁ㅈㅓㄱㅔ	-3899
▁ㅇㅏㄷㅡㄹ	-3900
▁ㅅㅓㅇㅍㅗㄱㅎㅐㅇ	-3901
ㄱㅐㅇㅢ	-3902
ㅕㄴㅇㅣ	-3903
ㄷㅚㄴㅑ	-3904
ㄱㅣㄱㅘㄴ	-3905
▁ㅅㅣㄴㄹㅚ	-3906
▁ㅇㅣㄹㅂㅜ	-3907
▁ㅎㅕㄱㅅㅣㄴ	-3908
ㅇㅓㄹㅣ	-3909
▁ㅁㅏㄴㄴㅏ	-3910
▁ㅁㅏㄴㅇㅝㄴ	-3911
▁ㅈㅚㄹㅡㄹ	-3912
▁ㅎㅏㄴㅡㄴㅈㅣ	-3913
▁ㅎㅐㅈㅜ	-3914
▁ㅇㅡㅁㅇㅏㄱ	-3915
ㅣㄴㅣ	-3916
▁ㅂㅓㅂㅇㅣ	-3917
▁ㅇㅓㄴㅈㅔㄲㅏㅈㅣ	-3918
ㅜㅇㅓ	-3919
ㅇㅓㅇㅜㄹ	-3920
ㅎㅐㅆㄴㅏ	-3921
▁ㅇㅜㄴㄷㅗㅇ	-3922
▁ㄷㅐㄷㅏㄴㅎㅏㄷㅏ	-3923
▁24	-3924
ㅅㅣㅁㅣㄴ	-3925
▁ㄹㅏㅁㅕㄴ	-3926
▁ㅌㅡㄱㅂㅕㄹ	-3927
▁ㄷㅏㅂㅇㅣㄷㅏ	-3928
▁ㄴㅗㅅ	-3929
ㅎㅐㅆㄴㅑ	-3930
▁ㅍㅣㅇㄱㅖ	-3931
▁ㄷㅓㅍ	-3932
▁ㅇㅏㅅㅟㅂ	-3933
▁ㅎㅕㅂㅂㅏㄱ	-3934
ㅅㅐㄲㅣㄷㅡㄹ	-3935
ㅇㅣㄴㅇㅡㄹㅗ	-3936
▁ㄱㅡㄹㅓㄴㅣㄲㅏ	-3937
ㅂㅏㄷㅏㄱ	-3938
ㅅㅈㅣ	-3939
ㅡㅡㅡㅡ	-3940
▁ㅇㅣㅈㅜㄴ	-3941
ㅅㅜㅇㅣㅆㄴㅡㄴ	-3942
▁ㅇㅏㄴㅣㄴㄱㅏㅇㅛ	-3943
▁ㅇㅗㄹㄹㅏㄱ	-3944
ㅈㅕㅆㄴㅔ	-3945
ㅅㅏㅇㅅㅣㄱ	-3946
ㄱㅗㄹㅗ	-3947
▁ㅅㅐㅇㅁㅕㅇ	-3948
▁ㄱㅡㄹㅓㄴㅡㄴ	-3949
ㄷㅡㄹㅣㅂㄴㅣㄷㅏ	-3950
ㅂㅣㅆ	-3951
▁ㄹㅓㄴ	-3952
ㄱㅣㅈㅣ	-3953
ㅈㅜㄱㅔ	-3954
ㅌㅡㄹㅡㄹ	-3955
▁ㅍㅏㄹㅇㅏ	-3956
▁ㅅㅜㅇ	-3957
ㅅㅔㅁㅓㄴ	-3958
▁ㅂㅗㅌㅗㅇ	-3959
▁ㅁㅜㄴㅈㅔㄷㅏ	-3960
ㅎㅐㅇㅇㅟ	-3961
▁ㅇㅚㅈㅔ	-3962
ㅇㅣㄹㄷㅗ	-3963
ㅂㅣㄴㅡㄴ	-3964
▁ㅇㅠㅁㅕㅇ	-3965
▁ㅊㅟㅇㅓㅂ	-3966
▁ㅇㅣㄹㅓㄴㅣ	-3967
▁ㅇㅏㅂㅓㅈㅣ	-3968
▁ㅈㅣㄴㅈㅓㅇ	-3969
ㄱㅏㄷㅗ	-3970
▁ㅈㅏㄹㅎㅏㄱㅗ	-3971
▁ㅜ	-3972
ㄹㅜ	-3973
▁ㅇㅣㅎㅜ	-3974
▁ㅈㅗㅈㅓㅇ	-3975
ㅈㅓㅇㄷㅗㄹㅗ	-3976
▁ㄱㅜㄱㅁㅣㄴㅅㅔㄱㅡㅁ	-3977
ㄱㅏㅁㅕ	-3978
▁ㅌㅡㅇㅘ	-3979
▁ㄷㅐㅎㅏㄴㅁㅣㄴㄱㅜㄱㅇㅡㄴ	-3980
ㅎㅣㄱㅗ	-3981
ㅂㅓㅁㅈㅚ	-3982
▁ㄸㅗㄱㅂㅏㄹㅗ	-3983
▁ㅌㅡㄱㄱㅓㅁㅇㅡㄴ	-3984
in	-3985
▁ㅉㅏㄱ	-3986
▁ㅂㅗㄷㅗ	-3987
▁ㄱㅡㄴㄹㅗ	-3988
ㅈㅣㅅㅇㅡㄹ	-3989
▁ㄴㅏㅁㅇㅏ	-3990
▁ㄱㅏㄱㅕㄱㅇㅣ	-3991
▁ㄸㅗㄱㄸㅗㄱ	-3992
▁ㅁㅣㅊㅕ	-3993
ㅈㅓㅁㅇㅣ	-3994
ㅊㅐㄱㅇㅣㅁ	-3995
▁ㄱㅗㅁㅏ	-3996
ㅈㅜㅌㅐㄱ	-3997
▁ㅅㅏㅅㅓ	-3998
ㄴㅗㅇㄷㅏㄴ	-3999
ㅎㅐㅂㅘㄹㅏ	-4000
▁ㅈㅓㄱㅣ	-4001
▁ㅈㅗㅎㄷㅏㄱㅗ	-4002
▁ㄱㅜㅅ	-4003
▁ㄱㅘㄴㄱㅘㅇ	-4004
▁ㄱㅏㅅㅜ	-4005
▁ㅍㅛㅎㅕㄴ	-4006
ㄱㅏㅇㅔ	-4007
ㅅㅓㅇㄷㅗ	-4008
ㅇㅏㄴㅣㅁ	-4009
▁ㄷㅗㄴㅁㅏㄴ	-4010
▁ㄱㅘㅇㅎㅘㅁㅜㄴ	-4011
ㅓㅇㅔ	-4012
▁ㄱㅏㅇㅈㅔ	-4013
ㅎㅏㄱㅅㅐㅇ	-4014
ㅇㅏㄴㅎㅏㄱㅗ	-4015
▁ㅅㅏㅇㅅㅣㄱ	-4016
▁ㅌㅏㅁ	-4017
ㅣㄴㅡㄴㄷㅔ	-4018
ㅈㅣㅋ	-4019
▁ㅎㅣㅁㄴㅐㅅㅔㅇㅛ	-4020
▁ㄱㅕㄱ	-4021
▁ㅈㅐㅇㅛㅇ	-4022
ㅇㅓㄹㄱㅜㄹ	-4023
ㄱㅣㄷㅡㄹ	-4024
▁ㄱㅏㅇㄹㅕㄱ	-4025
ㅡㅁㅇㅣ	-4026
▁ㄷㅐㄱㅏㄹㅣ	-4027
▁ㅎㅣㅁㄷㅡㄹㅇㅓ	-4028
ㅊㅣㅇ	-4029
▁ㅈㅏㄱㅇㅡㄴ	-4030
ㅐㄴㅡㄴ	-4031
ㅕㄱㅏㄴ	-4032
▁ㄱㅣㅈㅗㄴ	-4033
▁ㅇㅏㄴㅣㅇ	-4034
▁ㅇㅢㅅㅣㅁ	-4035
▁ㅎㅕㄴㄱㅣ	-4036
▁ㅇㅗㄹㄹㅣㄹ	-4037
▁ㅇㅗㄹㄹㅣㄴㅡㄴ	-4038
ㅊㅏㄱㅏ	-4039
▁ㅅㅏㅁㅕㄴ	-4040
▁ㄷㅗㅇㅇㅏㄴ	-4041
▁ㅅㅓㄴㅍㅜㅇ	-4042
▁ㄱㅏㄱㅖ	-4043
▁ㅅㅣㄴㄱㅣ	-4044
▁ㅇㅣㅎㅟㅈㅐ	-4045
▁ㄱㅜㄱㄱㅏㄱㅏ	-4046
▁ㄸㅓㅇ	-4047
ㅈㅔㄷㅗ	-4048
ㅎㅔㄹ	-4049
ㅎㅐㅆㅇㅓ	-4050
▁ㅈㅏㅇㄱㅣ	-4051
▁ㅅㅐㅇㄱㅏㄱㅎㅏㄱㅗ	-4052
▁ㅇㅓㄹㄹ	-4053
▁ㅁㅜㅅㅓㅇㅜㄴ	-4054
▁ㅃㅐㅅ	-4055
ㄱㅓㄴㅔ	-4056
ㄷㅐㄹㅡㄹ	-4057
▁ㅁㅣㄷㅇㅡㄹ	-4058
▁ㅁㅏㄶㅇㅏㅅㅓ	-4059
▁ㅂㅗㄴㅇㅣㄴㅇㅣ	-4060
ㄴㅜㅈㅣㄴ	-4061
▁ㅅㅏㄹㅇㅣㄴ	-4062
▁ㄱㅕ	-4063
▁ㅇㅠㅅㅡㅇ	-4064
▁ㄴㅏㅁㅈㅏㄱㅏ	-4065
ㅅㅜㄹㅗ	-4066
ㄱㅗㅇㅁㅜㅇㅝㄴ	-4067
ㄸㅓㄹ	-4068
ㄴㅕㄴㅇㅡㄴ	-4069
▁ㅇㅕㅇㅎㅑㅇ	-4070
ㄱㅔㅆㄴㅔㅇㅛ	-4071
▁ㅎㅕㅁ	-4072
ㅈㅜㄴㄷㅏ	-4073
▁ㄴㅏㅇㅘㅆ	-4074
▁ㅎㅏㄷㅓㄴ	-4075
▁ㅁㅗㄹㅅㅜ	-4076
ㅃㅐㄱㅗ	-4077
▁ㄱㅓㅁㅅㅐㄱ	-4078
▁ㄲㅣ	-4079
▁ㅎㅑㅇ	-4080
▁ㅂㅜㄹㄹㅠㄴ	-4081
▁ㅅㅓㅇㄱㅘㄱㅡㅂ	-4082
▁ㅎㅏㄴㄱㅜㄱㅇㅢ	-4083
re	-4084
ㅁㅕㄹ	-4085
ㅈㅏㅇㅘ	-4086
▁ㅅㅜㄱㅏ	-4087
ㅎㅏㄱㄱㅛ	-4088
▁ㄱㅓㄱㅣㅅㅓ	-4089
ㅠㄱㅏ	-4090
ㅇㅕㅈㅏ	-4091
▁ㅇㅏㄴㄷㅚㄹ	-4092
▁ㄸㅐㅁㅜㄴㅇㅣㄷㅏ	-4093
▁ㅇㅢㅇㅝㄴ	-4094
▁ㅁㅓㅅㅈㅣㄴ	-4095
▁v	-4096
▁ㅈㅚㄱㅏ	-4097
▁ㅅㅣㄹㅍㅐ	-4098
ㅎㅘㄹㄷㅗㅇ	-4099
▁ㅉㅉㅉ	-4100
ㅈㅓㄴㅎㅣ	-4101
▁ㅅㅜㅂㅐㄱ	-4102
▁ㅇㅕㅎㅐㅇ	-4103
▁ㅁㅗㄱㅅㅜㅁ	-4104
ㅎㅏㅅ	-4105
ㄱㅜㅅㅗㄱ	-4106
▁ㅈㅓㅇㅂㅜㅇㅔㅅㅓ	-4107
▁ㄴㅓㄷㅗ	-4108
▁ㄱㅕㅇㄱㅣ	-4109
▁ㄱㅗㅇㄱㅡㅂ	-4110
ㅂㅜㄹㅓ	-4111
▁ㄱㅟㅈㅗㄱ	-4112
▁ㄸㅗㅎㅏㄴ	-4113
▁ㅅㅐㄹㅗ	-4114
▁ㅈㅏㄱㅣㄷㅡㄹ	-4115
▁ㅇㅐㅂ	-4116
▁ㅇㅓㅄㄴㅏ	-4117
▁ㄷㅐㅎㅏㄴㅁㅣㄴㄱㅜㄱㅇㅢ	-4118
100	-4119
▁ㅁㅔㄹ	-4120
▁ㅂㅜㅂㅜㄴ	-4121
ㄷㅐㄱㅣㅇㅓㅂ	-4122
▁ㅈㅣㅇㅗㄱ	-4123
▁ㄱㅐㄴㅜㄹㅣ	-4124
ㅎㅎㅎ	-4125
▁ㅅㅣㅈㅡㄴ	-4126
▁ㄱㅏㄷㅓㄱ	-4127
▁ㄱㅗㅁㅣㄴ	-4128
▁ㅎㅏㄴㅈㅣㄴㅎㅐㅇㅜㄴ	-4129
ㄱㅏㄹㅏㄱ	-4130
▁ㄱㅏㅇㅣㅂ	-4131
ㄷㅡㅁㅏㄴ	-4132
▁ㅊㅏㄴㅅㅓㅇ	-4133
▁ㄱㅣㅁㅇㅕㅇㄹㅏㄴㅂㅓㅂ	-4134
▁ㄱㅣㄷㅡㄱㄱㅝㄴ	-4135
▁ㅇㅣㅁㄷㅐ	-4136
▁!!!	-4137
▁ㄸㅐㅇ	-4138
ㅈㅣㅇㅓ	-4139
ㅇㅡㅁㅕ	-4140
ㅌㅡㄱㅏ	-4141
▁ㅁㅜㄹㅣ	-4142
ㄴㅏㅇㅗㄴ	-4143
▁ㅅㅣㄱㅏㄴㅇㅣ	-4144
▁ㄷㅡㄴ	-4145
ㅆㅣㄴㅡㄴ	-4146
▁ㄴㅡㄺㅇㅡㄴ	-4147
▁ㄱㅏㅁㅂㅏㅇ	-4148
ㄱㅏㅄㅇㅣ	-4149
▁ㅁㅕㅇㅍㅜㅁ	-4150
ㄴㅏㄷㅗ	-4151
▁ㅅㅏㅇㅌㅐ	-4152
▁ㅂㅗㅎㅓㅁㄹㅛ	-4153
ㅐㄴㅓㄹ	-4154
▁ㅅㅐㄲㅣ	-4155
▁ㅇㅛㄱㅜ	-4156
▁ㅂㅗㅎㅗ	-4157
ㅜㄴㄷㅗㅇ	-4158
ㅎㅏㅈㅣㅁㅏ	-4159
ㅈㅜㅁ	-4160
ㅅㅔㄱㅏ	-4161
ㅅㅏㅇㅌㅐ	-4162
ㄷㅏㄴㅡㄴㄱㅓ	-4163
▁ㅂㅏㄹㅏㄴㄷㅏ	-4164
ㅏㅇㅗㄴ	-4165
▁ㅇㅣㄴㄱㅏㄴㄷㅡㄹㅇㅣ	-4166
▁ㅁㅏㄶㄱㅗ	-4167
ㄸㅐㅇ	-4168
▁ㄱㅏㅇㅑ	-4169
▁ㅅㅓㄴㄱㅓ	-4170
▁ㅅㅔㅅㅏㅇㅇㅔ	-4171
ㅂㅐㅁ	-4172
▁ㅁㅐㄴㅕㄴ	-4173
▁16	-4174
▁ㅋㅏㅁ	-4175
▁ㅎㅏㄴㅁㅕㅇ	-4176
▁ㅅㅗㄴㅅㅓㄱㅎㅢ	-4177
ㅂㅏㄴㄷㅐ	-4178
▁ㅁㅏㄶㄴㅔ	-4179
▁ㅁㅏㅊㅣ	-4180
▁ㄱㅜㅇㅣㅂ	-4181
▁ㅅㅏㅇㅅㅡㅇ	-4182
▁ㅂㅏㄹㅍㅛ	-4183
▁ㅇㅏㅊㅣㅁ	-4184
▁ㅌㅏㅂ	-4185
▁ㅅㅐㅇㄱㅏㄱㅎㅏㅁㅕㄴ	-4186
▁ㅁㅝㄹㅏ	-4187
▁ㅇㅓㅉㅓㄹㅅㅜ	-4188
▁ㄱㅏㄱㅈㅗㅇ	-4189
ㅇㅏㅍㅏ	-4190
▁ㅁㅝㄴㅈㅣ	-4191
▁ㄷㅗㅇㅇㅕㅇㅅㅏㅇ	-4192
▁ㅇㅠㅊㅣ	-4193
▁ㅎㅐㅁㅓㄱ	-4194
ㄷㅗㅇㄴㅔ	-4195
▁ㄴㅏㄹㅏㅇㅢ	-4196
▁ㅇㅣㅈㅔㅇㅘㅅㅓ	-4197
ㅍㅡㄹㄹ	-4198
▁ㅁㅜㄱㅗ	-4199
ㅂㅏㄱㅇㅣ	-4200
ㅅㅏㅇㅎㅘㅇ	-4201
ㄱㅓㅁㅊㅏㄹ	-4202
ㅁㅏㄴㄱㅏㄴ	-4203
ㅁㅏㄴㄷㅡㄴ	-4204
ㄱㅡㄹㅐㅅㅓ	-4205
▁ㅇㅓㄴㅈㅔㄴ	-4206
▁ㅂㅗㅇㅣㄴㅡㄴ	-4207
▁ㅂㅓㄹㄱㅡㅁ	-4208
▁ㄱㅣㅅㅏㄱㅏ	-4209
▁ㅎㅣ	-4210
ㅊㅓㅁ	-4211
▁ㄲㅗㅇ	-4212
▁ㄷㅐㄱㅜ	-4213
▁ㄱㅣㅎㅚㄱ	-4214
ㅎㅣㄹ	-4215
ㅈㅏㅊㅔ	-4216
ㅈㅚㄹㅗ	-4217
▁ㄷㅡㄹㅓㄴ	-4218
ㄷㅡㄹㅇㅓㅇ	-4219
ㅆㅈㅣㅁㅏㄴ	-4220
▁ㅅㅣㅋㅕ	-4221
▁ㅁㅗㄹㅡㄴㄷㅏ	-4222
ㅅㅏㄹㅏㅁㄷㅡㄹㅇㅡㄴ	-4223
▁ㅇㅏㅅㅣ	-4224
▁ㅇㅣㅊㅏㅁㅇㅔ	-4225
▁ㅈㅗㅎㅇㅡㄹ	-4226
▁ㄴㅜㄴㅇㅔ	-4227
▁ㄱㅏㄹㅇㅏ	-4228
ㄴㅗㅁㅇㅣ	-4229
▁ㅍㅕㄴㅇㅢㅈㅓㅁ	-4230
▁ㅅㅟㅂ	-4231
▁ㅇㅏㅍㅏ	-4232
▁ㅅㅜㅈㅜㄴㅇㅣ	-4233
ㄱㅓㅅㄱㅏㅌㄷㅏ	-4234
ㄷㅐㅇㅔ	-4235
▁ㅇㅏㄴㅎㅏㄴㅡㄴ	-4236
...?	-4237
▁ㅌㅔㄹ	-4238
ㅎㅘㅈㅓㅁ	-4239
▁ㅂㅣㅇㅛㅇ	-4240
▁ㅍㅏㄴㅡㄴ	-4241
▁ㅁㅗㄹㄹㅏㄷㅗ	-4242
▁ㅇㅡㄹ	-4243
ㅇㅣㄹㅐ	-4244
▁ㅎㅏㅅㅣ	-4245
ㅁㅗㅅㅡㅂ	-4246
ㅆㅇㅡㄴㅣ	-4247
ㅎㅏㄱㅓㄴㅏ	-4248
ㅅㅡㄹㅓㅇㅜㄴ	-4249
ㄹㅂㅓㅁ	-4250
ㄱㅜㄴㅡㄴ	-4251
▁ㄱㅐㅅㅓㄴ	-4252
▁ㄴㅗㅈㅐㅁ	-4253
ㄸㅓㄱ	-4254
ㅇㅣㄴㅅㅐㅇ	-4255
ㄹㅣㄴㅔ	-4256
ㅇㅡㅅㅣㄴ	-4257
▁ㄴㅗㅇㅣㄴ	-4258
▁ㅂㅏㄱㄷㅐㅌㅗㅇㄹㅕㅇ	-4259
▁ㅇㅣㄱㅓㄴㅎㅢ	-4260
▁ㅈㅓㅇㄷㅗㄹㅗ	-4261
▁ㄷㅐㅇㅜㅈㅗㅅㅓㄴ	-4262
ㅉㅓㅇ	-4263
▁ㄱㅓㄷㅏ	-4264
▁ㅅㅣㅈㅓㄹ	-4265
▁ㄱㅡㅈㅣ	-4266
▁ㅅㅏㅂㅓㅂ	-4267
▁ㅊㅚㅅㅗㅎㅏㄴ	-4268
▁ㅁㅣㄱㅜㄱㅇㅣ	-4269
▁ㅅㅐㅇㄱㅏㄱㅇㅡㄴ	-4270
ㅈㅗㄱㅡㅁ	-4271
ㅊㅓㄴㅁㅏㄴㅇㅝㄴ	-4272
ㅓㅂㄱㅗ	-4273
ㅂㅘㅆㄴㅡㄴㄷㅔ	-4274
▁ㅁㅝㅇㅑ	-4275
▁ㅎㅏㄴㅅㅣㅁㅎㅏㄷㅏ	-4276
ㅆㅡㄴㄷㅏ	-4277
▁ㄱㅡㄴㅗㅁ	-4278
▁ㄱㅣㅁㅈㅗㅇ	-4279
▁ㅈㅣㅇㅈㅣㅇ	-4280
▁ㅌㅟ	-4281
ㅓㅅㅡ	-4282
ㄱㅐㅂㅏㄹ	-4283
ㅅㅗㄱㅇㅔ	-4284
▁ㅂㅓㄴㅡㄴ	-4285
▁ㄱㅓㄱㅣㅇㅔ	-4286
▁ㅅㅜㄴㅅㅣㄹㅣ	-4287
▁ㅈㅏㄹㅎㅏㄴㅡㄴ	-4288
▁ㅂㅗㄴㅂㅏㅇ	-4289
▁ㅈㅓㅇㄷㅏㅇ	-4290
ㅁㅓㄹ	-4291
▁ㅈㅝㅇㅑ	-4292
▁ㅁㅕㅊㅅㅣㅂ	-4293
▁ㅌㅡㄹㅓㅁㅍㅡ	-4294
▁ㅎㅏㅂㅅㅣㄷㅏ	-4295
▁l	-4296
ㄴㅡㄲ	-4297
ㅇㅣㅇㅓ	-4298
▁ㅉㅗㄱㅍㅏㄹ	-4299
▁ㅇㅔㄹㅏㅇㅣ	-4300
▁ㅂㅗㅇㅣㄴㄷㅏ	-4301
▁ㅅㅔㅅㅏㅇㅇㅣ	-4302
▁ㅇㅣㅆㄴㅡㄴㅈㅣ	-4303
ㄱㅣㄷㅏ	-4304
▁ㄴㅐㄴㅗㅎ	-4305
ㄷㅗㄴㅇㅡㄹ	-4306
▁ㅆㅗ	-4307
ㅅㅔㅁ	-4308
▁ㅂㅏㄷㅇㅏㅇㅑ	-4309
▁ㅇㅑㅇㅅㅔㅎㅕㅇ	-4310
▁ㅅㅓㅁㅣㄴㄷㅡㄹㅇㅡㄴ	-4311
ㅐㄱㅏ	-4312
ㅇㅏㄴㅇㅔ	-4313
▁ㅎㅗㄹ	-4314
▁13	-4315
▁ㅁㅣㄹㅣ	-4316
▁ㄷㅏㄹㅡㄹ	-4317
ㅜㄴㅣ	-4318
ㄱㅗㄷㅗ	-4319
ㄷㅚㄴㅏ	-4320
▁ㅎㅏㄱㅣㄴ	-4321
▁ㅎㅗㄱㅐㅇ	-4322
ㅇㅣㄹㄷㅡㅅ	-4323
ㅅㅣㅋㅣㄹ	-4324
▁ㅇㅣㄴㄱㅝㄴ	-4325
ㄱㅓㅅㅊㅓㄹㅓㅁ	-4326
▁ㅁㅜㄴㅡㅇㅎㅏㄴ	-4327
▁ㅇㅗㅀ	-4328
▁ㅁㅗㄹㅡㄹ	-4329
ㅈㅣㅂㄷㅏㄴ	-4330
▁ㅈㅜㅇㄱㅜㄱㅅㅏㄴ	-4331
▁1.	-4332
ㅎㅡㅇ	-4333
ㅇㅓㅆㅇㅡㄹ	-4334
▁ㄱㅏㅁㅅㅏㅎㅏㅂㄴㅣㄷㅏ	-4335
▁ㅌㅏㄱㅗ	-4336
▁ㅁㅜㅎㅏㄴㄷㅗㅈㅓㄴ	-4337
ㅅㅣㅋㅣㄴ	-4338
▁ㅎㅘㅇㄱㅛ	-4339
ㄴㅡㄴㄷㅏㄱㅗ	-4340
ㅇㅓㅄㄴㅡㄴㄷㅔ	-4341
▁ㅇㅏㄴㅈㅓㅇ	-4342
▁ㅅㅏㄹㅇㅏㅇㅑ	-4343
ㅆㅅㅡㅂㄴㅣㄷㅏ	-4344
▁ㄲㅏㄱ	-4345
ㅁㅣㄱㅜㄱ	-4346
▁ㅇㅣㅆㅇㅓㅇㅛ	-4347
ㄴㅏㅎ	-4348
ㅈㅔㄹㅡㄹ	-4349
ㄴㅣㅇㅁㅐㄴ	-4350
▁ㄱㅗㅇㄱㅏㅁ	-4351
▁ㅇㅏㄴㅈㅗㅎ	-4352
ㅇㅓㅄㅇㅡㅁㅕㄴ	-4353
ㄴㅜㄱ	-4354
ㅗㅎㅏㄹ	-4355
▁ㄱㅏㅈㅕ	-4356
ㅈㅣㄴㅡㅇ	-4357
▁ㅁㅏㅅㅔㅇㅛ	-4358
▁ㄱㅐㅎㅏㄴㅁㅣㄴㄱㅜㄱ	-4359
ㅍㅠ	-4360
ㅡㄷㅏ	-4361
ㄴㅐㅅㅓ	-4362
ㄹㅣㄱㅣ	-4363
ㄱㅜㄱㅎㅚ	-4364
▁ㅇㅓㅂㅊㅔ	-4365
▁ㅁㅣㅅㅔㅁㅓㄴ	-4366
▁ㅅㅣㄹㅈㅔ	-4367
▁ㅈㅓㄹㅕㅁ	-4368
▁ㄱㅜㅈㅗㅈㅗㅈㅓㅇ	-4369
ㄱㅛㅇㅠㄱ	-4370
▁ㅎㅐㅇㅜㄴ	-4371
▁ㄴㅏㅁㅇㅡㄴ	-4372
▁ㅃㅐㅇ	-4373
▁ㅅㅐㅇㄱㅕ	-4374
▁ㅅㅜㅅㅜㄹ	-4375
▁ㅇㅣㅆㄷㅏㅁㅕㄴ	-4376
▁ㄷㅣㅈㅏㅇㅣㄴ	-4377
▁ㅊㅐ	-4378
ㅂㅓㅂㅇㅡㄹ	-4379
▁ㅈㅣㄴㅅㅣㄹㅇㅡㄹ	-4380
▁ㄱㅗㅇㅛㅇ	-4381
ㄹㅣㅇ	-4382
ㄱㅔㅆㄱㅜㄴ	-4383
▁ㅃㅓㅇ	-4384
▁ㅅㅗㅅㅗㅇ	-4385
▁ㄷㅗㄹㅇㅏㄱㅏ	-4386
▁ㅇㅇ	-4387
ㅅㅡㄴㅡㄴ	-4388
▁ㄷㅟㅈㅣㅂ	-4389
ㅆㅡㄹㅔㄱㅣ	-4390
▁ㅊㅏㄱㄱㅏㄱ	-4391
▁P	-4392
▁ㅇㅏㄴㅏ	-4393
ㅈㅏㅇㄴㅏㄴ	-4394
ㄸㅜㅇ	-4395
ㅂㅣㅇㅛㅇ	-4396
▁ㅅㅣㅎㅐㅇ	-4397
▁ㅇㅖㅈㅓㄴㅇㅔ	-4398
▁ㅈㅗㅎㅇㅏㅇㅛ	-4399
ㄱㅏㅈㅗㄱ	-4400
▁ㄱㅣㅈㅏㄱㅏ	-4401
▁ㅎㅏㄱㅅㅐㅇ	-4402
ㅈㅣㅇㅔ	-4403
▁ㅅㅡㅍㅗ	-4404
▁ㄷㅐㅊㅜㅇ	-4405
ㅇㅏㅆㄴㅔ	-4406
ㅡㄺ	-4407
ㄱㅓㄹㅏㅇ	-4408
▁ㅇㅣㄹㅂㅔ	-4409
ㅎㅏㅅㅣㄱㅣㄹ	-4410
▁ㄱㅣㅇㅓㅂㄷㅡㄹ	-4411
ㄴㅏㄴㅔ	-4412
ㄹㅖ	-4413
ㅍㅣㄴ	-4414
▁ㅇㅜㅁㅈㅣㄱ	-4415
▁ㅅㅐㄴ	-4416
▁ㅇㅜㅈㅜ	-4417
▁ㅅㅡㅌㅡㄹ	-4418
ㅇㅣㄹㅏㅅㅓ	-4419
ㅂㅏㄹㅈㅓㄴ	-4420
ㄱㅓㄴㄱㅏㅇㅛ	-4421
▁ㅆㅣㅂ	-4422
▁ㄱㅕㅇㅜ	-4423
▁ㅂㅜㄴㄷㅡㄹ	-4424
▁ㄱㅏㄹㅅㅜㄹㅗㄱ	-4425
ㅇㅕㅇㅑ	-4426
ㅇㅣㅈㅏ	-4427
▁ㅈㅏㅈㅜ	-4428
ㄴㅐㄴㅡㄴ	-4429
▁ㅊㅏㅇㅈㅗ	-4430
▁ㄱㅡㄹㅓㄴㅏ	-4431
▁ㅂㅣㄱㅂㅐㅇ	-4432
ㄲㅗㄱ	-4433
ㅑㄱㅗ	-4434
▁ㄱㅘㄱㅓ	-4435
▁ㅊㅣㄱㅗ	-4436
ㅈㅣㅂㅇㅡㄴ	-4437
▁ㄱㅣㅁㅊㅣㄴ	-4438
▁ㄷㅏㅇㄷㅏㅇ	-4439
▁ㅇㅕㅈㅏㄴㅡㄴ	-4440
ㄴㅠ	-4441
ㅂㄷ	-4442
▁ㅅㅏㅇㅅㅗㄱ	-4443
ㄹㅏㄹㅏ	-4444
▁ㅌㅜㄱㅣ	-4445
▁ㄷㅔㄴ	-4446
▁ㄷㅡㄷㅣㅇㅓ	-4447
▁ㅅㅣㅁㅍㅏㄴ	-4448
▁ㅍㅗㄱㄹㅏㄱ	-4449
ㅈㅓㄱㅇㅣㄱㅗ	-4450
ㅇㅕㅂ	-4451
▁ㅅㅟㄹ	-4452
ㅏㄱㅏㄴㅡㄴ	-4453
▁ㅅㅓㅇㄱㅕㄱ	-4454
▁ㅇㅡ	-4455
ㄷㅡㄹㅏ	-4456
▁ㅂㅣㄴㅏㄴ	-4457
ㅈㅏㅇㅇㅔㅅㅓ	-4458
▁ㅈㅓㄴㄹㅕㄱ	-4459
▁ㄷㅜㄴ	-4460
ㅇㅡㄹㅕㄱㅗ	-4461
ㅅㅇㅣ	-4462
▁ㅆㅓㅇㅑ	-4463
ㄱㅗㅅㅐㅇ	-4464
ㅕㅆㄴㅏ	-4465
ㄹㅕㄴㅏ	-4466
▁ㄱㅗㅇㅈㅓㅇ	-4467
▁ㄷㅗㄲㅐㅂㅣ	-4468
ㄹㅑㅇㅇㅣ	-4469
▁ㅇㅛㅈㅡㅁㅇㅡㄴ	-4470
ㅁㅓㅇ	-4471
ㅈㅝㅅㅓ	-4472
ㅎㅕㄴㅅㅣㄹ	-4473
▁ㅇㅣㄴㄱㅓㄴ	-4474
▁ㅎㅐㅆㄷㅓㄴ	-4475
ㅇㅏㄴㅣㄴㄱㅏ	-4476
▁ㅇㅏㄶㅇㅡㅁㅕㄴ	-4477
ㅈㅏㅊㅔㄱㅏ	-4478
▁ㄱㅏㄱㅗ	-4479
▁ㅇㅕㅇㅅㅏㅇ	-4480
▁ㅌㅐㄱㅡㄱㄱㅣ	-4481
ㅅㅠ	-4482
ㅇㅓㅆㅇㅓ	-4483
▁ㅅㅗㅇㅈㅜㅇ	-4484
ㅎㅐㄴㅗㅎㄱㅗ	-4485
ㅊㅓㄹㅣ	-4486
ㅈㅏㅇㄴㅣㅁ	-4487
ㅔㅅㅡ	-4488
▁ㅎㅓㅅㅅㅗㄹㅣ	-4489
ㅅㅓㄷㅗ	-4490
ㅊㅣㄴㄷㅏ	-4491
ㄴㅓㅁㄷㅡㄹ	-4492
ㅅㅔㄷㅐ	-4493
ㅂㅗㅈㅣ	-4494
ㄴㅕㄴㅇㅡㄹ	-4495
▁ㅅㅗㅂㅣㅈㅏ	-4496
▁ㄷㅏㄺㄱㅡㄴㅔ	-4497
na	-4498
ㅇㅕㄴㅂㅗㅇ	-4499
ㅅㅗㅇㅔ	-4500
.........	-4501
▁ㅎㅗㅎ	-4502
▁ㅈㅣㅂㅈㅜㅇ	-4503
▁ㄷㅔㅇㅣ	-4504
▁ㅂㅜㅈㅓㅇㅂㅜ	-4505
ㄸㅓㅅ	-4506
ㅅㅔㄱㅖ	-4507
▁ㅎㅜㅎㅚ	-4508
ㅂㅏㄴㄷㅗ	-4509
ㅎㅘㄱㅜㄱ	-4510
ㄴㅓㅎ	-4511
▁ㅈㅓㄴㅡㄴ	-4512
ㄱㅣㅈㅓㄴㅇㅔ	-4513
▁80	-4514
~~~~~~~~	-4515
ㅅㅙ	-4516
ㅆㅇㅓㅇㅛ	-4517
ㅇㅏㅈㅣㄱ	-4518
▁ㅁㅗㅅㅎㅐ	-4519
▁ㅇㅏㄴㄷㅚㅁ	-4520
▁ㄱㅣㅇㅓㅂㅇㅡㄴ	-4521
ㄷㅏㄷ	-4522
ㅓㅁㅏ	-4523
ㅇㅔㅇㅛ	-4524
ㅈㅜㅈㅣ	-4525
ㅅㅓㄱㅇㅣ	-4526
▁ㄷㅡㄷㄱㅗ	-4527
ㅇㅡㄴㅏ	-4528
▁ㅅㅏㄹㅇㅏㄹㅏ	-4529
▁ㅇㅣㄹㅎㅏㄴㅡㄴ	-4530
ㅋㅣㄹ	-4531
▁ㅇㅘㅅㅓ	-4532
▁ㅎㅣㅁㄷㅡㄹㄷㅏ	-4533
ㄱㅓㄹㅡㄹ	-4534
▁ㅍㅓㅇㅍㅓㅇ	-4535
ㄷㅣㄹㅗ	-4536
▁ㅂㅜㄹㄱㅏㄴㅡㅇ	-4537
▁ㅁㅏㅌㅡ	-4538
▁ㄱㅣㅈㅏㄷㅡㄹ	-4539
▁ㄷㅏㄴㅣㄴㅡㄴ	-4540
▁ㅈㅜㄹㅇㅓ	-4541
▁ㅇㅜㄹㅣㄴㅏㄹㅏㅇㅔ	-4542
▁ㄷㅐㅎㅏㄴㅁㅣㄴㄱㅜㄱㅇㅣ	-4543
40	-4544
ㅌㅏㄱㅗ	-4545
ㄱㅕㅇㅇㅠ	-4546
▁ㅇㅣㄴㅅㅓㅇ	-4547
▁ㅂㅏㄲㅜㄹ	-4548
ㅅㄴㅡㄴㄷㅔ	-4549
▁ㄱㅓㅂㅜ	-4550
ㅇㅡㄹㅗㅅㅓ	-4551
ㅎㅏㅅㅣㄱㅗ	-4552
ㄴㅗㄴ	-4553
▁ㅅㅔㄱ	-4554
ㄹㅣㄴㅡㄴㄷㅔ	-4555
▁ㅇㅐㄷㅡㄹㅇㅡㄴ	-4556
ㅂㅗㄹㅡㄹ	-4557
ㅎㅏㄴㅌㅔㄴㅡㄴ	-4558
▁ㄲㅏㅇ	-4559
▁ㅇㅖㅃㅡㄴ	-4560
ㅅㅓㄴㄷㅗㅇ	-4561
▁ㄷㅗㅇㅁㅜㄹ	-4562
ㅂㅓㄹㅣ	-4563
ㅊㅏㅇㅣ	-4564
ㅗㄹㄹㅏ	-4565
▁ㄱㅣㅁㅊㅣ	-4566
▁ㅊㅕㅁㅓㄱ	-4567
▁ㅂㅜㅁㅗㄴㅣㅁ	-4568
▁ㅅㅏㄴㅡㄴㄱㅔ	-4569
▁ㅅㅣㅇㅟ	-4570
▁ㄱㅡㄴㅏㄹ	-4571
▁ㄱㅣㄴㅡㅇ	-4572
▁ㄴㅏㅁㅏㄴ	-4573
▁ㅎㅢㅅㅐㅇ	-4574
ㅂㅗㄱㅇㅡㄹ	-4575
ㅎㅏㄴㅈㅣ	-4576
▁ㄱㅡㄹㅓㄴㄱㅓ	-4577
▁ㅊㅓㄹㅈㅓㅎㅣ	-4578
▁ㄷㅐㅌㅗㅇㄹㅕㅇㅇㅡㄹ	-4579
▁ㅅㅗㄴㅅㅣㄹ	-4580
ㅇㅝㄴㅇㅔ	-4581
▁ㅅㅓㄹㅁㅕㅇ	-4582
▁ㅇㅣㄷㅗㅇ	-4583
▁ㅂㅓㅂㅇㅣㄴ	-4584
▁ㅇㅛㄱㅁㅓㄱ	-4585
▁ㅁㅏㅈㄷㅏ	-4586
ㅇㅕㄴㅎㅏㅂ	-4587
▁ㅂㅏㄱㅌㅗㅇ	-4588
ㄱㅏㄱㅔ	-4589
▁ㄱㅗㅈㅏㄱ	-4590
ㅇㅡㅅ	-4591
ㄱㅓㄹㅗ	-4592
▁ㅇㅣㄴㄱㅜ	-4593
ㅈㅣㅇㅇㅕㄱ	-4594
▁ㅈㅜㄱㅇㅓㄴ	-4595
ㅅㅣㅇ	-4596
ㅆㅓㄱ	-4597
▁ㄱㅏㄴㄷㅏ	-4598
▁ㄱㅏㄴㅏㄴ	-4599
????????	-4600
ㅜㄱㅏ	-4601
▁ㄸㅓㅅ	-4602
▁ㅇㅏㅍㅇㅡㄹㅗㄷㅗ	-4603
▁ㄱㅜㄱㅁㅣㄴㄷㅡㄹㅇㅡㄹ	-4604
▁ㄱㅓㄴㄷㅡㄹ	-4605
▁ㄱㅕㅇㅜㄹ	-4606
▁ㅁㅏㅇㅎㅏㄱㅔ	-4607
▁ㅁㅣㄱㅐㅎㅏㄴ	-4608
▁ㅁㅗㅇㅑㅇ	-4609
ㅘㄱ	-4610
▁ㅎㅚㅅㅏㄱㅏ	-4611
▁ㄴㅓㅁㅇㅓㄱㅏ	-4612
ㅇㅣㅆㅈㅣ	-4613
▁ㄲㅜ	-4614
▁ㅇㅗㄹㄹㅏㅇ	-4615
ㅁㅏㅋㅡ	-4616
▁ㄴㅐㅇㅑ	-4617
ㄷㅡㄹㅇㅣㄴㅏ	-4618
ㄸㅟ	-4619
ㅂㅟ	-4620
ㅈㅣㄷㅏ	-4621
▁ㅇㅏㄹㅐ	-4622
▁ㅎㅐㄷㅏㅇ	-4623
▁ㅅㅓㅇㅎㅕㅇ	-4624
▁ㅇㅣㄴㅊㅓㄴ	-4625
▁ㄸㅏㅁ	-4626
▁ㅅㅣㅋㅣ	-4627
▁ㅈㅗㅁㅏㄴㄱㅏㄴ	-4628
ㅁㅓ	-4629
▁ㅇㅏㄱㅍㅡㄹㄹㅓ	-4630
ㅈㅣㄴㅣ	-4631
▁ㅅㅣㄱㅡㅂ	-4632
▁ㄷㅐㅎㅏㄴㅁㅣㄴㄱㅜㄱㅇㅡㄹ	-4633
ㅅㅏㅈㅣㄴ	-4634
▁ㄷㅗㄱㅈㅐ	-4635
ㄱㅓㄱㅈㅓㅇ	-4636
ㄱㅡㄹㅓㅎㄱㅔ	-4637
▁ㄱㅣㅈㅏㄴㅣㅁ	-4638
▁ㅇㅗㄴㅡㄹㄷㅗ	-4639
▁ㅈㅓㄹㅣ	-4640
▁ㅇㅣㅆㅇㅓㄷㅗ	-4641
70	-4642
ㄹㅕㄹㅏ	-4643
ㄱㅗㄱㅏ	-4644
▁ㄴㅗㄷㅏㅂ	-4645
ㅅㅡㄹㅡㄹ	-4646
ㅇㅣㅆㅇㅡㄹ	-4647
▁ㅂㅕㄴㅁㅕㅇ	-4648
▁ㄱㅓㄹㄱㅡㄹㅜㅂ	-4649
▁ㅇㅣㄹㅂㅗㄴㅇㅡㄴ	-4650
▁ㄴㅐㅅㅜ	-4651
▁ㅌㅐㅇㅑㅇ	-4652
▁ㄱㅜㄱㅈㅓㅇㄴㅗㅇㄷㅏㄴ	-4653
ㄲㅔㅇㅛ	-4654
ㅈㅓㄱㅣ	-4655
▁ㄷㅚㄴㅑ	-4656
▁ㅁㅐㅊㅜㄹ	-4657
▁ㅇㅚㄱㅜㄱㅇㅣㄴ	-4658
▁ㄸㅡㄴ	-4659
ㅎㅐㅂㅘ	-4660
ㅇㅡㄴㄱㅔ	-4661
ㄱㅓㅅㄷㅡㄹㅇㅡㄴ	-4662
ㅊㅣㄴㄱㅜ	-4663
▁ㅇㅖㅅㅏㄴ	-4664
▁ㄱㅏㅌㅇㅏㅇㅛ	-4665
ㄱㅣㄴㅏ	-4666
ㅋㅓㅍㅡㄹ	-4667
ㄷㅡㅇㄷㅡㅇ	-4668
▁ㅇㅕㄱㅎㅏㄹ	-4669
▁ㅎㅣㅁㄷㅡㄹㄱㅔ	-4670
ㅈㅕㄷㅗ	-4671
ㅆㅡㅁㅕㄴ	-4672
▁ㄱㅏㅁㄷㅗㄱ	-4673
▁ㅇㅕㅇㅇㅝㄴㅎㅣ	-4674
▁ㅋㅔㅇㅣ	-4675
▁ㅂㅣㅎㅐㅇ	-4676
▁ㅇㅜㄴㅇㅜㄴ	-4677
ㅇㅟㅎㅏㄴ	-4678
▁ㄱㅣㅅㅏㅇㅔ	-4679
▁ㄱㅗㅇㅟ	-4680
▁ㅊㅜㄱㅏ	-4681
ㅁㅣㄴㅈㅜ	-4682
ㅅㅔㄴㅡㄴ	-4683
▁ㅎㅏㄴㄱㅜㄱㅇㅣㄴ	-4684
ㄱㅏㄹㅏ	-4685
ㅅㅔㄹㅗ	-4686
ㅎㅛㄱㅘ	-4687
▁ㄱㅏㅌㅇㅏ	-4688
▁ㅇㅗㄱㅅㅣ	-4689
▁ㄷㅐㄴㅗㅎㄱㅗ	-4690
ㅈㅜㄹㅗ	-4691
▁ㄱㅣㄱㅖ	-4692
▁ㅇㅕㄲ	-4693
ㅇㅔㄷㅏ	-4694
▁ㅇㅏㄹㅡㅁ	-4695
▁ㅇㅣㅂㅓㄴㅇㅔㄴ	-4696
▁ㅈㅓㅇㅎㅕㅇㄷㅗㄴ	-4697
▁ㅎㅏㄹㅏㄱ	-4698
ㅅㅜㄴㄱㅏㄴ	-4699
▁ㅇㅓㄴㄹㅗㄴㅇㅣ	-4700
ㅎㅐㄴ	-4701
ㅎㅐㅂㅘㅇㅑ	-4702
▁ㄱㅗㅇㅇㅑㄱ	-4703
ㅇㅏㄱㅏㄴㅡㄴ	-4704
ㅁㅐㅁㅐ	-4705
ㅈㅣㄱㅕㅇ	-4706
▁ㄷㅗㅇㅣㅂ	-4707
▁ㅇㅣㅈㅓㄴ	-4708
▁ㅇㅕㅁㅂㅕㅇ	-4709
ㄱㅜㅇㅛ	-4710
ㄱㅗㅇㅡㄴ	-4711
▁ㅈㅓㄴㄱㅜㄱ	-4712
▁ㅊㅣㄴㅂㅏㄱ	-4713
▁ㅇㅗㄻ	-4714
ㄱㅣㄷㅐ	-4715
ㅣㅁㅣㄹ	-4716
ㅇㅡㄹㅗㄴㅡㄴ	-4717
ㄱㅜㅁㅓㄴ	-4718
ㅎㅐㅆㅈㅣㅁㅏㄴ	-4719
▁ㅍㅔ	-4720
ㅗㅇㅊㅓㄹ	-4721
▁ㅇㅏㄴㅌㅏㄲㅏㅂ	-4722
ㅎㅐㅆㅅㅡㅂㄴㅣㄷㅏ	-4723
ㅌㅗㄱ	-4724
ㅇㅏㅍㅇㅔ	-4725
▁ㅅㅣㅅㅡㅌㅔㅁ	-4726
ㅎㅏㄴㅡㄴㄱㅓㅈㅣ	-4727
ㅇㅡㅅㅔㅇㅛ	-4728
ㄴㄷㅏ	-4729
18	-4730
ㄹㅕㄹ	-4731
▁ㅇㅚㅁㅗ	-4732
▁ㄴㅏㅁㅓㅈㅣ	-4733
▁ㅈㅏㅅㅣㄴㅇㅢ	-4734
▁ㅈㅗㅅㅓㄴㅇㅓㅂ	-4735
▁ㅌㅔㅂㅡㄹㄹㅣㅅ	-4736
▁ㅊㅡㄱ	-4737
▁ㅎㅏㅇㅑ	-4738
ㄱㅡㄹㅓㅎ	-4739
▁ㅁㅜㄹㅇㅓ	-4740
▁ㅇㅣㄱㅕㅇ	-4741
ㄱㅔㅆㅇㅓㅇㅛ	-4742
▁ㅎㅏㅇㅕ	-4743
▁ㅊㅣㄴㅇㅣㄹㅍㅏ	-4744
▁ㄱㅡㄹㅓㅎㄷㅏㄱㅗ	-4745
ㅇㅜㄱㅗ	-4746
▁ㄱㅡㄴㅁㅜ	-4747
▁ㅇㅝㄴㄱㅏ	-4748
ㅅㅡㄹㄹㅏㅁ	-4749
▁ㅁㅜㅅㅣㄱㅎㅏㄴ	-4750
ㅊㅕㅇㅑ	-4751
▁ㅂㅗㅂㄴㅣㄷㅏ	-4752
▁ㄹㅓㄴㄴㅣㅇㅁㅐㄴ	-4753
▁x	-4754
ㅍㅏㄴㅇㅔ	-4755
ㄴㅐㅇ	-4756
ㅇㅗㅅ	-4757
ㅣㄴㄱㅏ	-4758
ㄹㅏㄴㄷㅏ	-4759
▁ㄱㅜㄱㅂㅏㅇ	-4760
ㄱㅓㄹㅣㄴㅡㄴ	-4761
ㄷㅚㄴㄷㅏㄱㅗ	-4762
ㄱㅑㄹ	-4763
ㅜㅅㅗㄴ	-4764
▁ㄲㅡㅌㄴㅐ	-4765
▁ㄷㅏㄴㅊㅔ	-4766
▁ㄷㅏㅇㅅㅣ	-4767
ㄷㅏㄴㅡㄴㄱㅓㄴ	-4768
▁ㄱㅏㅈㄷㅏ	-4769
▁ㅇㅔㄱㅅㅗ	-4770
▁ㅇㅓㄷㅣㄱㅏ	-4771
ㄱㅓㄱㅏㅌㅇㅡㄴㄷㅔ	-4772
▁ㅂㅜㅅㅣㄹ	-4773
▁ㅅㅣㄴㅇㅛㅇ	-4774
▁100%	-4775
ㅘㅆㄴㅡㄴㄷㅔ	-4776
ㄸㅐㄱㅏ	-4777
ㅅㅣㅈㅏㄱ	-4778
▁ㅇㅣㄹㅇㅡㄴ	-4779
▁ㅁㅣㄴㅈㅜㄷㅏㅇ	-4780
▁ㄹㅠ	-4781
▁ㅃㅗㅂㅇㅏ	-4782
ㅏㅁㅕㄴㅅㅓ	-4783
ㅇㅣㄹㅓㅎㄱㅔ	-4784
▁ㅈㅜㅇㅇㅔ	-4785
▁ㅁㅝㅎㅏㄴㅡㄴ	-4786
ㄱㅗㅅㅇㅔ	-4787
▁ㅂㅣㅈㅓㅇㄱㅠㅈㅣㄱ	-4788
ㅇㅣㅈㅛ	-4789
▁ㅇㅣㄴㄱㅗㅇㅈㅣㄴㅡㅇ	-4790
ㅅㅏㄴㅏ	-4791
ㅏㅇㅜㄴ	-4792
▁ㅁㅗㅈㅏㄹ	-4793
ㄱㅕㄹㄱㅜㄱ	-4794
▁ㅇㅓㅄㅇㅐㄹㅏ	-4795
▁ㅇㅜㄹㅣㄴㅏㄹㅏㄱㅏ	-4796
ㄹㅣㅁㅍㅣㄱ	-4797
▁ㄹㅏㄴㅡㄴ	-4798
▁ㅈㅓㅇㅂㅜㅇㅢ	-4799
▁ㅇㅠㅅㅡㅇㅈㅜㄴ	-4800
ㅣㅇㅝ	-4801
ㄷㅡㄹㅇㅓㄱㅏ	-4802
ㅎㅏㄹㄱㅓㅅ	-4803
▁ㄷㅚㄴㄷㅏㄱㅗ	-4804
ㅇㅏㅆㅇㅡㅁㅕㄴ	-4805
ㄴㅕㅇ	-4806
ㅋㅏㄷㅡ	-4807
▁ㅁㅝㅎㅏㄴㅑ	-4808
ㅅㅏㄱㅣ	-4809
▁ㅇㅣㄴㄹㅠ	-4810
▁ㅎㅘㄱㄹㅠㄹ	-4811
▁ㄱㅜㄱㅁㅣㄴㅇㅔㄱㅔ	-4812
▁ㅉㅜㄱ	-4813
ㅕㅇㅌㅐ	-4814
▁ㅂㅣㅎㅐ	-4815
ㅇㅝㄴㄷㅗ	-4816
▁ㅇㅣㅆㄱㅔ	-4817
▁ㅌㅡㄱㅎㅖ	-4818
ㅅㅓㄹㅏㄷㅗ	-4819
▁ㅇㅟㅇㅏㄴ	-4820
ㅌㅡㄹㅗ	-4821
▁ㅈㅣㄴㅈㅏㄱ	-4822
▁ㅎㅏㄹㄹㅏㄹ	-4823
ㅏㄱㅜ	-4824
▁ㅈㅜㅅㅔㅇㅛ	-4825
ㅇㅓㅄㅇㅓㅅㅓ	-4826
▁ㄷㅏㅅㅣㄴㅡㄴ	-4827
>>>>	-4828
ㅗㅇㅑㅇ	-4829
ㅎㅏㄴㄷㅡㅅ	-4830
ㅎㅏㄹㅕ	-4831
▁ㅈㅔㄱㅏ	-4832
▁ㅈㅜㄱㄴㅡㄴ	-4833
11	-4834
▁ㅎㅜㄴ	-4835
▁ㅇㅚㄱㅖ	-4836
ㅘㄹㅇㅕㅇ	-4837
▁ㅇㅏㄲㅏㅂㄷㅏ	-4838
ㅂㅗㅇㅕ	-4839
▁ㅅㅜㅈㅣ	-4840
▁ㄷㅏㄴㅅㅗㄱ	-4841
ㅂㅗㅅㅔㅇㅛ	-4842
▁ㅈㅓㄱㅇㅓㄷㅗ	-4843
ㄱㅔㅆㄴㅡㄴㄷㅔ	-4844
ㄱㅗㄴ	-4845
▁ㅅㅜㄹㅣ	-4846
▁ㅅㅓㅇㅣㄴ	-4847
▁ㅇㅏㄴㅣㅈㅣㅁㅏㄴ	-4848
ㅂㅜㅊㅐ	-4849
ㅇㅛㅈㅡㅁ	-4850
▁ㅎㅏㅈㅣㅁㅏ	-4851
ㄱㅔㅆㅅㅡㅂㄴㅣㄷㅏ	-4852
▁ㅈㅘㅈㅗㅁ	-4853
▁ㅇㅣㄹㅈㅏㄹ	-4854
▁ㅈㅗㄴㄱㅕㅇ	-4855
ㄷㅐㄹ	-4856
ㄴㅏㄱㅏㄴ	-4857
▁ㅇㅛㅇㅅㅓ	-4858
▁ㅇㅏㄴㅎㅏㅁㅕㄴ	-4859
▁ㄱㅗㄹㅕ	-4860
ㅅㅏㅁㅏㄴ	-4861
ㅇㅣㄷㅡㄹㅇㅣ	-4862
ㄱㅏㅄㅇㅡㄹ	-4863
▁ㅇㅣㄴㅏㄹㅏㄴㅡㄴ	-4864
ㅅㅡㄹㅗ	-4865
ㄱㅣㄱㅏㄴ	-4866
ㅊㅜㄴㅡㄴ	-4867
▁ㅂㅣㅍㅏㄴ	-4868
▁ㅈㅏㄱㄴㅕㄴ	-4869
ㅏㄴㅣㅁ	-4870
▁ㄱㅕㅇㅅㅏㅇㄷㅗ	-4871
ㄹㅗㅂ	-4872
▁ㅃㅏㄹㅇㅏ	-4873
ㅅㅏㅇㅇㅡㄴ	-4874
ㅎㅐㅆㅇㅓㅇㅛ	-4875
▁ㄴㅏㅁㅈㅏㄷㅡㄹ	-4876
ㅠㄱ	-4877
ㄷㅇㅏ	-4878
ㅈㅗㄹㅡㄹ	-4879
▁ㅁㅝㄹㅏㄱㅗ	-4880
▁ㅎㅡㅂ	-4881
ㄹㅏㅅㅡ	-4882
ㅅㅣㄱㅇㅡㄹ	-4883
ㅇㅏㄴㅣㄱㅗ	-4884
▁ㄲㅗㅊㅂㅐㅁ	-4885
▁ㅁㅗㄱㅅㅗㄹㅣ	-4886
▁ㅇㅏㄴㄷㅚㄱㅗ	-4887
ㄹㅠㄱ	-4888
▁ㄴㅣㄴ	-4889
▁ㅎㅡㅁ	-4890
▁ㄷㅓㅇㅝ	-4891
ㅋㅓㅁ	-4892
ㅎㅡㄹ	-4893
▁ㅈㅜㅅ	-4894
ㅈㅗㄱㅏ	-4895
ㅈㅗㅎㄷㅏ	-4896
ㄱㅓㄷ	-4897
▁ㅊㅐㄱㅇㅣㅁㅇㅡㄹ	-4898
ㅛㄱ	-4899
ㅁㅏㅁ	-4900
ㅃㅗㅇ	-4901
ㅂㅗㄱㅏ	-4902
▁ㄱㅐㅎㅕㄱ	-4903
ㄱㅗㅇㄱㅐ	-4904
ㅡㄹㄹㅣㅁ	-4905
ㅎㅏㅈㅣㅁㅏㄹ	-4906
▁ㅇㅘㄴㅈㅓㄴㅎㅣ	-4907
ㄱㅏㄹㅗ	-4908
▁ㅇㅣㅈㅗㅇ	-4909
▁ㅂㅜㅊㅐ	-4910
ㄷㅏㄹㄹㅏ	-4911
▁ㄷㅐㄷㅏ	-4912
▁ㄴㅗㄹㄹㅏ	-4913
ar	-4914
▁ㄷㅡㄱ	-4915
▁ㅁㅐㅇㅜ	-4916
ㄴㅣㅁㅇㅣ	-4917
▁ㅊㅗㄷㅣㅇ	-4918
ㅅㅣㅁㅇㅡㄹ	-4919
ㅎㅐㅆㄴㅡㄴㅈㅣ	-4920
ㄴㅛㄴ	-4921
ㄹㅣㄱㅔ	-4922
ㅂㅏㄹㅣ	-4923
ㅇㅕㄴㅇㅖ	-4924
▁ㅁㅕㅊㅂㅓㄴ	-4925
ㄱㅏㅍ	-4926
ㅎㅜㄹㅗ	-4927
▁ㅇㅣㄹㅇㅡ	-4928
▁ㅅㅣㄹㅈㅔㄹㅗ	-4929
ㄱㅣㄱㅏㄱ	-4930
ㄹㅓㅇ	-4931
▁ㅊㅚㄷㅐ	-4932
▁ㅇㅣㅆㄴㅡㄴㄱㅓ	-4933
60	-4934
ㅈㅐㄱ	-4935
▁ㄴㅐㅂㅜ	-4936
▁ㅉㅏㄱㅗ	-4937
ㅎㅏㄷㅡㄴ	-4938
▁ㅇㅣㅁㅅㅣㄴ	-4939
▁ㅎㅜㅈㅣㄴㄱㅜㄱ	-4940
▁ㅇㅓㄴㅡㅈㅓㅇㄷㅗ	-4941
ㅌㅏㄹㅕㅇ	-4942
▁ㅇㅏㄹㅁㅕㄴㅅㅓ	-4943
▁ㅇㅔㅇㅣ	-4944
▁ㅈㅜㅁㅏㄹ	-4945
ㄴㅏㄹㅏㄱㅏ	-4946
▁ㅇㅜㅅㅇㅡㅁ	-4947
▁ㅊㅣㅇㅊㅏㄴ	-4948
▁ㄴㅡㄴ	-4949
▁ㄴㅏㅌㅏㄴ	-4950
▁ㅂㅜㅇㅕㄱ	-4951
▁ㅇㅏㄹㄱㅔ	-4952
▁ㄱㅏㅁㄷㅗㅇ	-4953
▁ㅎㅏㅈㅣㅁㅏㄹ	-4954
ㅈㅓㅇㅇㅢ	-4955
▁ㄱㅜㄹㅡㅁㅣ	-4956
▁ㄴㅏㄹㅏㄲㅗㄹ	-4957
ㅅㅗㅂㅣ	-4958
▁ㄱㅐㅅㅗㄹ	-4959
▁ㄱㅣㄹㅗㄱ	-4960
ㅁㅐㅇㅜㄴㄷㅗㅇ	-4961
ㅈㅣㅂㅇㅔ	-4962
▁ㅇㅏㄶㄷㅏ	-4963
▁ㅁㅐㅂㅓㄴ	-4964
▁ㅇㅓㅇㅣㄱㅏ	-4965
▁ㄱㅓㅂㄴㅣㄷㅏ	-4966
▁ㅁㅓㄱㄱㅗㅅㅏㄹ	-4967
ㅗㄴㅣ	-4968
ㄹㅣㄴㅏ	-4969
ㅇㅏㄹㅂㅏ	-4970
▁ㄱㅐㅃㅜㄹ	-4971
▁ㅈㅗㅎㅇㅡㅁ	-4972
ㅇㅣㅆㄷㅏㄱㅗ	-4973
ㅅㅣㅂㅅㅣ	-4974
ㅎㅘㄴㅡㄴ	-4975
▁ㄸㅡㄷㅇㅓ	-4976
▁ㅇㅓㄹㅡㄴ	-4977
ㄴㅣㅁㄷㅡㄹ	-4978
▁ㄴㅏㅇㅗㄱㅗ	-4979
ㅎㅏㄴㄱㅓㅈㅣ	-4980
ㄱㅓㅂ	-4981
▁ㅍㅐㄱㅌㅡ	-4982
▁ㅈㅏㄱㅜㄱㅁㅣㄴ	-4983
ㄷㅐㅅ	-4984
ㄱㅐㅇㅢㅇㅝㄴ	-4985
ㅣㅁㅣ	-4986
ㅋㅔㅌㅣㅇ	-4987
▁ㅋㅓㅍㅡㄹ	-4988
▁y	-4989
▁ㅂㅜㅈㅓㅇㅂㅜㅍㅐ	-4990
▁w	-4991
▁ㅆㅓㅂ	-4992
▁ㅁㅗㅅㅅㅐㅇ	-4993
▁ㅇㅗㄹㅡㄴㅡㄴ	-4994
ㅇㅓㅆㅅㅡㅂㄴㅣㄷㅏ	-4995
▁ㅅㅐㅇㄱㅏㄱㅎㅏㄴㄷㅏ	-4996
▁ㅂㅡㄹㄹㅐㄱㄹㅣㅅㅡㅌㅡ	-4997
▁ㄷㅐㅇㅡㅇ	-4998
▁ㅂㅐㅅㅣㄴ	-4999
ㄸㅡㄱ	-5000
ㅈㅔㄴㅡㄴ	-5001
▁ㄴㅗㅎㅗㅇㅊㅓㄹ	-5002
▁ㅎㅏㄴㅡㄴㅈㅣㅅ	-5003
ㅍㅐㄱ	-5004
;;;;	-5005
ㅂㅗㄷㅗ	-5006
▁ㅅㅏㅁㅅㅓㅇㅂㅜㄹㅁㅐ	-5007
ㅓㄷㅏ	-5008
ㅇㅣㅁㅣ	-5009
▁ㄴㅏㄴㅝ	-5010
▁ㅋㅗㅅㅡ	-5011
▁ㅅㅔㄱㅡㅁㅇㅡㄴ	-5012
▁ㅊㅚㅈㅓㅇㅣㅁㄱㅡㅁ	-5013
ㅎㅣㅁㄷㅡㄹ	-5014
.2	-5015
▁ㅉㅣㄹ	-5016
ㄱㅕㅇㅇㅠㅊㅏㄱ	-5017
▁ㅇㅣㅆㅇㅓㅆㄴㅡㄴㄷㅔ	-5018
ㅎㅜㅇㅔ	-5019
▁ㅅㅓㄹㄹㅔ	-5020
ㅇㅓㅄㄷㅏㄱㅗ	-5021
ㅅㅣㄱㅣ	-5022
▁ㅇㅛㅅㅐ	-5023
ㅡㅁㅇㅡㄹ	-5024
▁ㄱㅏㅇㅇㅛ	-5025
▁ㅁㅜㅅㅓㅂ	-5026
▁ㅌㅜㅇㅣㅂ	-5027
ㅉㅉㅉㅉ	-5028
▁ㅋㅓㅍㅣ	-5029
▁ㄱㅓㄹㄹㅕ	-5030
▁ㅆㅓㄱㅇㅓ	-5031
80	-5032
▁90	-5033
ㄷㅡㄹㅕㅇㅛ	-5034
▁ㄴㅜㄴㅂㅣㅊ	-5035
▁ㅂㅓㄹㅣㄱㅗ	-5036
▁ㄱㅐㄴㅏ	-5037
ㄷㅔㄷㅗ	-5038
ㅏㄱㅏㄹ	-5039
▁ㅇㅓㄹㅣ	-5040
▁ㅎㅗㄱㅅㅣ	-5041
▁ㅁㅏㅇㅡㅁㅇㅣ	-5042
▁ㅇㅝㄴㅎㅏㄴㅡㄴ	-5043
ㅏㅇㅗ	-5044
▁ㅇㅏㅇㅣㄱㅗ	-5045
ㅅㅜㅂㅏㄲㅇㅔ	-5046
ㅕㅆㅇㅓ	-5047
▁ㄱㅟㅇㅕㅇ	-5048
▁ㅌㅐㅇㅓㄴ	-5049
ㅇㅣㄴㄱㅓㄴ	-5050
▁ㅂㅗㄴㅣㄲㅏ	-5051
ㄹㅣㄴㅑ	-5052
▁ㄱㅡㅁㅂㅏㅇ	-5053
▁ㅂㅏㄷㅏ	-5054
▁ㅈㅏㅂㄱㅗ	-5055
ㅌㅟ	-5056
▁ㄷㅐㅌㅗㅇ	-5057
▁ㅆㅏㅇㅜㅁ	-5058
▁ㄱㅏㅁㅈㅓㅇ	-5059
▁ㅅㅏㅅㅐㅇㅎㅘㄹ	-5060
▁ㅎㅘㅇㄱㅛㅇㅏㄴ	-5061
ㄴㅗㅁㄷㅡㄹㅇㅡㄴ	-5062
ㅈㅏㅁㅏ	-5063
▁ㅁㅏㄹㅆㅡㅁ	-5064
▁ㅇㅛㄱㅎㅏㄴㅡㄴ	-5065
ㅗㅇㅢ	-5066
▁ㅇㅣㄹㅂㅜㄹㅓ	-5067
ㅎㅏㅇㅔ	-5068
▁ㅁㅔㄴ	-5069
ㅇㅓㄷㅣ	-5070
ㅊㅣㅈㅣ	-5071
ㄱㅓㅇㅓㅄ	-5072
▁ㅊㅜㄹㅅㅏㄴ	-5073
▁ㅁㅏㅇㅎㅏㄴㅡㄴ	-5074
ㅂㅏㄹㅏ	-5075
ㄱㅘㄴㅇㅣ	-5076
▁ㅈㅏㄹㄷㅚ	-5077
▁ㅈㅓㄹㅂㅏㄴ	-5078
▁ㅈㅣㄹㅁㅜㄴ	-5079
ㅇㅇ	-5080
▁ㅍㅏㄴㅅㅏ	-5081
▁ㅈㅣㅅㅣ	-5082
▁ㅠㅠㅠㅠ	-5083
ㅅㅓㅇㄱㅘ	-5084
▁.....	-5085
▁ㅇㅗㄹㅡㄹ	-5086
▁ㅊㅜㅊㅓㄴ	-5087
▁ㅅㅣㄹㅇㅓㅂ	-5088
▁ㄸㅢ	-5089
▁ㄹㅐㅂ	-5090
ㄷㅐㄷㅗ	-5091
▁ㅎㅏㄴㅣㄲㅏ	-5092
▁ㄴㅡㄱ	-5093
▁ㅇㅓㅄㄴㅑ	-5094
▁ㄱㅣㅍ	-5095
ㅘㄷㅗ	-5096
▁ㄷㅏㄻ	-5097
▁ㅃㅐㅁㅓㄱ	-5098
▁ㅂㅣㅅㅡㅅㅎㅏㄴ	-5099
▁ㄱㅜㄱㅁㅣㄴㄷㅡㄹㅇㅢ	-5100
▁ㅉㅏㄼ	-5101
ㄷㅐㄱㅏㅇ	-5102
ㅅㄴㅔ	-5103
▁ㅅㅜㅅㅏㅇ	-5104
▁ㅎㅏㄴㄷㅔ	-5105
▁ㅇㅕㄴㄱㅣㄷㅗ	-5106
▁ㄸㅓㄹㅇㅓㅈㅣㄴ	-5107
▁ㅁㅜㅈㅚ	-5108
▁ㅅㅏㅇㄷㅐㄹㅗ	-5109
▁25	-5110
ㅂㅓㅂㅇㅣ	-5111
▁ㅈㅣㄱㅡㅁㅇㅢ	-5112
at	-5113
ㅎㅗㄱㅏㅁ	-5114
▁ㅅㅓㄹㅁㅏ	-5115
▁ㄷㅡㄹㅇㅓㄱㅏㄴ	-5116
▁ㅇㅗㅂ	-5117
▁ㅎㅛㄱㅘ	-5118
▁ㄱㅓㅁㅅㅏ	-5119
▁ㅇㅏㄶㅇㅏ	-5120
▁ㅇㅘㄴㅂㅕㄱ	-5121
▁ㅇㅜㅅㄱㅣㄴㅡㄴ	-5122
▁ㅂㅗㅂㅗㄱ	-5123
▁ㄲㅗㄹㅏㅈㅣ	-5124
ㄹㅣㄹㅗ	-5125
▁ㄷㅏㄴㅣ	-5126
▁ㄷㅓㅇㅜㄴ	-5127
ㅎㅏㅈㅣㄷㅗ	-5128
▁ㄱㅡㅁㅇㅐㄱ	-5129
▁ㅇㅣㄴㅁㅣㄴ	-5130
ㅇㅓㅆㄷㅏㄴㅡㄴ	-5131
ㄱㅡㄱㅔ	-5132
▁ㄱㅏㅆㄷㅏ	-5133
▁ㅂㅏㄷㅏㄱ	-5134
ㅋㅓㅅ	-5135
▁14	-5136
▁ㅅㅣㄲㅡㄹ	-5137
ㅇㅝㄴㅇㅡㄴ	-5138
▁ㅅㅔㄱㅡㅁㅇㅣ	-5139
▁ㅂㅗㅈㅏ	-5140
▁ㄸㅓㄷㅡㄹ	-5141
▁ㅈㅓㄹㄷㅐㄹㅗ	-5142
▁ㅈㅣㄴㅔ	-5143
▁ㅇㅠㅈㅓㄴ	-5144
▁ㄱㅖㅎㅚㄱ	-5145
▁ㅈㅗㅎㄱㅔ	-5146
▁ㅎㅏㄹㅏㄱㅗ	-5147
▁ㅁㅜㄴㅈㅔㅈㅣ	-5148
▁ㅅㅏㅁㅜ	-5149
ㅈㅏㄷㅡㄹㅇㅢ	-5150
ㅁㅏㄴㅎㅏㅁㅕㄴ	-5151
ㅁㅗㅁ	-5152
ㅎㅗㅅ	-5153
ㄴㅏㄱㅏ	-5154
▁ㅃㅐㄷㅗㄹ	-5155
▁ㅇㅏㄴㅡㄴㄷㅔ	-5156
ㅅㅡㄹㅓㄴ	-5157
▁ㅅㅗㄹㅡㅁ	-5158
ㅊㅜㅇㄷㅡㄹ	-5159
▁ㅇㅣㅆㄷㅓㄴ	-5160
▁ㅊㅜㅁ	-5161
▁ㅁㅏㅁㄷㅐㄹㅗ	-5162
▁b	-5163
ㅂㅣㅈ	-5164
ㅁㅏㄹㅣ	-5165
ㅅㅣㅀㄷㅏ	-5166
ㅇㅏㄴㅡㄴ	-5167
ㅅㅓㄴㅇㅡㄹ	-5168
▁ㅁㅜㄹㅇㅓㅂ	-5169
ㅎㅏㄹㅕㄴㅡㄴ	-5170
▁ㅇㅕㄴㄱㅣㄹㅕㄱ	-5171
ㅅㅏㅇㅣ	-5172
▁ㅅㅏㅌㅚ	-5173
▁ㅇㅢㅁㅜㄴ	-5174
▁ㅇㅣㄴㅎㅐ	-5175
ㅐㄴㅗㅎㄱㅗ	-5176
▁ㄱㅣㅁㄱㅗㅇㅡㄴ	-5177
ㅅㅏㅅㅜ	-5178
!!!!!!!	-5179
▁ㅅㅓㄴㅁㅜㄹ	-5180
ㅎㅐㅈㅣ	-5181
ㅇㅕㅇㅇㅣ	-5182
ㅈㅓㄱㅇㅡㄹ	-5183
ㄷㅏㄴㅣㄴㅡㄴ	-5184
▁ㅅㅜㅇㅛ	-5185
▁ㅂㅐㅇㅜㄴ	-5186
▁ㅈㅣㅂㅎㅚ	-5187
ㅊㅕㅁㅓㄱㄱㅗ	-5188
▁ㅂㅐㄱㅎㅘㅈㅓㅁ	-5189
▁ㅎㅚㅇ	-5190
ㅇㅕㄹㅏ	-5191
ㅇㅓㄴㅈㅔ	-5192
▁ㅎㅐㅇㅚㅇㅕㅎㅐㅇ	-5193
ㅌㅏㄱㅣ	-5194
▁ㅆㅓㄹㅏ	-5195
▁ㄷㅗㅁㅏㅇ	-5196
12	-5197
▁ㅈㅓㅎ	-5198
ㅇㅣㅂㄱㅗ	-5199
ㅎㅏㄴㅅㅣㅁ	-5200
▁ㅇㅣㄴㅈㅡㅇ	-5201
▁ㅎㅏㅂㄹㅣ	-5202
ver	-5203
ㅇㅕㄱㅅㅣ	-5204
▁ㄴㅏㅇㅂㅣ	-5205
▁ㅈㅓㄴㅈㅏ	-5206
ㄲㅏㅁ	-5207
▁ㅅㅑㅇ	-5208
ㅅㅗㄱㅏ	-5209
ㅊㅓㅂㅓㄹ	-5210
▁ㅋㅡㄴㅇㅣㄹ	-5211
▁ㅇㅕㅈㅓㄴㅎㅣ	-5212
ㅜㄴㅇㅛ	-5213
▁ㅈㅓㄷㅗ	-5214
ㅈㅏㅇㄷㅗ	-5215
ㅈㅣㅁㅗㅅ	-5216
▁ㄱㅡㄹㄹㅗ	-5217
▁ㅇㅏㄶㅇㅡㅁ	-5218
ㅌㅗㄹ	-5219
ㄷㅚㄴㅣ	-5220
▁ㄱㅗㄱㅡㅂ	-5221
ㄱㅘㄴㄹㅕㄴ	-5222
ㄷㅡㅇㄱㅡㅂ	-5223
▁ㅇㅣㅆㄴㅡㄴㄱㅔ	-5224
ㄴㅏㅇㅗ	-5225
ㄷㅐㅂㅏㄱ	-5226
▁ㄴㅗㄴㄹㅏㄴ	-5227
▁ㅊㅜㄹㅅㅣㄴ	-5228
▁ㅇㅔㅇㅓㅋㅗㄴ	-5229
▁ㄴㅏㄹㅏㅇ	-5230
ㅍㅡㄹㅔ	-5231
▁ㄱㅡㄱㅓㅅ	-5232
ㅁㅏㄹㅇㅡㄹ	-5233
▁ㄱㅡㄱㅎㅕㅁ	-5234
ㅅㅣㄱㅏ	-5235
▁ㅋㅜ	-5236
ㅇㅔㄹ	-5237
▁ㅎㅓㄱ	-5238
▁ㅇㅜㅇㅠ	-5239
ㅋㅣㄷㅡㄹ	-5240
▁ㅁㅏㅁㅇㅔ	-5241
ㄱㅝㄴㅇㅡㄹ	-5242
▁ㅇㅜㄴㅈㅓㄴ	-5243
ㅅㅓㅌㅡ	-5244
ㅅㅏㅇㅇㅔ	-5245
▁ㄱㅗㅇㅈㅜㅇ	-5246
▁ㅍㅕㄴㅎㅏㄱㅔ	-5247
ㅆㅔ	-5248
ㅁㅏㄴㅏ	-5249
ㅅㅏㅇㅅㅡㅇ	-5250
▁ㄱㅣㅇㅓㄱㅇㅣ	-5251
ㅗㄹㅐ	-5252
ㅈㅓㄹㅣ	-5253
ㅇㅓㄱㅇㅣ	-5254
ㅈㅇㅓ	-5255
▁ㄱㅏㅆ	-5256
ㄷㅡㄹㅇㅔ	-5257
▁ㄷㅗㅇㄴㅏㅁ	-5258
▁ㅇㅣㄹㅜㅇㅓ	-5259
ㅇㅣㅆㅇㅡㄴㅣ	-5260
▁ㅎㅏㄴㅡㄴㄱㅓㄴ	-5261
ㅉㅓㄱ	-5262
▁ㅁㅗㅅㅅㅏㄹ	-5263
▁ㅊㅚㅇㅏㄱㅇㅢ	-5264
ㅜㄱㅔ	-5265
ㅎㅗㄴㅈㅏ	-5266
▁ㅂㅏㄹㅇㅏㄱ	-5267
----	-5268
ㅍㅖㅈㅣ	-5269
▁ㅂㅏㄴㅂㅗㄱ	-5270
▁ㅎㅐㅇㅑㅎㅏㄴㄷㅏ	-5271
▁ㅇㅐㅇ	-5272
▁ㅇㅞㄴ	-5273
ㅈㅓㅇㅂㅜㄴㅡㄴ	-5274
ㅊㅏㄹㅡㄹ	-5275
▁ㅁㅏㅇㅑㄱ	-5276
ㄷㅗㄴㅇㅡㄴ	-5277
ㅎㅘㅇㅣㅌㅣㅇ	-5278
▁ㅇㅏㄴㅣㄹㄲㅏ	-5279
▁ㄷㅓㄱㅂㅜㄴㅇㅔ	-5280
▁ㅇㅏㄶㅇㅡㄹㄲㅏ	-5281
▁ㅊㅕㄴ	-5282
ㄱㅏㅇㅑ	-5283
▁ㅇㅠㄹㅣ	-5284
▁ㅁㅏㅈㅈㅣ	-5285
st	-5286
ㄱㅜㅅ	-5287
ㅊㅗㄱ	-5288
ㄱㅖㄹㅡㄹ	-5289
▁ㅁㅜㄱㅣㅈㅣㅇㅇㅕㄱ	-5290
ㄴㅐㅁ	-5291
ㅅㅏㅌㅐ	-5292
ㅏㄱㅜㅇㅛ	-5293
ㅏㅇㅓㅁㅏ	-5294
▁ㅂㅏㄹㅡㄴ	-5295
▁ㅇㅏㄴㅇㅗㄹ	-5296
ㅁㅏㅌㅡ	-5297
ㄱㅐㅎㅕㄱ	-5298
ㅇㅓㄱㅇㅝㄴ	-5299
ㅈㅣㄹㅇㅡㄹ	-5300
ㅜㄹㅏ	-5301
ㅂㅗㄹㅗ	-5302
▁ㅋㅓㅁㅍㅠ	-5303
▁ㄱㅣㅁㅎㅐㄱㅗㅇㅎㅏㅇ	-5304
ㅎㅖㄱㅛ	-5305
▁ㄷㅔㅂㅟ	-5306
ㅅㅏㅁㅕㄴ	-5307
ㅏㄹㅏㄷㅗ	-5308
▁ㅈㅣㅂㅇㅡㄹ	-5309
ㅖㅇㅛ	-5310
ㄴㅜㄱㅏ	-5311
ㅕㄱㅇㅣ	-5312
▁ㅎㅏㄴㅇㅜ	-5313
▁ㄱㅣㄱㅏ	-5314
ㄱㅗㅅㅇㅣ	-5315
▁ㅇㅣㅈㅜㅇ	-5316
▁ㅈㅣㄴㅎㅘ	-5317
ㅉㅏㅍㅣ	-5318
ㄷㅏㅇㅇㅔ	-5319
ㅈㅔㅎㅏㄴ	-5320
▁ㄱㅡㅁㅈㅣ	-5321
▁ㄷㅐㅂㅣ	-5322
▁ㅇㅓㅂㅓ	-5323
ㅅㅜㅇㅣㅂ	-5324
▁ㅇㅜㅅㄱㅣ	-5325
▁ㅎㅐㅂㅘㄹㅏ	-5326
BS	-5327
▁ㅇㅓㅁㅏㅇㅓㅁㅏ	-5328
▁ㅈㅓㅇㅊㅐㄱㅇㅡㄹ	-5329
ㄱㅛㅊㅔ	-5330
▁ㄷㅐㄹㅣ	-5331
▁ㅇㅘㅇㅣ	-5332
ㅈㅜㅇㅣㄴ	-5333
▁ㄴㅏㄹㅏㄱ	-5334
▁ㅁㅗㅈㅗㄹㅣ	-5335
ㅂㅗㅁㅕㄴㅅㅓ	-5336
ㅁㅓㅅ	-5337
ㅐㄱㅣ	-5338
▁ㅌㅏㄹㅕㅇ	-5339
▁ㄴㅏㄹㅏㅅ	-5340
▁ㅁㅏㄹㅇㅏ	-5341
▁ㅇㅓㄴㄱㅡㅂ	-5342
ㅎㅏㄴㅡㄴㄱㅜㄴㅏ	-5343
▁ㅊㅓㅇㅡㅁㅂㅜㅌㅓ	-5344
▁ㅇㅏㄹㅇㅏㅆㄴㅡㄴㄷㅔ	-5345
ㅈㅐㄱㅏ	-5346
ㅅㅣㅊㅓㅇ	-5347
▁ㅁㅜㄹㄱㅗ	-5348
ㄱㅓㄱㅏㅌㄷㅏ	-5349
▁ㅎㅏㄴㅁㅏㄷㅣ	-5350
ㅌㅜㅇ	-5351
ㅇㅓㅆㄴㅑ	-5352
▁ㄱㅡㄴㅂㅗㄴ	-5353
▁ㅇㅣㄴㅁㅜㄹ	-5354
▁ㅅㅐㅁ	-5355
▁ㅎㅓㅇㅟ	-5356
▁ㅇㅗㄹㅐㄴ	-5357
▁ㅊㅚㄱㅡㄴ	-5358
▁ㄸㅓㄹㅇㅓㅈㅣㄴㅡㄴ	-5359
ㅅㅏㅁㅓㄱ	-5360
▁ㄴㅗㄴㄹㅣ	-5361
▁ㄱㅏㄴㄷㅏㄴ	-5362
▁ㄴㅏㅇㅗㅈㅣ	-5363
▁ㅅㅏㄹㅁㅕㄴ	-5364
ㅇㅟㄱㅏ	-5365
▁ㅇㅗㅃㅏ	-5366
ㄱㅕㅇㅇㅕㅇ	-5367
▁ㅂㅓㅅㅇㅓㄴ	-5368
▁ㅁㅏㅇㅎㅏㄴㄷㅏ	-5369
▁AI	-5370
ㅃㅏㄱ	-5371
ㅈㅏㅂㅇㅏ	-5372
ㅎㅏㅁㅇㅣ	-5373
ㅅㅣㄱㅏㄴㅇㅔ	-5374
▁ㅈㅗㄱㅡㅁㅁㅏㄴ	-5375
▁ㄱㅣㅁㅌㅐ	-5376
▁ㄴㅏㅅㄷㅏ	-5377
▁ㄱㅕㅇㅎㅓㅁ	-5378
▁ㄱㅣㅈㅏㅇㅑ	-5379
▁ㄱㅣㅅㅏㄴㅡㄴ	-5380
▁ㅈㅓㅇㅊㅣㅇㅣㄴㄷㅡㄹ	-5381
▁ㅇㅜㅅㅡ	-5382
ㅁㅜㄴㅎㅘ	-5383
ㅌㅗㅇㅅㅜ	-5384
▁ㄴㅓㅁㅜㄴㅏ	-5385
▁ㅁㅓㄱㅇㅡㅁㅕㄴ	-5386
▁ㅇㅕㅅ	-5387
▁ㄱㅗㅈㅓㅇ	-5388
▁ㅊㅚㄱㅕㅇ	-5389
▁ㅁㅓㄹㅉㅓㅇ	-5390
▁ㅈㅡㅇㅁㅕㅇ	-5391
▁ㅇㅗㄹㄹㅣㅁㅕㄴ	-5392
▁ㅇㅏㅃㅏ	-5393
ㄷㅙㅆㄷㅏ	-5394
ㅗㅁㄷㅡㄹ	-5395
ㅎㅏㅁㅇㅡㄹ	-5396
~~^^	-5397
ㄱㅣㄴㅔ	-5398
▁ㅍㅡㄹㄹ	-5399
ㄲㅓㅁㅕㄴ	-5400
▁ㅁㅔㅇㅣㄴ	-5401
▁ㅈㅗㄹㄹㅏ	-5402
▁ㄱㅓㅌ	-5403
ㅈㅐㅂㅓㄹ	-5404
ㅕㄴㅇㅡㄴ	-5405
▁ㅈㅏㅂㅇㅡㄹ	-5406
ㅇㅟㅇㅔ	-5407
▁ㄷㅣㅅㅡ	-5408
▁ㅉㅣㄱㅇㅓ	-5409
▁ㅂㅏㄴㅇㅡㅇ	-5410
ㅇㅏㄴㅣㅁㅕㄴ	-5411
▁ㅇㅣㄹㅂㅗㄴㅇㅣ	-5412
ㅔㄹㅏ	-5413
▁ㅎㅜㄱ	-5414
ㅊㅕㄹㅏ	-5415
▁ㄱㅜㅊㅣ	-5416
ㄱㅏㅇㅏㄴ	-5417
▁ㄱㅗㅇㅁㅐ	-5418
▁ㅅㅏㅇㅍㅜㅁ	-5419
▁ㅇㅑㄱㅅㅗㄱ	-5420
▁ㅇㅚㅈㅔㅊㅏ	-5421
ㅜㄴㄷㅔ	-5422
ㅂㅓㄴㅉㅐ	-5423
▁ㅇㅣㅇㅓㅍㅗㄴ	-5424
▁ㅁㅣㄱㅜㄱㅇㅔㅅㅓ	-5425
▁ㄷㅚㄴㅏ	-5426
ㅂㅅㅣㄱㅗ	-5427
▁ㄸㅗㄴㅡㄴ	-5428
▁ㅍㅜㄹㅇㅓ	-5429
▁ㅇㅒㄴㅔ	-5430
ㄷㅏㅁㅂㅐ	-5431
ㅇㅜㅂㅕㅇ	-5432
ㅅㅣㅍㅇㅡㄴ	-5433
▁ㅅㅏㅅㅣㄹㅇㅡㄹ	-5434
▁ㅇㅓㄸㅓㅎㄱㅔㄷㅡㄴ	-5435
▁ㅇㅡㄹㅗ	-5436
ㅁㅗㄷㅡㄴ	-5437
▁ㅁㅏㅇㅎㅐ	-5438
▁ㅅㅗㅅㅓㄹ	-5439
▁ㅊㅓㅂ	-5440
ㄷㅏㄴㅣㄲㅏ	-5441
▁ㅋㅓㅁㅂㅐㄱ	-5442
▁ㅋㅋㅋㅋㅋㅋㅋㅋㅋ	-5443
ㄹㅛㅇ	-5444
▁ㅇㅗㅁ	-5445
ㅈㅜㄱㅣㄹ	-5446
▁ㅁㅏㄹㅇㅣㄷㅏ	-5447
▁ㄴㅗㅁㄷㅡㄹㅇㅡㄴ	-5448
▁ㅇㅓㅋㅔ	-5449
ㄱㅏㅄㅇㅡㄴ	-5450
▁ㅁㅏㄴㅈㅗㄱ	-5451
ㅈㅣㄷㅗㅇㅏㄶ	-5452
▁ㅍㅣㄹㅇㅛㄱㅏ	-5453
▁ㅁㅜㅅㅓ	-5454
▁ㅂㅗㅇㅏㄴ	-5455
▁ㅊㅣㄴㅡㄴ	-5456
▁ㅎㅗㅇㅂㅗ	-5457
ㅅㅓㄱㅇㅡㄴ	-5458
▁ㅈㅜㄱㅇㅡㄴ	-5459
ㄷㅏㅇㅎㅏㄱㅗ	-5460
▁ㅇㅕㄴㄱㅣㄹㅡㄹ	-5461
ㄱㅜㄱㅁㅣㄴㄷㅡㄹ	-5462
ㅋㅏㄹ	-5463
▁ㅉㅡㅅ	-5464
ㄱㅣㅈㅏ	-5465
ㅂㅐㅊㅣ	-5466
▁ㄴㅐㅇㅣㄹ	-5467
ㅇㅐㄷㅡㄹㅇㅣ	-5468
▁ㄷㅐㄱㅣㅇㅓㅂㅇㅣ	-5469
ㅏㅇㅗㄹ	-5470
▁ㅈㅔㅇㅚ	-5471
ㅅㅜㅎㅏㄱㅗ	-5472
ㅎㅏㄱㅗㄴㅡㄴ	-5473
ㅜㅅㅣ	-5474
▁ㅅㅡㅂ	-5475
ㅅㅓㅇㅇㅔ	-5476
ㅇㅔㄱㅔㄴ	-5477
ㅇㅣㅈㅔㄴ	-5478
▁ㄷㅡㄴㅡㄴ	-5479
▁ㅁㅐㄱㅜㄱㄴㅗ	-5480
▁ㅁㅗㅅㅎㅏㄴㄷㅏ	-5481
ㄱㅓㄹㄲㅏ	-5482
▁ㄴㅓㅁㄱㅔ	-5483
▁ㅇㅏㄵㅇㅏ	-5484
▁ㅇㅣㅅㅡㄹㄹㅏㅁ	-5485
▁ㅅㅑ	-5486
ㄷㅏㅇㅇㅡㄴ	-5487
▁ㅎㅏㅅ	-5488
ㅅㅓㄴㅇㅣ	-5489
ㅈㅓㅁㅇㅡㄹ	-5490
▁ㅅㅣㅁㅈㅣㅇㅓ	-5491
▁ㅋㅐㄹㅣㄱㅌㅓ	-5492
▁ㅃㅏㅈㅕ	-5493
ㅈㅏㅇㅇㅡㄹㅗ	-5494
ㅇㅓㄷ	-5495
ㅊㅕㅆ	-5496
ㅌㅓㅇ	-5497
▁400	-5498
▁ㅇㅐㄹㅂㅓㅁ	-5499
▁ㅎㅡㄴㄷㅡㄹ	-5500
▁ㅁㅣㄱㅜㄱㅇㅡㄴ	-5501
ㅉㅉㅉ	-5502
ㄱㅘㄴㅡㄴ	-5503
▁ㄴㅏㄴㄷㅏ	-5504
▁ㅇㅏㄹㅈㅣ	-5505
▁ㅇㅓㅉㅓㄴ	-5506
▁ㄷㅚㄴㄷㅏㄴㅡㄴ	-5507
▁ㅈㅣㄱㅇㅝㄴㄷㅡㄹ	-5508
▁ㅈㅓㅇㄱㅕㅇㅇㅠㅊㅏㄱ	-5509
ㅣㅇㅗ	-5510
ㄷㅜㅇㅇㅣ	-5511
▁ㄱㅏㄲㅡㅁ	-5512
▁ㅈㅜㅇㄱㅜㄱㅇㅢ	-5513
▁??	-5514
ㄱㅏㅇㅢ	-5515
▁ㄷㅔㄴㅁㅏㅋㅡ	-5516
▁ㄷㅚㄴㅡㄴㄱㅓ	-5517
▁ㅈㄴ	-5518
▁ㅅㅐㄴㅜㄹ	-5519
▁ㅂㅏㄹㄱㅕㄴ	-5520
▁ㅅㅏㄹㅇㅏㅆ	-5521
ㄱㅓㅇㅕ	-5522
▁ㅎㅐㄱㅅㅣㅁ	-5523
ㄷㅓㅇㅇㅓㄹㅣ	-5524
ㅇㅣㅆㅇㅓㅇㅛ	-5525
ㅈㅓㅇㅂㅜㄱㅏ	-5526
▁ㅆㅡㄹㅔㄱㅣㄷㅡㄹ	-5527
▁+	-5528
ㅢㅇㅕㄴ	-5529
ㄷㅡㄹㅡㄹ	-5530
▁ㅇㅝㄴㅊㅣㄱ	-5531
▁ㅈㅓㅇㄷㅏㅂ	-5532
ㄱㅣㅎㅚ	-5533
▁ㅍㅏㄹㄱㅗ	-5534
ㅅㅓㅇㄱㅗㅇ	-5535
▁ㄸㅓㅅㄸㅓㅅ	-5536
▁ㅈㅣㅇㅇㅕㄱ	-5537
ㅇㅡㄹㅗㅁㅏㄴ	-5538
ㅎㅏㄷㅗㄹㅗㄱ	-5539
▁ㅁㅏㄴㄷㅡㄹㅇㅓㄹㅏ	-5540
or	-5541
ㄴㅏㅇㅣㅅ	-5542
ㅁㅏㄴㅇㅢ	-5543
▁ㄴㅗㄹㄱㅗ	-5544
▁ㅁㅗㄷㅜㄱㅏ	-5545
▁ㅅㅓㅁㅣㄴㄷㅡㄹㅇㅣ	-5546
ㅏㄷ	-5547
▁~~~	-5548
ㅈㅏㅁㅕㄴ	-5549
ㅎㅕㅁㅇㅢ	-5550
▁ㅈㅣㄱㅕㅇ	-5551
▁ㄱㅡㄹㅓㅎㄷㅏ	-5552
▁ㅅㅓㅇㅁㅐㅁㅐ	-5553
▁ㅇㅕㄴㅇㅖㅇㅣㄴㄷㅡㄹ	-5554
ㄱㅕㄹㅎㅗㄴ	-5555
ㅁㅕㅇㅇㅡㄹ	-5556
ㅍㅡㄹㄹㅔㅇㅣ	-5557
▁ㅅㅏㄹㅇㅏㄴㅏㅁ	-5558
▁ㅎㅗㅁ	-5559
ㅂㅘㅇㅛ	-5560
▁ㅃㅏㅇㅃㅏㅇ	-5561
▁ㄱㅏㅊㅣ	-5562
ㅕㅇㅑㅈㅣ	-5563
ㄱㅓㅇㅔㅇㅛ	-5564
▁ㅃㅗㅂㅇㅡㄴ	-5565
▁ㅎㅏㄴㅊㅏㅁ	-5566
ㅇㅣㅇㅕㄴㅎㅏㅂ	-5567
le	-5568
ㄷㅙㅆ	-5569
ㅇㅣㄴㄱㅔ	-5570
ㅎㅏㄴㄱㅏ	-5571
▁ㅌㅡㅇㅘㅇㅣㅅㅡ	-5572
▁ㅍㅣㄹㅇㅛㅎㅏㄷㅏ	-5573
ㅈㅔㄱ	-5574
ㅌㅡㅁ	-5575
ㅎㅗㄷㅗㅇ	-5576
ㅎㅏㄹㅕㅁㅕㄴ	-5577
ㅎㅏㅈㅛ	-5578
▁ㄱㅏㄷㅡㄱ	-5579
ㅅㅣㄴㄷㅡㄹ	-5580
ㄱㅏㄴㅏ	-5581
▁ㅁㅜㅈㅣ	-5582
▁ㅈㅣㄴㅐ	-5583
ㄱㅡㄹㅡㅅ	-5584
▁ㅈㅓㄱㄱㅡㄱ	-5585
▁ㅈㅜㄱㅇㅣㄹ	-5586
ㅁㅏㄴㅎㅏㄱㅗ	-5587
▁ㅈㅏㅁㄲㅏㄴ	-5588
ㄱㅗㅇㅎㅘㄱㅜㄱ	-5589
ㅇㅓㅆㄷㅏㅁㅕㄴ	-5590
▁ㅈㅜㅇㄱㅜㄱㅇㅣㄴ	-5591
▁ㅊㅐㄴㅓㄹ	-5592
▁ㅂㅕㅇㅇㅝㄴ	-5593
ㅏㄹㄱㅗ	-5594
▁ㅈㅣㅈㅣㄴ	-5595
▁ㄷㅗㄱㄹㅣㅂ	-5596
▁ㅂㅜㄹㄹㅑㅇ	-5597
▁IM	-5598
ㅆㅓㅂ	-5599
ㅎㅏㄷㅏㄴㅣ	-5600
▁ㅁㅕㅊㅂㅐㄱ	-5601
▁ㅍㅏㄱㅍㅏㄱ	-5602
▁ㅎㅏㅇㅕㄱㅏㄴ	-5603
▁ㅇㅓㄹㄱㅜㄹㅇㅣ	-5604
ㄷㅡㄱㅏ	-5605
▁ㅇㅢㄱㅕㄴ	-5606
▁ㅇㅣㅇㅕㅇ	-5607
▁ㅎㅏㄴㄷㅜ	-5608
▁ㅈㅐㅁㅣㅆㄱㅔ	-5609
▁ㅅㅏㅁㅅㅓㅇㅇㅢ	-5610
▁ㅂㅜㄹㅆㅏㅇㅎㅏㄴ	-5611
▁ㅇㅏㄴㅈㅗㅎㅇㅡㄴ	-5612
▁ㄱㅜㄱㄱㅐㅇㅢㅇㅝㄴ	-5613
▁ㅈㅗㅇㄱㅛ	-5614
▁ㅂㅏㄱㅇㅕㅇ	-5615
ㅋㅠ	-5616
ㄷㅚㄱㅔ	-5617
▁ㅇㅜㄹㅕ	-5618
ㄲㅏㅈㅣㄴ	-5619
▁ㅂㅏㄴㄷㅗ	-5620
▁ㅈㅏㄱㅡㅁ	-5621
ㅈㅝㅇㅑㅈㅣ	-5622
▁ㅈㅜㅁㅓㄴㅣ	-5623
~3	-5624
▁D	-5625
ㅌㅜㅍㅛ	-5626
ㅈㅏㅇㅕㄴ	-5627
▁ㄴㅐㅁㅅㅐ	-5628
ㅁㅏㄴㅇㅡㄹ	-5629
ㅎㅏㄹㄹㅕㄱㅗ	-5630
▁ㅁㅏㅂㅅㅣㄷㅏ	-5631
ㅎㅏㄹㅌㅔㄴㄷㅔ	-5632
ㄹㅗㅁ	-5633
ㄷㅔㅇㅣ	-5634
▁ㅁㅜㅅㅏㅇ	-5635
▁ㅂㅕㄴㅎㅗㅅ	-5636
ㅍㅣㅎㅐ	-5637
▁ㅎㅣㅁㅇㅡㄹ	-5638
ㅊㅜㄱㅗ	-5639
▁ㅇㅓㄸㅓㅎ	-5640
▁ㅇㅓㄹㄹㅡㄴ	-5641
▁ㅈㅏㅇㅁㅕㄴ	-5642
ㅇㅓㅆㅇㅡㄴㅣ	-5643
▁ㅇㅓㅄㅇㅓㅇㅛ	-5644
▁ㅂㅏㄲㅜ	-5645
ㄱㅓㅈㅣㅅ	-5646
ㅇㅓㅄㅈㅣ	-5647
ㅇㅗㄴㅡㄹ	-5648
▁ㄴㅓㄴㅡㄴ	-5649
▁ㅈㅜㅇㅕㄴ	-5650
▁ㅅㅣㅋㅣㄴㅡㄴ	-5651
▁ㅈㅗㅁㅂㅣ	-5652
ㅂㅜㄱㅎㅏㄴ	-5653
ㅂㅏㄷㅇㅏㅅㅓ	-5654
ㅎㅐㅆㅇㅡㄴㅣ	-5655
▁ㅇㅕㄱㅣㅈㅓㄱㅣ	-5656
▁ㅍㅣㄴ	-5657
ㄷㅡㄹㅗ	-5658
▁ㄸㅏㅈㅣ	-5659
▁ㅇㅣㅇㅘㄴ	-5660
ㄱㅕㅅㅓ	-5661
ㄱㅘㅇㅢ	-5662
ㅌㅐㅁㅣㄴ	-5663
▁ㄱㅗㅁㅏㅇ	-5664
▁ㅈㅏㄹㅁㅏㄴ	-5665
▁ㅇㅏㄴㄷㅚㅁㅕㄴ	-5666
▁ㄱㅐㅇㅣㄴㅈㅓㄱㅇㅡㄹㅗ	-5667
ㄹㅏㄴㅣ	-5668
ㅅㅏㅅㅓ	-5669
ㅇㅏㄴㅏ	-5670
▁ㅎㅗㄱㅜㄹㅗ	-5671
▁ㄷㅜㄱ	-5672
ㅜㅜㅜㅜ	-5673
▁ㅇㅣㄷㅏ	-5674
▁ㄴㅏㄹㅡㅁ	-5675
▁ㅁㅓㄱㅇㅕ	-5676
▁ㅂㅜㄹㄱㅘ	-5677
▁ㄱㅕㄹㄱㅜㄱㅇㅡㄴ	-5678
ㅎㅏㄴㅡㄴㄱㅓㅅㄷㅗ	-5679
ㄱㅡㅁㅈㅣ	-5680
▁ㅁㅝㅎㅏㄴㅏ	-5681
▁ㅈㅣㄹㅈㅣㄹ	-5682
ㅘㅆㄷㅏ	-5683
▁ㅎㅐㅈㅝ	-5684
▁ㅈㅓㄱㄱㅔ	-5685
▁ㅈㅣㄴㅅㅣㅁㅇㅡㄹㅗ	-5686
▁ㅆㅢ	-5687
ㅏㅁㅏㅇ	-5688
▁ㅊㅏㅇㅣ	-5689
▁ㅎㅗㅈㅜ	-5690
▁ㅁㅕㅇㅇㅖ	-5691
▁ㅈㅣㄱㅕㅂㄷㅏ	-5692
ㅈㅓㅇㄷㅗㅁㅕㄴ	-5693
an	-5694
▁ㄲㅏㄲ	-5695
▁ㄷㅏㄹㄹㅕ	-5696
▁ㄷㅗㅇㅅㅐㅇ	-5697
▁ㅎㅏㄷㅓㄴㅣ	-5698
▁ㅁㅏㄹㅕㄴ	-5699
▁ㅇㅠㅎㅐㅇ	-5700
▁ㅇㅣㄹㅈㅜ	-5701
▁ㅈㅜㅁㅣㄴ	-5702
▁ㅇㅏㅍㅇㅔ	-5703
▁ㅈㅏㅈㅗㄴ	-5704
▁ㅇㅜㄹㅣㅇㅢ	-5705
ㄷㅚㄴㅡㄴㄱㅓ	-5706
▁ㄱㅏㅌㄴㅔㅇㅛ	-5707
▁ㅇㅣㅁㄱㅣ	-5708
▁ㅌㅗㅇㅎㅐ	-5709
▁ㅈㅜㅇㄱㅜㄱㅇㅔㅅㅓ	-5710
ㄲㅡ	-5711
▁ㄴㅏㅇㅏ	-5712
ㄹㅗㄴㅡㄴ	-5713
▁ㅈㅗㅅㅔㄴ	-5714
▁ㅈㅡㅇㄱㅓㄱㅏ	-5715
▁ㅎㅏㅁㅂㅜㄹㅗ	-5716
▁ㄷㅏㅇㅅㅣㄴㅇㅣ	-5717
ㅈㅔㄹ	-5718
▁2000	-5719
ㄷㅡㅇㅇㅣ	-5720
ㅂㅘㅆㄷㅏ	-5721
▁ㅇㅏㄶㄴㅑ	-5722
ㄲㅏㅈㅣㄴㅡㄴ	-5723
ㅜㄹㅕ	-5724
▁ㅈㅣㄱㅡㅂ	-5725
▁ㅎㅐㄴㅗㅎㄱㅗ	-5726
▁ㅅㅏㅅㅣㄹㅅㅏㅇ	-5727
ㄱㅏㄷㅏ	-5728
ㄹㅏㅇㅣㄴ	-5729
▁ㅂㅏㄷㅇㅏㅅㅓ	-5730
▁ㄷㅡㄹㅇㅓㄱㅏㄴㅡㄴ	-5731
ㄹㅠㅇ	-5732
ㅌㅏㅂ	-5733
▁ㄱㅏㄹㅏ	-5734
▁ㄱㅏㄹㅡ	-5735
ㅂㅏㄹㅏㅁ	-5736
ㅅㅡㄹㅓㅇ	-5737
▁ㅊㅘㄹㅇㅕㅇ	-5738
ㅎㅗㄱㅏ	-5739
ㅅㅏㄴㅣㅁ	-5740
▁ㄱㅗㅁㅜㄴ	-5741
▁ㄴㅜㄴㅇㅣ	-5742
▁ㅌㅐㄱㅂㅐ	-5743
ㅅㅓㅇㅈㅏㅇ	-5744
▁ㅎㅏㄱㅔㅆㅈㅣ	-5745
15	-5746
▁ㅈㅗㅈㅣㄱ	-5747
▁ㅇㅕㄱㄷㅐㄱㅡㅂ	-5748
▁ㅎㅏㄴㅂㅓㄴㄷㅗ	-5749
▁ㅇㅣㄱ	-5750
▁ㅆㅡㅈㅣ	-5751
ㄷㅏㅂㄱㅔ	-5752
ㅎㅔㄹㅈㅗㅅㅓㄴ	-5753
ㅇㅣㄱㅓ	-5754
ㅜㄹㅇㅓ	-5755
ㅁㅏㄴㄷㅗ	-5756
▁ㅁㅝㄷㅡㄴ	-5757
ㅏㄹㅏㄴㅡㄴ	-5758
ㄱㅓㅅㄷㅏ	-5759
ㄷㅏㄴㅡㄴㄱㅓㄹ	-5760
ㄲㅡㄴ	-5761
ㅂㅏㅁ	-5762
ㄲㅔㅅㅓ	-5763
ㅌㅔㄱㅗ	-5764
▁ㅁㅝㄴㅣ	-5765
▁ㅎㅐㅈㅜㄴ	-5766
▁ㄱㅐㄱㅏㅌㅇㅡㄴ	-5767
▁ㅂㅜㄹㅁㅐㅇㅜㄴㄷㅗㅇ	-5768
ㅐㅇㅢ	-5769
▁ㄱㅛㅌㅗㅇ	-5770
▁ㅍㅛㅈㅓㅇ	-5771
ㅇㅣㄴㅈㅡㅇ	-5772
▁ㄱㅗㅎ	-5773
▁ㅁㅝㅈㅣ	-5774
ㅁㅏㄴㅇㅝㄴㅆㅣㄱ	-5775
▁ㅇㅗㅈㅣ	-5776
ㅇㅣㄹㅡㅁ	-5777
▁ㅇㅣㅂㄱㅗ	-5778
ㅁㅏㄴㅇㅡㄴ	-5779
▁ㅊㅏㄱㅎㅏㄴ	-5780
................	-5781
▁ㅁㅐㅁ	-5782
▁ㅇㅓㅄㅇ	-5783
ㅇㅓㅋㅓㄴ	-5784
▁ㅇㅏㄴㅎㅐ	-5785
▁ㅈㅗㄱㅓㄴ	-5786
ㅁㅏㄴㅎㅐㄷㅗ	-5787
▁ㄱㅕㅇㅈㅔㄹㅡㄹ	-5788
▁ㅂㅣㅈㅓㅇㅅㅏㅇ	-5789
ㄲㅓㅇ	-5790
▁ㅁㅣㄷㄴㅡㄴ	-5791
▁ㄷㅚㄱㅔㅆㄴㅔ	-5792
▁ㄱㅡㄹㄹㅗㅂㅓㄹ	-5793
▁ㅇㅙㄴㅈㅣ	-5794
▁ㅈㅓㅂㅓㄴ	-5795
ㅇㅡㄹㅏㄱㅗ	-5796
▁ㅇㅏㄴㅍㅏㄹ	-5797
ㅈㅜㄹㅡㄹ	-5798
ㅈㅣㄱㅈㅏ	-5799
▁ㅇㅣㄹㅡㄹ	-5800
ㅏㄴㅡㄴㄱㅓㄴ	-5801
▁ㅈㅏㄹㅎㅏㄴㄷㅏ	-5802
▁ㄱㅜㄻ	-5803
▁ㅁㅝㅎㅏㄹㅓ	-5804
▁ㅇㅏㅁㅌㅡㄴ	-5805
▁ㄱㅗㅇㅕㅇㅌㅐ	-5806
▁ㅎㅏㄷㅓㄴㄷㅔ	-5807
▁ㄴㅏㅁㅈㅏㄴㅡㄴ	-5808
▁ㅇㅐㄱㅣ	-5809
ㅏㄱㅎㅏㄴ	-5810
▁ㅅㅏㄹㄱㅔ	-5811
▁ㅈㅜㅁㅕㄴ	-5812
▁2.	-5813
ㅗㄴㄷㅐ	-5814
▁ㄷㅗㅂㅏㄱ	-5815
▁ㅎㅐㅈㅜㄹ	-5816
ㅂㅗㄷㅏㄷㅗ	-5817
▁ㅇㅏㄴㅌㅏㄲㅏㅂㄷㅏ	-5818
ㅗㅅㅗ	-5819
▁ㅁㅓㅁ	-5820
ㅂㅓㄹㅕ	-5821
ㅂㅗㅇㅣ	-5822
ㅇㅠㅊㅓㄴ	-5823
ㅇㅣㄹㄹㅗ	-5824
▁ㅇㅏㄴㄷㅏ	-5825
▁ㅎㅣㅁㅇㅣ	-5826
ㅈㅏㅁㅏㅈㅏ	-5827
▁ㅅㅏㄴㅡㄴㄷㅔ	-5828
ㅕㅆㅅㅡㅂㄴㅣㄷㅏ	-5829
▁ㅈㅐㅇ	-5830
▁ㄱㅛㄷㅗ	-5831
▁ㄱㅜㅁㅓㅇ	-5832
▁ㅁㅗㄹㅇㅣㅂ	-5833
▁ㅃㅜㄴㅇㅣㄷㅏ	-5834
ㅅㅔㅂ	-5835
ㅎㅘㄴㄱㅕㅇ	-5836
▁ㅇㅕㅇㄱㅜㄱ	-5837
▁ㅁㅏㄴㄷㅡㄹㅁㅕㄴ	-5838
▁ㄱㅜㄱㅁㅣㄴㄷㅡㄹㅇㅔㄱㅔ	-5839
▁ㅅㅏㅇㅇㅟ	-5840
ㅈㅣㅂㅇㅔㅅㅓ	-5841
ㅈㅣㅇㅏㄶㄱㅗ	-5842
?...	-5843
ㄱㅏㄴㅔ	-5844
▁ㄲㅡㄹㄱㅗ	-5845
▁ㄱㅏㄴㅊㅓㅂ	-5846
▁ㅇㅗㄹㄹㅕㄹㅏ	-5847
ㅊㅟㄱㅡㅂ	-5848
ㄹㅕㄱㅇㅡㄴ	-5849
▁ㅂㅏㄱㅅㅏㅁ	-5850
ㅅㅣㅂㄴㅣㄷㅏ	-5851
▁ㅇㅏㄹㅇㅏㅆㄷㅏ	-5852
ㅁㅏㄴㅇㅝㄴㅉㅏㄹㅣ	-5853
▁ㅊㅗㅅㅂㅜㄹㅈㅣㅂㅎㅚ	-5854
ㅆㅏㄹ	-5855
ㄷㅜㅎㅘㄴ	-5856
ㄷㅚㅇㅓㅇㅑ	-5857
ㅈㅓㄴㅇㅡㄴ	-5858
▁ㅇㅣㄴㄱㅏㄴㅇㅢ	-5859
ㅂㅏㄺ	-5860
ㅃㅓㅇ	-5861
ㅇㅜㅁ	-5862
ㅝㅇㅛ	-5863
▁ㄱㅓㄹㅐ	-5864
▁ㅈㅔㅈㅗ	-5865
▁ㄴㅗㅁㅇㅣ	-5866
ㅇㅓㄸㅓㅎㄱㅔ	-5867
▁ㅁㅏㅋㅔㅌㅣㅇ	-5868
▁ㅇㅣㄹㅂㅏㄴㅇㅣㄴ	-5869
ㄴㅡㄹ	-5870
▁ㅅㅗㄴㅕ	-5871
▁ㅈㅏㅂㅗㄴㅈㅜㅇㅢ	-5872
ㅋㅙ	-5873
▁ㅈㅗㅁㄷㅓ	-5874
ㅇㅜㄴㄷㅗㅇ	-5875
▁21	-5876
ㄷㅏㄹㅣ	-5877
ㅅㅣㅇㅗ	-5878
▁ㅃㅣㅇㄸㅡㄷ	-5879
▁ㅇㅏㄴㅁㅏㅈ	-5880
ㅌㅏㅁ	-5881
ㄱㅜㅅㅓㄱ	-5882
▁ㄱㅔㄷㅏㄱㅏ	-5883
▁ㅈㅔㅈㅜㄷㅗ	-5884
▁ㅇㅣㄴㄱㅏㄴㅇㅡㄴ	-5885
ㅎㅕㅅㅓ	-5886
▁ㅊㅏㅁㅇㅕ	-5887
▁ㅅㅣㅋㅣㄱㅗ	-5888
▁ㅇㅣㅈㅜㄴㄱㅣ	-5889
ㅂㅏㄹㅡㄴ	-5890
ㅈㅓㅇㅇㅔ	-5891
▁ㅇㅣㄹㄷㅏㅇ	-5892
▁ㅇㅓㅄㅇㅐㄱㅗ	-5893
ㅡㄱㅣ	-5894
▁ㄷㅚㄱㅔ	-5895
▁ㄱㅐㅍㅕㄴ	-5896
▁ㄷㅗㄷㅓㄱ	-5897
▁ㅍㅕㅇㄱㅏ	-5898
ㅁㅏㄹㅇㅡㄴ	-5899
ㅇㅡㄹㅗㅆㅓ	-5900
▁ㅁㅣㄴㄱㅏㄴ	-5901
▁ㄱㅒ	-5902
▁ㄲㅙ	-5903
ㄲㅏㅇㅣ	-5904
ㅂㅣㄷㅗ	-5905
▁ㅊㅏㅈㅣ	-5906
▁ㄴㅏㄹㅏㄷㅗ	-5907
▁ㅍㅜㅁㅈㅣㄹ	-5908
ㅅㅌㅣㅇ	-5909
▁ㅈㅐㅅㅜ	-5910
ㅈㅏㄷㅗㅇ	-5911
ㅎㅚㅈㅏㅇ	-5912
▁ㅁㅏㅈㄱㅗ	-5913
▁ㅃㅏㄹㅡㄴ	-5914
ㅇㅣㅁㅇㅡㄹ	-5915
ㅈㅓㅁㅇㅡㄴ	-5916
▁ㅂㅜㄴㅇㅟㄱㅣ	-5917
ㅇㅜㄹㅣㄴㅏㄹㅏ	-5918
▁ㅈㅓㄴㄱㅣㄹㅡㄹ	-5919
▁--	-5920
▁ㄱㅏㅇㅎㅘ	-5921
▁ㄱㅜㅂㅜㄴ	-5922
▁ㅁㅏㄹㅈㅏ	-5923
▁ㅍㅗㄱㅁㅏㅇ	-5924
▁ㄱㅡㅁㅏㄴㅎㅐㄹㅏ	-5925
ㄱㅡㄹㅣ	-5926
ㅌㅜㅈㅏ	-5927
ㅇㅟㄹㅡㄹ	-5928
▁ㅅㅜㅁㅏㄶㅇㅡㄴ	-5929
▁ㅁㅜㄹㄹㅕ	-5930
▁ㅎㅕㄴㅁㅕㅇ	-5931
ㅅㅑ	-5932
ㅎㅏㄱㅜ	-5933
ㅅㅏㄴㅇㅣ	-5934
▁ㅋㅋㅋㅋㅋㅋㅋㅋㅋㅋ	-5935
ㅏㄹㄲㅏ	-5936
▁ㄱㅜㄹㅏ	-5937
▁ㅅㅓㅇㄴㅡㅇ	-5938
▁ㄱㅐㄹㄴㅗㅌㅡ	-5939
▁ㅁㅗㄹㅇㅏ	-5940
▁ㅊㅏㅁㄱㅗ	-5941
ㅆㄷㅏㅁㅕㄴ	-5942
ㅇㅣㅁㅏㄶ	-5943
▁ㄱㅡㄹㅓㅈㅣ	-5944
▁ㅇㅣㅁㅇㅝㄴ	-5945
ㅇㅓㅆㄴㅡㄴㅈㅣ	-5946
▁17	-5947
ㅇㅣㅎㅐ	-5948
ㅁㅣㄴㅡㄴ	-5949
ㅊㅜㄱㅎㅏ	-5950
▁ㄴㅏㅇㅡㄴ	-5951
ㅂㅜㄴㅇㅑㅇ	-5952
▁ㅅㅣㄴㄱㅗㅇㅎㅏㅇ	-5953
▁ㄱㅏㅌㅅㅡㅂㄴㅣㄷㅏ	-5954
▁ㅌㅣㅁ	-5955
ㄲㅓㅇㅑ	-5956
▁ㅅㅗㅇㅎㅖㄱㅛ	-5957
▁ㅇㅓㄴㅈㅔㄴㅏ	-5958
ㅡㅅㅚ	-5959
ㄷㅐㅍㅛ	-5960
ㅂㅜㄷㅡㄹ	-5961
ㅅㅣㄱㅡㅂ	-5962
▁ㅁㅏㅈㄱㅔ	-5963
ㅌㅡㅂ	-5964
▁ㅇㅕㅌㅐ	-5965
▁ㅇㅙㄴㅑ	-5966
▁ㅎㅏㅁㅕ	-5967
▁ㅈㅓㄹㅇㅑㄱ	-5968
▁ㅎㅏㄴㅔㅇㅛ	-5969
ㅔㄱ	-5970
ㄷㅐㄷㅏㄴ	-5971
ㅈㅏㄴㅇㅏ	-5972
▁ㅈㅓㄱㅓㄹ	-5973
ㅂㅗㄴㅣㄲㅏ	-5974
ㅈㅜㄴㅇㅕㄹ	-5975
ㄱㅓㄴㅣ	-5976
▁ㅂㅓㅂㅇㅝㄴ	-5977
▁ㅇㅓㅉㅏㅍㅣ	-5978
ㅎㅏㄱㅔㅆㄴㅔ	-5979
ㅇㅓㅆㅈㅣㅁㅏㄴ	-5980
▁ㄸㅓㄹㅇㅓㅈㅣㄹ	-5981
▁ㅎㅏㄴㅁㅏㄷㅣㄹㅗ	-5982
▁ㅎㅚㅈㅏㅇ	-5983
ㅈㅗㅇㅇㅣㄹ	-5984
▁ㄲㅡㅌㄴㅏㄴ	-5985
▁ㅁㅣㄹㅐㄱㅏ	-5986
ㅇㅓㅆㄷㅏㄱㅗ	-5987
▁ㅇㅟㅇㅏㄴㅂㅜ	-5988
new	-5989
ㅍㅔㄱ	-5990
ㄴㅗㄷㅗㅇ	-5991
ㄷㅐㅇㅏㄴ	-5992
ㅎㅏㄴㅡㄹ	-5993
ㅈㅏㅇㅁㅕㄴ	-5994
200	-5995
ti	-5996
▁ㄷㅙㅆ	-5997
ㄷㅏㅁㅕ	-5998
ㅈㅏㅇㅇㅐ	-5999
▁ㅊㅏㅁㄴㅏ	-6000
▁ㄴㅏㅁㅇㅡㄹ	-6001
▁ㅇㅛㄱㅇㅡㄹ	-6002
▁ㅁㅜㄹㅌㅏㄱㅣ	-6003
▁ㄱㅓㅁㅊㅏㄹㅇㅣ	-6004
▁ㅇㅝㄴㄴㅏㅇㅣㅅ	-6005
▁ㅎㅏㄴㄱㅜㄱㅇㅡㄹ	-6006
~!!!	-6007
ㅅㅜㅎㅕㄴ	-6008
▁ㅌㅐㅇㅓㄴㅏ	-6009
ㄱㅏㅁㅕㄴㅅㅓ	-6010
▁ㅇㅏㄴㅣㄴㅈㅣ	-6011
ㅠㅇ	-6012
▁ㅉㅏㄴ	-6013
ㅅㅜㅇㅢ	-6014
ㄱㅖㄹㅏㄴ	-6015
ㅎㅏㄴㅏㅇㅛ	-6016
▁ㅇㅕㄴㅁㅏㄹ	-6017
ㅇㅣㅆㅇㅓㅅㅓ	-6018
▁ㄷㅏㄺㄷㅐㄱㅏㄹㅣ	-6019
▁ㅆㅡㄹㄷㅔㅇㅓㅄㄴㅡㄴ	-6020
ㅗㅌㅡ	-6021
▁ㅁㅏㅈㅇㅏ	-6022
▁ㅂㅜㄹㅁㅐ	-6023
▁ㅊㅜㅈㅣㄴ	-6024
ㅇㅏㅁㅓㄱㄴㅡㄴ	-6025
ㄱㅜㄱㅁㅣㄴㅇㅡㄹ	-6026
▁ㅎㅡㄺ	-6027
▁ㅂㅐㅊㅣ	-6028
▁ㅊㅏㅂㅕㄹ	-6029
ㅇㅣㄹㅂㅏㄴ	-6030
ㅇㅣㅇㅓㅆㄴㅡㄴㄷㅔ	-6031
ㄴㅏㅈ	-6032
ㅓㄱㅏ	-6033
ㄱㅔㅇㅛ	-6034
ㅂㅣㅇㅔ	-6035
▁ㅌㅏㄹㅅㅔ	-6036
ㅈㅣㅁㅏㅅㅔㅇㅛ	-6037
▁ㅅㅐㅇㄱㅏㄱㅎㅏㅂㄴㅣㄷㅏ	-6038
▁ㅃㅐㄱ	-6039
▁ㅉㅣㄹㅏ	-6040
▁ㅇㅏㅂㅅㅜ	-6041
ㅅㅗㄹㅈㅣㄱ	-6042
ㅈㅓㅇㅂㅜㅇ	-6043
ㄱㅡㄹㅓㅁㅕㄴ	-6044
▁ㄴㅡㅇ	-6045
ㅈㅏㄴㅊㅣ	-6046
ㅕㅆㄷㅓㄴ	-6047
▁ㄴㅜㄱㅜㄴㅏ	-6048
▁ㅇㅏㄴㅎㅏㄹ	-6049
▁ㅈㅓㄱㅓㄴ	-6050
▁ㅌㅚㅊㅜㄹ	-6051
▁ㅅㅐㅇㄱㅏㄱㄷㅗ	-6052
▁ㄹㅓ	-6053
ㄱㅔㅆㄴㅣ	-6054
ㅇㅠㄹㅇㅣ	-6055
ㅊㅗㅅㅂㅜㄹ	-6056
▁ㅈㅏㅅㅣㄴㅇㅣ	-6057
▁ㅊㅏㅁㅇㅡㄹㅗ	-6058
▁ㅎㅕㄴㄷㅐㅊㅏ	-6059
ㅇㅡㅂ	-6060
▁ㅂㅜㅍㅜㅁ	-6061
ㅇㅣㄱㅜㄴㅏ	-6062
▁ㄷㅓㄹㅓㅂㄱㅔ	-6063
▁ㅅㅗㅇㅈㅜㅇㄱㅣ	-6064
▁ㅁㅣㅅㅔㅁㅓㄴㅈㅣ	-6065
ㅂㅣㄹㅗ	-6066
▁ㄱㅡㄹㅓㄱㅗ	-6067
▁ㅇㅣㄹㅓㄴㄱㅔ	-6068
▁ㅂㅗㄴㅂㅏㅇㅅㅏㅅㅜ	-6069
ㄱㅖㅅㅗㄱ	-6070
▁ㅇㅓㄴㄴㅣ	-6071
▁ㅈㅣㄲㅓㄹ	-6072
ㄱㅏㅌㅇㅡㅁ	-6073
▁ㅇㅣㄱㅓㅅㅇㅣ	-6074
▁ㄸㅏㅇㅟ	-6075
▁ㅂㅣㅁㅣㄹ	-6076
▁ㅁㅓㄹㅣㄱㅏ	-6077
▁ㅈㅏㄱㅈㅏㄱ	-6078
▁ㅅㅏㅁㅅㅓㅇㅍㅗㄴ	-6079
on	-6080
ㅌㅣㅈㅡㄴ	-6081
▁ㅎㅕㅁㅇㅢ	-6082
ㅁㅣㅊ	-6083
▁ㅉㅗㄹ	-6084
ㄱㅓㅈㅛ	-6085
ㅅㅣㄴㅔ	-6086
▁ㅊㅗㄷㅡㅇ	-6087
▁ㄷㅏㅇㅅㅓㄴ	-6088
▁ㅎㅏㄹㅕㄱㅗ	-6089
ㅜㄴㅈㅔ	-6090
▁ㄷㅟㅇㅔ	-6091
ㄲㅣㄴㅡㄴ	-6092
▁ㅅㅔㅇㅣㄹ	-6093
▁ㅎㅏㄷㅏㄱㅏ	-6094
▁ㅎㅐㅆㄷㅏㄱㅗ	-6095
▁d	-6096
?..	-6097
▁ㅂㅗㅎ	-6098
▁ㅇㅏㄴㄱㅏ	-6099
▁ㄱㅡㄹㅓㄴㄱㅏ	-6100
▁ㅇㅣㄹㅓㅁㅕㄴ	-6101
ㅇㅔㅁ	-6102
ㅌㅡㅇ	-6103
▁ㅈㅜㅇㄱㅗ	-6104
▁ㅌㅜㄱㅣㄲㅜㄴ	-6105
▁ㅈㅜㅇㅣㄴㄱㅗㅇ	-6106
▁ㅎㅏㄴㅡㄴㄱㅜㄴㅏ	-6107
ㅂㅗㅅㅗ	-6108
ㅅㅓㅇㅎㅘ	-6109
ㅇㅓㅄㅇㅐ	-6110
▁ㅇㅣㅂㄱㅜㄱ	-6111
ㅇㅓㅆㅇㅓㅇㅛ	-6112
▁ㅅㅏㅇㅎㅘㅇㅇㅣ	-6113
▁ㅂㅗㄱㅗㅅㅣㅍㄷㅏ	-6114
ㅋㅜ	-6115
ㅎㅏㄹㅜ	-6116
▁ㄴㅐㄹㅣ	-6117
▁ㅁㅣㅊㅣ	-6118
▁ㅇㅓㄸㅓㄹ	-6119
▁ㅁㅕㅇㅈㅓㄹ	-6120
▁ㅇㅏㄴㅣㄴㄷㅡㅅ	-6121
▁ㅈㅔㅈㅏㄱㅈㅣㄴ	-6122
▁ㅅㅏㄹㅏㅁㄷㅡㄹㄷㅗ	-6123
ㅍㅡㄹㅣ	-6124
▁ㅅㅜㄴㅅㅜ	-6125
▁ㅊㅏㅇㅍㅣ	-6126
ㄸㅗㄹ	-6127
▁ㅂㅗㅈㅏㅇ	-6128
▁ㅇㅗㅇㅎㅗ	-6129
▁ㄷㅐㅎㅐㅅㅓ	-6130
ㅈㅣㅂㄴㅣㄷㅏ	-6131
ㄱㅣㅈㅜㄴ	-6132
ㅂㅓㄹㅣㄴ	-6133
ㅎㅏㄹㅈㅣ	-6134
▁ㄱㅗㄷㅡㅇ	-6135
▁ㄷㅏㅇㅑㅇ	-6136
▁ㅁㅣㅌㅇㅔ	-6137
▁ㅅㅣㄴㅇㅢ	-6138
▁ㅈㅗㅅㅏㅇ	-6139
ㅈㅏㅇㄱㅘㄴ	-6140
▁ㅁㅏㄶㅇㅏㅆ	-6141
▁ㅅㅜㄴㅅㅣㄹㅇㅣㄱㅏ	-6142
out	-6143
▁ㅂㅗㄱㅔ	-6144
▁ㅈㅏㄹㅎㅐ	-6145
▁ㅎㅘㄴㅅㅜ	-6146
▁ㅁㅗㄷㅡㄴㄱㅔ	-6147
▁ㅇㅝ	-6148
ㅂㅜㅈㅣ	-6149
ㅎㅏㄴㄱㅓㄹ	-6150
▁ㅈㅗㅎㄱㅔㅆㄴㅔㅇㅛ	-6151
ㄹㅣㄷㅗ	-6152
ㅂㅏㄲㅟ	-6153
▁ㅁㅏㄴㅕ	-6154
▁ㅅㅗㅈㅜ	-6155
▁ㅈㅏㅇㅅㅣ	-6156
▁ㅂㅏㄱㅅㅣㄴ	-6157
▁ㄱㅡㄹㅣㅁ	-6158
▁ㄷㅏㅁㅏㄴ	-6159
▁ㄷㅏㄹㄱㅑㄹ	-6160
▁ㅁㅏㅇㅎㅏㅁㅕㄴ	-6161
▁ㅈㅣㅂㄱㅏㅄㅇㅣ	-6162
ㄷㅏㄴㅇㅣ	-6163
▁ㅉㅣㅈㅣㄹ	-6164
▁ㅇㅓㅄㅈㅣㅁㅏㄴ	-6165
ㅈㅡㄱ	-6166
ㅇㅟㄹㅗ	-6167
ㄱㅓㅁㅅㅏ	-6168
▁ㅇㅏㄴㅅㅏ	-6169
▁ㅌㅓㄹㅇㅓ	-6170
▁ㅇㅗㄹㅡㄱㅗ	-6171
▁ㅂㅗㅇㅕㅈㅜㄴㅡㄴ	-6172
ㄷㅔㄹㅗ	-6173
▁ㅅㅛㅍㅣㅇ	-6174
▁ㅆㅗㄷㅇㅏ	-6175
▁ㅇㅓㄴㅡㄴ	-6176
ㅌㅓㄴ	-6177
▁ㅇㅣㄲㅗㄹ	-6178
ㅇㅏㅍㅏㅌㅡ	-6179
▁ㅂㅜㄹㅓㅂㄷㅏ	-6180
▁ㅈㅗㅎㅇㅏㅅㅓ	-6181
..........	-6182
▁ㅁㅝㄴㄷㅔ	-6183
▁ㅅㅣㅍㅇㅓ	-6184
▁ㅇㅑㅇㅂㅏㄴ	-6185
▁ㄴㅡㄲㅣㅁㅇㅣ	-6186
▁ㅇㅣㅇㅣㄱㅇㅡㄹ	-6187
ㅅㅣㅇㅏ	-6188
ㄱㅏㅁㅇㅡㄹ	-6189
ㅇㅏㄴㅣㄷㅏ	-6190
▁ㅆㅡㄴㅡㄴㄷㅔ	-6191
ㅈㅕㅆㄴㅡㄴㄷㅔ	-6192
ㅅㅡㅌㅣㅇ	-6193
~~~~~~	-6194
▁ㅎㅘㅁㅕㄴ	-6195
▁ㄴㅏㄹㅏㄴㅑ	-6196
▁ㅂㅏㄲㅝㅇㅑ	-6197
▁ㄱㅏㄱㅕㄱㅇㅡㄹ	-6198
▁ㅁㅜㄹㄱㅏㄴㅡㄴ	-6199
▁ㅃㅜㄹㅣ	-6200
▁ㄴㅏㅇㅡㄹ	-6201
▁ㅁㅏㄶㅇㅡㅁ	-6202
▁ㅎㅕㅂㄹㅕㄱ	-6203
▁ㅇㅓㅄㅇㅓㄷㅗ	-6204
▁ㅅㅗㅇㅠ	-6205
ㅈㅓㅇㅂㅗ	-6206
▁ㅇㅣㄹㄷㅗ	-6207
▁ㅎㅜㄹㄹㅠㅇ	-6208
▁ㅁㅜㄹㅛ	-6209
▁ㅇㅏㅈㅓ	-6210
ㅅㅔㅇㅝㄹ	-6211
▁ㄴㅏㄹㅇㅣ	-6212
▁ㅍㅏㅅㅏㄴ	-6213
▁ㅇㅝㄴㅇㅣㄴ	-6214
▁ㅇㅡㄴㄱㅡㄴ	-6215
ㅈㅏㄷㅡㄹㅇㅡㄹ	-6216
▁ㅇㅓㄴㅈㅔㅂㅜㅌㅓ	-6217
ㄸㅏㅁ	-6218
▁ㅎㅐㅅ	-6219
▁ㅇㅣㅈㅏ	-6220
▁ㅊㅗㅂㅏㄴ	-6221
▁ㄱㅗㅇㅉㅏㄹㅗ	-6222
▁ㅇㅕㅈㅏㄷㅡㄹㅇㅣ	-6223
▁ㄴㅓㄼ	-6224
▁ㅊㅏㄱㅣ	-6225
▁ㄱㅗㅂㅏㄹ	-6226
ㅈㅏㄱㅍㅜㅁ	-6227
▁ㅇㅏㄴㄷㅏㄹ	-6228
▁ㄷㅡㄹㅏㅁㅏㄴㅡㄴ	-6229
ㄴㅑㅇ	-6230
▁ㅅㅡㅌㅡㄹㅔㅅㅡ	-6231
ㅎㅐㅈㅣㄹ	-6232
▁ㄷㅏㄴㅈㅣ	-6233
▁ㅂㅏㄱㅅㅜ	-6234
▁ㅈㅓㅇㅇㅡㄴ	-6235
▁ㅈㅔㄷㅗ	-6236
▁ㄷㅚㅇㅓㅇㅑ	-6237
ㅎㅐㅇㅑㅎㅏㅁ	-6238
kw	-6239
▁ㅇㅓㄷㅣㄹ	-6240
▁ㅅㅏㅇㅅㅏㅇ	-6241
ㅅㅣㄹㅡㄹ	-6242
ㅇㅣㅌㅡㄹ	-6243
▁ㅂㅜㄲㅡㄹㅓㅂ	-6244
▁ㅂㅕㄴㅎㅗㅇㅣㄴ	-6245
▁ㄱㅜㅇㄱㅡㅁㅎㅏㄷㅏ	-6246
naver	-6247
ㅇㅣㄹㅂㅗ	-6248
▁ㅈㅔㅎㅏㄴ	-6249
▁ㅅㅡㅌㅗㄹㅣ	-6250
▁ㅇㅕㄴㅊㅜㄹ	-6251
▁ㅂㅗㄴㅡㄴㄷㅔ	-6252
▁ㅅㅏㅁㅅㅓㅇㅇㅡㄹ	-6253
ㅅㄷㅔ	-6254
ㄷㅡㄴㄷㅏ	-6255
ㅅㅏㄴㅑㅇ	-6256
ㅇㅣㅂㅡㄹ	-6257
ㄱㅓㄴㄱㅏㅇ	-6258
ㅈㅣㅇㅏㄶㄴㅏ	-6259
▁ㅂㅓㅁㅈㅚㅈㅏ	-6260
▁ㄱㅗㅇㅁㅜㅇㅝㄴㄷㅡㄹ	-6261
ㅣㅇㅟ	-6262
ㅅㅏㅇㅘ	-6263
▁ㅍㅗㅈㅏㅇ	-6264
ㅂㅏㄷㅇㅏㅆ	-6265
ㅎㅓㄹ	-6266
ㅝㄴㅇㅣ	-6267
ㄱㅏㄴㅣㅁ	-6268
▁ㅅㅟㅇㅜㄴ	-6269
▁ㅈㅚㅅㅗㅇ	-6270
▁ㅌㅚㅈㅣㄱ	-6271
ㅋㅋㅋㅋㅋㅋㅋㅋㅋ	-6272
ㅂㅗㅅㅜ	-6273
▁ㅈㅏㄹㅛ	-6274
ㅏㄴㅣㄲㅏ	-6275
▁ㄱㅓㅁㅈㅡㅇ	-6276
▁ㄱㅗㅇㅇㅣㄴ	-6277
▁ㅍㅣㅎㅐㅈㅏ	-6278
▁ㄱㅡㄱㅓㅅㅇㅣ	-6279
▁ㄱㅜㄱㄱㅏㄹㅡㄹ	-6280
▁ㅌㅗㅇㅅㅣㄴㅅㅏ	-6281
▁ㅅㅣㅇㅝㄴㅎㅏㄱㅔ	-6282
▁ㅇㅜㄹㅣㄴㅏㄹㅏㅇㅔㅅㅓ	-6283
ㄷㅣㅇㅗ	-6284
ㅈㅣㄱㅣ	-6285
▁ㄱㅡㄸㅏㄴ	-6286
▁ㅈㅡㅇㄱㅏ	-6287
ㅅㅣㄴㅇㅡㄴ	-6288
ㅈㅗㄱㅇㅡㄹ	-6289
▁ㅈㅗㅇㅢㅇㅕㄴ	-6290
▁ㅋㅡㄹㄹㅏㅅㅡ	-6291
▁ㅎㅏㄴㅡㄴㄱㅓㅅ	-6292
▁ㅎㅜㅇ	-6293
ㅈㅜㄹㅇㅣ	-6294
ㅎㅏㄹㄱㅓ	-6295
ㅇㅓㄱㅇㅡㄹ	-6296
▁ㄱㅝㄴㅎㅏㄴ	-6297
▁ㅈㅣㅎㅏ	-6298
ㄷㅗㄹㅇㅏ	-6299
ㄷㅡㄹㅏㅁ	-6300
ㅇㅓㅁㅁㅏ	-6301
▁ㄲㅜㅈㅜㄴ	-6302
▁ㅂㅐㅌㅓㄹ	-6303
▁ㄲㅜㄹㅈㅐㅁ	-6304
▁ㅇㅕㄴㅎㅏㅂ	-6305
▁ㅉㅣㄱㅇㅡㄴ	-6306
▁ㅇㅣㄹㅓㄴㅅㅣㄱㅇㅡㄹㅗ	-6307
),	-6308
▁ㅇㅢㅁㅜ	-6309
ㅈㅓㄴㅇㅣ	-6310
ㅇㅣㄴㄷㅔㄷㅗ	-6311
ㅈㅣㄴㅡㄴㄷㅔ	-6312
ㅁㅏㄴㅇㅝㄴㅇㅣ	-6313
ㅈㅓㅇㄷㅗㄴㅡㄴ	-6314
▁ㅇㅝㄹㄱㅡㅂㅇㅡㄴ	-6315
ec	-6316
▁ㅎㅐㅁㅕㅇ	-6317
▁ㅈㅏㄹㅎㅏㄴ	-6318
▁ㅇㅣㄹㅓㄴㄱㅓㄴ	-6319
▁ㅇㅗㄹㄹㅣㅁㅍㅣㄱ	-6320
ㅂㅡㄹㄹ	-6321
ㅈㅣㄴㅑ	-6322
ㅅㅗㄹㅡㄹ	-6323
▁ㅎㅏㄹㄸㅐ	-6324
ㅇㅏㅂㅓㅈㅣ	-6325
▁ㄱㅏㄷㅓㄱㄷㅗ	-6326
▁ㅇㅏㅇㅣㄷㅡㄹ	-6327
▁ㅁㅜㅅㅓㅇㅝㅅㅓ	-6328
ㄷㅐㅂㅣ	-6329
▁ㅇㅗㄹㅡ	-6330
▁ㅁㅏㄴㅅㅔ	-6331
▁ㅂㅜㅇㅣㄴ	-6332
▁ㅇㅏㅇㅜㅅ	-6333
ㅕㅆㅇㅓㅇㅛ	-6334
▁ㅁㅏㄹㅁㅏㄴ	-6335
▁ㅂㅣㅎㅗㄱㅏㅁ	-6336
▁ㅈㅓㅅㅗㄷㅡㄱ	-6337
▁ㅎㅐㅈㅜㄴㅡㄴ	-6338
be	-6339
ㄴㅐㄹ	-6340
▁ㄱㅗㅇㄷㅗㅇ	-6341
▁ㅍㅣㅎㅐㄹㅡㄹ	-6342
16	-6343
news	-6344
ㅃㅏㄹㄱㅐㅇ	-6345
▁ㄱㅣㄷㅐㄷㅚㄴㄷㅏ	-6346
▁ㅈㅗㅎㄱㅔㅆㅇㅓㅇㅛ	-6347
▁ㄴㅐㄱ	-6348
▁ㅂㅗㅅㅗ	-6349
▁ㅈㅣㅋㅣ	-6350
▁ㄴㅗㅂㅔㄹ	-6351
▁ㅎㅏㄴㄱㅓ	-6352
ㅇㅏㄴㅣㄴㅑ	-6353
▁ㅈㅓㅇㅇㅠㄹ	-6354
▁ㅎㅏㅂㅂㅕㅇ	-6355
▁ㅇㅣㅈㅗㅇㅅㅓㄱ	-6356
ㅎㅗㄹ	-6357
▁ㄲㅡㅌㅇㅣ	-6358
▁ㅂㅣㄱㅗㅇ	-6359
▁ㅇㅓㅉㅓㄱㅗ	-6360
▁ㅂㅓㅂㅇㅣㄴㅅㅔ	-6361
ㅋㅜㅇ	-6362
▁ㅁㅐㄷㅏㄹ	-6363
▁ㅁㅏㅇㅎㅏㄴ	-6364
▁ㅂㅡㄹㅐㄴㄷㅡ	-6365
▁ㅇㅜㅅㅡㅂㄱㅔ	-6366
▁ㅁㅜㄲ	-6367
ㄱㅜㅈㅗ	-6368
ㅈㅚㅇㅣㄴ	-6369
▁ㅇㅏㄴㅎㅏㄴㄷㅏ	-6370
ㅋㅏㄴ	-6371
ㅅㅣㅈㅣ	-6372
▁ㄴㅓㅁㄴㅡㄴ	-6373
▁ㅇㅕㄴㅈㅏㅇ	-6374
▁ㄷㅐㅌㅗㅇㄹㅕㅇㅇㅢ	-6375
ㅅㅏㄹㅏ	-6376
CD	-6377
ㅔㄱㅔ	-6378
ㅜㄴㅇㅣ	-6379
▁ㅁㅗㅅㄷㅚㄴ	-6380
ㅁㅏㄴㄷㅡㄴㅡㄴ	-6381
ㄱㅓㅅㅇㅣㅂㄴㅣㄷㅏ	-6382
▁ㄱㅕㄲ	-6383
ㅊㅣㄴㅔ	-6384
ㅍㅏㄴㅡㄴ	-6385
▁ㄴㅏㄱㅏㄹ	-6386
▁ㅎㅐㅇㅚㄹㅗ	-6387
▁ㄴㅚㅁㅜㄹㅈㅚ	-6388
▁ㄷㅏㅇㅎㅏㄱㅗ	-6389
▁tv	-6390
ㅈㅐㅇㅢ	-6391
▁ㄴㅡㄲㅣ	-6392
ㅅㅓㄹㅡㄹ	-6393
ㅇㅓㄴㅡㄴ	-6394
▁ㅇㅏㄲㅏㅂ	-6395
▁ㅇㅝㄴㅏㄱ	-6396
▁ㅁㅜㅅㅓㅇㅝ	-6397
ㅇㅔㄱㅔㄴㅡㄴ	-6398
ㅈㅣㅅㄱㅓㄹㅣ	-6399
▁ㅈㅜㄱㅇㅓㄹㅏ	-6400
ㅅㅗㅁ	-6401
ㄱㅏㅈㅓㅇ	-6402
▁ㄱㅣㄱㅘㄴ	-6403
▁ㅇㅓㅇㅁㅏㅇ	-6404
▁ㄱㅏㄴㅡㅇㅎㅏㄴ	-6405
ㅣㄹㅏ	-6406
▁ㅍㅣㄱㅗ	-6407
▁ㄱㅏㄱㅈㅏ	-6408
▁ㅇㅣㄹㅓㄷㅏ	-6409
ㅉㅗㄱㅇㅡㄹㅗ	-6410
▁ㅇㅏㄴㄷㅚㄴㅏ	-6411
▁ㄱㅏㅇㅎㅗㄷㅗㅇ	-6412
▁ㄱㅏㅈㅣㄱㅏㅈㅣ	-6413
ㄴㅏㅁㅈㅏ	-6414
ㄱㅡㅁㅇㅡㄹ	-6415
▁ㅂㅏㄹㅇㅓㄴ	-6416
▁ㅇㅏㅁㅜㄹㅓㄴ	-6417
▁ㄱㅏㄱㅕㄱㅇㅡㄴ	-6418
ㅋㅕ	-6419
▁ㅋㅑ	-6420
ㅏㅇㅏ	-6421
▁ㅁㅗㄹㅡㅅㅚ	-6422
ㅈㅣㄴㅡㄴㄱㅔ	-6423
ㅂㅜㄴㄷㅡㄹㅇㅣ	-6424
▁ㅁㅏㄴㄷㅡㄹㅇㅓㅇㅑ	-6425
▁ㅌㅞ	-6426
ㅕㅆㄱㅗ	-6427
▁ㅇㅕㅍㅇㅔ	-6428
▁ㅈㅗㅎㅈㅣ	-6429
▁ㅅㅣㅋㅕㄹㅏ	-6430
▁ㅈㅣㅅㅇㅡㄹ	-6431
ㄱㅔㅆㄱㅜㅁㅏㄴ	-6432
▁ㅅㅏㄹㅁㅕㄴㅅㅓ	-6433
ㅇㅣㅆㅅㅡㅂㄴㅣㄷㅏ	-6434
▁ㅅㅞ	-6435
ㅍㅓㅁ	-6436
▁???	-6437
▁ㅅㅜㅅ	-6438
ㄱㅓㄹㅐ	-6439
ㄷㅚㄴㅔ	-6440
ㅈㅜㅇㅇㅣ	-6441
▁ㅅㅔㄹㅕㄱ	-6442
▁ㅅㅟㄹㄷㅡ	-6443
▁ㄴㅓㅁㄷㅡㄹ	-6444
▁ㅇㅓㅄㄴㅡㄴㄱㅔ	-6445
▁ㅁㅝㅅ	-6446
▁ㅠㅠㅠ	-6447
▁ㅇㅡㅁㅇㅝㄴ	-6448
ㅐㄴㅕㅁ	-6449
▁ㅊㅣㄹㅛ	-6450
▁ㅇㅏㄱㅁㅏ	-6451
▁ㅈㅓㄸㅏㄴ	-6452
ㄱㅓㅅㅇㅣㄱㅗ	-6453
▁ㅁㅗㅅㅎㅏㅁㅕㄴ	-6454
ㅌㅠ	-6455
ㅈㅏㄹㅏ	-6456
▁ㅂㅏㅇㅌㅏㄴ	-6457
▁ㅇㅝㄴㅅㅜㅇ	-6458
▁ㅈㅜㄱㅇㅡㅁ	-6459
▁ㅊㅜㅇㅅㅓㅇ	-6460
▁50%	-6461
▁ㅎㅏㄷㅗ	-6462
▁ㄱㅡㄷㅏㄱ	-6463
▁ㄴㅗㅍㅇㅏ	-6464
▁ㅎㅜㅅㅗㄴ	-6465
ㅁㅏㄴㅇㅝㄴㅇㅔ	-6466
▁ㅈㅏㄹㅇㅓㅇㅜㄹ	-6467
▁ㄴㅗㅎㅜ	-6468
▁ㅈㅣㅂㅐ	-6469
ㄷㅗㅁㅗㅅ	-6470
▁ㄴㅏㅁㅗㄹ	-6471
▁ㅇㅕㄱㄱㅕ	-6472
ㅈㅓㄴㅇㅡㄹ	-6473
▁ㅈㅓㄴㅇㅝㄴ	-6474
▁ㅎㅘㄴㅈㅏㅇ	-6475
ㄴㅏㅇㅗㄴㅡㄴ	-6476
▁ㄱㅗㅇㅅㅏㄴㅈㅜㅇㅢ	-6477
▁ㅅㅣㅇ	-6478
ㄱㅓㅍㅜㅁ	-6479
▁ㄷㅗㄴㅇㅔ	-6480
▁ㅍㅕㅇㅅㅗ	-6481
ㅅㅜㅇㅣㅆㄷㅏ	-6482
ㅇㅓㄹㅁㅏㄴㅏ	-6483
▁ㅂㅜㄲㅡㄹㅓㅇㅜㄴ	-6484
ㅣㅁㅗ	-6485
ㅂㅜㄷㅐ	-6486
ㅊㅣㄱㅣ	-6487
ㅇㅕㄱㅅㅏ	-6488
▁ㅇㅣㄱㅣㄹ	-6489
▁ㅂㅏㄱㅏㅈㅣ	-6490
▁ㅇㅕㄴㄹㅏㄱ	-6491
▁ㄱㅡㅁㅅㅜㅈㅓ	-6492
▁ㅁㅏㄴㄷㅡㄹㅇㅓㄴ	-6493
▁ㅁㅜㄷㅐ	-6494
▁ㅁㅏㅅㅣㄱㅗ	-6495
▁ㅁㅜㅅㅓㅂㄷㅏ	-6496
▁ㅂㅜㄹㅆㅏㅇㅎㅏㄷㅏ	-6497
ㅈㅜㅇㅜㄴ	-6498
▁ㄲㅗㄴㄷㅐ	-6499
ㄴㅏㅇㅗㄴㄷㅏ	-6500
ㅎㅏㄹㅏㄴㅡㄴ	-6501
▁ㅁㅗㅅㅡㅂㅇㅣ	-6502
ㅇㅐㄷㅡㄹㅇㅡㄴ	-6503
ㅈㅣㅎㅕㄴ	-6504
▁ㅁㅔㄱㅏㄹ	-6505
▁ㅁㅕㅊㄱㅐ	-6506
ㄱㅜㅎㅏㄱㅗ	-6507
▁ㅂㅏㄱㄱㅡㄴ	-6508
▁ㅈㅜㅇㄷㅏㄴ	-6509
en	-6510
ㄸㅓ	-6511
ㅁㅏㄹㅡㄹ	-6512
▁ㅅㅏㄹㄹㅣㄹ	-6513
▁ㅇㅏㅂㅂㅏㄱ	-6514
▁ㄷㅏㅇㅅㅣㄴㅇㅡㄴ	-6515
ㄹㅕㅆ	-6516
ㅆㅏㅇㅜㅁ	-6517
ㅅㅏㄴㅊㅡㅇ	-6518
ㅇㅣㄹㅁㅏㄴ	-6519
ㅈㅓㄴㅁㅜㄴ	-6520
▁ㄱㅣㄷㅏㄹㅕ	-6521
▁ㅂㅗㅇㅣㅈㅣ	-6522
▁ㅁㅣㄹㅐㄹㅡㄹ	-6523
▁ㅇㅜㄹㅣㅈㅣㅂ	-6524
ㅆㅏㄴ	-6525
▁ㄱㅗㄴ	-6526
ㅈㅗㅎㄱㅗ	-6527
▁ㅈㅓㅅㅡㅇ	-6528
▁ㅁㅏㄶㅇㅡㄹ	-6529
▁ㅍㅕㅇㄷㅡㅇ	-6530
.5	-6531
ㄱㅜㅁㅓㅇ	-6532
▁ㄱㅗㄹㅍㅡ	-6533
▁ㄷㅚㄹㄷㅡㅅ	-6534
▁ㅆㅐㅇ	-6535
ㄷㅗㅅㅣ	-6536
▁ㅇㅣㅅㅣ	-6537
ㄱㅔㅅㅈㅣ	-6538
ㅅㅓㅇㅜㄹ	-6539
ㅇㅣㅇㅔㅇㅛ	-6540
▁ㅇㅣㄴㅅㅣㄱ	-6541
▁ㅇㅣㄴㄱㅏㄴㄷㅡㄹㅇㅡㄴ	-6542
ㅂㅓㅅ	-6543
ㅊㅜㅁ	-6544
ㅂㅇㅡㄴ	-6545
▁ㅋㅣㅇㅝ	-6546
▁ㄴㅐㄹㅏㄴ	-6547
ㅈㅏㄹㅏㄱㅗ	-6548
ㅎㅏㄱㅣㄷㅗ	-6549
▁ㅎㅗㄴㄹㅏㄴ	-6550
▁ㅇㅕㄴㄱㅣㄱㅏ	-6551
▁ㄹㅗㅁ	-6552
▁ㄱㅏㅈㅏ	-6553
ㅈㅗㅅㅔㄴ	-6554
▁ㅎㅏㅅㅕㅆ	-6555
▁ㅅㅜㅅㅜㄹㅛ	-6556
▁ㅇㅣㅁㅗㅇㅑㅇ	-6557
ㄲㅗㅂ	-6558
▁ㄲㅏㄴㅡㄴ	-6559
▁ㄸㅏㄸㅡㅅ	-6560
▁ㅁㅏㅇㅎㅐㄹㅏ	-6561
▁ㅅㅣㅋㅣㄴ	-6562
ㅅㅏㄹㅏㄱㅗ	-6563
▁ㅅㅣㄴㅅㅏㅇ	-6564
▁ㅇㅣㅂㅁㅏㄴ	-6565
ㅅㅡㅌㅓ	-6566
▁ㅈㅣㄴㅉ	-6567
ㄷㅚㄹㄷㅡㅅ	-6568
ㅇㅓㄱㅆㅣㄱ	-6569
ㅈㅓㅇㄷㅏㅇ	-6570
▁ㅌㅡㄱㄱㅓㅁㅌㅣㅁ	-6571
▁ㅅㅐㅎㅐ	-6572
▁ㅇㅏㄲㅏㅇ	-6573
▁ㅂㅓㅂㅈㅓㅇ	-6574
▁ㅅㅣㄴㅁㅜㄴ	-6575
▁ㅇㅓㄱㅈㅣㄹㅗ	-6576
ㅊㅣㄱㅔ	-6577
ㅊㅣㄹㅗ	-6578
ㅇㅣㄹㅓㄴㅣ	-6579
▁ㅊㅚㅌㅐㅁㅣㄴ	-6580
▁ㅈㅓㄴㄷㅜㅎㅘㄴ	-6581
▁ㅈㅔㅈㅓㅇㅅㅣㄴ	-6582
▁ㅎㅏㄴㄷㅏㄹㅇㅔ	-6583
ㄷㅐㄱㅏㄹㅣㄷㅡㄹ	-6584
▁10%	-6585
▁ㅁㅗㄹㅡㄴㅏ	-6586
ㄷㅡㄹㅇㅣㄹㅏㅇ	-6587
▁ㅅㅣㅅㅏㅇㅅㅣㄱ	-6588
ㅅㅗㄴㅏ	-6589
ㄱㅕㅇㅇㅜ	-6590
▁ㅌㅗㅇㅊㅣ	-6591
▁ㅇㅣㅇㅠㄹㅗ	-6592
▁ㄱㅜㄱㄱㅏㅇㅢ	-6593
▁ㅅㅗㅅㅗㄱㅅㅏ	-6594
tv	-6595
ㄱㅏㅄㅇㅔ	-6596
ㅌㅡㄱㅎㅣ	-6597
▁ㅆㅏㄱㄷㅏ	-6598
ㅅㅐㅇㅅㅏㄴ	-6599
▁ㄷㅏㄺㄴㅕㄴ	-6600
▁ㅁㅓㄱㅇㅡㄴ	-6601
▁ㅎㅏㄴㅏㅁㅏㄴ	-6602
▁ㄹㅠㅈㅜㄴㅇㅕㄹ	-6603
ㅕㅆㅈㅣ	-6604
▁ㅇㅐㄱㅏ	-6605
▁ㄷㅡㄴㄷㅏ	-6606
▁ㅈㅣㄴㅡㄴ	-6607
▁ㅂㅜㄹㅁㅏㄴ	-6608
▁ㅇㅏㅅㅟㅂㄷㅏ	-6609
300	-6610
ㅈㅓㄷㅗ	-6611
▁ㄷㅏㄹㅡ	-6612
▁ㅊㅜㄹㄱㅡㄴ	-6613
ㅈㅣㅁㅏㄹㅈㅏ	-6614
▁ㅂㅣㅂㄴㅣㄷㅏ	-6615
▁ㅎㅏㅇㅕㅌㅡㄴ	-6616
▁ㅎㅏㄴㅅㅏㄹㅏㅁ	-6617
ㅇㅣㄱㅣㄴ	-6618
▁ㄷㅐㄱㅜㄱ	-6619
▁ㅅㅏㅅㅏㅇ	-6620
▁ㅇㅜㄹㅗㅇ	-6621
▁ㅇㅣㄴㄷㅔ	-6622
▁ㅊㅜㅂㅏㅇ	-6623
▁ㄸㅓㄱㄱㅓㅁ	-6624
ㅎㅏㄹㄱㅔㅇㅛ	-6625
▁ㅇㅣㄹㅓㄴㄱㅓㄹ	-6626
▁ㅂㅏㅇㅅㅗㅇㅇㅔㅅㅓ	-6627
ww	-6628
ㅈㅜㄴㅣ	-6629
▁ㅇㅟㅇㅔ	-6630
ㅈㅐㄷㅏㄴ	-6631
▁ㅂㅣㅇㅠㄹ	-6632
▁ㅎㅏㄴㄹㅠ	-6633
▁ㄷㅡㅇㄱㅗㄹ	-6634
ㄹㅣㄴㄷㅏㄱㅗ	-6635
ㅇㅏㅁㅓㄱㄱㅗ	-6636
ㅅㅗㄹㅈㅣㄱㅎㅣ	-6637
▁ㄷㅏㅇㅇㅕㄴㅎㅏㄴㄱㅓ	-6638
ㄲㅣㄹ	-6639
ㅂㅓㄹㅕㄹㅏ	-6640
▁ㄷㅟㅇㅔㅅㅓ	-6641
▁ㅁㅏㄴㅁㅏㄴ	-6642
▁ㅉㅡㅅㅉㅡㅅ	-6643
ㄱㅣㅇㅓㅂㅇㅣ	-6644
▁ㅈㅓㅇㅅㅣㄴㄴㅏㄱㅏㄴ	-6645
▁ㄱㅟㅊㅏㄶ	-6646
▁ㅇㅣㄴㅎㅏ	-6647
ㅇㅝㄹㄱㅡㅂ	-6648
▁ㅅㅓㄴㅍㅜㅇㄱㅣ	-6649
▁ㅈㅏㅃㅏㅈㅕㅆㄴㅔ	-6650
ㄴㅏㄹㅇㅣ	-6651
ㅂㅜㄷㅏㅁ	-6652
ㅅㅏㅇㅣㄹ	-6653
▁ㄱㅏㅌㄱㅗ	-6654
▁ㅋㅏㅁㅔㄹㅏ	-6655
▁ㄴㅜㄱㅜㄹㅡㄹ	-6656
ㅇㅣㄹㅏㄴㅡㄴㄱㅔ	-6657
ㅆㅣㅁ	-6658
▁ㅅㅏㅁㅏㅇ	-6659
ㅁㅜㄹㄹㅗㄴ	-6660
ㄱㅡㄹㅓㄴㄷㅔ	-6661
ㅇㅡㄹㄹㅕㄱㅗ	-6662
▁ㅁㅣㄱㅜㄱㅇㅢ	-6663
▁ㅂㅏㄴㄷㅐㅎㅏㄴㅡㄴ	-6664
▁ㅌㅓㅈㅣㄹ	-6665
▁ㄷㅟㅅㄷㅗㄴ	-6666
▁ㄱㅡㅁㅏㄴㅎㅏㄱㅗ	-6667
ㅗㅅㅔㅇㅛ	-6668
▁ㅂㅜㄹㄹㅣ	-6669
▁ㅃㅏㅈㅕㄴ	-6670
ㅎㅕㅇㄴㅣㅁ	-6671
▁ㅇㅏㄱㅈㅣㄹ	-6672
▁ㄷㅗㄴㅈㅜㄱㅗ	-6673
ㅇㅗㅃㅏ	-6674
▁ㄱㅐㄱㅏ	-6675
▁ㄷㅚㅇㅑ	-6676
ㅈㅏㅂㅗㄴ	-6677
▁ㄱㅣㅁㅁㅣㄴ	-6678
▁ㄴㅗㅇㅁㅣㄴ	-6679
ㅅㅣㅁㅇㅡㄹㅗ	-6680
ㅇㅣㄹㅌㅔㄴㄷㅔ	-6681
▁ㅍㅖㅈㅣㅎㅐㄹㅏ	-6682
ㄹㅣㄷㅏ	-6683
ㅂㅜㄹㄱㅏ	-6684
ㅈㅓㄱㄷㅗ	-6685
▁ㄸㅟㅇㅓㄴ	-6686
▁ㅎㅗㄱㅏㅁ	-6687
▁ㅁㅗㄹㅡㄱㅔㅆㅈㅣㅁㅏㄴ	-6688
ㅅㅜㅈㅣ	-6689
▁ㄱㅣㅊㅜㄴ	-6690
▁ㅇㅗㄴㅡㄴ	-6691
ㅊㅓㄴㅁㅏㄴ	-6692
▁ㄴㅗㄹㅇㅏㄴ	-6693
▁ㄷㅗㅇㅜㅁㅇㅣ	-6694
▁ㅈㅓㅇㅊㅣㄱㅝㄴ	-6695
▁ㄴㅏㅁㅓ	-6696
▁ㅅㅏㄱㅔ	-6697
▁ㄴㅏㅁㄴㅕ	-6698
▁ㅇㅏㄶㄱㅔ	-6699
▁ㅎㅏㄹㄲㅏ	-6700
▁ㅂㅗㅅㅔㅇㅛ	-6701
▁ㅇㅕㄴㅇㅖㄱㅖ	-6702
ㅐㄴㄷㅏ	-6703
▁2016	-6704
▁ㅇㅕㅊㅣㄴ	-6705
▁ㅎㅘㄱㅈㅏㅇ	-6706
▁ㅂㅐㅇㅜㄷㅡㄹ	-6707
▁ㅂㅣㅎㅐㅇㄱㅣ	-6708
▁ㅇㅐㅍㅡㄹㅇㅣ	-6709
ㄷㅏㅇㅅㅣ	-6710
ㅇㅓㄹㅡㄹ	-6711
▁ㅁㅗㄷㅔㄹ	-6712
▁ㅁㅏㄹㅎㅏㄹ	-6713
▁ㅇㅓㄷㅣㄹㅗ	-6714
▁ㄴㅏㅇㅗㄴㅡㄴㄷㅔ	-6715
▁ㄹㅇ	-6716
ㄴㅠㅅㅡ	-6717
ㅍㅡㄷㅏ	-6718
▁ㅇㅜㅇㅘ	-6719
▁ㅇㅣㅉㅡㅁ	-6720
▁ㅅㅣㄴㅅㅓㄴ	-6721
▁ㄱㅓㅅㅇㅡㄹㅗ	-6722
▁ㅁㅏㄹㄷㅗㅇㅏㄴ	-6723
▁ㄱㅓㅇㅑ	-6724
ㄱㅡㄹㅓㄴㅣ	-6725
ㅣㄴㅡㄴㄱㅔ	-6726
ㅈㅏㄷㅡㄹㄷㅗ	-6727
▁ㅁㅣㄴㅇㅕㅇㅎㅘ	-6728
▁ㅊㅗㄴ	-6729
▁ㄴㅐㄹㅣㄹ	-6730
▁ㄴㅏㅁㄷㅡㄹ	-6731
ㅇㅏㅍㅇㅡㄹㅗ	-6732
▁ㄱㅏㅇㅈㅔㄹㅗ	-6733
▁ㄷㅡㄹㅏㅁㅏㄱㅏ	-6734
ㅈㅚㄹㅡㄹ	-6735
▁ㅇㅜㅅㅡㅇ	-6736
▁ㅌㅡㄹㄱㅗ	-6737
▁ㅇㅕㄹㅂㅏㄷ	-6738
▁ㅊㅏㅇㅇㅓㅂ	-6739
▁ㅇㅏㅍㅇㅔㅅㅓ	-6740
▁ㅂㅏㄷㅇㅡㅁㅕㄴ	-6741
ㄸㅣ	-6742
▁ㄱㅛㅅㅜ	-6743
ㄱㅜㄹㅡㄹ	-6744
▁ㅈㅜㄱㅇㅕ	-6745
▁ㄱㅣㅁㅅㅜㅎㅕㄴ	-6746
ㄷㅓㅂ	-6747
ㅌㅣㄴ	-6748
▁ㅈㅓㅊㅜㄱ	-6749
▁ㅊㅓㄹㅈㅓ	-6750
▁ㅎㅚㅂㅗㄱ	-6751
ㅁㅝㄹ	-6752
▁ㅅㅏㄹㄷㅏ	-6753
▁ㅅㅗㄱㅇㅣ	-6754
▁ㅇㅕㄴㄱㅕㄹ	-6755
▁ㅇㅕㄴㄱㅣㄴㅡㄴ	-6756
▁ㅅㅐㅇㄱㅏㄱㅎㅏㅁ	-6757
▁ㅈㅣㅋㅗ	-6758
▁ㅇㅣㅂㅕㅇ	-6759
▁ㅅㅡㄹㅅㅡㄹ	-6760
▁ㅈㅓㄴㅎㅕㅇ	-6761
▁ㅈㅓㅇㅂㅜㄴ	-6762
▁ㅊㅏㅇㅣㄱㅏ	-6763
ㅈㅓㄱㅇㅣㄷㅏ	-6764
▁ㅁㅣㄱㅜㄱㅅㅏㄴ	-6765
▁ㅅㅏㄹㅇㅏㄱ	-6766
▁ㅇㅗㄹㅗㅈㅣ	-6767
▁ㅎㅏㅅㅣㄴㅡㄴ	-6768
▁ㅎㅐㅇㅂㅗㄱㅎㅏㄱㅔ	-6769
ㄴㅏㅇㅘ	-6770
▁ㅇㅓㅂㅁㅜ	-6771
ㄱㅕㅇㅈㅐㅇ	-6772
ㅅㅣㄱㅇㅡㄴ	-6773
ㅈㅓㄱㅇㅡㄴ	-6774
▁ㅁㅏㄴㄷㅡㄹㅈㅣ	-6775
▁ㅈㅗㅅㅓㄴㅈㅗㄱ	-6776
▁ㄱㅜㄱㅈㅓㅇㅇㅝㄴ	-6777
ㄷㅡㄷㄱㅗ	-6778
ㅁㅕㅇㅇㅢ	-6779
▁ㅈㅏㄴㅊㅣ	-6780
▁ㅈㅏㅇㅝㄴ	-6781
▁ㅇㅓㄹㄱㅜㄹㅇㅔ	-6782
▁ㅈㅣㅈ	-6783
▁ㅉㅗㅊ	-6784
ㅁㅗㄷㅜ	-6785
ㅊㅕㄷㅗ	-6786
ㅈㅐㅁㅕㅇ	-6787
ㅁㅏㄴㅇㅡㄹㅗ	-6788
▁ㅈㅣㄱㅡㅁㅇㅣ	-6789
ㄷㅏㄷㅡㄹ	-6790
??????	-6791
▁ㄷㅗㅇㅇㅢ	-6792
▁ㅈㅜㅂㅓㅁ	-6793
▁ㄴㅏㅁㅎㅏㄴ	-6794
▁ㅈㅜㅈㅔㅇㅔ	-6795
ㅎㅏㄴㄱㅓㅅㄷㅗ	-6796
▁ㅈㅣㄷㅡㄹㄲㅣㄹㅣ	-6797
ㅂㅐㄱㅏ	-6798
▁ㅊㅏㄹㅣ	-6799
▁ㅎㅚㅅㅜ	-6800
ㅁㅣㅊㅣㄴ	-6801
ㅇㅓㅈㅜㄱ	-6802
▁ㄴㅏㅇㅗㅁ	-6803
▁ㅇㅗㅈㅣㄱ	-6804
▁ㅂㅏㄱㅁㅕㅇ	-6805
▁ㅈㅓㅇㄱㅠㅈㅣㄱ	-6806
▁ㅊㅗㄱ	-6807
ㄴㅕㄴㅉㅐ	-6808
ㄷㅡㄹㅇㅕ	-6809
▁ㅂㅜㄷㅡㄹ	-6810
▁ㄷㅡㄹㅇㅡㄴ	-6811
▁ㅁㅏㅁㅜㄹㅣ	-6812
ㅇㅣㄹㅏㄴㄱㅔ	-6813
▁ㄸㅜ	-6814
ㅔㄴㅌㅡ	-6815
▁ㄴㅏㅃㅡ	-6816
ㄱㅏㅈㅣㄴ	-6817
ㄷㅏㄴㅈㅣ	-6818
ㅂㅜㅈㅗㄱ	-6819
▁ㄴㅣㄷㅡㄹㄷㅗ	-6820
▁ㅇㅓㅄㄴㅔㅇㅛ	-6821
▁ㄷㅗㄷㅜㄱㄴㅗㅁ	-6822
▁ㅇㅜㄹㅣㄴㅏㄹㅏㄷㅗ	-6823
ㅅㅞ	-6824
ㅂㅐㄹㅗ	-6825
ㅈㅝㄷㅗ	-6826
ㅌㅡㄴㅏㅁ	-6827
▁ㅇㅏㅍㅡㄴ	-6828
ㅅㅣㄱㅍㅜㅁ	-6829
ㅇㅔㅇㅓㅋㅓㄴ	-6830
▁ㄱㅣㅇㅓㅂㅇㅡㄹ	-6831
▁ㅅㅗㄴㄱㅏㄹㅏㄱ	-6832
▁ㄷㅐㅌㅗㅇㄹㅕㅇㄴㅣㅁ	-6833
▁ㅊㅚㅅㅜㄴㅅㅣㄹㅇㅡㄴ	-6834
,000	-6835
ㅇㅏㄴㅑ	-6836
▁ㄷㅡㄹㅣㅂ	-6837
▁ㅍㅕㅇㅂㅓㅁ	-6838
~?	-6839
▁ㅇㅙㅋㅔ	-6840
▁ㅈㅔㅅㅣ	-6841
▁ㄸㅐㄴㅡㄴ	-6842
▁ㅈㅏㅂㅐㄱ	-6843
ㄷㅗㄹㅇㅏㄱ	-6844
ㅁㅣㄴㅈㅗㄱ	-6845
▁ㅅㅣㄷㅐㄱㅏ	-6846
ㅎㅏㄴㅌㅔㄷㅗ	-6847
▁ㄲㅏㄴ	-6848
▁ㅈㅐㄴ	-6849
ㅈㅜㄴㅑ	-6850
▁ㄱㅡㄹㅐㅆ	-6851
▁ㄱㅣㄱㅏㄴ	-6852
ㅇㅏㄴㅗㅎㄱㅗ	-6853
▁ㅇㅏㄹㅇㅏㅇㅑ	-6854
▁ㅇㅣㄴㄱㅓㄴㅂㅣ	-6855
ㄲㅣㄴ	-6856
ㅌㅇㅔ	-6857
▁ㅂㅏㄼ	-6858
ㄴㅣㄷㅡㄹ	-6859
ㄷㅡㄹㅣㅂ	-6860
▁ㄱㅏㅌㄴㅔ	-6861
▁ㅍㅏㅇㅏㄱ	-6862
▁ㅎㅏㄴㅎㅛ	-6863
▁ㅌㅗㅇㅇㅣㄹ	-6864
▁ㅎㅐㅆㅇㅡㄹ	-6865
ㅏㄹㅏㅇ	-6866
▁ㅇㅢㅅㅏ	-6867
ㅇㅝㄹㅇㅔ	-6868
▁ㅂㅏㅃㅡㄴ	-6869
▁ㅎㅏㄴㄱㅔ	-6870
▁ㄲㅓㄴ	-6871
▁ㄲㅗㅂ	-6872
ㄱㅏㄱㅜ	-6873
ㅕㄱㅇㅡㄹ	-6874
▁ㅅㅓㄹㄱㅖ	-6875
▁ㅇㅑㄱㄱㅏㄴ	-6876
▁ㅍㅐㄴㄷㅡㄹ	-6877
▁ㅇㅣㄱㅕㅇㅈㅐ	-6878
▁ㅅㅣㅍㅇㅡㅁㅕㄴ	-6879
▁ㄴㅔㄱ	-6880
ㅑㅇㅂㅏㄴ	-6881
▁ㄱㅗㅈㅏㅇ	-6882
ㄱㅡㅁㅇㅠㅇ	-6883
ㅊㅏㄹㅏㄹㅣ	-6884
ㄴㅗㅍ	-6885
ㄲㅣㄱㅏ	-6886
ㅅㅜㅇㅔ	-6887
ㄴㅏㅇㅂㅣ	-6888
▁ㅅㅏㅅㅣㄹㅇㅣ	-6889
▁ㅇㅐㅍㅡㄹㅇㅡㄴ	-6890
▁ㅋㅗㅁ	-6891
ㅇㅏㅈㅣ	-6892
ㅂㅕㄹㄹㅗ	-6893
▁ㅇㅣㅅㅡㅇ	-6894
ㄱㅗㅅㅇㅡㄴ	-6895
ㅇㅕㄹㅓㅂㅜㄴ	-6896
▁ㄷㅐㅅㄱㅡㄹㅇㅣ	-6897
▁ㅊㅚㄱㅕㅇㅎㅘㄴ	-6898
ㅍㅡㅌ	-6899
ㅈㅜㄴㅏ	-6900
ㅇㅡㅁㅇㅣ	-6901
▁ㄷㅏㄹㅡㅁ	-6902
▁ㅆㅣㅂㅜㄹ	-6903
ㄱㅣㄹㅁㅏㄴ	-6904
ㅍㅗㄴㅇㅡㄴ	-6905
▁ㄱㅣㅇㅓㅂㅇㅔ	-6906
▁ㅇㅏㄴㅎㅐㄷㅗ	-6907
▁ㅊㅜㄱㅎㅏㅎㅐㅇㅛ	-6908
ㄲㅣㄱㅗ	-6909
ㅇㅏㄷㅡㄹ	-6910
▁ㄴㅓㅎㅇㅓ	-6911
▁ㄱㅕㅇㅈㅔㄴㅡㄴ	-6912
▁ㅇㅣㅈㅐㅇㅛㅇㅇㅣ	-6913
▁ㅇㅏㄶㅅㅡㅂㄴㅣㄷㅏ	-6914
▁ㅣ	-6915
ㅍㅗㄹ	-6916
▁ㅃㅓㄹ	-6917
ㅇㅕㄹㅡㅁ	-6918
▁ㅅㅗㄹㄲㅏ	-6919
ㅊㅜㄹㅅㅣㄴ	-6920
▁ㅇㅗㄹㄹㅕㅅㅓ	-6921
▁ㄷㅡㄹㅇㅓㄱㅏㄹ	-6922
▁ㅈㅓㅇㄷㅗㅁㅕㄴ	-6923
▁ㅋㅗㅅㅡㅍㅡㄹㅔ	-6924
▁ㅁㅕㅇㅂㅗㄱㅇㅡㄹ	-6925
▁ㅇㅣㅆㅇㅓㅆㄷㅓㄴ	-6926
▁ㅇㅏㄴㄷㅚㅂㄴㅣㄷㅏ	-6927
ㄱㅓㅅㄱㅏㅌㅇㅡㄴㄷㅔ	-6928
ㄴㅕㅁ	-6929
▁ㄲㅣㄹ	-6930
▁ㅅㅏㅇㅑ	-6931
ㅂㅜㄴㅇㅢ	-6932
▁ㅅㅣㅎㅓㅁ	-6933
▁ㅎㅟㄷㅜㄹ	-6934
▁ㅂㅏㅇㅅㅏㄴ	-6935
▁ㅎㅏㄹㅜㅇㅔ	-6936
ㅂㅜㄷㅗㅇㅅㅏㄴ	-6937
▁ㄴㅡㄱㅡ	-6938
ㅇㅏㄹㄱㅗ	-6939
▁ㅇㅣㄲㅡㄹ	-6940
▁ㄱㅏㄴㅅㅣㄴ	-6941
▁ㅂㅣㅆㅏㅅㅓ	-6942
▁ㅇㅕㅇㅈㅏㅇ	-6943
ㅅㅏㄹㅏㅁㄷㅗ	-6944
▁ㅇㅜㅅㄱㅣㄱㅗ	-6945
▁ㅈㅓㅇㅈㅜㄴㅎㅏ	-6946
▁ㅇㅣㄴㅁㅣㄴㅈㅐㅍㅏㄴ	-6947
ㅂㅘㅅㅓ	-6948
▁ㅂㅗㅇㅏ	-6949
ㄷㅐㅅㅣㄴ	-6950
ㅌㅡㄹㄱㅗ	-6951
ㅇㅣㄴㄱㅓㄹ	-6952
ㅊㅜㄹㅅㅏㄴ	-6953
▁ㅂㅗㅇㅕㅈㅜ	-6954
▁ㅂㅜㄴㅁㅕㅇㅎㅣ	-6955
ㅋㅜㄱ	-6956
ㅗㅎㅘ	-6957
▁ㅎㅟㅂㅏㄹ	-6958
ㄷㅗㅇㅅㅐㅇ	-6959
▁ㄱㅗㅇㄱㅕㄱ	-6960
▁ㄴㅓㅁㅊㅕㄴ	-6961
▁ㅈㅜㄹㅇㅣㄱㅗ	-6962
ㅍㅡㄹㅗㄱㅡㄹㅐㅁ	-6963
ㅗㄴㅏ	-6964
ㅇㅏㄴㅇㅣ	-6965
▁ㅍㅗㄱㅇㅕㅁ	-6966
ㅈㅓㄴㅂㅜㅌㅓ	-6967
▁ㅁㅗㄹㅡㄱㅔㅆㄴㅔ	-6968
.,	-6969
ㄴㅚ	-6970
▁ㅁㅐㅈㅏㅇ	-6971
▁ㅈㅓㄱㅈㅏ	-6972
▁ㄴㅏㄹㅏㄷㅏ	-6973
▁ㅈㅜㄱㅇㅣㄱㅗ	-6974
ㅈㅣㅇㅏㄶㄴㅡㄴ	-6975
ㄱㅜㄱㅁㅣㄴㄷㅡㄹㅇㅣ	-6976
▁ㅈㅓㅇㅅㅏㅇㅈㅓㄱㅇㅣㄴ	-6977
▁B	-6978
ㄷㅣㄴ	-6979
▁ㅆㅏㅁ	-6980
ㅆㅣㄷㅗ	-6981
ㅑㅇㅇㅣ	-6982
ㅁㅗㅅㅎㅐ	-6983
▁ㄱㅡㄷㅗㄴ	-6984
▁ㄸㅓㄴㅏㅅㅓ	-6985
▁ㅇㅣㅈㅓㅇㄷㅗㅁㅕㄴ	-6986
ㅂㅓㄱ	-6987
▁ㅉㅓㄹ	-6988
▁ㅆㅏㅇㅣ	-6989
ㅅㅏㄹㅇㅣ	-6990
ㅅㅣㄹㅎㅣ	-6991
▁ㅂㅜㄹㅓㅂ	-6992
▁ㅅㅏㅁㅅㅓㅇㄷㅗ	-6993
▁ㅇㅣㅆㄱㅔㅆㅈㅣ	-6994
▁ㅈㅜㅇㅅㅏㄴㅊㅡㅇ	-6995
▁ㄴㅜㅈㅣㄴㅈㅔㄹㅡㄹ	-6996
▁ㅁㅠ	-6997
ㅅㅓㅅ	-6998
ㅡㅅㅡ	-6999
ㄱㅏㅈㅏ	-7000
▁ㄱㅐㅇㅣㅂ	-7001
▁ㅂㅏㄱㅇㅝㄴ	-7002
▁ㅁㅏㄹㅇㅣㅇㅑ	-7003
▁ㅇㅏㄴㄷㅚㅈㅣ	-7004
ㄱㅡㄹㅓ	-7005
ㄷㅚㅇㅑ	-7006
ㅜㄱㅁㅣㄴ	-7007
▁ㄴㅏㄹㄹㅕ	-7008
▁ㅁㅏㄸㅏㅇ	-7009
▁ㅋㅓㄴㅕㅇ	-7010
ㅁㅜㄹㅇㅡㄹ	-7011
▁ㅅㅏㅅㅔㅇㅛ	-7012
▁ㅅㅗㄴㄴㅣㅁ	-7013
▁ㅎㅏㄴㄱㅏㅇ	-7014
▁ㅈㅗㅈㅓㅇㅅㅓㄱ	-7015
ㅅㅓㄱㅏ	-7016
▁ㅈㅔㄱㅗㅇ	-7017
▁ㅇㅏㄴㅆㅡㄹ	-7018
▁ㅈㅓㄴㄹㅑㄱ	-7019
ㅂㅗㅂㄴㅣㄷㅏ	-7020
ㅅㅜㄱㅏㅇㅓㅄ	-7021
99	-7022
ㄴㅗㄹㅐ	-7023
▁ㅁㅏㄴㅣ	-7024
▁ㄷㅜㄹㅕㅇ	-7025
▁ㄸㅐㅁㅇㅔ	-7026
▁ㅇㅣㄴㄷㅗ	-7027
▁ㄷㅗㅇㅇㅝㄴ	-7028
▁ㅂㅓㅂㅇㅡㄴ	-7029
ㅗㅇㅣ	-7030
ㅈㅏㅇㅅㅏ	-7031
▁ㄷㅏㅇㅜㄴ	-7032
▁ㅂㅏㄷㅈㅣ	-7033
▁ㅇㅗㅁㅕㄴ	-7034
ㄴㅗㅁㅇㅡㄴ	-7035
▁ㅈㅓㅇㅂㅜㅇㅘ	-7036
▁ㅈㅗㅅㅓㄴㅅㅣㄷㅐ	-7037
ㅈㅓㄴㅏ	-7038
ㅈㅣㅂㅇㅣ	-7039
▁ㄴㅗㅅㅡㅇ	-7040
ㅈㅜㄴㄷㅏㄱㅗ	-7041
▁ㅃㅗㅇ	-7042
▁ㅇㅣㅅㅠ	-7043
▁ㄷㅏㄺㅇㅣ	-7044
▁ㅂㅣㄹㅗㅅ	-7045
ㅇㅓㅂㅓㄹㅣㄴ	-7046
▁ㄱㅗㄱㅣ	-7047
ㄷㅗㄷㅜㄱ	-7048
▁ㅁㅗㅁㅇㅔ	-7049
ㅁㅓㄱㅇㅡㄴ	-7050
ㅅㅣㅋㅕㅅㅓ	-7051
▁ㄱㅓㄱㅣㄷㅏ	-7052
▁ㅇㅔㄴㅓㅈㅣ	-7053
▁ㅇㅣㄹㅎㅏㄱㅗ	-7054
▁ㅈㅣㄴㅏㅁㅕㄴ	-7055
ㅈㅣㅇㅏㄶㅇㅡㄴ	-7056
▁ㅅㅗㅂㅣㅈㅏㄱㅏ	-7057
▁ㄱㅜㄱㅁㅣㄴㅎㅕㄹ	-7058
ㅐㄹ	-7059
ㅅㅣㅇㅟ	-7060
ㅎㅗㅅㅏ	-7061
▁ㄴㅐㅁㅕㄴ	-7062
▁ㄱㅡㄹㅓㄱㅔ	-7063
ㄷㅡㄹㅇㅣㅇㅑ	-7064
▁ㄴㅡㅇㄹㅕㄱㅇㅣ	-7065
▁ㅅㅏㄷㅡㅂㅐㅊㅣ	-7066
▁ㄱㅓㅈㅣㅅㅁㅏㄹㅇㅡㄹ	-7067
ㅃㅓ	-7068
▁ㅍㅜㄴ	-7069
▁ㅂㅜㅎㅘㄹ	-7070
ㄴㅏㄹㅏㅇㅔ	-7071
▁ㅈㅏㄹㄴㅏㄱ	-7072
ㅎㅐㅇㅑㅎㅏㄹ	-7073
▁ㅇㅣㅆㄴㅏㅇㅛ	-7074
▁ㄱㅟㅈㅗㄱㄴㅗㅈㅗ	-7075
ㅈㅡㄹ	-7076
▁ㄱㅚㄹㅗㅂ	-7077
▁ㅈㅣㅇㅡㄴ	-7078
▁ㄴㅏㅁㄴㅡㄴ	-7079
▁ㅇㅏㄶㅇㅏㅆㄷㅏ	-7080
ㅎㅕㅇㅇㅣ	-7081
▁ㅅㅏㄹㅈㅏ	-7082
▁ㅍㅡㄹㅏㅇ	-7083
ㅇㅓㅊㅏㅍㅣ	-7084
▁ㅁㅜㄹㄱㅏㄱㅏ	-7085
▁ㅇㅓㅉㅓㄹㅏㄱㅗ	-7086
ㅈㅑ	-7087
ㅊㅣㄷㅗ	-7088
ㅡㅁㅐㄴ	-7089
ㅆㄴㅔㅇㅛ	-7090
ㄹㅕㄴㅗㅎㄱㅗ	-7091
▁ㅁㅗㅅㅡㅂㅇㅡㄹ	-7092
▁ㅍㅜ	-7093
▁ㅈㅓㄹㅐ	-7094
ㅆㄴㅡㄴㅈㅣ	-7095
▁ㄱㅏㅁㄷㅏㅇ	-7096
▁ㅅㅣㄴㄷㅗㅇ	-7097
ㅁㅏㄴㅑㅇ	-7098
ㅈㅏㅇㄱㅗ	-7099
▁ㄱㅜㅊㅣㅅㅗ	-7100
▁ㅊㅏㄴㅇㅑㅇ	-7101
▁ㄷㅏㄱㅏㅌㅇㅣ	-7102
▁ㅇㅓㄸㅓㄱ	-7103
▁ㅇㅖㅅㅜㄹ	-7104
▁ㅊㅐㅇㄱㅣ	-7105
▁ㄱㅓㄹㄹㅣㄴ	-7106
▁ㅁㅜㄹㄹㅓㄴ	-7107
▁ㅎㅏㄷㅓㄹㅏ	-7108
▁ㅎㅏㅂㅂㅓㅂ	-7109
ㅁㅏㄴㄷㅡㄹㅇㅓ	-7110
▁ㅅㅓㅁㅣㄴㅇㅡㄴ	-7111
▁ㅈㅣㄱㅡㅁㅇㅣㄹㅏㄷㅗ	-7112
he	-7113
▁ㅇㅟㄱㅣ	-7114
▁ㅇㅓㄹㅣㄹ	-7115
▁ㅎㅐㅆㅈㅣ	-7116
ㄷㅓㄹㅏㄱㅜㅇㅛ	-7117
▁ㅂㅏㄱㅇㅠㅊㅓㄴ	-7118
▁ㅎㅏㄹㅜㅈㅗㅇㅇㅣㄹ	-7119
▁ㅈㅝㅆ	-7120
▁ㅊㅚㅆㅣ	-7121
ㄱㅡㅁㄹㅣ	-7122
▁ㅁㅣㄱㅜㄱㅇㅔ	-7123
ㅏㅈ	-7124
▁99	-7125
▁150	-7126
ㅅㅏㅈㅣ	-7127
ㅅㅣㅈㅛ	-7128
▁ㄷㅟㄹㅗ	-7129
▁ㅎㅏㄹㅏ	-7130
ㄱㅘㅇㄱㅗ	-7131
▁ㄷㅐㅌㅗㅇㄹㅕㅇㅇㅡㄹㅗ	-7132
▁ㄹㅜㅁ	-7133
ㄷㅓㄴㅑ	-7134
▁ㅁㅔㅇㅣ	-7135
ㄱㅏㅌㅇㅏ	-7136
ㅂㅓㄹㅇㅣ	-7137
▁ㄴㅏㅁㅕㄴ	-7138
ㅇㅓㅂㅘㅇㅑ	-7139
▁ㅈㅓㄱㅇㅡㄴ	-7140
ㅎㅐㅈㅜㅁㅕㄴ	-7141
▁ㅇㅏㅈㅣㄱㄲㅏㅈㅣ	-7142
ㄲㅗㅇ	-7143
▁ㅈㅏㄱㄱㅏ	-7144
ㅈㅜㅇㅎㅏㄴ	-7145
▁ㅇㅓㄹㅕㅇㅝ	-7146
▁ㅈㅗㅇㅍㅕㄴ	-7147
ㄱㅔㅆㄱㅜㄴㅏ	-7148
▁ㅅㅣㄱㅏㄴㅇㅔ	-7149
▁ㅍㅗㅋㅔㅅㅁㅗㄴㄱㅗ	-7150
8%	-7151
▁ㄹㅜ	-7152
▁ㅅㅐㅂㅕㄱ	-7153
ㅇㅘㄴㅈㅓㄴ	-7154
▁ㄱㅡㄹㅓㄴㅑ	-7155
▁ㄱㅣㅁㄱㅜㄹ	-7156
▁ㅅㅐㅇㅅㅐㄱ	-7157
▁ㅇㅙㅇㅣㄹㅣ	-7158
ㄱㅏㅌㅇㅡㅁㅕㄴ	-7159
▁ㅇㅓㄹㄱㅜㄹㄷㅗ	-7160
▁ㅈㅓㄻ	-7161
▁ㅌㅏㅇ	-7162
▁ㄴㅓㅁㅜㄴ	-7163
▁ㅌㅓㅈㅣㄴ	-7164
▁ㅎㅏㄴㄱㅕㄹ	-7165
▁ㅅㅏㅁㅜㅅㅣㄹ	-7166
▁ㄱㅡㄹㅓㅁㅕㄴㅅㅓ	-7167
ㅓㄱㄱㅗ	-7168
▁ㄱㅡㅇㅔ	-7169
▁ㄲㅡㅌㄴㅏㄹ	-7170
▁ㅊㅓㅇㅅㅏㄴ	-7171
ㅎㅏㅈㅏㄶㅇㅏ	-7172
ㅌㅜㄱㅣ	-7173
ㅜㅁㅏㄶ	-7174
ㅓㅇㅝㅅㅓ	-7175
▁ㅅㅏㄹㅈㅣ	-7176
▁ㅅㅣㅀㅇㅡㅁㅕㄴ	-7177
▁ㅈㅏㄹㅅㅏㄴㅡㄴ	-7178
▁ㅈㅗㅅㅔㄴㅈㅣㅇ	-7179
▁ㅅㅏㅁㅅㅓㅇㅈㅓㄴㅈㅏ	-7180
."	-7181
▁ㅂㅜㄴㅇㅑ	-7182
▁ㅇㅣㅈㅓㅇ	-7183
ㅇㅓㅂㅘㄹㅏ	-7184
▁ㅁㅏㄱㅈㅏㅇ	-7185
▁ㅆㅓㄱㅇㅡㄹ	-7186
▁ㅍㅗㄱㄷㅡㅇ	-7187
▁ㄱㅓㅅㅇㅣㅂㄴㅣㄷㅏ	-7188
ㅊㅓㅂㅜㄴ	-7189
▁ㅂㅜㅈㅏㄱㅏㅁ	-7190
▁ㅇㅓㅂㅓㅇㅣㅇㅕㄴㅎㅏㅂ	-7191
outu	-7192
▁ㄴㅏㄲ	-7193
▁ㅆㅡㅂ	-7194
ㄷㅗㅇㅘ	-7195
▁ㄱㅘㅈㅏ	-7196
ㅁㅏㅇㅡㅁ	-7197
▁ㅊㅣㅁㅁㅗㄹ	-7198
ㅁㅏㄴㄷㅡㄹㄱㅗ	-7199
▁ㅎㅣㄹ	-7200
ㅈㅜㅇㅔ	-7201
▁ㅁㅗㄱㅅㅗㄹ	-7202
▁ㅎㅐㅇㅈㅓㅇ	-7203
▁ㅇㅣㅇㅠㄹㅡㄹ	-7204
▁ㅌㅓㅈㅣㅁㅕㄴ	-7205
▁ㅂㅏㄱㄱㅡㄴㅎㅖㄹㅡㄹ	-7206
▁ㄱㅣㅅㅐㅇ	-7207
▁ㅇㅘㄴㅎㅘ	-7208
▁ㅅㅏㄹㅏㅈㅣ	-7209
ㄷㅓㄱㅜㄴㅇㅛ	-7210
ㄹㅣㄴㅡㄴㄱㅔ	-7211
▁ㅂㅣㅈㄴㅐㅅㅓ	-7212
ㄷㅗㅇㅇㅣ	-7213
▁ㄴㅏㅅㅈㅣ	-7214
▁ㅌㅗㅇㅈㅏㅇ	-7215
ㅇㅔㅅㅓㅁㅏㄴ	-7216
▁ㄱㅡㄴㅗㅁㅇㅢ	-7217
▁ㅇㅏㄵㅇㅏㅅㅓ	-7218
▁ㅇㅗㄹㄹㅕㅇㅑ	-7219
▁ㅋㅐㅅㅡㅌㅣㅇ	-7220
▁ㅈㅏㄹㅎㅐㅆㄷㅏ	-7221
▁ㄷㅗㄹㅇㅏㄱㅏㄴㅡㄴ	-7222
▁ㅇㅏㅍㅡㄹㅣ	-7223
▁ㅂㅜㄴㄷㅡㄹㅇㅣ	-7224
▁ㅎㅣㅁㄷㅡㄹㄱㅗ	-7225
▁ㅇㅏㄴㄱㅡㄹㅐㄷㅗ	-7226
▁ㅇㅔㅅㅓ	-7227
▁ㅂㅗㅈㅡㅇ	-7228
▁ㅇㅓㄷㅇㅓ	-7229
ㅡㅁㅕㄴㅅㅓ	-7230
ㅈㅓㅇㅎㅏㄱㅗ	-7231
ㅎㅏㅈㅏㄴㅡㄴ	-7232
▁ㅇㅣㄹㅇㅣㄷㅏ	-7233
▁ㅎㅐㅆㅈㅣㅁㅏㄴ	-7234
▁ㅇㅓㅁㅊㅓㅇㄴㅏㄱㅔ	-7235
?)	-7236
~2	-7237
ㅆㅏㄱ	-7238
ㅕㄴㅣ	-7239
▁ㅂㅐㄹㅕ	-7240
▁ㅈㅓㄴㅕㄱ	-7241
ㅎㅣㅁㄷㅡㄴ	-7242
▁ㄱㅏㅇㅇㅏㅂ	-7243
▁ㅂㅜㅈㅏㄷㅡㄹ	-7244
▁ㅋㅓㅁㅍㅠㅌㅓ	-7245
▁ㄱㅓㅅㅊㅓㄹㅓㅁ	-7246
▁ㅈㅣㄷㅡㄹㅇㅡㄴ	-7247
youtu	-7248
ㅅㅣㅇㅝㄴ	-7249
ㅈㅣㄷㅡㄹ	-7250
▁ㅂㅕㅇㅇㅕㄱ	-7251
ㅂㅗㅇㅣㄴㄷㅏ	-7252
▁ㄱㅓㅅㅇㅣㄱㅗ	-7253
▁ㅅㅐㅇㄱㅣㄴㅡㄴ	-7254
▁ㄱㅏㄴㅡㅇㅅㅓㅇㅇㅣ	-7255
▁ㅈㅗㄱㅡㅁㅇㅣㄹㅏㄷㅗ	-7256
▁ㅇㅏㅍㅡ	-7257
▁ㄱㅏㅈㅕㅇ	-7258
▁ㄱㅓㄴㄷㅔ	-7259
ㄷㅏㅇㅇㅕㄴ	-7260
ㅂㅜㄹㅆㅏㅇ	-7261
▁ㅇㅣㄹㅏㄱㅗ	-7262
ㄴㅕㄴㅈㅓㄴㅇㅔ	-7263
ㅅㅐㄴ	-7264
ㅌㅡㅅ	-7265
ㅇㅣㄹㅇㅓㄴ	-7266
▁ㄱㅗㅇㅂㅓㅁ	-7267
▁ㄱㅗㅇㅍㅕㅇ	-7268
▁ㄴㅏㄱㅏㅅㅓ	-7269
ㅇㅣㅇㅓㅆㄷㅏ	-7270
▁ㅇㅑㄱㅜ	-7271
ㄷㅐㄱㅜㄱ	-7272
ㄹㅗㅂㄱㅔ	-7273
▁ㄴㅐㄹㅕㄱ	-7274
▁ㅁㅓㄱㅇㅓ	-7275
▁ㅇㅣㅁㅅㅣ	-7276
▁ㄱㅗㅇㅅㅣㄱ	-7277
ㅃㅜㄴㅇㅣㄷㅏ	-7278
▁ㅇㅛㄱㅎㅏㄱㅗ	-7279
▁ㅇㅣㄹㅓㄴㄷㅔ	-7280
ㅈㅜㄴㅂㅣ	-7281
ㄱㅓㅅㅇㅣㅁ	-7282
▁ㄱㅡㄹㅓㄷㅏ	-7283
▁ㅇㅣㄴㅎㅏㄴ	-7284
ㅁㅗㅅㅎㅏㄱㅗ	-7285
▁ㅂㅏㄹㅏㄴㅡㄴ	-7286
▁ㅅㅜㄷㅗㄱㅝㄴ	-7287
▁ㅋㅣㅇㅜㄴㅡㄴ	-7288
▁ㅇㅣㅆㅇㅓㅆㄷㅏ	-7289
ㄱㅣㄸㅐㅁㅜㄴㅇㅔ	-7290
ㅂㅜㄴㄷㅡㄹㅇㅡㄴ	-7291
▁20%	-7292
ㅆㄷㅓㄴㅣ	-7293
ㅇㅏㅆㄴㅏ	-7294
▁ㅂㅜㄴㄴㅗ	-7295
▁ㅎㅏㄴㅁㅣ	-7296
ㅂㅜㄴㅇㅡㄴ	-7297
▁ㅌㅡㄹㄸㅏㄱ	-7298
▁ㅅㅣㄱㅇㅡㄹㅗ	-7299
▁ㄱㅡㅁㅏㄴㅈㅗㅁ	-7300
▁ㄱㅕㄹㄹㅗㄴㅇㅡㄴ	-7301
▁ㅂㅓㅌㅣ	-7302
ㅍㅏㄴㅁㅐ	-7303
ㄱㅝㄴㄹㅕㄱ	-7304
ㅏㅇㅗㄴㅡㄴ	-7305
ㅇㅣㄷㅡㄹㅇㅏ	-7306
▁ㅇㅡㅁㅈㅜㅇㅜㄴ	-7307
ㅗㄹㅣㅂ	-7308
▁ㄸㅓㅇㅗㄹ	-7309
▁ㅆㅡㄴㄷㅏ	-7310
▁ㄲㅜㅈㅜㄴㅎㅣ	-7311
▁ㅋㅗㄴㅅㅓㅌㅡ	-7312
ㅇㅛㅇㅣㄹ	-7313
▁ㅃㅏㅈㅣㄴ	-7314
▁ㅇㅠㅊㅜㄹ	-7315
ㄱㅓㅇㅏㄴㅑ	-7316
▁ㅇㅣㅅㅔ	-7317
ㅇㅣㄹㅅㅔ	-7318
▁ㅈㅔㅊㅜㄹ	-7319
▁ㄴㅏㅈㅇㅡㄴ	-7320
ㅂㅏㄷㅇㅏㅇㅑ	-7321
▁ㄱㅘㄴㅅㅣㅁㅇㅣ	-7322
▁ㅁㅏㅇㅣ	-7323
▁ㅈㅓㅎㅢ	-7324
▁ㅍㅖㄱㅣ	-7325
ㄱㅣㄴㄷㅏ	-7326
▁ㅈㅏㄱㅡㄱ	-7327
ㅇㅣㅂㅈㅏㅇ	-7328
▁ㅉㅣㄹㅏㅅㅣ	-7329
ㄷㅗㅇㅓㅄㄱㅗ	-7330
▁ㅂㅏㄴㄷㅗㅊㅔ	-7331
▁ㅁㅏㄴㅕㅅㅏㄴㅑㅇ	-7332
▁ㅇㅕㅈㅏㄷㅡㄹㅇㅡㄴ	-7333
ㄱㅐㄱㅏ	-7334
▁ㅇㅣㄴㅕㄴ	-7335
ㅁㅕㅇㅇㅡㄴ	-7336
▁ㅅㅐㅇㄱㅏㄱㅂㅗㄷㅏ	-7337
▁ㅇㅏㄴㄷㅚㄴㅡㄴㄷㅔ	-7338
ㄹㅕㅁ	-7339
ㅅㅕㅅㅓ	-7340
▁ㅇㅢㅎㅐ	-7341
ㄱㅔㅅㄷㅏ	-7342
▁ㅈㅜㄱㅇㅓ	-7343
ㅇㅣㄱㅜㅁㅏㄴ	-7344
▁ㅈㅏㄹㅁㅓㄱㄱㅗ	-7345
ㅌㅞ	-7346
~~!!	-7347
▁ㄷㅓㅇㅟ	-7348
▁ㅁㅜㅇㅕㄱ	-7349
▁ㅇㅣㅁㅊㅏㅇ	-7350
▁ㅂㅓㅂㅇㅡㄹㅗ	-7351
▁ㄱㅜㄱㄱㅏㅇㅔㅅㅓ	-7352
▁ㅇㅕㄴㅇㅖㅇㅣㄴㅇㅣ	-7353
->	-7354
ns	-7355
ㄱㅕㄹㅏ	-7356
ㅓㄷㅡㄴ	-7357
▁5000	-7358
ㄱㅕㄹㄱㅘ	-7359
▁ㅎㅏㄹㄷㅡㅅ	-7360
▁ㅇㅣㄹㅓㄴㅡㄴ	-7361
ㅐㄴㅑ	-7362
▁ㅅㅔㄷㅐ	-7363
ㅌㅗㅇㅇㅣ	-7364
▁ㅁㅏㄴㄴㅏㄴ	-7365
ㄷㅚㄴㅡㄴㄱㅔ	-7366
▁ㅅㅏㅎㅚㅈㅓㄱ	-7367
▁ㅆㅏㄱㅗ	-7368
ㅇㅗㄹㄹㅕ	-7369
▁ㅂㅏㄲㅜㄴ	-7370
▁ㅅㅡㅇㄹㅣ	-7371
▁ㄴㅐㄹㅕㄹㅏ	-7372
▁ㄱㅕㄹㄱㅘㄱㅏ	-7373
▁ㅁㅏㄹㅇㅣㄴㄱㅏ	-7374
ㄱㅏㅆㄷㅏ	-7375
▁ㄲㅗㅁㅅㅜ	-7376
ㅇㅔㄴㄷㅣㅇ	-7377
ㅎㅐㅇㅂㅗㄱ	-7378
▁ㄱㅗㅇㅇㅣㄱ	-7379
▁ㄴㅏㅅㅓㅅㅓ	-7380
▁ㅎㅘㄴㅇㅕㅇ	-7381
▁ㅎㅏㄴㅏㄱㅏㅌㅇㅣ	-7382
ㅅㅡㅋㅡ	-7383
ㄱㅏㅈㄱㅗ	-7384
ㄸㅗㅎㅏㄴ	-7385
ㅁㅏㄹㄷㅗ	-7386
▁ㅂㅣㄹㄹㅕ	-7387
▁ㅅㅐㅇㄱㅣ	-7388
▁ㄴㅏㅂㄷㅡㄱ	-7389
▁ㅋㅗㅇㅂㅏㅂ	-7390
ㄷㅗㅇㅏㄴㅣㄱㅗ	-7391
ㅁㅗㅅㅎㅏㄴㅡㄴ	-7392
▁ㄷㅐㅎㅏㄴㅁㅣㄴㄱㅜㄱㅇㅔ	-7393
ㅁㅜㅅㅓㅇ	-7394
ㅅㅏㅇㄱㅘㄴ	-7395
ㅈㅣㄴㅇㅡㄴ	-7396
▁ㄴㅏㅇㅣㄱㅏ	-7397
ㅅㅣㅋㅣㅁㅕㄴ	-7398
ㅅㄱㅗ	-7399
▁ㄸㅐㄱㅏ	-7400
▁ㅅㅣㄱㅣ	-7401
ㄷㅡㄹㄹㅗ	-7402
▁ㅅㅣㄴㅎㅘ	-7403
▁ㅁㅏㅇㅎㅏㄱㅗ	-7404
▁ㅇㅣㄹㅇㅓㄴㅏ	-7405
▁ㅊㅚㄷㅐㅎㅏㄴ	-7406
ㅡㅇㅞ	-7407
ㅇㅈㅏㅇ	-7408
ㅊㅏㄷㅗ	-7409
▁ㅅㅡㅌㅣㅂ	-7410
ㅇㅓㅂㅇㅛㅇ	-7411
▁ㅇㅣㄸㅏㅇㅟ	-7412
ㅈㅜㅇㅇㅔㄷㅗ	-7413
ㅎㅏㄴㅅㅏㄹㅏㅁ	-7414
ㅅㅓㅇㅛ	-7415
ㅈㅣㅁㅗㄹ	-7416
ㅊㅏㅂㅕㄹ	-7417
ㅌㅡㅂㅜㄱ	-7418
ㅂㅏㅇㅂㅓㅂ	-7419
▁ㄱㅣㅇㅓㅂㅇㅢ	-7420
▁ㄱㅏㅅㅡ	-7421
▁ㄷㅚㄴㅣ	-7422
▁ㅂㅜㄷㅣ	-7423
ㅅㅏㅈㅏㅇ	-7424
▁ㄴㅏㅇㅗㄴㅔ	-7425
▁ㅁㅓㅅㅈㅣㄷㅏ	-7426
▁ㅇㅕㄱㅅㅏㅇㅔ	-7427
▁ㄱㅐㄷㅙㅈㅣㄹㅗ	-7428
▁ㅂㅐㄱㅏ	-7429
ㅆㄱㅜㄴㅏ	-7430
ㅏㅈㅓㄴㅏ	-7431
▁ㅈㅏㅇㅠㄹ	-7432
▁ㅂㅣㅈㅏㄱㅡㅁ	-7433
ㅁㅗㄱㅏ	-7434
ㅇㅒㄱㅣ	-7435
ㅎㅏㅈㅣㄴ	-7436
▁ㄱㅏㅈㅓㄴ	-7437
▁ㄴㅏㅁㅇㅣ	-7438
▁ㄴㅐㄷㅗㄴ	-7439
▁ㅁㅏㅈㅊㅝ	-7440
▁ㄱㅣㄹㄱㅓㄹㅣ	-7441
▁ㅇㅏㄴㄷㅚㄴㄷㅏㄱㅗ	-7442
ㄹㅏㄴㅏ	-7443
▁ㅂㅜㄱㅘ	-7444
▁ㅇㅗㅈㅜㄱ	-7445
ㅇㅣㄹㅏㅁㅕ	-7446
ㅡㄴㅡㄴㄷㅔ	-7447
▁ㅎㅣㅂ	-7448
ㄱㅏㅅㅜ	-7449
ㅊㅣㄴㅏ	-7450
▁ㅂㅗㄴㅔ	-7451
ㅎㅏㅅㅏㄴ	-7452
▁ㅇㅏㄴㅇㅔ	-7453
▁ㅇㅏㄹㅍㅏ	-7454
▁ㅊㅜㅇㅓㄱ	-7455
▁ㄱㅏㅁㅅㅓㅇ	-7456
▁ㅈㅜㄱㅇㅡㄹㄸㅐ	-7457
ㄸㅜㄱ	-7458
▁ㄱㅗㅅㅇㅣ	-7459
▁ㄴㅏㄱㅏㄴ	-7460
▁ㄷㅜㅂㅜㄴ	-7461
▁ㄴㅏㅇㅘㅇㅑ	-7462
▁ㅁㅜㅅㅡㄹㄹㅣㅁ	-7463
▁ㅊㅜㄱㅎㅏㅎㅏㅂㄴㅣㄷㅏ	-7464
▁ㄷㅐㅎㅏㄴㅁㅣㄴㄱㅜㄱㅇㅔㅅㅓ	-7465
▁ㅎㅢㄴ	-7466
▁ㄷㅏㄴㅡㄴ	-7467
▁ㅇㅙㄱㅗㄱ	-7468
▁ㅇㅣㄹㅈㅔ	-7469
▁ㅎㅕㅇㅅㅏ	-7470
ㄱㅔㅆㅇㅡㅁ	-7471
ㅇㅣㄴㅊㅓㄱ	-7472
▁ㅁㅏㄱㅅㅏㅇ	-7473
▁ㅌㅡㄱㅈㅣㅇ	-7474
ㅎㅏㅂㄴㅣㄲㅏ	-7475
▁ㅂㅏㄴㄷㅐㄹㅗ	-7476
▁ㅈㅓㅇㅊㅣㄹㅡㄹ	-7477
ㄲㅓㅂ	-7478
ㅇㅓㅅㅓㄴ	-7479
▁ㄱㅓㄴㄱㅏ	-7480
▁ㄱㅓㄴㅈㅣ	-7481
▁ㄷㅐㅍㅗㄱ	-7482
▁ㅈㅡㅇㅅㅔ	-7483
▁ㅇㅏㄴㅊㅓㄹ	-7484
▁ㅁㅏㄹㅎㅏㄱㅗ	-7485
▁ㅅㅗㄹㅣㄹㅡㄹ	-7486
www	-7487
ㅅㅓㅂㅣ	-7488
▁ㄴㅐㅅㅔ	-7489
ㅍㅣㅇㅋㅡ	-7490
▁ㅎㅐㅇㅅㅏ	-7491
▁ㅇㅣㄹㅐㄷㅗ	-7492
▁ㅁㅜㅅㅣㅎㅏㄱㅗ	-7493
▁ㅁㅝㄱㅗ	-7494
▁ㅇㅣㅃㅡ	-7495
ㄴㅏㅇㅗㄹ	-7496
▁ㅁㅏㄹㅎㅏㄴ	-7497
▁ㄷㅗㄴㅂㅓㄴㅡㄴ	-7498
ㅋㅋㅋㅋㅋㅋㅋㅋㅋㅋ	-7499
ㄷㅓㅇㅜㄱ	-7500
ㅈㅐㄴㅡㄴ	-7501
▁ㄷㅓㄹㅓㅂ	-7502
▁ㅅㅣㄱㅗㄹ	-7503
▁ㅌㅜㅁㅕㅇ	-7504
▁ㅎㅚㅅㅏㄴㅡㄴ	-7505
▁ㅈㅜㄹㅇㅓㄷㅡㄹ	-7506
▁ㄴㅜㅈㅣㄴㅅㅔㄹㅡㄹ	-7507
▁ㅇㅔㅇㅓㅋㅓㄴㅇㅡㄹ	-7508
▁ㅁㅣㅇ	-7509
ㅇㅣㅎㅜ	-7510
ㄱㅏㅌㄴㅔ	-7511
▁ㅈㅓㅇㄷㅗㄴㅡㄴ	-7512
▁ㅇㅣㅅㅏㅇㅎㅏㄱㅔ	-7513
ㅉㅣㄴ	-7514
ㅆㄷㅡㄴ	-7515
▁ㅈㅗㅍㅗㄱ	-7516
▁ㅌㅗㅇㄱㅘ	-7517
ㄴㅕㄴㅁㅏㄴ	-7518
ㅌㅗㅇㅅㅣㄴ	-7519
▁ㅁㅗㅅㅊㅏㄹ	-7520
▁ㅈㅣㅂㄱㅝㄴ	-7521
▁ㄱㅓㅅㄷㅡㄹㅇㅡㄴ	-7522
▁ㄱㅙㄴㅊㅏㄶㅇㅡㄴ	-7523
ㄱㅔㅆㅅㅡㅂㄴㅣㄲㅏ	-7524
▁ㄷㅏㄷ	-7525
ㄱㅏㄴㅑ	-7526
▁ㅂㅜㄷㅗ	-7527
ㄹㅣㅍㅣㄴ	-7528
▁ㅎㅏㄴㅡㄴㄱㅓㅈㅣ	-7529
ㄴㅐㄴㅐ	-7530
ㄴㅡㄲㅣㅁ	-7531
ㅂㅓㄹㄹㅔ	-7532
ㅅㅜㅅㅐㄱ	-7533
ㅅㅡㅌㅡㄹ	-7534
▁ㅁㅜㄴㄷㅏㄷ	-7535
ㅇㅏㅈㅣㄱㄷㅗ	-7536
▁ㅈㅗㅎㅈㅣㅁㅏㄴ	-7537
ㄹㅜㅁ	-7538
ㅋㅗㅁ	-7539
▁ㅂㅗㅈㅣ	-7540
▁ㅈㅣㅂㅇㅣ	-7541
▁ㅅㅣㄷㅐㅇㅔ	-7542
▁ㅎㅐㅊㅕㅁㅓㄱ	-7543
▁ㅂㅔㄴ	-7544
ㅅㅏㄴㅑ	-7545
ㅍㅓㅅㅔㄴ	-7546
▁ㅈㅓㄹㅈㅓㄴ	-7547
▁ㅈㅓㅇㅈㅣㄱ	-7548
ㄴㅡㄴㄱㅜㄴㅏ	-7549
ㅈㅕㅆㅇㅡㅁㅕㄴ	-7550
▁ㄱㅣㄷㅏㄹㅣㄱㅗ	-7551
▁ㅅㅓㄴㄷㅗㅇㅈㅣㄹ	-7552
▁ㅌㅗㄴ	-7553
ㅏㄱㅡㄹ	-7554
ㅂㅐㄴㅡㄴ	-7555
▁ㅇㅖㅊㅡㄱ	-7556
ㄷㅏㄴㅇㅡㄹ	-7557
▁ㅁㅗㄷㅡㄴㄱㅓㄹ	-7558
▁ㅎㅜㅁ	-7559
ㄴㅑㄱㅗ	-7560
ㅅㅓㅇㅔ	-7561
ㅅㅡㅋㅣ	-7562
ㅈㅓㄹㅐ	-7563
ㅂㅏㄹㅇㅣ	-7564
▁ㄷㅏㄹㄱㅗ	-7565
▁ㅈㅜㄱㄱㅗ	-7566
▁ㅎㅏㄴㄷㅐ	-7567
ㅎㅐㅈㅣㄱㅗ	-7568
▁ㄷㅓㅇㅝㅅㅓ	-7569
▁ㅅㅓㅇㄱㅘㄴㄱㅖ	-7570
▁ㅎㅕㄴㅅㅣㄹㅇㅡㄴ	-7571
▁ㄱㅣㅇㅓㅂㄷㅡㄹㅇㅣ	-7572
▁ㅇㅣㅁㅕㅇㅂㅏㄱㄱㅡㄴㅎㅖ	-7573
ㅓㄹㅗ	-7574
▁ㄷㅐㅊㅓ	-7575
ㅁㅔㅁㅂㅓ	-7576
ㅈㅓㄹㄷㅐ	-7577
▁ㄷㅗㅈㅓㄴ	-7578
ㄴㅐㅇㅛㅇ	-7579
ㄴㅕㄴㄷㅟ	-7580
ㄷㅏㄹㄹㅓ	-7581
ㅅㅣㅀㅇㅓ	-7582
▁ㄴㅏㅈㅜㅇ	-7583
▁ㅈㅓㅇㅂㅗ	-7584
▁ㅅㅣㅋㅕㅇㅑ	-7585
▁ㅈㅏㅅ	-7586
▁ㄱㅓㄹㅣ	-7587
▁ㅎㅜㅂㅗ	-7588
ㅇㅛㅇㅇㅣ	-7589
ㅋㅣㄴㅡㄴ	-7590
▁ㅇㅢㅅㅣㄱ	-7591
ㅇㅣㄴㄱㅓㅅ	-7592
ㅂㅜㄷㅗ	-7593
▁ㅂㅜㄹㄱㅗㅇ	-7594
▁ㄱㅡㄷㅡㄹㅇㅢ	-7595
▁ㄲㅡㄹㅇㅓㄴㅐ	-7596
ㄱㅜㄱㅁㅣㄴㅇㅢ	-7597
▁ㅈㅔㄷㅐㄹㅗㄷㅚㄴ	-7598
ㅂㅗㄱㅔ	-7599
ㅇㅓㅂㅘ	-7600
ㅣㅁㄷㅡㄹ	-7601
▁ㄱㅓㄹㄹㅗ	-7602
▁ㅇㅕㅈㅏㅇ	-7603
▁ㅇㅣㄴㅅㅏ	-7604
ㄱㅏㅁㄷㅗㄱ	-7605
ㅅㅣㅁㅇㅡㄴ	-7606
▁ㄸㅏㄹㅏㅅㅓ	-7607
▁ㄷㅓㅂㅜㄹㅇㅓ	-7608
▁ㅅㅏㄹㅏㅁㅇㅢ	-7609
▁ㅈㅜㄱㅇㅓㄷㅗ	-7610
▁ㅈㅜㄱㅇㅣㄴㅡㄴ	-7611
ㅏㅍ	-7612
ㅇㅣㄺ	-7613
▁ㄲㅡㄴ	-7614
ㅇㅚㄱㅛ	-7615
▁ㅇㅣㅎㅏ	-7616
▁ㅋㅔㅁㅣ	-7617
ㅎㅕㄴㅇㅣ	-7618
ㅆㅇㅡㄹㄲㅏ	-7619
▁ㄷㅔㄹㅣㄱㅗ	-7620
ㅈㅓㅁㅇㅔㅅㅓ	-7621
▁1%	-7622
▁ㅂㅗㅇㅠ	-7623
ㅌㅏㄴㅡㄴ	-7624
▁ㅂㅏㄲㅝㄹㅏ	-7625
▁ㅅㅗㄹㅣㄱㅏ	-7626
▁ㅅㅗㅇㅇㅠㄴ	-7627
▁ㅍㅐㄴㄷㅡㄹㅇㅣ	-7628
▁ㅊㅚㅈㅓㅅㅣㄱㅡㅂ	-7629
pc	-7630
▁ㄱㅓㄴㅑ	-7631
ㅇㅓㅂㅇㅣ	-7632
▁ㅇㅔㄹㅣㄱ	-7633
▁ㅇㅏㅇㅣㄱㅏ	-7634
▁ㅇㅕㅇㅎㅗㄴ	-7635
▁ㅇㅣㄹㄱㅘㄴ	-7636
▁ㅎㅏㄹㅇㅣㄹ	-7637
▁ㄴㅏㄱㅏㄴㅡㄴ	-7638
▁ㅎㅏㄴㄷㅏㅁㅕㄴ	-7639
▁ㅅㅏㅇㅅㅣㄱㅈㅓㄱㅇㅡㄹㅗ	-7640
▁ㄷㅐㅍㅗ	-7641
ㅅㅜㅅㅏㅇ	-7642
ㄱㅜㄱㅇㅡㄴ	-7643
ㅎㅏㄴㄷㅏㄴ	-7644
▁ㄱㅣㅁㅈㅓㅇ	-7645
▁ㅅㅜㅈㅗㅇㅝㄴ	-7646
▁ㅈㅓㅇㅂㅜㅇㅑ	-7647
▁ㅃㅕ	-7648
ㅗㄹㅏ	-7649
▁ㅅㅏㅈㅓㄴ	-7650
▁ㅇㅣㅂㅇㅔ	-7651
▁ㅊㅜㄹㅏㄱ	-7652
▁ㅎㅕㄴㅅㅏㅇ	-7653
▁ㄱㅏㅌㅇㅏㅅㅓ	-7654
▁ㄱㅣㅁㅈㅗㅇㅁㅣㄴ	-7655
ㅇㅕㄱㅣ	-7656
ㅈㅜㄴㅔ	-7657
ㅊㅏㅇㅔ	-7658
ㅎㅏㅅㅣㄹ	-7659
▁ㅃㅏㅅㅜㄴ	-7660
▁ㅊㅜㅈㅏㅂ	-7661
ㄷㅡㄹㄱㅏㅂ	-7662
ㅅㅡㄹㅓㅇㅝ	-7663
▁ㄱㅚㅇㅈㅏㅇ	-7664
▁ㅁㅜㄹㄹㅑㅇ	-7665
▁ㅈㅏㄹㅁㅗㅅㅇㅡㄹ	-7666
▁ㄷㅐㄱㅣㅇㅓㅂㅇㅡㄴ	-7667
17	-7668
▁ㅋㅗㄹ	-7669
ㅈㅏㄹㅛ	-7670
ㅡㄱㅣㄴ	-7671
▁ㅊㅟㅅㅗ	-7672
ㅈㅐㄹㅡㄹ	-7673
▁ㄱㅡㅂㅇㅕ	-7674
▁ㅈㅣㅂㅇㅓ	-7675
▁ㅇㅏㄴㅎㅏㅁ	-7676
▁ㅎㅏㄴㅍㅜㄴ	-7677
▁ㅇㅗㄹㅡㅁㅕㄴ	-7678
▁ㅈㅏㅂㅇㅏㅅㅓ	-7679
▁ㅈㅓㅇㄱㅝㄴㅇㅣ	-7680
▁ㄷㅜㅇ	-7681
▁ㄴㅐㄴㅐ	-7682
▁ㅇㅣㅃㅓ	-7683
▁ㄷㅐㅂㅗㄴ	-7684
▁ㄷㅚㅇㅓㅆ	-7685
▁ㅌㅗㅇㄱㅖ	-7686
ㄷㅚㄴㅔㅇㅛ	-7687
▁ㅇㅢㅁㅣㄱㅏ	-7688
▁ㄴㅔㅌㅣㅈㅡㄴ	-7689
▁ㄱㅓㅁㅊㅏㄹㅇㅡㄴ	-7690
▁ㅅㅣㄹㅅㅜ	-7691
▁ㅋㅏㅌㅗㄱ	-7692
▁ㅈㅏㄹㄴㅏㄴ	-7693
▁ㄴㅐㅇㅛㅇㅇㅣ	-7694
ㅈㅗㅎㄱㅔㅆㄷㅏ	-7695
ㅎㅐㅆㄷㅏㅁㅕㄴ	-7696
ㄷㅐㅌㅗㅇㄹㅕㅇㅇㅣ	-7697
ㄷㅗㅇㅜ	-7698
ㅜㅇㅕㄱ	-7699
ㅇㅡㅇㅇㅝㄴ	-7700
▁ㅁㅗㅅㅎㅏㅁ	-7701
ㄱㅗㅅㅇㅔㅅㅓ	-7702
ㅅㅗㄱㅇㅔㅅㅓ	-7703
ㅅㅡㄹㅓㅂㄱㅗ	-7704
▁ㅇㅣㅈㅣㄱㅕㅇ	-7705
ㅎㅏㅎㅏㅎㅏㅎㅏ	-7706
ㅠㅠㅠㅠㅠㅠㅠㅠ	-7707
▁ㅅㅣㄴㄱㅕㅇㅆㅡ	-7708
▁ㄸㅡ	-7709
ㅁㅜㄹㅡㄹ	-7710
▁ㅇㅏㄱㅇㅢ	-7711
▁ㄱㅣㄷㅏㄹㅣ	-7712
▁ㅁㅕㅊㅁㅕㅊ	-7713
▁ㄷㅟㅈㅣㅂㅇㅓ	-7714
▁ㅍㅏㅇㅣㅌㅣㅇ	-7715
▁ㅇㅏㄴㄴㅏ	-7716
ㅅㅣㄴㅇㅡㄹ	-7717
ㅈㅔㄷㅐㄹㅗ	-7718
▁ㅈㅣㅅㄱㅓㄹ	-7719
▁ㅎㅏㅈㅣㅇㅏㄶ	-7720
▁ㄱㅜㄱㅁㅣㄴㅅㅔㄱㅡㅁㅇㅡㄹㅗ	-7721
ㄷㅐㄱㅣ	-7722
ㅇㅟㄱㅣ	-7723
ㅎㅘㄹㅗ	-7724
▁ㅈㅟㅇㅓ	-7725
ㄱㅣㄴㅡㅇ	-7726
▁ㄱㅣㅎㅚㅇㅔ	-7727
▁ㄲㅏㄹㄲㅡㅁ	-7728
▁ㄷㅗㅇㅇㅣㄹ	-7729
▁ㅇㅏㅇㅣㅇㅗㅇ	-7730
▁ㄷㅐㅅㄱㅡㄹㄷㅡㄹ	-7731
5%	-7732
▁ㄲㅓㅈㅕ	-7733
ㄴㅔㄷㅡㄹ	-7734
ㅁㅏㄴㅡㄴ	-7735
ㅂㅏㅇㅣㄹ	-7736
ㅎㅐㄱㅕㄹ	-7737
▁ㅁㅣㄷㅇㅓ	-7738
ㅣㅁㅣㅇㅓㅁ	-7739
▁ㅈㅓㅇㅂㅜㅇㅔ	-7740
▁ㄴㅏㅁㅗㄹㄹㅏㄹㅏ	-7741
ad	-7742
▁ㄹㅡㄹ	-7743
ㄹㅠㄹㅇㅣ	-7744
▁ㄴㅏㅂㅜㄹ	-7745
▁ㅎㅗㅌㅔㄹ	-7746
▁ㅇㅘㅇㅣㅈㅣ	-7747
▁ㅂㅏㄱㅅㅣㄴㅎㅖ	-7748
▁ㅅㅔㅅㅏㅇㅇㅡㄹ	-7749
▁ㅅㅏㅇㅛㅇㅎㅏㄴㅡㄴ	-7750
og	-7751
ㄹㅔㄱㅣ	-7752
ㅎㅏㄹㅗ	-7753
ㅓㄹㅡㄹ	-7754
▁ㅇㅢㄹㅛ	-7755
ㅎㅗㄴㅡㄴ	-7756
▁ㅇㅟㅎㅕㅂ	-7757
ㄴㅡㅇㄹㅕㄱ	-7758
ㄷㅗㄷㅐㅊㅔ	-7759
▁ㅊㅜㄱㅎㅏㄷㅡㄹㅕㅇㅛ	-7760
ㅓㅇㅛ	-7761
▁ㅅㅔㅅ	-7762
ㄷㅣㄱㅏ	-7763
ㅇㅏㅆㅇㅡㅁ	-7764
▁ㄷㅡㅇㅅㅣㄴ	-7765
▁ㄱㅡㄷㅡㄹㅇㅣ	-7766
▁ㅇㅓㅍ	-7767
ㅆㅓㄹㅏ	-7768
ㅈㅜㄹㅏ	-7769
▁ㅅㅜㅊㅣ	-7770
▁ㅎㅐㅂㅘ	-7771
▁ㄴㅓㅁㄴㅏ	-7772
▁ㅍㅣㅃㅏㄹ	-7773
▁ㅅㅣㄹㅈㅣㄹ	-7774
▁ㅇㅣㅎㅜㄹㅗ	-7775
▁ㅁㅏㄹㅎㅏㅁㅕㄴ	-7776
▁ㅇㅠㅇㅣㄹㅎㅏㄴ	-7777
ㅈㅏㄷㅡㄹㅇㅔㄱㅔ	-7778
ㅓㅂㅈㅏ	-7779
ㅇㅓㄴㄴㅣ	-7780
ㅉㅏㅈㅡㅇ	-7781
▁ㄴㅡㄹㅇㅓ	-7782
▁ㅂㅘㅇㅑㅈㅣ	-7783
▁ㅅㅏㅎㅚㄱㅏ	-7784
▁ㅇㅏㄴㅂㅗㄱㅗ	-7785
▁ㅇㅣㅈㅐㅁㅕㅇ	-7786
▁ㅃㅓㄴㅃㅓㄴㅎㅏㄴ	-7787
▁ㅌㅣㅂ	-7788
ㄹㅏㅇㅑ	-7789
ㅁㅏㅈㅓ	-7790
▁ㅍㅏㅈㅜ	-7791
ㅅㅗㅇㅕㄴ	-7792
▁ㅂㅏㅅㄷㅔ	-7793
▁ㅇㅜㅅㄱㅕ	-7794
ㅇㅣㅂㄴㅣㄲㅏ	-7795
ch	-7796
ㅡㅇㅢ	-7797
ㅅㅗㄴㅕㄴ	-7798
ㅈㅓㄴㅈㅐㅇ	-7799
▁ㅇㅓㅉㅓ	-7800
ㄱㅣㄷㅏㄹ	-7801
ㄷㅚㄴㄱㅓ	-7802
ㅅㅜㅅㅜㄹ	-7803
ㅇㅣㄴㅏㄹ	-7804
▁ㅁㅗㄹㄹㅐ	-7805
ㅇㅣㄴㅅㅣㄱ	-7806
ㅈㅜㄴㅡㄴㄷㅔ	-7807
▁ㄱㅜㄱㄱㅏㅇㅔ	-7808
ㅎㅏㄱㅔㅆㅅㅡㅂㄴㅣㄷㅏ	-7809
ㅈㅏㄲㅜ	-7810
ㄷㅐㅅㅓㄴ	-7811
ㅅㅣㅅㅓㄹ	-7812
▁ㄱㅗㅈㅣㅂ	-7813
▁ㄷㅚㄹㄲㅏ	-7814
▁ㅌㅗㅇㅎㅘ	-7815
ㅎㅏㄱㅔㅆㄴㅑ	-7816
▁ㅇㅏㄴㅣㅂㄴㅣㄲㅏ	-7817
▁ㅈㅓㅅㅗㄷㅡㄱㅊㅡㅇ	-7818
ㅅㅡㅋ	-7819
▁ㅆㅓㄴ	-7820
ㅍㅏㅇㅣ	-7821
ㅅㅗㄴㅡㄴ	-7822
▁ㄷㅡㄷㄴㅡㄴ	-7823
▁ㅊㅣㄹㅍㅜㄴ	-7824
ㅎㅏㄱㅗㅅㅣㅍ	-7825
ㄱㅏㅌㅇㅡㄴㄱㅓ	-7826
▁ㅅㅣㅍㅇㅡㄴㄷㅔ	-7827
▁ㅇㅓㄴㄹㅗㄴㅇㅔ	-7828
▁ㅇㅣㄹㅂㅗㄴㅇㅔ	-7829
▁ㅅㅗㅇㅛㅇ	-7830
▁ㄷㅗㅈㅓㅎㅣ	-7831
▁ㅌㅏㄹㅌㅏㄹ	-7832
ㅇㅣㄴㄱㅓㅈㅣ	-7833
ㅎㅏㄷㅓㄴㄱㅏ	-7834
▁ㄱㅗㅇㅅㅏㄴㄷㅏㅇ	-7835
▁ㅎㅕㄴㅅㅣㄹㅇㅡㄹ	-7836
▁ㅅㅜㅈㅏㄱ	-7837
▁ㅈㅣㄱㅏㅂ	-7838
▁ㅅㅣㅀㅇㅡㄴ	-7839
▁ㅇㅕㄱㅣㅇㅔ	-7840
▁ㅌㅡㄱㅈㅓㅇ	-7841
▁ㅈㅣㅅㄱㅓㄹㅣ	-7842
▁ㅇㅘㄹ	-7843
▁ㄱㅐㅁㅣ	-7844
ㅅㅡㅋㅡㄹ	-7845
ㅈㅓㅁㅇㅔ	-7846
▁ㅈㅗㅎㅏㅂ	-7847
▁ㅌㅡㄹㅇㅓ	-7848
▁ㄱㅜㄱㅈㅓㄱ	-7849
▁ㅇㅓㅄㅇㅓㅆ	-7850
▁ㄷㅡㄹㅓㅂㄱㅔ	-7851
▁ㅈㅓㄴㅂㅜㄷㅏ	-7852
▁ㅇㅣㅆㄷㅗㄹㅗㄱ	-7853
▁ㅂㅏㄱㄱㅡㄴㅎㅖㅇㅘ	-7854
ㅂㅏㄷㅏ	-7855
▁ㄱㅟㅇㅕ	-7856
ㄱㅏㅄㄷㅗ	-7857
ㅇㅢㅅㅣㄱ	-7858
▁ㅃㅓㄴㅎㅣ	-7859
▁ㅍㅏㅁㅕㄴ	-7860
ㅇㅣㄴㄱㅏㄴㄷㅡㄹ	-7861
▁ㅅㅣㅁㄱㅏㄱㅎㅏㄴ	-7862
ㄲㅗㅊ	-7863
▁ㅅㅏㄱㅈㅔ	-7864
ㅅㅣㄴㅎㅕㅇ	-7865
ㅂㅗㄴㅡㄴㄷㅔ	-7866
▁ㅁㅗㄹㄹㅏㅅㅓ	-7867
▁ㄷㅏㅇㅅㅣㄴㄷㅡㄹ	-7868
▁ㅇㅣㅂㅓㄴㅇㅔㄷㅗ	-7869
▁ㄱㅔㄹ	-7870
▁ㄴㅓㄱ	-7871
ㅅㅓㅇㅢ	-7872
▁ㅁㅏㄱㅜ	-7873
▁ㅅㅓㅅㅓ	-7874
▁ㅇㅣㄷㅐ	-7875
ㄴㅕㄴㄷㅡㄹ	-7876
ㅇㅝㄴㅇㅡㄹ	-7877
▁ㄲㅗㄹㅌㅗㅇ	-7878
▁ㅁㅏㄹㅇㅏㅇㅑ	-7879
ㄱㅓㅅㄷㅡㄹㅇㅏ	-7880
▁ㅇㅓㅄㅇㅓㅈㅕㅇㅑ	-7881
ㅂㅗㅎ	-7882
▁ㅇㅗㄴㅓ	-7883
ㅇㅏㅇㅗㄴ	-7884
▁ㅂㅜㄹㄱㅏ	-7885
▁ㅅㅡㅌㅗㄹ	-7886
▁ㅎㅏㄴㄱㅖ	-7887
▁ㅇㅓㅂㄱㅡㄹ	-7888
▁ㅈㅏㅇㅇㅏㄱ	-7889
▁vs	-7890
ㅅㅓㅅㅓ	-7891
▁ㅇㅕㅇㅠ	-7892
ㄹㅕㅆㄷㅏ	-7893
ㅏㅇㅑㅈㅣ	-7894
▁ㄱㅏㄱㅘㄴ	-7895
▁ㅎㅐㅆㄴㅏ	-7896
▁ㅂㅏㅇㅎㅑㅇ	-7897
▁ㅇㅣㅃㅡㄱㅗ	-7898
ㅎㅐㅈㅣㄴㅡㄴ	-7899
▁ㄱㅏㄲㅏㅇㅜㄴ	-7900
▁ㅈㅜㅂㅕㄴㅇㅔ	-7901
▁ㄱㅔㅇㅣㅁㅇㅡㄹ	-7902
...........	-7903
▁ㅋㅋㅋㅋㅋㅋㅋㅋㅋㅋㅋ	-7904
▁3.	-7905
▁ㅇㅣㅃㅡㄷㅏ	-7906
▁ㅎㅘㅅㅌㅣㅇ	-7907
ㅈㅜㄴㅡㄴㄱㅔ	-7908
ㅋㅣㅁ	-7909
ㄷㅚㄷㅗ	-7910
▁ㄱㅐㄷㅙ	-7911
▁ㄷㅡㄹㅗㄴ	-7912
ㅈㅓㄱㅇㅛㅇ	-7913
▁ㅇㅕㄹㅍㅗㄱ	-7914
▁ㅎㅗㄱㅇㅡㄴ	-7915
▁ㄱㅡㄷㅗㄴㅇㅡㄹㅗ	-7916
ㅜㅜㅜ	-7917
ㅃㅡㄱㅗ	-7918
ㅛㅇㅠㄱ	-7919
▁ㅈㅜㄱㅏ	-7920
ㄱㅗㅁㅏㄴ	-7921
ㅊㅜㅎㅐㅇ	-7922
ㄱㅣㅇㅟㅎㅐ	-7923
▁ㅇㅣㄹㅉㅣㄱ	-7924
▁ㅎㅐㅆㅇㅡㅁ	-7925
▁ㄲㅗㄹㅂㅗㄱㅣ	-7926
ㅈㅕㅇㅛ	-7927
ㅓㅎㄱㅗ	-7928
ㅜㅅㅏㄹ	-7929
ㄷㅚㄱㅣㄹ	-7930
▁ㄱㅐㅁㅏㅇ	-7931
▁ㅅㅏㄹㅅㅜ	-7932
▁ㅅㅗㅅㅣㄱ	-7933
▁ㅈㅣㅅㅗㄱ	-7934
ㄱㅗㅇㅈㅏㅇ	-7935
ㅈㅣㄹㅇㅡㄴ	-7936
▁ㄱㅗㅇㅈㅣㄱ	-7937
ㅈㅗㅁㅎㅐㄹㅏ	-7938
▁ㅂㅔㅌㅡㄴㅏㅁ	-7939
ㄷㅚㄴㄷㅏㄴㅡㄴ	-7940
▁ㅈㅗㅎㅇㅡㄴㄱㅓ	-7941
ㅍㅗㅁ	-7942
▁ㄱㅔㅁ	-7943
▁ㅂㅓㄹㅣ	-7944
▁ㅆㅡㄹㅔ	-7945
▁ㅎㅐㅍㅣ	-7946
▁ㄱㅣㅅㅏㅇ	-7947
▁ㅎㅏㄱㅔㅆ	-7948
▁ㄱㅗㅇㅈㅓㄱ	-7949
ㅂㅗㅇㅣㄴㅡㄴ	-7950
ㅎㅏㄷㅓㅁㅏㄴ	-7951
▁ㄴㅏㄹㅏㅁㅏㅇ	-7952
▁ㅁㅏㅇㅡㅁㅇㅔ	-7953
▁ㅁㅜㅎㅕㅁㅇㅢ	-7954
▁ㄷㅏㄺㄱㅡㄴㅎㅖ	-7955
▁ㅈㅜㅇㄱㅜㄱㄱㅘ	-7956
▁ㅇㅏㄴㅣㅈㅏㄶㅇㅏ	-7957
ㅁㅜㄷㅗ	-7958
ㅅㅜㄴㅇㅟ	-7959
ㅎㅣㅁㄴㅐ	-7960
▁ㄷㅏㅅㅣㄴ	-7961
▁ㅇㅓㅂㄷㅔ	-7962
▁ㄱㅓㅅㅁㅏㄴ	-7963
▁ㅎㅕㄴㄱㅣㅊㅏ	-7964
▁ㄱㅏㄱㅖㅂㅜㅊㅐ	-7965
▁ㅈㅜㅇㄱㅏㄴㅇㅔ	-7966
ㅎㅏㄹㅅㅜㅇㅣㅆㄴㅡㄴ	-7967
PC	-7968
ㅀㄱㅗ	-7969
ㅗㅅㅔ	-7970
ㅏㅇㅏㄴ	-7971
▁ㄱㅗㅈㅣ	-7972
▁ㄱㅣㅌㅏ	-7973
▁ㅈㅝㄹㅏ	-7974
ㅡㄹㄹㅓㅂ	-7975
▁ㅂㅜㅊㅜㄱ	-7976
▁ㅇㅒㄴㅡㄴ	-7977
▁ㅁㅏㄴㄴㅏㄹ	-7978
▁ㄱㅗㅇㅁㅐㄷㅗ	-7979
▁ㅍㅣㄹㅇㅛㅇㅓㅄㄷㅏ	-7980
▁lg	-7981
ㄲㅏㄱ	-7982
ㅅㄴㅑ	-7983
▁ㅅㅡㅍㅔㄱ	-7984
▁ㄴㅏㅇㅘㄷㅗ	-7985
▁ㄷㅏㅂㅂㅕㄴ	-7986
ㅅㅣㄱㅏㄴㅇㅣ	-7987
▁ㅅㅣㅍㅇㅓㅅㅓ	-7988
▁ㅎㅟㅂㅏㄹㅇㅠ	-7989
▁ㅈㅗㅎㄱㅔㅆㄴㅔ	-7990
ㅌㅜㄱ	-7991
▁ㅎㅓㄱㅜ	-7992
ㅈㅣㄱㅏㄴ	-7993
▁ㄷㅏㅇㅅㅏ	-7994
▁ㅅㅣㄴㅏㄹ	-7995
▁ㅇㅣㅅㅓㅇ	-7996
▁ㅈㅜㄹㅇㅕ	-7997
▁ㅇㅣㄷㅐㄹㅗ	-7998
▁ㅇㅜㅅㄱㅣㄴㅔ	-7999
▁ㅇㅏㄴㄷㅡㄹㅗㅇㅣ	-8000
▁ㅎㅓㅁ	-8001
ㅆㅓㅅㅓ	-8002
▁ㅇㅓㅅㅓ	-8003
▁ㅇㅓㅉㅓㅁ	-8004
ㄷㅡㄹㅇㅣㄱㅗ	-8005
ㅈㅓㄱㅇㅣㅈㅣ	-8006
▁ㄱㅐㄱㅡㅁㅐㄴ	-8007
▁ㅎㅏㄴㅂㅏㅇㅇㅔ	-8008
▁ㅇㅏㅇㅣㅍㅗㄴㅇㅡㄴ	-8009
▁ㅁㅗㅇㅏ	-8010
ㅎㅏㄴㅡㄹㅏ	-8011
ㅕㅆㄱㅜㄴㅏ	-8012
ㅆㅡㄴㅡㄴㄷㅔ	-8013
▁ㄱㅡㄱㅓㄹㄹㅗ	-8014
▁ㄴㅡㄲㅣㄴㅡㄴ	-8015
▁ㄷㅏㄹㅡㄴㄷㅔ	-8016
ㅇㅕㅆㄴㅡㄴㄷㅔ	-8017
▁ㅇㅏㄴㄱㅏㄴㄷㅏ	-8018
▁ㅈㅣㄴㅈㅏㄱㅇㅔ	-8019
ㅏㄴㅎㅣ	-8020
ㄱㅏㅇㅣㅂ	-8021
ㅊㅏㅇㅝㄴ	-8022
ㅊㅔㄹㅡㄹ	-8023
ㅎㅣㅁㅕㄴ	-8024
▁ㄱㅗㅇㅉㅏ	-8025
▁ㅂㅐㅇㅜㄹ	-8026
▁ㅃㅓㄴㅎㅏㄴ	-8027
ㅇㅓㅄㅇㅡㄴㅣ	-8028
▁ㅇㅣㄹㅓㄴㄱㅣㅅㅏ	-8029
▁ㄲㅓㅁ	-8030
ㅅㅓㄴㄱㅓ	-8031
ㅈㅔㅁㅗㄱ	-8032
ㄱㅕㅇㄹㅕㄴ	-8033
ㅇㅓㄱㅏㄱㅗ	-8034
▁ㅇㅣㅁㄷㅐㄹㅛ	-8035
▁ㄷㅐㅂㅜㅂㅜㄴㅇㅣ	-8036
▁ㅉㅏㅈㅡㅇㄴㅏㄴㄷㅏ	-8037
ㄱㅐㄹ	-8038
ㅎㅠㅇ	-8039
ㅐㅇㅇㅣ	-8040
▁ㅎㅓㄹㅣ	-8041
ㅇㅣㄴㅈㅓㅇ	-8042
▁ㄸㅗㄹㅏㅇㅣ	-8043
▁ㅅㅗㄴㅇㅡㄹ	-8044
ㅡㄴㅣ	-8045
▁ㅍㅗㅁ	-8046
▁ㅍㅜㄱ	-8047
ㅈㅘㅍㅏ	-8048
ㄴㅗㄹㅇㅣ	-8049
ㅅㅣㄱㅇㅢ	-8050
▁ㄱㅏㅌㄴㅑ	-8051
▁ㄱㅓㅁㅇㅡㄴ	-8052
▁ㄴㅣㄴㅔㄱㅏ	-8053
▁ㄴㅗㅌㅡㅂㅜㄱ	-8054
▁ㅎㅔㄹㅈㅗㅅㅔㄴ	-8055
▁ㄱㅝㄴㄹㅕㄱㅇㅡㄹ	-8056
▁ㄱㅙ	-8057
ㅈㅓㅅ	-8058
ㅏㅇㅇㅣ	-8059
ㅓㄴㄷㅏ	-8060
▁ㅊㅕㄷㅏ	-8061
ㄷㅗㄹㅇㅣ	-8062
ㅂㅗㅇㅣㅁ	-8063
ㅂㅣㅇㅠㄹ	-8064
ㅎㅣㄴㄷㅏ	-8065
▁ㄸㅏㄱㅎㅣ	-8066
▁ㅇㅜㅅㄱㅗ	-8067
▁ㄸㅡㄴㄱㅡㅁ	-8068
▁ㄱㅡㅈㅓㅇㄷㅗ	-8069
▁ㅁㅗㅅㅎㅐㅅㅓ	-8070
▁ㅂㅏㄷㅇㅏㄹㅏ	-8071
~4	-8072
▁ㅍㅕㄹ	-8073
ㅅㅡㄷㅗ	-8074
ㅎㅐㅇㅚ	-8075
ㅕㅆㅇㅡㄹ	-8076
▁ㅅㅓㅁㅣㄴㅇㅣ	-8077
▁ㅇㅓㅄㄱㅜㄴㅏ	-8078
▁ㅈㅓㄹㅓㄴㄱㅓ	-8079
▁ㅁㅔㅁ	-8080
▁ㅅㅔㄹ	-8081
▁ㅂㅜㄹㄹ	-8082
ㅇㅓㅄㄱㅔ	-8083
ㅜㅁㅇㅡㄹ	-8084
▁ㅎㅏㅅㅣㄴ	-8085
ㅇㅣㄴㄷㅏㅇ	-8086
▁ㅇㅏㄴㄴㅏㅁ	-8087
▁ㅇㅣㄹㅓㄱㅗ	-8088
▁ㅈㅏㄱㅣㄴㅔ	-8089
▁ㅇㅛㄱㅡㅁㅈㅔ	-8090
▁ㅈㅓㄴㅈㅣㅎㅕㄴ	-8091
ㅏㅂ	-8092
▁ㄲㅗㅈ	-8093
▁ㄷㅗㅅㅣ	-8094
▁ㅇㅖㅇㅢ	-8095
▁ㅇㅛㄹㅣ	-8096
ㅈㅜㅇㅇㅛ	-8097
▁ㄱㅘㄴㅈㅔ	-8098
▁ㅅㅗㄴㅇㅔ	-8099
▁ㄷㅗㄱㅈㅓㅁ	-8100
ㅎㅏㄹㅅㅜㄷㅗ	-8101
▁ㅇㅜㄹㄴㅏㄹㅏ	-8102
▁ㅈㅗㅎㄱㅔㅆㅅㅡㅂㄴㅣㄷㅏ	-8103
ㄱㅑㅇ	-8104
ㅉㅣㄹ	-8105
▁ㅌㅓㄱ	-8106
ㅎㅏㅇㅢ	-8107
▁ㄷㅐㅅㅔ	-8108
▁ㅋㅡㄷㅏ	-8109
ㅈㅓㅇㅇㅠ	-8110
▁ㄴㅡㅈㄱㅔ	-8111
ㅂㅜㄴㅇㅡㄹ	-8112
▁ㅇㅛㄱㅎㅏㄹ	-8113
▁ㅇㅣㅆㄱㅣㄴ	-8114
▁ㅁㅏㅇㅎㅐㅇㅑ	-8115
ㅈㅜㅈㅏ	-8116
ㅎㅏㄴㅗ	-8117
▁ㅂㅜㄴㅇㅣ	-8118
ㅇㅓㅁㅊㅓㅇ	-8119
▁ㄷㅏㅇㅇㅣㄹ	-8120
▁ㅈㅏㄱㅇㅓㅂ	-8121
▁ㅎㅐㅈㅜㄱㅗ	-8122
ㅓㅂㅈㅏㄷㅡㄱ	-8123
▁ㄱㅣㅅㅜㄹㅇㅣ	-8124
▁ㅁㅏㅇㅎㅐㄷㅗ	-8125
▁ㅂㅗㄷㅏㄴㅡㄴ	-8126
▁ㅇㅣㄴㅗㅁㅇㅢ	-8127
▁ㄷㅏㄺㄷㅐㄱㅏㄹ	-8128
ㅅㅓㅇㄱㅗㅇㄷㅏㄴ	-8129
▁ㅇㅓㄴㄹㅗㄴㅇㅡㄴ	-8130
al	-8131
▁ㅅㅚ	-8132
ㅇㅡㄹㅕ	-8133
ㅈㅚㄱㅏ	-8134
▁ㅅㅏㄴㅑ	-8135
▁ㅇㅏㄱㅣ	-8136
ㄱㅝㄴㅇㅣ	-8137
▁ㄱㅏㅊㅣㄱㅏ	-8138
▁ㄱㅔㅅㅡㅌㅡ	-8139
▁ㅅㅏㅇㅣㅂㅣ	-8140
ㅁㅗㄹㅡㄴㅡㄴ	-8141
ㅎㅐㅆㄷㅏㄱㅏ	-8142
▁ㅁㅜㄴㅈㅔㄹㅡㄹ	-8143
▁ㅂㅜㄱㅎㅏㄴㅇㅔ	-8144
▁ㅎㅏㄹㅅㅜㅇㅣㅆ	-8145
▁ㄱㅕㅇㅈㅐㅇㄹㅕㄱ	-8146
3.	-8147
ㄷㅝ	-8148
ㅑㄴ	-8149
▁30%	-8150
▁ㄴㅛㄴ	-8151
▁ㅇㅏㅇㅜ	-8152
ㅂㅏㅇㅇㅔㅅㅓ	-8153
▁ㅁㅏㄹㅇㅏㄹㅏ	-8154
▁ㅅㅡㅌㅏㅇㅣㄹ	-8155
▁ㅇㅓㅄㅇㅐㅇㅑ	-8156
▁ㅌㅓㅈㅣㄴㅡㄴ	-8157
▁ㅁㅔㅁㅂㅓㄷㅡㄹ	-8158
▁ㅂㅏㄱㅇㅕㅇㅅㅜ	-8159
▁ㅂㅜㄱㅎㅏㄴㅇㅣ	-8160
▁ㅈㅏㄱㄱㅏㄴㅣㅁ	-8161
ㅁㅛ	-8162
ㅏㅁㅣ	-8163
▁ㅎㅎㅎㅎ	-8164
ㅇㅏㄴㅣㄹ	-8165
ㅗㄹㄹㅏㅇ	-8166
▁ㅁㅗㅁㅁㅐ	-8167
ㅈㅜㅇㅅㅣㅁ	-8168
▁ㅂㅣㅆㅏㄷㅏ	-8169
▁ㅇㅓㅁㅁㅏㄱㅏ	-8170
▁ㅁㅜㅇㅓㅅㅇㅡㄹ	-8171
▁ㅅㅏㄹㄹㅣ	-8172
▁ㅁㅕㅊㄷㅏㄹ	-8173
▁ㄴㅓㅎㅢㄷㅡㄹ	-8174
▁ㅎㅏㄱㅗㅅㅣㅍ	-8175
▁ㅎㅗㄷㅡㄹㄱㅏㅂ	-8176
▁ㅎㅏㅊㅓㅇㅇㅓㅂㅊㅔ	-8177
ㄷㅐㄴ	-8178
▁2~3	-8179
▁ㄲㅐㅇ	-8180
▁ㅂㅣㅇㅘ	-8181
ㄱㅏㄷㅡㄹ	-8182
ㅎㅖㅌㅐㄱ	-8183
▁ㅇㅐㄹㅡㄹ	-8184
▁ㅊㅜㄱㅕㅇ	-8185
ㅇㅏㅁㅜㄹㅣ	-8186
▁ㅁㅗㅈㅏㄹㅏ	-8187
▁ㅁㅏㄶㅇㅡㄴㅣ	-8188
▁ㄷㅐㄱㅜㄱㅁㅣㄴ	-8189
▁ㅇㅣㄹㅂㅗㄴㅇㅢ	-8190
▁ㅈㅓㅇㅊㅣㅈㅓㄱ	-8191
▁ㅅㅏㄹㅏㅁㄷㅡㄹㅇㅡㄹ	-8192
ㅎㅗㅎ	-8193
ㅇㅔㅎㅠ	-8194
▁ㄲㅗㄹㅏ	-8195
▁ㅅㅣㄹㅣ	-8196
ㄱㅡㅁㅇㅣ	-8197
▁ㄱㅏㅁㅎㅣ	-8198
▁ㅇㅏㄴㄴㅕㅇ	-8199
▁ㅇㅓㅇㄸㅜㅇ	-8200
▁ㅎㅡㅂㅇㅕㄴ	-8201
ㄴㅏㅇㅗㅁㅕㄴ	-8202
ㅇㅏㄴㄷㅚㄴㅡㄴ	-8203
▁ㅎㅏㄹㅜㅃㅏㄹㄹㅣ	-8204
▁ㄸㅐㄴ	-8205
▁ㅌㅣㅇ	-8206
ㅂㅗㄴㅑ	-8207
▁ㅇㅔㅎㅛ	-8208
▁ㅌㅓㅌㅡㄹ	-8209
▁ㄴㅜㄴㅁㅓㄴ	-8210
▁ㅇㅓㄹㅁㅏㅇ	-8211
▁ㅎㅏㄴㄱㅓㄴ	-8212
ㄷㅡㄹㅇㅣㅈㅣ	-8213
▁ㅁㅏㄴㄴㅏㅅㅓ	-8214
▁ㅎㅣㅁㄷㅡㄴㄷㅔ	-8215
▁ㅅㅓㅇㄱㅘㅇㅕㄴㅂㅗㅇ	-8216
ㅂㅕ	-8217
ㄱㅡㅅ	-8218
ㅇㅔㄱ	-8219
ㄺㅇㅡㄴ	-8220
ㅁㅏㅈㄱㅗ	-8221
ㅂㅜㅌㅓㄱㅏ	-8222
ㅈㅓㅇㅇㅡㄹㅗ	-8223
ㅂㅏㄷㅇㅡㅁㅕㄴ	-8224
▁ㄲㅐㄲㅡㅅㅎㅏㄴ	-8225
▁ㅂㅏㅂㄱㅡㄹㅡㅅ	-8226
▁ㅇㅣㄴㅏㄹㅏㄱㅏ	-8227
ㅜㅌㅓ	-8228
▁ㅅㅏㅂ	-8229
▁ㅇㅑㄱㅡㄴ	-8230
▁ㅇㅣㄴㅓㅁ	-8231
▁ㅌㅏㅇㅣㅁ	-8232
ㄷㅏㅇㅅㅣㄴ	-8233
▁ㄴㅏㄱㅎㅏㅅㅏㄴ	-8234
▁ㅇㅓㅄㄷㅓㄴ	-8235
ㅊㅕㅁㅓㄱㄴㅡㄴ	-8236
ㅡㅡㅡㅡㅡㅡㅡㅡ	-8237
▁ㄱㅘㅇㅇㅜㅂㅕㅇ	-8238
▁ㄷㅐㅅㄱㅡㄹㅇㅔ	-8239
▁ㄷㅗㅇㄴㅏㅁㅇㅏ	-8240
▁ㅅㅏㄹㅏㅁㅁㅏㄴ	-8241
ㄴㅜㄹ	-8242
ㅜㅁㅏ	-8243
ㅇㅚㄱㅜㄱ	-8244
▁ㅁㅣㄱㅜㄴ	-8245
▁ㅃㅐㅇㅏㅅ	-8246
ㄷㅏㄹㅏㄱㅗ	-8247
ㄷㅗㅎㅏㄱㅗ	-8248
ㅆㅇㅡㄹㄸㅐ	-8249
▁ㄱㅣㅁㅎㅕㄴ	-8250
▁ㅅㅏㄻㅇㅡㄹ	-8251
▁ㅅㅓㄴㅅㅐㅇ	-8252
▁ㄷㅡㄹㅇㅓㅅㅓ	-8253
▁ㅆㅓㄱㅇㅓㅃㅏㅈㅣㄴ	-8254
ㅌㅓㄱ	-8255
ㅏㅍㅏ	-8256
▁ㄱㅏㅈㅕㄱ	-8257
▁ㅇㅖㅇㅑㄱ	-8258
▁ㅈㅣㅈㅓㄱ	-8259
▁ㅌㅏㄹㅌㅚ	-8260
▁ㅂㅏㄲㅜㄱㅗ	-8261
▁ㅇㅣㅂㅇㅡㄹ	-8262
ㅅㅓㅇㅇㅡㄹㅗ	-8263
ㅇㅛㅇㅇㅡㄹㅗ	-8264
▁ㅇㅣㅆㄱㅜㄴㅏ	-8265
▁ㄱㅐㄷㅙㅈㅣㄷㅡㄹ	-8266
▁h	-8267
ㄲㅗㄹㅣ	-8268
ㅇㅝㅅㅓ	-8269
ㅍㅏㄹㄱㅗ	-8270
▁ㅇㅏㄴㅌㅣ	-8271
ㅈㅣㄴㅅㅣㄹ	-8272
▁ㅇㅓㄷㅣㅇㅔ	-8273
▁ㅈㅣㅇㄱㅡㄹ	-8274
ㄱㅔㅆㅈㅣㅇㅛ	-8275
▁ㅇㅣㅆㄴㅔㅇㅛ	-8276
▁ㅍㅣㄹㄹㅣㅍㅣㄴ	-8277
▁ㅎㅏㄴㄷㅜㅂㅓㄴ	-8278
▁ㅎㅏㄴㅡㄹㅇㅡㄹ	-8279
▁ㅇㅗㄱㅅㅣㅂㅜㄹㅁㅐ	-8280
▁ㅈㅗㅎㅇㅏㅆㄴㅡㄴㄷㅔ	-8281
ㅅㅔㅇㅔ	-8282
ㅗㅁㅏㄱ	-8283
▁ㄴㅓㅇㅢ	-8284
ㅌㅐㅇㅇㅣ	-8285
ㄱㅕㅇㅊㅏㄹ	-8286
ㄷㅏㅇㅈㅏㅇ	-8287
▁ㅇㅓㅄㅇㅓㅆㄷㅏ	-8288
▁ㅇㅣㄹㅈㅜㅇㅣㄹ	-8289
▁ㅈㅏㅈㅗㄴㅅㅣㅁ	-8290
▁ㅈㅜㅇㄱㅜㄱㅇㅡㄹ	-8291
▁ㄷㅐㄱㅣㅇㅓㅂㄷㅡㄹ	-8292
▁ㅅㅐㅇㄱㅏㄱㄴㅏㄴㅔ	-8293
ㅕㅇㅎㅘ	-8294
ㅇㅓㄸㅓㄴ	-8295
▁ㅁㅓㄹㅇㅓ	-8296
▁ㅈㅏㄹㄷㅗ	-8297
ㄹㅣㄴㅡㄴㄱㅓ	-8298
▁ㅈㅣㄴㅉㅏㄹㅗ	-8299
▁ㅈㅓㅇㅎㅘㄱㅎㅣ	-8300
ㅈㅏㄷㅏ	-8301
▁ㅎㅐㅆㄴㅔ	-8302
ㅅㅏㄴㅇㅡㄹ	-8303
▁ㅇㅕㄴㅅㅡㅂ	-8304
▁ㅎㅘㄱㅈㅓㅇ	-8305
▁ㄲㅡㅌㄴㅏㄱㅗ	-8306
▁ㄴㅐㄴㅕㄴㅇㅔ	-8307
▁ㅇㅏㄴㅣㄹㅏㄴㅡㄴ	-8308
!?	-8309
ㄹㅐㅇ	-8310
ㅉㅏㄴ	-8311
ㅕㅆㄴㅑ	-8312
ㅈㅜㅂㅕㄴ	-8313
▁ㅈㅣㅁㅅㅡㅇ	-8314
ㄴㅏㄴㅡㄴㄷㅔ	-8315
▁ㅈㅓㅇㅂㅜㄹㅡㄹ	-8316
ㄱㅓㅇㅏㄴㅣㄴㄱㅏ	-8317
▁ㅂㅜㄴㄷㅡㄹㅇㅡㄴ	-8318
▁ㄴㅏㅇㅢ	-8319
▁ㄷㅚㅅㅓ	-8320
▁ㄱㅜㄱㅕㅇ	-8321
▁ㄷㅓㅂㅡㄹ	-8322
▁ㅇㅚㅁㅕㄴ	-8323
▁ㅇㅢㅈㅗㄴ	-8324
▁ㅌㅚㄱㅡㄴ	-8325
▁ㅅㅣㄹㅎㅓㅁ	-8326
ㄱㅔㅆㄴㅡㄴㄱㅏ	-8327
ㅇㅏㄴㅎㅏㅁㅕㄴ	-8328
▁ㅂㅏㄱㅇㅝㄴㅅㅜㄴ	-8329
▁ㅇㅏㅂㅅㅜㅅㅜㅅㅐㄱ	-8330
1.	-8331
▁ㄹㅗㄸㅗ	-8332
ㅂㅗㅅㅏㅇ	-8333
▁ㄱㅣㅈㅏㅇ	-8334
▁ㄴㅓㅎㄱㅗ	-8335
▁ㅈㅚㅇㅣㄴ	-8336
ㄷㅡㅇㅇㅡㄹ	-8337
ㅎㅐㅈㅝㅇㅑ	-8338
▁ㅅㅐㅇㄱㅣㄹ	-8339
▁ㅇㅏㄹㅇㅏㄹㅏ	-8340
ㄱㅡㄷㅗㅇㅇㅏㄴ	-8341
▁ㅂㅜㄹㄱㅜㅎㅏㄱㅗ	-8342
ㄷㅏㄴㅔ	-8343
ㅅㅔㄱㅣ	-8344
▁ㅇㅓㄸㅐ	-8345
ㅇㅗㄹㄹㅏ	-8346
ㅊㅓㄹㅇㅣ	-8347
▁ㅅㅣㅂㅏㄹ	-8348
▁ㅈㅏㅅㅜㄱ	-8349
▁ㄷㅡㄹㅇㅡㄹ	-8350
▁ㅈㅏㅊㅔㄹㅡㄹ	-8351
▁ㄴㅗㅅㅡㅇㅇㅣㄹ	-8352
▁ㅃㅣ	-8353
ㅜㅈㅣㄴ	-8354
▁ㅈㅜㅈㅣ	-8355
▁ㄷㅏㅈㅜㄱ	-8356
▁ㅁㅣㅇㅛㅇ	-8357
▁ㅅㅗㅁㅜㄴ	-8358
ㅍㅕㅇㅅㅐㅇ	-8359
▁ㄷㅏㄴㄷㅗㄱ	-8360
▁ㄷㅡㄹㅇㅓㅂ	-8361
▁ㅂㅏㄱㅅㅏㄹ	-8362
▁ㅋㅓㄴㅅㅔㅂ	-8363
▁ㅇㅑㄷㅏㅇㅇㅣ	-8364
▁ㅇㅕㅈㅏㄹㅡㄹ	-8365
▁ㄷㅗㄴㅁㅏㄶㅇㅡㄴ	-8366
▁ㅌㅏㄴㅎㅐㄱㅇㅡㄴ	-8367
ㅕㄱㅏ	-8368
ㅊㅏㄹㅗ	-8369
ㄱㅓㅅㄴㅔ	-8370
ㅁㅜㄹㄱㅗ	-8371
▁ㄱㅏㅁㅅㅣ	-8372
▁ㄷㅏㄱㅌㅓ	-8373
▁ㅅㅏㅇㅊㅓ	-8374
▁ㄱㅏㅇㅎㅏㄴ	-8375
▁ㅅㅓㅇㅇㅣㄴ	-8376
▁ㅅㅡㅍㅗㅊㅡ	-8377
▁ㅁㅏㄹㅇㅣㅈㅣ	-8378
▁ㅅㅗㄹㅣㅎㅏㄱㅗ	-8379
▁ㅈㅡㅇㄱㅓㄹㅡㄹ	-8380
▁ㅎㅏㄴㅂㅏㄴㄷㅗ	-8381
▁ㅎㅘㄱㅅㅣㄹㅎㅏㄴ	-8382
▁ㄱㅕㅁ	-8383
ㅇㅣㅇㅛ	-8384
▁ㄱㅏㅉㅏ	-8385
ㅎㅏㄹㅈㅜㄹ	-8386
▁ㅇㅣㄹㅁㅏㄴ	-8387
▁ㅈㅜㅇㅇㅏㅇ	-8388
▁ㅌㅡㄹㄹㅣㄴ	-8389
ㄱㅓㅅㅂㅗㄷㅏ	-8390
▁ㅁㅗㅅㅅㅏㄴㅡㄴ	-8391
▁ㅇㅏㄹㅂㅏㄷㅡㄹ	-8392
▁ㅇㅚㄱㅜㄱㅇㅔㅅㅓ	-8393
ㅇㅓㅇㅣ	-8394
▁ㄷㅐㄱㅣ	-8395
ㄱㅏㅁㅅㅏ	-8396
ㅇㅏㄹㅇㅏ	-8397
▁ㅇㅢㅎㅏㄴ	-8398
▁ㅈㅜㄷㅜㅇ	-8399
ㄷㅡㅅㅎㅏㄴ	-8400
ㅅㅏㅇㅍㅜㅁ	-8401
▁ㅈㅏㄹㅎㅐㅅㅓ	-8402
▁ㅂㅜㅈㅏㄱㅏㅁㅅㅔ	-8403
ㅉㅗ	-8404
ㄷㅔㅊㅔ	-8405
▁ㅇㅏㄴㅕ	-8406
▁ㅎㅜㅇㅔ	-8407
▁ㅎㅡㄹㄹ	-8408
▁ㄷㅡㅇㅈㅏㅇ	-8409
▁ㅎㅏㄹㄱㅓㅅ	-8410
▁ㅈㅐㅅㅏㄴㅁㅗㄹ	-8411
▁ㅎㅐㅆㄴㅡㄴㅈㅣ	-8412
▁ㄸㅓㄹㅇㅓㅈㅣㄱㅗ	-8413
ㅎㅐㅆㅇㅓㅆㄴㅡㄴㄷㅔ	-8414
ㄱㅡㅇ	-8415
▁2017	-8416
ㅎㅠㅇㅣㄹ	-8417
ㅇㅣㅁㅣㅈㅣ	-8418
▁ㅇㅕㅇㅇㅜㅇ	-8419
▁ㅇㅏㄴㅅㅏㄴㄷㅏ	-8420
▁ㅁㅓㄱㄱㅗㅅㅏㄴㅡㄴ	-8421
ㄸㅓㅇ	-8422
ㄱㅔㅅㄴㅔ	-8423
ㅂㅗㅂㅗㄱ	-8424
▁ㄲㅗㅂㅏㄱ	-8425
▁ㅊㅚㄱㅗㅇ	-8426
▁......	-8427
▁ㅉㅗㄱㅂㅏㄹㅣ	-8428
▁ㅅㅓㅁㅣㄴㅇㅡㄹ	-8429
▁ㅅㅣㄱㅏㄴㅇㅡㄹ	-8430
▁ㅎㅘㄹㅅㅓㅇㅎㅘ	-8431
▁ㅈㅓㄴㅎㅕㅇㅈㅓㄱㅇㅣㄴ	-8432
ㅍㅜ	-8433
ㅇㅐㄴ	-8434
ㅌㅗㅂ	-8435
ㅁㅜㄱㅣ	-8436
▁ㅂㅜㄱㄱㅚ	-8437
▁ㅇㅣㄴㅅㅜ	-8438
▁ㅂㅜㄹㅍㅕㅇ	-8439
ㅇㅣㅇㅓㅆㅇㅡㅁ	-8440
▁ㅈㅓㄴㅈㅐㅅㅏㄴ	-8441
▁ㅍㅡㄹㅣㅁㅣㅇㅓㅁ	-8442
▁ㅐ	-8443
ㄷㄷㄷㄷ	-8444
ㄷㅝㄹㅏ	-8445
ㅈㅓㄱㅓㅅ	-8446
▁ㄴㅔㅇㅣㅂ	-8447
▁ㅅㅐㅅㅏㅁ	-8448
▁ㅇㅏㅍㄷㅟ	-8449
▁ㅎㅠㅇㄱㅣ	-8450
ㅕㄴㅗㅎㄱㅗ	-8451
▁ㅂㅜㄹㅎㅘㅇ	-8452
▁ㅅㅓㄴㅈㅓㅇ	-8453
▁ㅁㅜㄷㅗㄴㅡㄴ	-8454
▁ㅇㅕㄹㅡㅁㅇㅔ	-8455
90	-8456
ㄹㅣㅇㅔ	-8457
ㅂㅏㅇㅇㅣ	-8458
ㅅㅏㅇㅇㅢ	-8459
ㅇㅓㄴㅗㅎ	-8460
ㅇㅟㄴㅡㄴ	-8461
ㅇㅟㅇㅝㄴ	-8462
ㅍㅗㄴㅇㅣ	-8463
▁ㅇㅜㅇㅜㄹ	-8464
ㅈㅜㅇㅇㅣㄴ	-8465
ㄴㅜㅈㅣㄴㅅㅔ	-8466
▁ㄷㅏㄱㅊㅣㄱㅗ	-8467
▁ㄱㅘㄴㅅㅣㅁㄷㅗ	-8468
▁ㅇㅏㄴㅈㅗㅎㅇㅏ	-8469
ㅎㅡㄱ	-8470
▁ㄹㅓㅂ	-8471
▁ㅍㅗㄹ	-8472
▁ㅊㅓㅇㅅㅗ	-8473
ㅇㅣㅇㅠㄱㅏ	-8474
▁ㅇㅣㅂㅈㅡㅇ	-8475
ㅇㅣㄹㅏㄴㄷㅏ	-8476
ㅇㅣㅆㄴㅡㄴㄱㅓ	-8477
ㅊㅣㅂ	-8478
▁ㅂㅕㄱ	-8479
▁ㅇㅐㅁ	-8480
▁ㅌㅗㄹ	-8481
▁ㅈㅜㅊㅏ	-8482
▁ㄲㅡㄹㅇㅓ	-8483
ㄱㅓㄹㅣㄱㅗ	-8484
▁ㅈㅣㅂㅇㅡㄴ	-8485
▁ㅂㅗㅈㅗㄱㅡㅁ	-8486
▁ㅇㅣㅈㅓㅇㅎㅢ	-8487
▁ㅅㅐㅇㄱㅕㅆㄴㅔ	-8488
ㅎㅡㄴ	-8489
▁ㄷㅏㅎㅐ	-8490
▁ㅇㅟㅊㅣ	-8491
ㅁㅏㄹㅇㅔ	-8492
▁ㄷㅏㄴㅕㅇ	-8493
ㅅㅐㄴㅜㄹㅣ	-8494
▁ㄴㅗㄹㅐㄷㅗ	-8495
▁ㅈㅣㅂㅎㅐㅇ	-8496
▁ㅎㅡㅇㅎㅐㅇ	-8497
▁ㄱㅕㅇㄱㅣㄷㅗ	-8498
ㄱㅓㅇㅏㄴㅣㄴㅑ	-8499
ㄴㅕㄴㅁㅏㄴㅇㅔ	-8500
▁ㅁㅗㄹㅡㄴㄷㅏㄱㅗ	-8501
▁ㄱㅣㄷㅐㅎㅏㅂㄴㅣㄷㅏ	-8502
ㅗㅇㅘ	-8503
****	-8504
▁600	-8505
ㅇㅖㄴㅡㅇ	-8506
ㅊㅓㅇㄱㅜ	-8507
ㅌㅐㅇㅜㅇ	-8508
▁ㄷㅏㅅㅡㄹ	-8509
▁ㅎㅐㅆㄴㅑ	-8510
▁ㄱㅏㅇㄱㅏㄴ	-8511
▁ㅁㅕㄹㅁㅏㅇ	-8512
▁ㅎㅏㄴㅅㅜㅁ	-8513
▁ㄸㅗㄱㄱㅏㅌㄷㅏ	-8514
▁ㅅㅐㅇㄱㅏㄱㅈㅗㅁ	-8515
no	-8516
ㅊㅠ	-8517
ㅗㅅㅏㅇ	-8518
▁ㅅㅏㄹㅖ	-8519
ㅈㅓㄴㅡㄴ	-8520
▁ㄱㅜㄹㅣㄴ	-8521
ㄱㅏㄹㅣㄱㅗ	-8522
▁ㄲㅏㅁㅃㅏㅇ	-8523
▁ㅂㅏㄴㄴㅏㅂ	-8524
▁ㄱㅡㄹㅓㄴㅈㅣ	-8525
▁ㅂㅗㄱㅓㅁㅇㅣ	-8526
ㄱㅗㅇㅈㅣㄱㅈㅏ	-8527
▁ㄷㅡㄹㅇㅓㅇㅗㄹ	-8528
ㅅㅓㄹㅗ	-8529
ㅇㅣㄴㅌ	-8530
ㄱㅗㅇㅅㅏ	-8531
▁ㄱㅜㄱㅇㅣㄱ	-8532
▁ㅇㅓㅉㅓㄱㅜ	-8533
▁ㅇㅣㅁㅣㅈㅣㄱㅏ	-8534
▁ㅈㅓㄴㄱㅜㄱㅁㅣㄴ	-8535
▁ㅇㅏㄹㅡㅁㄷㅏㅇㅜㄴ	-8536
▁ㅊㅚㅅㅜㄴㅅㅣㄹㄱㅘ	-8537
▁ㅅㅔㅁㅜ	-8538
▁ㅂㅗㅇㅣㅁ	-8539
▁ㄴㅜㄱㅜㄴㅡㄴ	-8540
▁ㅅㅏㄹㅏㅇㅎㅐ	-8541
ㅅㅣㄱㅏㄴㅁㅏㄴ	-8542
▁ㅎㅐㅇㅂㅗㄱㅎㅏㄴ	-8543
ㅌㅗㄴ	-8544
ㅍㅔㅇㅣ	-8545
ㄷㅣㅇㅓㄴ	-8546
▁ㄱㅗㅇㅅㅏ	-8547
▁ㅊㅚㄱㅗㄷㅏ	-8548
ㅊㅣㄴㅡㄴㄷㅔ	-8549
▁ㅇㅜㅅㄱㅣㄴㄷㅏ	-8550
▁^	-8551
▁kbs	-8552
ㅅㅜㅇㅛ	-8553
▁3000	-8554
▁ㅇㅣㄸㅐ	-8555
ㅁㅗㄹㅡㄹ	-8556
ㅂㅜㅅㅏㄴ	-8557
ㅈㅏㅇㄱㅜ	-8558
▁ㅂㅏㅇㅎㅐ	-8559
▁ㅍㅣㄱㅗㄴ	-8560
ㅇㅏㄴㅇㅡㄹ	-8561
ㅇㅜㄴㅇㅕㅇ	-8562
▁ㄴㅏㅁㅅㅓㅇ	-8563
▁ㅅㅏㅇㅎㅘㅇㅇㅔㅅㅓ	-8564
▁ㅁㅏㄴㅎㅘ	-8565
▁ㅁㅓㄹㅣㅇㅔ	-8566
▁ㅅㅣㄴㅊㅓㅇ	-8567
▁ㅎㅏㄴㅏㅆㅣㄱ	-8568
▁ㄱㅡㄷㅡㄹㅇㅡㄴ	-8569
▁ㅇㅕㄱㄱㅕㅂㄷㅏ	-8570
2.	-8571
ㅁㅜㅈㅚ	-8572
ㅅㅔㅇㅕ	-8573
▁ㅈㅜㅇㅟ	-8574
ㅂㅗㄱㅈㅣ	-8575
▁ㅁㅏㄴㅑㅇ	-8576
▁ㅈㅐㄷㅏㄴ	-8577
▁ㅎㅏㄴㅏㄱㅏ	-8578
▁ㅌㅡㄴ	-8579
ㄷㅗㅇㅔ	-8580
ㅔㅇㅣㄷㅡ	-8581
▁ㅇㅓㅅㅐㄱ	-8582
▁ㅇㅠㅅㅣㄴ	-8583
▁ㅁㅕㅇㅂㅏㄱ	-8584
▁ㅂㅏㅂㅁㅓㄱ	-8585
▁ㅎㅐㅈㅝㅇㅑ	-8586
ㅅㅣㅂㅅㅣㅇㅛ	-8587
▁ㄸㅓㄹㅇㅓㅈㅣ	-8588
▁ㄷㅗㄷㅜㄱㅈㅣㄹ	-8589
▁ㄷㅏㅂㄷㅏㅂㅎㅏㄷㅏ	-8590
ㅠㅜ	-8591
ㅅㅟㅂ	-8592
▁ㅌㅔㄴ	-8593
▁ㅍㅔㄴ	-8594
ㅈㅇㅡㄴ	-8595
ㄱㅕㅆㄷㅏ	-8596
ㅇㅣㄷㅡㄱ	-8597
▁ㅈㅓㄴㅕㄴ	-8598
▁ㅈㅗㅈㅏㅇ	-8599
▁ㅊㅏㄹㅑㅇ	-8600
▁ㅂㅜㄴㅇㅕㄹ	-8601
▁ㅎㅏㄹㅁㅏㄹ	-8602
▁ㄷㅏㄹㄹㅏㄱㅗ	-8603
ㅇㅣㅎㅏ	-8604
ㅅㅜㅈㅏㄱ	-8605
▁ㅅㅗㅎㅘㄴ	-8606
ㅃㅜㄴㅁㅏㄴ	-8607
▁ㄱㅓㅅㅇㅣㅁ	-8608
ㅎㅐㄱㅏㄴㅡㄴ	-8609
▁ㅈㅣㅎㅏㅊㅓㄹ	-8610
▁ㅅㅏㅁㅅㅓㅇㅇㅔ	-8611
▁ㅇㅕㄹㅓㄱㅏㅈㅣ	-8612
ㅇㅐㄱㅏ	-8613
ㅜㅁㅓㄴ	-8614
▁ㄷㅗㄹㅗ	-8615
▁ㅇㅏㅇㅗ	-8616
ㄱㅏㅁㅏㄱ	-8617
▁ㄷㅐㄷㅏㅂ	-8618
▁ㅂㅜㅇㄱㅚ	-8619
▁ㅎㅏㄴㄱㅏ	-8620
▁ㅁㅕㅊㅁㅕㅇ	-8621
▁ㅂㅜㄴㅅㅓㄱ	-8622
▁ㅇㅝㄴㅈㅓㄴ	-8623
▁ㅈㅓㅇㄷㅗㅇ	-8624
▁ㄴㅜㄱㅜㄴㅈㅣ	-8625
▁ㅅㅣㅍㄴㅔㅇㅛ	-8626
▁ㅎㅏㄹㄹㅕㄱㅗ	-8627
▁ㄸㅗㄱㄸㅗㄱㅎㅏㄴ	-8628
▁ㄷㅚㄷㅗ	-8629
▁ㅈㅏㅈㅔ	-8630
ㅂㅐㅇㅜㄴ	-8631
▁ㄱㅗㅁㅏㅂ	-8632
▁ㅇㅏㄴㅁㅏ	-8633
ㅅㅣㄹㅎㅏㄴ	-8634
ㅎㅏㅇㅅㅏㅇ	-8635
▁ㅈㅣㄴㅏㄱㅏ	-8636
▁ㅍㅏㄹㅁㅕㄴ	-8637
▁ㅈㅓㅈㅣㄹㅡㄴ	-8638
od	-8639
ㄱㄱ	-8640
▁ㅁㅏㅅㅇㅣ	-8641
▁ㅂㅓㅂㄹㅣ	-8642
▁ㅂㅏㄴㅂㅏㄱ	-8643
▁ㅇㅣㅁㅁㅕㅇ	-8644
ㅅㅣㅂㅅㅣㅇㅗ	-8645
▁ㄴㅗㄷㅗㅇㅈㅏ	-8646
▁ㅅㅓㅇㅊㅜㅎㅐㅇ	-8647
▁ㅇㅗㄴㅡㄹㅇㅡㄴ	-8648
▁ㅈㅓㅇㅅㅣㄴㅇㅣ	-8649
▁ㅈㅓㅇㅊㅐㄱㅇㅣ	-8650
▁ㅇㅣㅂㅈㅏㅇㅇㅔㅅㅓ	-8651
ㅣㄹㅏㄴ	-8652
▁ㄷㅐㄷㅏㅅㅜ	-8653
ㅎㅏㄹㄱㅓㄷㅏ	-8654
▁ㅂㅣㅎㅏㅁㅕㄴ	-8655
▁ㄱㅚㅇㅈㅏㅇㅎㅣ	-8656
▁ㅈㅗㅅㅏㅎㅐㄹㅏ	-8657
▁ㅎㅐㅆㄷㅏㄴㅡㄴ	-8658
ㅎㅏㄴㅡㄴㄱㅓㅇㅑ	-8659
▁ㅇㅣㅆㅇㅡㄴㅣㄲㅏ	-8660
▁ㄷㅐㅌㅗㅇㄹㅕㅇㄷㅗ	-8661
ㅣㅣ	-8662
▁ㄷㅐㄷㅐ	-8663
▁ㅎㅐㄱㅗ	-8664
ㄱㅖㅇㅑㄱ	-8665
ㄷㅜㄹㅜㄱ	-8666
▁ㅂㅗㅇㅣㄹ	-8667
▁ㅇㅏㅈㅜㅁ	-8668
▁ㅈㅐㅂㅏㅇ	-8669
ㅏㄴㄷㅏㄱㅗ	-8670
▁ㅁㅜㄴㅓㅈㅣ	-8671
▁ㅁㅏㄷㅏㅇㅇㅔ	-8672
▁ㅇㅏㄴㅎㅏㄴㅑ	-8673
▁ㅎㅐㅊㅓㅁㅓㄱ	-8674
▁ㅇㅕㄴㄱㅣㅈㅏㄹ	-8675
▁ㄷㅏㄹㅡㄴㄴㅏㄹㅏ	-8676
▁ㄱㅜㄱㅁㅣㄴㄷㅡㄹㅎㅏㄴㅌㅔ	-8677
ㅎㅓㅅ	-8678
ㅇㅣㄹㅣ	-8679
▁ㄴㅐㅂㄷ	-8680
ㄷㅜㄹㅇㅣ	-8681
ㅅㅏㄹㄱㅗ	-8682
ㅅㅐㅇㅇㅣ	-8683
ㅈㅏㅅㅏㄹ	-8684
▁ㅂㅜㄴㄹㅣ	-8685
▁ㅇㅓㅁㅓㄴ	-8686
ㅇㅓㄱㅇㅡㄴ	-8687
▁ㄱㅐㄱㄱㅘㄴ	-8688
▁ㄱㅛㄷㅗㅅㅗ	-8689
▁ㄴㅏㅁㅌㅏㅅ	-8690
▁ㅅㅏㄹㄱㅣㄹ	-8691
ㄴㅏㄹㅏㄴㅡㄴ	-8692
ㅎㅏㄷㅓㄴㅈㅣ	-8693
▁ㅎㅐㅆㅇㅡㄴㅣ	-8694
▁ㄱㅏㄴㅏㄴㅎㅏㄴ	-8695
▁ㅎㅘㄱㅅㅣㄹㅎㅏㄱㅔ	-8696
▁ㄷㅏㄲ	-8697
▁ㅉㅗㅈ	-8698
ㄱㅓㄷㅗ	-8699
ㅈㅏㄴㅣ	-8700
ㅌㅣㅂㅣ	-8701
▁ㄱㅣㄷㅗ	-8702
ㅊㅓㅇㅡㅁ	-8703
ㅜㄴㅁㅜㄹ	-8704
▁ㅂㅐㄱㅅㅜ	-8705
▁ㅇㅣㄹㅏㄴ	-8706
~~~~~~~	-8707
▁ㄱㅔㅇㅣㅁㅇㅣ	-8708
▁ㄱㅕㅇㅇㅜㄱㅏ	-8709
▁ㅇㅏㄴㄴㅏㅇㅗㄴ	-8710
ㅉㅜㄱ	-8711
ㄱㅣㄱㅣ	-8712
▁ㄴㅏㄱㅔ	-8713
▁ㄹㅗㅂㅣ	-8714
▁ㅇㅠㅌㅠ	-8715
ㄴㅓㅁㄱㅔ	-8716
ㅅㅣㄴㄱㅗ	-8717
▁ㄷㅏㄱㅏㅇ	-8718
▁ㅈㅓㅇㄱㅠ	-8719
▁ㄱㅣㅁㅇㅕㄴ	-8720
▁ㄸㅓㄹㅇㅓㅈㅕ	-8721
▁ㅇㅣㅂㅕㅇㅎㅓㄴ	-8722
▁ㄲㅏㅂ	-8723
▁ㅈㅗㅈ	-8724
ㅂㅜㅇㅔ	-8725
ㅞㅅㅗㄴ	-8726
ㄷㅗㄹㄹㅕ	-8727
ㅅㅏㅇㅝㄴ	-8728
ㅈㅗㅁㅂㅣ	-8729
▁ㅇㅓㄱㅈㅣ	-8730
▁ㅎㅚㅅㅏㅇㅔ	-8731
▁ㄱㅣㅁㅌㅐㅎㅢ	-8732
▁ㄱㅣㅁㅊㅣㄴㅕㄴ	-8733
▁ㅋㅝㄹ	-8734
▁ㅅㅣㄷㅗ	-8735
▁ㅆㅡㄱㅔ	-8736
▁ㅎㅐㅇㅛ	-8737
▁ㄱㅡㄴㅣㄲㅏ	-8738
▁ㄱㅣㅁㄱㅕㅇ	-8739
▁ㄴㅏㄴㄹㅣㄴ	-8740
▁ㅅㅣㄴㅇㅣㄴ	-8741
▁ㅇㅣㄴㄹㅕㄱ	-8742
▁ㅈㅏㄱㅅㅓㅇ	-8743
ㅊㅓㅇㅇㅘㄷㅐ	-8744
▁ㅅㅜㅇㅣㅂㅊㅏ	-8745
▁ㅈㅐㅁㅣㅇㅣㅆ	-8746
▁ㄱㅐㄴㅏㅅㅗㄴㅏ	-8747
▁ㅈㅏㄱㅣㄷㅡㄹㅇㅣ	-8748
▁im	-8749
▁ㅌㅜㅇ	-8750
ㅎㅐㅊㅔ	-8751
ㄱㅜㄱㅇㅢ	-8752
ㄲㅓㄴㄷㅔ	-8753
ㅇㅓㅄㄴㅏ	-8754
▁ㅁㅏㄶㅈㅣ	-8755
▁ㅂㅜㅌㅇㅓ	-8756
▁ㅅㅗㅍㅡㅌ	-8757
ㅂㅏㅂㅌㅗㅇ	-8758
▁ㅇㅣㄹㅂㅏㅇ	-8759
▁ㅈㅓㅂㄱㅡㄴ	-8760
▁ㅎㅏㄴㄴㅏㅁ	-8761
▁ㅅㅔㄱㅡㅁㅁㅏㄴ	-8762
▁ㅂㅗㅇㅣㄴㅡㄴㄷㅔ	-8763
▁ㄴㅏㅇㅘㅆㅇㅡㅁㅕㄴ	-8764
▁ㅇㅣㄱㅣㅈㅓㄱㅇㅣㄴ	-8765
xx	-8766
ㅋㅓㄹ	-8767
ㄱㅕㅇㅑ	-8768
ㄷㅏㄴㅏ	-8769
▁ㅅㅏㅈㅣ	-8770
ㅈㅗㅅㅣㅁ	-8771
ㅎㅕㄴㄷㅐ	-8772
▁ㅇㅡㄴㅌㅚ	-8773
▁ㅇㅣㄴㅈㅣ	-8774
ㄱㅗㅇㅇㅓㅂ	-8775
▁ㄷㅚㄴㅈㅏㅇ	-8776
▁ㅁㅏㅇㅅㅣㄴ	-8777
▁ㅁㅜㄴㅇㅕㄹ	-8778
ㄴㅜㅈㅣㄴㅈㅔ	-8779
ㅅㅜㅈㅜㄴㅇㅣ	-8780
ㅍㅗㄴㅇㅡㄹㅗ	-8781
ㅎㅐㅇㅑㅎㅏㅂㄴㅣㄷㅏ	-8782
ㅡㄴㅏ	-8783
▁ㅋㅓㅂ	-8784
ㄱㅓㅇㅢ	-8785
ㄱㅗㄹㅕ	-8786
▁ㅊㅏㄱㅗ	-8787
ㅁㅏㄹㄱㅣ	-8788
ㅈㅏㄶㅇㅓ	-8789
▁ㅇㅣㄹㅓㅎ	-8790
▁ㅊㅟㅈㅣㄱ	-8791
ㄹㅑㅇㅇㅡㄹ	-8792
ㅈㅏㄹㅣㅇㅔ	-8793
▁ㄷㅏㅁㄷㅏㅇ	-8794
▁ㅇㅜㄹㅅㅏㄴ	-8795
▁ㄱㅕㅇㄱㅣㄱㅏ	-8796
▁ㄱㅜㄱㄱㅏㅇㅘ	-8797
ㅅㅓㅁㅣㄴㄷㅡㄹ	-8798
▁ㄴㅡㅇㄹㅕㄱㄷㅗ	-8799
▁ㅇㅙㅇㅣㄹㅓㅎㄱㅔ	-8800
▁ㅌㅡㄱㄱㅓㅁㅇㅡㄹ	-8801
▁ㅂㅏㄱㄱㅡㄴㅎㅖㅇㅢ	-8802
ㅞㅇㅣ	-8803
ㄴㅏㄷㅏ	-8804
ㅇㅓㄹㅗ	-8805
▁ㅇㅗㄹㅣ	-8806
ㅎㅏㅂㅇㅢ	-8807
▁ㅎㅏㄷㅡㄴ	-8808
▁ㄴㅏㅁㅇㅏㅆ	-8809
▁ㅂㅜㅁㅗㄱㅏ	-8810
ㅂㅕㄴㅎㅗㅅㅏ	-8811
ㅌㅐㅂㅡㄹㄹㅣㅅ	-8812
▁ㅈㅏㅅㅣㄱㄷㅡㄹ	-8813
▁ㅇㅣㄴㅈㅓㅇㅎㅏㄱㅗ	-8814
▁pc	-8815
▁ㅂㄷ	-8816
ㄴㅐㅇㅛ	-8817
ㅆㅏㄱㅗ	-8818
ㅈㅜㅁㅣㄴ	-8819
▁ㅁㅗㄹㄱㅗ	-8820
▁ㅁㅗㄹㅡㅁ	-8821
ㅂㅓㅂㅇㅡㄴ	-8822
ㅈㅗㅇㅂㅜㄱ	-8823
▁ㅂㅣㅅㅡㅌㅡ	-8824
▁ㅇㅣㅇㅛㅇㅎㅐ	-8825
▁ㄷㅗㄴㅂㅏㄷㄱㅗ	-8826
▁ㅅㅏㅇㅅㅗㄱㅅㅔ	-8827
▁ㅈㅔㄴ	-8828
ㄱㅏㅁㄷㅗ	-8829
ㅂㅣㅆㅏㄴ	-8830
ㅅㅔㄴㅌㅓ	-8831
▁ㄱㅝㄴㄹㅣ	-8832
▁ㅂㅐㄷㅏㄹ	-8833
▁ㅂㅓㄹㅣㄴ	-8834
▁ㅇㅓㅊㅓㄱ	-8835
▁ㅈㅏㅁㅅㅣ	-8836
ㅈㅏㅂㄴㅡㄴ	-8837
▁ㄴㅔㄱㅅㅡㄴ	-8838
▁ㅅㅣㄴㅈㅜㅇ	-8839
ㅇㅏㅍㅇㅔㅅㅓ	-8840
ㅎㅏㄴㅡㄴㄱㅓㄹ	-8841
▁ㅌㅡㄱㄱㅓㅁㅇㅢ	-8842
▁ㅈㅓㄴㄱㅕㅇㄹㅕㄴ	-8843
ㄴㅏㅇㅣ	-8844
ㅂㅜㅇㅢ	-8845
ㅍㅗㄱㅣ	-8846
▁ㅇㅕㅈㅜ	-8847
▁https	-8848
▁ㄱㅗㅅㅇㅔ	-8849
▁ㅈㅏㄹㄷㅙ	-8850
▁ㄴㅐㅂㅗㄴㅐ	-8851
ㅅㅗㄱㅇㅡㄹㅗ	-8852
▁ㅈㅓㅇㅇㅢㄱㅏ	-8853
▁ㅈㅏㅇㅓㅂㅈㅏㄷㅡㄱ	-8854
▁ㅅㅓㅎ	-8855
ㅅㅣㄹㅗ	-8856
ㄴㅕㄴㅎㅜ	-8857
▁ㄱㅣㄹㅇㅣ	-8858
▁ㄷㅚㄱㅣㄹ	-8859
▁ㅂㅓㄹㄹㅔ	-8860
▁ㅇㅘㅇㅊㅏㅇ	-8861
ㅇㅣㄱㅔㅆㅈㅣ	-8862
ㅈㅜㅁㅕㄴㅅㅓ	-8863
▁ㅁㅏㄹㄹㅏㄱㅗ	-8864
▁ㅂㅏㄲㅜㄴㅡㄴ	-8865
ㄷㅏㄹㄹㅏㄴㅡㄴ	-8866
▁ㄷㅗㄴㅇㅓㅄㄴㅡㄴ	-8867
▁ㄷㅡㄹㅇㅓㄱㅏㅅㅓ	-8868
▁ㅁㅏㄹㅇㅣㄷㅚㄴㅑ	-8869
▁ㄱㅓㅈㅣㄱㅏㅌㅇㅡㄴ	-8870
ㅇㅏㅅ	-8871
ㅍㅐㅇ	-8872
▁ㄲㅡㅁ	-8873
ㄱㅗㅇㅛ	-8874
ㅂㅜㅁㅗ	-8875
ㅌㅔㄴㅊㅡ	-8876
▁ㄱㅗㅁㅏㄴ	-8877
▁ㅊㅚㅅㅓㄴ	-8878
ㄱㅏㅇㅔㅅㅓ	-8879
ㄱㅝㄴㅇㅡㄴ	-8880
ㅁㅜㄴㅎㅏㄱ	-8881
ㅎㅐㅇㄷㅗㅇ	-8882
▁ㄲㅓㅈㅕㄹㅏ	-8883
▁ㅁㅗㄹㄹㅏㄱ	-8884
▁ㄷㅏㅎㅐㅇㅇㅣㄷㅏ	-8885
▁ㅈㅗㅎㅇㅡㄹㄷㅡㅅ	-8886
ㅎㅏㄷㅏㄴ	-8887
▁ㅂㅣㅆㅏㄱㅗ	-8888
▁ㅎㅕㅇㄴㅣㅁ	-8889
ing	-8890
ㅅㅣㄹㅇㅣ	-8891
▁ㄷㅙㅆㄷㅏ	-8892
ㄱㅐㄷㅙㅈㅣ	-8893
ㅇㅣㄴㅇㅛㅇ	-8894
▁ㅂㅓㅂㅈㅓㄱ	-8895
ㅈㅏㅇㅕㄴㅇㅖ	-8896
▁ㅅㅔㄱㅡㅁㄷㅗ	-8897
ㅎㅐㅆㄱㅔㅆㅈㅣ	-8898
▁ㅇㅏㄴㅅㅏㅁㅓㄱ	-8899
▁sns	-8900
▁!!!!	-8901
▁ㄴㅏㅃㅏ	-8902
▁ㄷㅐㅂㅜ	-8903
ㄷㅏㄹㄱㅗ	-8904
▁ㅂㅏㄷㄱㅔ	-8905
▁ㅈㅏㄹㄴㅏ	-8906
▁ㄱㅡㄹㅇㅡㄹ	-8907
▁ㅂㅗㄱㅈㅏㅂ	-8908
ㅂㅓㅂㅇㅡㄹㅗ	-8909
▁ㅁㅏㅇㅣㄴㄷㅡ	-8910
▁ㅇㅗㄹㄹㅏㄱㅏ	-8911
▁ㅎㅐㅇㅚㅇㅔㅅㅓ	-8912
ㄱㅜㄱㅎㅚㅇㅢㅇㅝㄴ	-8913
ㅗㅍ	-8914
ㄱㅕㅂ	-8915
ㅅㅓㅁ	-8916
ㅋㅣㄱㅗ	-8917
ㅁㅣㄷㄱㅗ	-8918
ㅊㅡㅇㅇㅣ	-8919
▁ㄱㅜㄴㅅㅏ	-8920
▁ㄴㅗㅊㅜㄹ	-8921
▁ㅊㅏㅇㅣㄴ	-8922
ㅎㅏㅇㄱㅗㅇ	-8923
▁ㄴㅗㄹㅐㄱㅏ	-8924
▁ㅁㅗㄹㅡㄴㅑ	-8925
▁ㅇㅓㅁㅂㅓㄹ	-8926
▁ㅇㅡㄴㅌㅏㄱ	-8927
▁ㅍㅕㄴㅈㅣㅂ	-8928
ㅎㅏㄹㄲㅔㅇㅛ	-8929
▁ㅂㅏㄺㅎㅕㄹㅏ	-8930
▁ㄲㅡㅌㄴㅏㅁㅕㄴ	-8931
▁ㅁㅓㄱㅇㅕㅅㅏㄹ	-8932
▁ㅂㅏㅇㅂㅓㅂㅇㅣ	-8933
▁ㄷㅐㅅㄱㅡㄹㅇㅡㄹ	-8934
▁ㅇㅠㅇㅣㄹㅎㅏㄱㅔ	-8935
▁35	-8936
ㄷㅚㅇㅛ	-8937
ㅅㅔㄲㅣ	-8938
▁ㅁㅜㄴㅚ	-8939
▁ㅈㅐㄱㅗ	-8940
ㄱㅓㄹㄱㅗ	-8941
ㅇㅕㅆㄷㅏ	-8942
▁ㄲㅏㄱㅇㅏ	-8943
▁ㅇㅣㄱㅜㄱ	-8944
▁ㅈㅗㅎㄴㅔ	-8945
ㅣㄷㅡㄹㅇㅏ	-8946
▁ㅇㅏㅁㅜㄴㅏ	-8947
▁ㅍㅗㄴㅇㅡㄹ	-8948
ㅎㅐㅆㅇㅡㄹㄲㅏ	-8949
▁ㄷㅏㄹㅡㄴㄱㅓㄴ	-8950
▁ㅈㅜㄱㄴㅡㄴㄷㅏ	-8951
▁ㅇㅗㅂㅏ	-8952
ㅈㅘㅃㅏㄹ	-8953
▁ㅅㅠㄷㅗㄹ	-8954
▁ㅇㅕㄹㅇㅐ	-8955
▁ㅎㅏㄴㅍㅛ	-8956
ㅊㅜㄹㅇㅕㄴ	-8957
▁ㄴㅓㅁㅜㅁㅏㄶ	-8958
▁ㅅㅣㅀㅇㅓㅅㅓ	-8959
▁ㅇㅣㄴㅈㅣㄷㅗ	-8960
▁ㅁㅜㄴㅡㅇㄹㅕㄱ	-8961
▁ㅎㅚㅅㅏㅇㅔㅅㅓ	-8962
ㅟㄴ	-8963
ㅇㅗㅁㅕㄴ	-8964
▁ㅈㅣㄴㅈㅣ	-8965
▁ㄷㅏㄹㅡㄱㅔ	-8966
▁ㅆㅏㄱㅜㄹㅕ	-8967
▁ㅇㅓㄴㄹㅗㄴㅇㅢ	-8968
▁ㅁㅗㄹㅡㅈㅣㅁㅏㄴ	-8969
▁ㄷㅏㅇㄷㅏㅇㅎㅏㄱㅔ	-8970
▁ㅆㅗㄱ	-8971
▁ㄴㅓㄱㅓ	-8972
▁ㅂㅜㅂㅜ	-8973
▁ㅇㅓㄸㅓ	-8974
ㅓㄴㄹㅗㄴ	-8975
▁ㅊㅏㅇㅇㅢ	-8976
▁ㅊㅓㄴㅈㅐ	-8977
▁ㄱㅕㄹㅂㅏㅇ	-8978
▁ㅆㅏㄱㅡㄹㅣ	-8979
▁ㅎㅏㄹㅈㅜㄹ	-8980
ㄱㅓㅇㅏㄴㅣㅁ	-8981
ㄴㅣㄷㅡㄹㅇㅣ	-8982
ㅇㅣㄹㅇㅣㄷㅏ	-8983
▁ㅂㅗㅎㅓㅁㅅㅏ	-8984
▁ㅅㅜㄷㅜㄹㅜㄱ	-8985
ㅇㅣㅆㄴㅡㄴㅈㅣ	-8986
▁ㅎㅏㄴㄱㅜㄱㄱㅕㅇㅈㅔ	-8987
ㅉㅡ	-8988
▁ㅇㅣㅇ	-8989
ㅅㅡㅇㅔ	-8990
ㅈㅏㅇㅠ	-8991
ㅌㅣㅂㅡ	-8992
ㅓㅇㅇㅣ	-8993
▁ㅂㅐㅇㅝ	-8994
ㄷㅗㄴㄷㅗ	-8995
▁ㅊㅓㅇㄱㅜ	-8996
▁ㄱㅏㄲㅏㅇㅣ	-8997
▁ㅂㅐㄱㅅㅓㅇ	-8998
▁ㅅㅡㄹㅍㅡㄴ	-8999
▁ㅅㅣㄱㅁㅣㄴ	-9000
▁ㅁㅏㅈㄴㅡㄴㄷㅔ	-9001
▁ㅈㅔㅍㅜㅁㅇㅡㄹ	-9002
▁ㅎㅕㄴㅅㅣㄹㅇㅣ	-9003
▁ㄱㅕㄹㅎㅗㄴㅇㅡㄹ	-9004
,.	-9005
ㅉㅗㅁ	-9006
▁ㅅㅡㅋㅔ	-9007
ㅊㅜㅇㅈㅓㄴ	-9008
▁ㄱㅣㅅㅏㄹㅗ	-9009
▁ㅂㅐㅇㅜㄱㅏ	-9010
▁ㅈㅐㅁㅣㄱㅏ	-9011
▁ㅁㅓㄱㅇㅓㅇㅑ	-9012
▁ㅅㅐㅇㄱㅣㅁㅕㄴ	-9013
▁ㅇㅣㅆㅇㅡㄹㄸㅐ	-9014
▁ㅅㅏㄹㅏㅇㅎㅏㄴㅡㄴ	-9015
ㄱㅏㅅ	-9016
ㄲㅡㄶ	-9017
▁ㅈㅏㄱㅏ	-9018
ㄷㅏㄷㄱㅗ	-9019
ㄷㅚㅇㅓㅆ	-9020
ㅍㅕㅇㄱㅏ	-9021
▁ㄴㅏㅁㄱㅕ	-9022
▁ㄷㅏㄴㅣㄹ	-9023
ㅇㅡㅁㅅㅣㄱ	-9024
▁ㄴㅗㄱㅇㅡㅁ	-9025
▁ㅅㅏㄹㄹㅣㅁ	-9026
▁ㅇㅣㄴㄱㅜㄱㅏ	-9027
ㄱㅣㅇㅓㅂㅇㅡㄴ	-9028
▁ㅇㅓㅄㄴㅡㄴㄱㅓ	-9029
▁ㄱㅘㄴㄱㅘㅇㄱㅐㄱ	-9030
▁ㅇㅣㅆㄱㅔㅆㅈㅣㅁㅏㄴ	-9031
▁IT	-9032
ㄷㅐㅎㅐ	-9033
▁ㅈㅏㅅㅔ	-9034
ㄷㅜㅁㅕㄴ	-9035
ㅅㅓㄱㄱㅠ	-9036
ㅈㅜㅎㅐㅇ	-9037
ㅍㅣㄴㅡㄴ	-9038
▁ㄲㅏㅂㅏㄹ	-9039
▁ㄴㅏㅂㅏㄹ	-9040
▁ㄷㅐㅇㅏㄴ	-9041
ㅈㅣㄴㅅㅣㅁ	-9042
▁ㅈㅡㅇㅇㅓㄴ	-9043
▁ㅎㅘㄹㅇㅛㅇ	-9044
▁ㄷㅏㅇㅡㅁㅇㅔ	-9045
▁ㅇㅓㄹㅕㅂㄷㅏ	-9046
▁ㅎㅏㄴㅏㄴㅣㅁ	-9047
ㄴㅗㅁㄷㅡㄹㅇㅏ	-9048
▁ㅁㅜㄴㅈㅚㅇㅣㄴ	-9049
▁ㅅㅓㅇㄱㅘㄱㅡㅁ	-9050
▁ㅁㅏㄴㄷㅡㄹㅇㅓㅆ	-9051
▁ㅅㅏㄹㅏㅁㄷㅡㄹㅇㅢ	-9052
!!!!!!!!!!!!!!!!	-9053
ㄱㅔㅁ	-9054
ㅅㅜㄴㅏ	-9055
ㅆㅡㄱㅔ	-9056
ㄴㅗㅊㅗㅇ	-9057
ㅇㅣㅇㅛㅇ	-9058
ㅊㅏㅇㅎㅗ	-9059
ㅎㅚㄱㅕㄴ	-9060
▁ㄷㅡㄷㅂㅗ	-9061
▁ㅂㅏㄲㅟㄴ	-9062
▁ㅂㅣㅅㅓㄴ	-9063
ㅅㅓㄴㅌㅐㄱ	-9064
ㅇㅓㅄㅇㅡㄹ	-9065
ㅎㅏㅈㅏㄱㅗ	-9066
▁ㅁㅜㄷㅗㄱㅏ	-9067
▁ㅎㅢㅁㅏㅇㅇㅣ	-9068
▁ㄱㅣㅁㅁㅣㄴㅎㅢ	-9069
▁ㄱㅗㅇㄱㅐㅎㅏㄹㅏ	-9070
▁ㄱㅗㅇㄱㅗㅇㄱㅣㄱㅘㄴ	-9071
▁ㄷㅡㅁ	-9072
▁ㄱㅗㄱㅐ	-9073
▁ㅇㅢㄷㅗ	-9074
ㄲㅗㅂㅏㄱ	-9075
ㅂㅜㅌㅓㄴ	-9076
▁ㄲㅏㅇㅍㅐ	-9077
▁ㅁㅏㄱㅇㅏ	-9078
▁ㅁㅏㄹㄹㅏ	-9079
▁ㅇㅟㅂㅏㄴ	-9080
▁ㅈㅏㅅㅏㄴ	-9081
ㄱㅡㄹㅐㅇㅑ	-9082
ㅍㅗㄴㅇㅡㄹ	-9083
▁ㅅㅏㅎㅚㅇㅔ	-9084
▁ㅇㅣㄴㅇㅛㅇ	-9085
ㄴㅡㄴㄱㅓㅈㅣ	-9086
ㅈㅜㅇㅇㅣㄴㄷㅔ	-9087
▁ㄱㅡㄴㅏㅈㅓㄴㅏ	-9088
▁ㅇㅏㄴㅌㅏㄲㅏㅇ	-9089
▁ㅇㅣㄷㅗㅇㅇㅜㄱ	-9090
▁ㅇㅣㄹㅇㅓㄴㅏㄹ	-9091
▁ㅎㅘㅈㅏㅇㅅㅣㄹ	-9092
▁ㄸㅓㄹㅇㅓㅈㅣㅁㅕㄴ	-9093
ㄴㅡㄴㅣㅁ	-9094
ㅈㅏㅅㅣㄴ	-9095
▁ㄱㅗㅅㅗㄱ	-9096
▁ㄴㅐㄹㅣㄴ	-9097
▁ㄷㅏㄹㄹㅣ	-9098
▁ㄷㅓㅎㅏㄴ	-9099
▁ㅂㅗㄹㅅㅜ	-9100
▁ㅅㅟㅂㅈㅣ	-9101
▁ㅈㅣㄹㅌㅜ	-9102
▁ㄷㅗㄴㅁㅏㄶ	-9103
ㅎㅐㅆㅇㅡㄹㄸㅐ	-9104
▁ㅈㅐㅂㅓㄹㄷㅡㄹ	-9105
▁ㄱㅗㅇㅈㅓㄱㅈㅏㄱㅡㅁ	-9106
▁ㄱㅜㄱㅁㅣㄴㄷㅡㄹㄷㅗ	-9107
ㅎㅏㅅㅕㅆㅅㅡㅂㄴㅣㄷㅏ	-9108
ㅂㅜㄴㄷㅗ	-9109
ㅎㅏㅂㄹㅣ	-9110
▁ㄹㅗㅁㅐㄴ	-9111
▁ㅇㅐㅂㄷㅡㅇ	-9112
▁ㅊㅓㄴㅂㅓㄹ	-9113
▁22	-9114
ㄱㅣㄹㅏㅇ	-9115
ㅁㅏㅅㅇㅔ	-9116
ㄱㅗㅇㅣㅆㄴㅔ	-9117
ㄲㅏㅈㅣㅁㅏㄴ	-9118
▁ㅇㅔㄹㅈㅣㄴㅡㄴ	-9119
ㅎㅏㄴㅡㄴㄱㅓㄷㅏ	-9120
▁ㄱㅕㄹㅎㅗㄴㅇㅡㄴ	-9121
14	-9122
ㄷㅠ	-9123
ㄴㅡㅈ	-9124
ㅏㅇㅕ	-9125
ㄴㅣㄱㅏ	-9126
▁ㄴㅚㄱㅏ	-9127
▁ㅎㅐㄷㅐ	-9128
ㅏㅁㅏㄴㅏ	-9129
▁ㅇㅜㄱㅕㄹ	-9130
▁ㅎㅐㅋㅣㅇ	-9131
ㄲㅏㅈㅣㄷㅗ	-9132
ㅇㅔㄷㅏㄱㅏ	-9133
ㅇㅣㄴㅎㅏㄴ	-9134
ㅎㅏㄱㅜㄴㅏ	-9135
▁ㄴㅐㄹㅣㄱㅗ	-9136
▁ㅎㅐㅆㄷㅓㄴㅣ	-9137
▁ㅇㅑㅇㅅㅣㅁㅇㅣ	-9138
▁ㅇㅕㄱㅅㅏㄹㅡㄹ	-9139
▁ㅈㅓㄴㄱㅜㄱㅁㅣㄴㅇㅣ	-9140
ㄴㅗㅎ	-9141
ㅎㅜㄹ	-9142
ㅊㅜㄱㅏ	-9143
ㅅㅜㄷㅏㅇ	-9144
ㅇㅣㄱㅜㄴ	-9145
▁ㅇㅕㄷㅏㅇ	-9146
▁ㅇㅏㄴㅣㄴㅔ	-9147
▁ㅈㅓㅇㅎㅘㅇ	-9148
▁ㅎㅏㄴㅈㅓㄴㅇㅡㄴ	-9149
ㅋㅋㅋㅋㅋㅋㅋㅋㅋㅋㅋ	-9150
ㅃㅏㄴㅡㄴ	-9151
ㅈㅓㄴㅂㅜ	-9152
ㅈㅗㄴㅡㄴ	-9153
ㅈㅣㄷㅏㅁ	-9154
ㅌㅓㄹㅡㄹ	-9155
ㅍㅡㄹㄹㅔ	-9156
▁ㅁㅓㄹㄹㅣ	-9157
▁ㅁㅗㄱㅍㅛ	-9158
▁ㅎㅓㅇㅛㅇ	-9159
ㄱㅡㄷㅐㄹㅗ	-9160
▁ㄷㅡㄹㅇㅓㅇㅗ	-9161
▁PC	-9162
▁ㄲㅓㄹ	-9163
▁ㅁㅓㄱㅏ	-9164
▁ㅂㄷㅂㄷ	-9165
▁ㅂㅣㅅㅓ	-9166
▁ㅈㅗㅋㅏ	-9167
▁ㅋㅣㅅㅡ	-9168
ㅅㅓㄱㄱㅣ	-9169
ㅈㅜㅇㅓㄹ	-9170
▁ㅊㅚㅅㅣㄴ	-9171
▁ㅎㅐㅆㄱㅗ	-9172
▁ㅎㅐㅇㅌㅐ	-9173
▁ㄴㅏㅇㅗㄴㅑ	-9174
▁ㅅㅣㄴㅎㅗㄴ	-9175
▁ㅉㅏㄱㅌㅜㅇ	-9176
▁ㅇㅓㄷㅣㄲㅏㅈㅣ	-9177
▁ㅇㅓㅄㅇㅡㅁㅕㄴㅅㅓ	-9178
▁ㄱㅐㄸㅗㅇ	-9179
▁ㄷㅜㄹㅉㅐ	-9180
▁ㅇㅓㅄㄱㅔ	-9181
▁ㅇㅣㄹㅊㅔ	-9182
ㅎㅏㄹㅇㅣㄴ	-9183
▁ㅁㅗㅅㅂㅏㄷ	-9184
▁ㅇㅠㄱㅅㅓㅇ	-9185
▁ㄱㅏㅇㄹㅕㄱㅎㅏㄴ	-9186
ㅎㅏㄱㅔㅆㅈㅣㅁㅏㄴ	-9187
▁ㄴㅢ	-9188
ㄱㅡㄴㅁㅜ	-9189
ㄷㅐㅊㅐㄱ	-9190
ㅅㅣㅁㅇㅔ	-9191
ㅎㅏㄹㄹㅐ	-9192
ㄷㅗㅇㅇㅝㄴ	-9193
ㅅㅔㅇㅝㄹㅎㅗ	-9194
▁ㅂㅏㄱㅎㅐㅈㅣㄴ	-9195
▁ㅅㅔㄱㅖㅇㅔㅅㅓ	-9196
▁ㅇㅣㄴㄱㅏㄴㄷㅡㄹㅇㅏ	-9197
▁ㅂㅓㄱ	-9198
ㅁㅗㄹㅡ	-9199
ㅍㅏㄴㅣ	-9200
▁ㅇㅚㅂㅜ	-9201
▁ㅇㅠㄷㅗ	-9202
ㅂㅜㄴㅇㅑ	-9203
ㅈㅣㄱㅡㄹ	-9204
▁ㅁㅗㅌㅔㄹ	-9205
ㅎㅏㄱㅗㄷㅗ	-9206
▁ㄱㅜㄱㄱㅏㄱ	-9207
▁ㅁㅓㅇㅁㅓㅇ	-9208
▁ㅅㅣㄴㄱㅗㄱ	-9209
ㄱㅓㄷㅡㄴㅇㅛ	-9210
▁ㄷㅏㄹㅡㄹㄱㅔ	-9211
ㄴㅡㄴㄱㅓㅅㄷㅗ	-9212
▁ㅅㅏㅇㄷㅏㅇㅎㅣ	-9213
▁ㅇㅗㄹㅂㅏㄹㅡㄴ	-9214
▁ㅈㅓㅇㅁㅏㄹㄹㅗ	-9215
ㅁㅣㄴㅈㅜㅈㅜㅇㅢ	-9216
▁ㅈㅓㅇㅅㅣㄴㅊㅏㄹㅕㄹㅏ	-9217
▁yg	-9218
▁ㄴㅟ	-9219
▁ㅋㅙ	-9220
ㅂㅏㅌ	-9221
ㄹㅓㅅㅓ	-9222
ㅇㅓㅉㅣ	-9223
ㄱㅗㄱㅐㄱ	-9224
▁ㄱㅕㄴㅈㅔ	-9225
▁ㄴㅐㅁㅂㅣ	-9226
▁ㅅㅔㅇㅣㅂ	-9227
▁ㅈㅣㅋㅣㄹ	-9228
▁ㅇㅏㄴㅎㅏㄴ	-9229
▁ㅇㅕㅈㅏㄷㅗ	-9230
ㅂㅓㄹㅣㄴㅡㄴ	-9231
▁ㄷㅓㄷㅓㅇㅜㄱ	-9232
▁ㅇㅏㄲㅏㅇㅜㄴ	-9233
ㅈㅝㅆㅇㅡㅁㅕㄴ	-9234
▁ㅁㅏㅇㅣㄴㅓㅅㅡ	-9235
▁ㅈㅏㄱㄴㅕㄴㅇㅔ	-9236
▁ㅈㅓㅇㅊㅣㅎㅏㄴㅡㄴ	-9237
▁ㅇㅕㅇㅇㅓㅂㅇㅣㅇㅣㄱ	-9238
19	-9239
(?)	-9240
ㄲㅜㅁ	-9241
▁ㅅㅔㄴㅚ	-9242
▁ㅌㅔㄹㅓ	-9243
▁ㅂㅜㄹㅡㄹ	-9244
▁ㅅㅜㅊㅓㄴ	-9245
▁ㄱㅗㅇㅣㄴㅇㅢ	-9246
ㅎㅐㅇㅑㄷㅚㄴㄷㅏ	-9247
ㅅㅇㅓ	-9248
▁ㄸㅐㄷㅗ	-9249
▁ㅇㅏㅈㅐ	-9250
▁ㅇㅣㅅㅏ	-9251
ㄱㅣㅈㅓㄴ	-9252
ㄱㅣㅎㅚㅇㅔ	-9253
▁ㄷㅗㄷㅔㅊㅔ	-9254
▁ㅁㅏㄱㅇㅡㄹ	-9255
▁ㅇㅏㅁㅏㄷㅗ	-9256
▁ㅇㅣㄱㅓㅅㄷㅡㄹㅇㅣ	-9257
it	-9258
ecd	-9259
▁ㅌㅡ	-9260
ㅂㅡㄴ	-9261
▁ㄱㅡㄺ	-9262
ㄱㅗㅇㅟ	-9263
ㅇㅜㅈㅣ	-9264
▁ㅁㅓㅈㅣ	-9265
▁ㅆㅏㄷㅏ	-9266
▁ㅎㅏㅎㅏ	-9267
ㅁㅗㄹㅇㅣ	-9268
ㅂㅓㅂㅇㅔ	-9269
ㅇㅣㄷㅓㄴ	-9270
ㅌㅏㅇㅣㅁ	-9271
▁ㅁㅏㄹㅎㅐ	-9272
▁ㅇㅗㄴㄷㅏ	-9273
▁ㅈㅜㅈㅏㄱ	-9274
▁ㅊㅓㄹㅅㅜ	-9275
▁ㅎㅏㄴㄱㅐ	-9276
▁ㅇㅜㄴㅅㅓㄱ	-9277
▁ㅈㅏㄹㅣㅇㅔ	-9278
ㅎㅕㅇㅇㅡㄹㅗ	-9279
▁ㅉㅏㅈㅡㅇㄴㅏ	-9280
ㄴㅏㄹㅏㅇㅔㅅㅓ	-9281
▁ㅇㅓㅁㅌㅐㅇㅜㅇ	-9282
ㅅㅔㄱㅡㅁㅇㅡㄹㅗ	-9283
▁ㅈㅣㅂㄱㅏㅄㅇㅡㄴ	-9284
.!	-9285
ㅂㅏㅇㅣ	-9286
ㅈㅏㅂㅜ	-9287
ㅎㅗㅅㅣㄱ	-9288
▁ㅈㅣㅅㅏㅇ	-9289
ㄱㅓㅇㅏㄴㅣ	-9290
ㅇㅔㄷㅐㅎㅏㄴ	-9291
▁ㄱㅏㄴㅡㄴㄷㅔ	-9292
▁ㅈㅓㄹㅓㄴㅡㄴ	-9293
▁ㅅㅏㅁㅅㅓㅇㅈㅔㅍㅜㅁ	-9294
▁ㅂㅜㅌㅏㄱㄷㅡㄹㅣㅂㄴㅣㄷㅏ	-9295
ㅇㅗㅂ	-9296
ㄹㅕㄷㅗ	-9297
ㄷㅐㅁㅕㄴ	-9298
▁ㅁㅣㄴㅍㅖ	-9299
▁ㅂㅕㄴㅎㅘ	-9300
▁ㅍㅛㅈㅓㄹ	-9301
ㅍㅐㄴㄷㅡㄹ	-9302
▁ㅎㅏㄴㅉㅗㄱ	-9303
▁ㅎㅏㄴㅌㅗㅇ	-9304
▁ㅎㅕㄴㅈㅣㄹ	-9305
ㅂㅗㄱㅗㅅㅣㅍ	-9306
▁ㄷㅓㄹㅓㅂㄱㅗ	-9307
▁ㅈㅗㄱㅡㅁㅆㅣㄱ	-9308
ㅎㅏㄱㅔㅆㄷㅏㄴㅡㄴ	-9309
ㅎㅏㄴㅡㄴㄱㅓㅅㅇㅣ	-9310
▁ㅊㅚㅅㅜㄴㅅㅣㄹㅇㅢ	-9311
▁ㅌㅏㄴㅎㅐㄱㄱㅣㄱㅏㄱ	-9312
ㅕㄷㅡㄹ	-9313
▁ㄷㅔㅁㅗ	-9314
▁ㅂㅜㄹㅡ	-9315
▁ㄷㅓㅁㅏㄶ	-9316
▁ㅍㅣㄹㅅㅜ	-9317
ㅈㅏㅇㅎㅜㄴ	-9318
ㅌㅗㅇㅇㅣㄹ	-9319
ㅎㅏㄹㄸㅐㄴ	-9320
▁ㄷㅏㅇㅎㅏㄴ	-9321
▁ㅈㅓㅇㅂㅜㄱ	-9322
ㄷㅏㄹㅏㄴㅡㄴ	-9323
▁ㅁㅏㅈㄷㅏㄱㅗ	-9324
▁ㅅㅜㅅㅏㄹㅡㄹ	-9325
▁ㅍㅏㄹㅇㅏㅅㅓ	-9326
ㅎㅎㅎㅎㅎㅎㅎㅎ	-9327
▁ㅅㅐㅇㄱㅏㄱㅎㅏㅈㅣ	-9328
▁ㄷㄷㄷ	-9329
▁ㅅㅏㅈㅐ	-9330
▁ㅈㅜㄷㅗ	-9331
▁ㅌㅗㅇㅛ	-9332
ㅠㅠㅠㅠㅠ	-9333
▁ㄹㅔㅈㅓㄴ	-9334
ㄱㅏㅁㅇㅡㄴ	-9335
ㅏㅇㅗㄴㄷㅏ	-9336
▁ㅅㅗㄱㅗㄱㅣ	-9337
▁ㅇㅏㅈㅓㅆㅣ	-9338
▁ㅇㅔㄴㄷㅣㅇ	-9339
ㅇㅝㄴㅉㅏㄹㅣ	-9340
▁ㅇㅏㄴㅣㄴㄱㅓ	-9341
▁ㅇㅓㅄㅈㅏㄶㅇㅏ	-9342
ㅇㅓㅇㅑㅎㅏㄴㄷㅏ	-9343
▁ㅂㅕㅇㅅㅣㄴㄴㅕㄴ	-9344
ㄷㅗㄷ	-9345
ㅈㄱㅗ	-9346
▁ㅇㅗㅎㅐ	-9347
▁ㅇㅢㅇㅚ	-9348
▁ㅎㅓㄱㅏ	-9349
ㅁㅐㄱㅜㄱ	-9350
▁ㅁㅏㅈㄴㅔ	-9351
▁ㅂㅐㅅㅗㅇ	-9352
▁ㅇㅣㄴㄱㅏ	-9353
▁ㅌㅏㄱㅕㄱ	-9354
ㄴㅏㅇㅘㅅㅓ	-9355
ㅊㅗㅇㅈㅏㅇ	-9356
ㅎㅚㅅㅏㄱㅏ	-9357
▁ㄷㅚㄴㅣㄲㅏ	-9358
▁ㅈㅜㅇㄷㅗㄱ	-9359
▁ㄷㅟㅌㅗㅇㅅㅜ	-9360
▁ㅈㅏㄹㅁㅗㅅㅎㅏㄴ	-9361
▁ㄴㅏㅇㅘㅆㄴㅡㄴㄷㅔ	-9362
▁ㅇㅗㄹㅐㄴㅁㅏㄴㅇㅔ	-9363
▁ㅊㅚㅅㅜㄴㅅㅣㄹㅇㅡㄹ	-9364
▁ㅅㅐㅇㄱㅏㄱㅎㅐㅆㄴㅡㄴㄷㅔ	-9365
.?	-9366
ㄱㅙㄴ	-9367
ㄱㅗㅇㅔ	-9368
ㅎㅜㅂㅗ	-9369
▁ㅇㅏㅂㅔ	-9370
▁ㅈㅔㅈㅜ	-9371
ㅌㅐㄱㅡㄱ	-9372
ㅍㅡㄹㄹㅓ	-9373
▁ㅅㅣㅍㅈㅣ	-9374
▁ㅆㅏㅈㅣㄹ	-9375
▁ㅇㅏㄲㅕㅆ	-9376
ㅅㅏㄴㅁㅜㄹ	-9377
▁ㄱㅗㅇㅎㅘㅇ	-9378
▁ㄴㅏㅁㅊㅣㄴ	-9379
▁ㅇㅕㄹㅇㅣㄹ	-9380
ㅁㅜㄴㅈㅔㄴㅡㄴ	-9381
▁ㅁㅏㅇㅡㅁㅇㅡㄹ	-9382
▁ㅈㅜㄹㅈㅜㄹㅇㅣ	-9383
▁ㅇㅕㅁㅂㅕㅇㅎㅏㄴㅔ	-9384
▁ㅅㅓㅁㅣㄴㄷㅡㄹㅁㅏㄴ	-9385
22	-9386
▁mc	-9387
ㅓㅎㅕㅇ	-9388
▁ㅆㅓㅅㅓ	-9389
ㄱㅡㄱㅓㄹ	-9390
ㅈㅏㅇㅝㄴ	-9391
▁ㅇㅓㄹㅕㅂㄱㅔ	-9392
▁ㄱㅣㄹㅡㅁㄱㅏㅄ	-9393
▁ㅅㅏㅁㅅㅓㅇㅇㅔㅅㅓ	-9394
▁ㅁㅏㄹㄷㅗㅇㅏㄴㄷㅚㄴㅡㄴ	-9395
▁ㅅㅓㄲ	-9396
ㅂㅗㅎㅗ	-9397
▁ㅊㅔㅍㅗ	-9398
ㄱㅕㅇㄱㅣ	-9399
ㄷㅐㅎㅏㄱ	-9400
ㅁㅣㄴㅇㅣ	-9401
ㅈㅓㄴㅎㅘ	-9402
ㅌㅐㅎㅕㄴ	-9403
▁ㄱㅖㅅㅣㄴ	-9404
▁ㄷㅐㅂㅕㄴ	-9405
▁ㅂㅏㄹㅎㅘ	-9406
▁ㅂㅓㄹㄱㅗ	-9407
▁ㅂㅘㅆㄷㅏ	-9408
▁ㅅㅗㅅㅣㄴ	-9409
ㅅㅏㄹㅇㅣㄴ	-9410
ㅣㄴㄷㅏㄱㅗ	-9411
▁ㅅㅣㄹㅋㅓㅅ	-9412
▁ㅈㅡㄹㄱㅓㅇ	-9413
▁ㅇㅏㄶㄴㅏㅇㅛ	-9414
▁ㅇㅏㅁㅜㅌㅡㄴ	-9415
▁ㅇㅕㄱㅣㄴㅡㄴ	-9416
ㄸㅓㄹㅇㅓㅈㅣㄴ	-9417
▁ㅈㅏㄹㅁㅗㅅㅇㅣ	-9418
▁ㅅㅐㅇㄱㅏㄱㅁㅏㄴ	-9419
▁ㅇㅣㄱㅓㅅㅈㅓㄱㅓㅅ	-9420
ㅡㄹㅡㄹ	-9421
▁ㅁㅏㅈㅊ	-9422
ㄴㅏㅃㅡㄴ	-9423
ㅇㅡㄹㄱㅓ	-9424
ㅈㅓㅈㅣㄹ	-9425
ㅍㅗㅎㅏㅁ	-9426
▁ㅁㅏㄴㄷㅡ	-9427
▁ㅇㅚㅎㅘㄴ	-9428
▁ㅈㅓㄴㄹㅑㅇ	-9429
▁ㅎㅕㅇㅍㅕㄴ	-9430
▁ㄷㅚㅇㅓㅆㄷㅏ	-9431
ㅅㅡㅇㅈㅏㅇㄱㅜ	-9432
▁ㅇㅗㄴㄹㅏㅇㅣㄴ	-9433
▁ㅈㅗㅅㅏㅎㅐㅅㅓ	-9434
▁ㅈㅓㅇㅎㅘㄱㅎㅏㄴ	-9435
ㄴㅡㅁ	-9436
ㅐㄷㅡㄹ	-9437
▁ㄸㅏㄹㅡㄴ	-9438
▁ㅇㅣㅆㄱㅣ	-9439
ㅂㅜㄴㄱㅏㄴ	-9440
ㅊㅗㅂㅜㅌㅓ	-9441
▁ㅂㅗㄴㅐㄱㅗ	-9442
▁ㅇㅏㄱㅏㄹㅣ	-9443
▁ㅈㅓㄴㅌㅗㅇ	-9444
ㄱㅡㅁㅇㅡㄹㅗ	-9445
ㅇㅣㅁㅕㄴㅅㅓ	-9446
ㄴㅕㄴㅇㅣㅅㅏㅇ	-9447
ㅎㅐㅇㅑㅎㅏㄴㅡㄴ	-9448
▁ㅁㅗㅅㅎㅏㅁㅕㄴㅅㅓ	-9449
▁ㅅㅐㅇㄱㅏㄱㅎㅐㅅㅓ	-9450
▁ㅇㅏㅇㅣㅇㅗㅇㅏㅇㅣ	-9451
▁ㅇㅏㄱㅍㅡㄹㄹㅓㄷㅡㄹ	-9452
ㄹㅋㅔ	-9453
ㅜㅈㅣ	-9454
ㄱㅔㅆㄱㅗ	-9455
ㅌㅚㄱㅡㄴ	-9456
▁ㄱㅘㅈㅏㅇ	-9457
▁ㅁㅗㅇㅏㅅㅓ	-9458
▁ㅇㅕㅂㅐㅇㅜ	-9459
▁ㅎㅘㄴㅇㅠㄹ	-9460
ㅂㅓㄹㅣㅁㅕㄴ	-9461
ㅇㅣㅈㅐㅇㅛㅇ	-9462
▁ㅈㅓㅈㅓㅇㄷㅗ	-9463
ㅃㅏㄹㄱㅐㅇㅇㅣ	-9464
▁ㄱㅏㅌㅇㅡㅁㅕㄴ	-9465
▁ㅇㅏㄴㄱㅏㄴㅡㄴ	-9466
▁ㅈㅓㄴㅁㅜㄴㄱㅏ	-9467
▁ㅇㅏㅇㅣㄷㅡㄹㅇㅣ	-9468
▁ㅈㅏㅇㅕㄴㅅㅡㄹㅓㅂㄱㅔ	-9469
ㅁㅜㄷ	-9470
▁ㄹㅣㅇㅓㄹ	-9471
▁ㅉㅣㄱㄱㅗ	-9472
ㅇㅔㄱㅔㄷㅗ	-9473
▁ㄷㅏㄴㅣㄱㅗ	-9474
▁ㅆㅡㄷㅏㄱㅏ	-9475
▁ㅇㅕㄱㄱㅕㅇ	-9476
▁ㅎㅏㅇㄱㅗㅇ	-9477
▁ㅇㅣㄴㄱㅣㄱㅏ	-9478
▁ㅈㅏㄱㅕㄱㅇㅣ	-9479
ㄷㅗㅇㅓㅄㄴㅡㄴ	-9480
▁ㅅㅓㅇㅣㄴㅇㅕㅇ	-9481
ㅁㅏㄴㅋㅡㅁㅇㅡㄴ	-9482
▁e	-9483
ㅃㅓㄹ	-9484
ㅋㅐㄴ	-9485
▁ㅌㅣㄴ	-9486
ㄹㅕㄱㅜ	-9487
▁ㄱㅐㄱㅡ	-9488
▁ㅋㅗㅁㅣ	-9489
ㅇㅣㄴㅎㅐ	-9490
ㅇㅣㄹㄸㅐ	-9491
▁ㄴㅏㄹㄸㅟ	-9492
▁ㅁㅓㄱㅈㅣ	-9493
▁ㅂㅓㅂㅊㅣ	-9494
▁ㅅㅣㅋㅣㄹ	-9495
▁ㅍㅗㄴㅇㅣ	-9496
ㅍㅏㄴㄱㅕㄹ	-9497
ㅈㅏㄷㅗㅇㅊㅏ	-9498
▁ㄱㅓㅅㅇㅣㅈㅣ	-9499
▁ㅇㅣㄹㅏㄴㅡㄴ	-9500
▁ㅎㅏㄱㅔㅆㄷㅏ	-9501
▁ㅎㅏㄷㅓㄴㄱㅏ	-9502
▁ㄴㅐㅇㅈㅏㅇㄱㅗ	-9503
▁ㅅㅗㅍㅡㅌㅡㅇㅞ	-9504
ㄹㅏㄱㅏ	-9505
ㅅㅣㅌㅣ	-9506
ㅈㅏㄴㅔ	-9507
▁ㄱㅣㄱㅣ	-9508
▁ㅍㅣㅇㅢ	-9509
ㅁㅓㄴㅈㅓ	-9510
ㅅㅏㅎㅏㅇ	-9511
ㅎㅣㄷㅡㄹ	-9512
▁ㄱㅐㅌㅗㅇ	-9513
▁ㅅㅔㄱㅅㅣ	-9514
▁ㅅㅔㅌㅏㄱ	-9515
▁ㅊㅕㄴㅓㅎ	-9516
ㅂㅏㄱㅎㅏㄴ	-9517
▁ㅇㅣㅎㅐㅇㅏㄴ	-9518
▁ㅈㅏㅇㅅㅣㅎㅗ	-9519
▁ㅂㅓㅂㅈㅓㄱㅇㅡㄹㅗ	-9520
ㅜㅇㅑ	-9521
ㅊㅏㄱㅗ	-9522
▁ㄱㅏㅇㅛ	-9523
▁ㅇㅢㄹㅣ	-9524
▁ㅇㅏㄴㅂㅗㄹ	-9525
▁ㄷㅗㅇㅅㅣㅇㅔ	-9526
▁ㅂㅏㅅㄷㅔㄹㅣ	-9527
▁ㅈㅗㅅㅓㄴㅅㅗ	-9528
▁ㅇㅣㅆㅇㅓㅇㅑㅈㅣ	-9529
▁ㅇㅕㄴㅇㅖㅇㅣㄴㅇㅡㄴ	-9530
ㅣㅇㅕ	-9531
ㅈㅗㅎㄱㅔ	-9532
ㅈㅜㅇㅕㄴ	-9533
ㅎㅕㄴㅈㅐ	-9534
▁ㅂㅓㅌㅣㄹ	-9535
▁ㅇㅖㄹㅡㄹ	-9536
▁ㅇㅠㅇㅣㄴ	-9537
▁ㅊㅏㄱㅊㅟ	-9538
▁ㅁㅕㅇㅂㅐㄱ	-9539
▁ㅎㅐㅂㅘㅇㅑ	-9540
▁ㅁㅜㄴㅈㅔㅇㅑ	-9541
▁ㅇㅟㄴㄷㅗㅇㅜ	-9542
▁ㅍㅡㄹㅏㅇㅅㅡ	-9543
▁ㅇㅣㅆㄴㅡㄴㄱㅓㅈㅣ	-9544
▁ㅇㅣㅉㅡㅁㄷㅚㅁㅕㄴ	-9545
ㅇㅓㅂㅈㅏ	-9546
ㅎㅐㅂㅗㄹ	-9547
▁ㄷㅐㅁㅏㄴ	-9548
▁ㅁㅜㄱㅘㄴ	-9549
▁ㅇㅗㅈㅣㄹㅏ	-9550
ㄴㅏㄹㅏㄹㅡㄹ	-9551
▁ㅁㅏㄹㅇㅣㄴㅑ	-9552
▁ㅁㅣㅅㅏㅇㅣㄹ	-9553
▁ㅇㅚㄱㅜㄱㅇㅔ	-9554
ㅇㅓㅂㅓㄹㅣㄱㅗ	-9555
▁ㅈㅏㅂㅇㅡㅁㅕㄴ	-9556
▁ㄱㅜㄱㄴㅐㅇㅔㅅㅓ	-9557
▁ㅎㅏㄴㅂㅓㄴㅆㅣㄱ	-9558
13	-9559
▁ㄱㅜㄴㅏ	-9560
▁ㅅㅏㅈㅚ	-9561
▁ㅇㅖㄱㅗ	-9562
ㄱㅡㄹㅓㄹ	-9563
▁ㄱㅡㄹㅆㅔ	-9564
▁ㅈㅘㅇㅣㄱ	-9565
ㄱㅜㄱㅈㅓㅇ	-9566
▁ㅂㅏㄱㅌㅏㄹ	-9567
▁ㅅㅏㄹㄹㅕㄱㅗ	-9568
▁ㅇㅣㄹㅓㄴㄱㅣ	-9569
▁ㅎㅐㅈㅜㅁㅕㄴ	-9570
ㅅㅜㄴㅅㅣㄹㅇㅣ	-9571
ㅇㅣㅆㄴㅡㄴㄱㅔ	-9572
ㅇㅓㄱㅏㄴㅡㄴㄷㅔ	-9573
ㅎㅏㄱㅔㅆㄷㅏㄱㅗ	-9574
▁ㄴㅏㅁㅓㅈㅣㄴㅡㄴ	-9575
▁ㄴㅏㅁㅈㅏㄷㅡㄹㅇㅣ	-9576
ㄷㅔㄴ	-9577
ㅂㅐㄴ	-9578
ㅇㅗㅎ	-9579
▁ㅌㅓㅁ	-9580
ㄴㅏㄴㅣ	-9581
▁ㅂㅜㄱㅏ	-9582
▁ㅅㅗㄱㅐ	-9583
ㄱㅐㅇㅣㄴ	-9584
ㄷㅜㄴㅡㄴ	-9585
ㅍㅏㄴㅅㅏ	-9586
▁ㅂㅗㄱㅡㅂ	-9587
▁ㅅㅣㅍㄴㅔ	-9588
ㅁㅏㅈㄴㅡㄴ	-9589
ㅕㅆㅇㅡㄴㅣ	-9590
▁ㄱㅐㅇㅣㄴㅇㅢ	-9591
▁ㄷㅡㄹㅏㅁㅏㄹㅡㄹ	-9592
▁ㅈㅣㄴㅏㄱㅏㄴㅡㄴ	-9593
..!	-9594
▁ㅍㅏㅎㅔ	-9595
ㅇㅓㄹㅣㄴ	-9596
ㅇㅓㅈㅣㄴ	-9597
ㅍㅏㅇㅏㄱ	-9598
▁ㅅㅏㄱㅡㄱ	-9599
▁ㅇㅜㅇㅕㄴ	-9600
▁ㅌㅏㄴㅡㄴ	-9601
▁ㅎㅏㄴㅁㅗ	-9602
ㅇㅣㄴㅁㅕㄹ	-9603
▁ㅅㅏㄹㅉㅏㄱ	-9604
▁ㄱㅏㅂㄴㅣㄷㅏ	-9605
▁ㄱㅣㅎㅚㄹㅡㄹ	-9606
▁ㅎㅏㄹㅁㅏㄹㅇㅣ	-9607
==	-9608
ㄷㅣㄹ	-9609
ㅆㅓㅇㅑ	-9610
ㅕㅇㅇㅣ	-9611
ㅘㅆㄴㅔ	-9612
ㄱㅣㄹㅇㅣ	-9613
ㄷㅓㄴㄱㅓ	-9614
▁ㅅㅔㅈㅗㅇ	-9615
ㅎㅕㄱㅁㅕㅇ	-9616
▁ㄴㅏㅇㅘㄹㅏ	-9617
ㅈㅣㄱㅡㅁㅇㅡㄴ	-9618
▁ㅂㅏㅇㅂㅓㅂㅇㅡㄹ	-9619
▁ㅇㅣㅁㅊㅏㅇㅈㅓㅇ	-9620
▁ㅈㅏㅇㄴㅏㄴㅎㅏㄴㅑ	-9621
▁ㅉㅏㄹㅣ	-9622
ㄴㅗㅈㅐㅁ	-9623
ㅎㅏㄹㅏㄱ	-9624
▁ㅊㅏㅇㅊㅜㄹ	-9625
▁ㅇㅕㄱㅅㅣㄴㅏ	-9626
▁ㅂㅏㄱㅁㅕㅇㅅㅜ	-9627
▁ㅇㅏㄶㄴㅡㄴㄷㅔ	-9628
▁ㅅㅣㅊㅓㅇㄹㅠㄹㅇㅣ	-9629
...!	-9630
▁ㄱㅜㅂ	-9631
▁ㄹㅎㅖ	-9632
ㅇㅖㅇㅛ	-9633
ㅈㅗㄹㅗ	-9634
ㅎㅕㅇㅑ	-9635
▁ㅅㅜㅈㅓㅇ	-9636
▁ㄷㅔㅇㅣㅌㅓ	-9637
▁ㅂㅗㄷㅏㄱㅏ	-9638
▁ㅇㅕㄹㄷㅡㅇ	-9639
▁ㅊㅕㅁㅓㄱㄱㅗ	-9640
▁ㄱㅕㅇㅈㅔㅈㅓㄱ	-9641
▁ㅇㅓㄴㄹㅗㄴㄱㅘ	-9642
▁ㅂㅜㄷㅡㄹㅂㅜㄷㅡㄹ	-9643
▁ㅊㅜㄱㅎㅏㄷㅡㄹㅣㅂㄴㅣㄷㅏ	-9644
ㄴㅓㄴ	-9645
ㅅㅔㅅ	-9646
ㄷㅐㅈㅣ	-9647
ㅅㅏㄱㅘ	-9648
ㅅㅜㄱㅗ	-9649
▁ㄷㅏㅇㅣ	-9650
ㄱㅓㅅㅈㅣ	-9651
ㅂㅐㄹㅡㄹ	-9652
ㅅㄷㅏㄱㅗ	-9653
ㄱㅘㄴㄱㅘㅇ	-9654
ㄴㅏㅂㅗㄴㅔ	-9655
▁ㄴㅜㄴㅇㅡㄹ	-9656
▁ㅊㅏㅁㅅㅓㄱ	-9657
ㅇㅏㄴㅣㄴㄷㅔ	-9658
ㅈㅣㄴㅡㄴㄱㅓ	-9659
▁ㄴㅜㄱㅜㄴㄱㅏ	-9660
▁ㅊㅓㅁㅂㅜㅌㅓ	-9661
▁ㅎㅚㅅㅏㄹㅡㄹ	-9662
▁ㄱㅏㅁㅇㅗㄱㅇㅔ	-9663
ie	-9664
▁ㄸㅡㄹ	-9665
ㅆㄴㅡㄴ	-9666
ㅊㅣㄷㅏ	-9667
▁ㅇㅚㄴㅗ	-9668
▁ㅁㅗㄹㄹㅕ	-9669
▁ㄲㅏㅁㅉㅏㄱ	-9670
▁ㅌㅏㅁㅇㅛㄱ	-9671
ㅂㅗㅂㅅㅣㄷㅏ	-9672
▁ㅁㅣㄹㅐㄴㅡㄴ	-9673
▁ㅇㅣㄹㅓㄹㄸㅐ	-9674
▁ㅎㅏㄹㅕㅁㅕㄴ	-9675
▁ㅁㅏㄹㄹㅗㅁㅏㄴ	-9676
▁ㅅㅐㅇㄱㅕㅆㄷㅏ	-9677
▁ㅇㅓㅄㅇㅡㄴㅣㄲㅏ	-9678
ㅎㅏㄹㄱㅓㅅㅇㅣㄷㅏ	-9679
▁ㅇㅡㅁㅈㅜㅇㅜㄴㅈㅓㄴ	-9680
▁ㅆㅡㄹㅔㄱㅣㄱㅏㅌㅇㅡㄴ	-9681
ㄲㅗㅁ	-9682
ㅊㅣㄴㅑ	-9683
▁ㅈㅜㄱㅔ	-9684
▁ㅍㅖㅅㅙ	-9685
ㄷㅓㄱㅇㅔ	-9686
▁ㅇㅏㄹㅅㅜ	-9687
▁ㅎㅏㄷㅡㅇ	-9688
▁ㅈㅜㅇㄹㅣㅂ	-9689
▁ㅎㅚㅇㄹㅕㅇ	-9690
▁ㅇㅣㅆㄷㅏㄱㅏ	-9691
▁ㅎㅏㄹㅕㄴㅡㄴ	-9692
ㄱㅓㄱㅏㅌㅇㅡㅁ	-9693
ㅈㅗㅎㅇㅡㄴㄷㅔ	-9694
▁ㅈㅓㅇㅇㅠㄹㅏㄱㅏ	-9695
▁ㅇㅣㅂㅓㄴㅇㅔㄴㅡㄴ	-9696
▁ㄱㅜㄱㅎㅚㅇㅢㅇㅝㄴㄷㅡㄹ	-9697
ㅕㅈㅏ	-9698
▁ㄹㅗㄹ	-9699
ㅅㅏㅇㅠ	-9700
▁ㄱㅓㄱㅗ	-9701
▁ㅆㅓㄷㅗ	-9702
ㅅㅔㅇㅕㄴ	-9703
▁ㄱㅓㅇㅣㅁ	-9704
▁ㄱㅡㄹㄱㅗ	-9705
▁ㄱㅣㅁㅇㅜ	-9706
▁ㅂㅏㄺㅎㅣ	-9707
▁ㅊㅓㄷㅏㄴ	-9708
▁ㅇㅏㄱㄷㅓㄱ	-9709
ㄱㅓㅅㅇㅡㄹㅗ	-9710
▁ㄸㅏㅈㅣㅁㅕㄴ	-9711
▁ㅍㅕㅇㅅㅗㅇㅔ	-9712
()	-9713
▁38	-9714
ㅇㅐㅇ	-9715
▁ㅍㅐㅇ	-9716
ㄷㅓㅁㅣ	-9717
ㄹㅣㄴㅣ	-9718
ㅈㅣㄱㅜ	-9719
▁ㄴㅓㄱㅏ	-9720
▁ㅇㅓㄹㅡ	-9721
ㄷㅣㅅㅕㄴ	-9722
ㅂㅓㄹㅣㄹ	-9723
ㅊㅓㄹㅡㄹ	-9724
▁ㄷㅐㅈㅓㅂ	-9725
▁ㅅㅓㅎㅕㄴ	-9726
▁ㅇㅣㅇㅠㄴ	-9727
▁ㅊㅜㅅㅓㄱ	-9728
▁ㅎㅏㅂㅊㅏㅇ	-9729
ㅅㅏㅇㅇㅡㄹㅗ	-9730
▁ㅍㅗㄴㅍㅏㄹㅇㅣ	-9731
ㅏㄱㅏㄴ	-9732
▁ㅈㅓㄱㅏ	-9733
ㅇㅓㅂㄱㅖ	-9734
▁ㅁㅕㅊㅣㄹ	-9735
▁ㅇㅝㄴㅁㅏㅇ	-9736
ㅇㅕㄴㅇㅖㅇㅣㄴ	-9737
▁ㄱㅓㅅㅇㅣㄴㄱㅏ	-9738
▁ㄴㅓㅁㅜㄴㅓㅁㅜ	-9739
▁ㅎㅏㄴㅅㅓㄱㄱㅠ	-9740
▁ㄱㅐㄴㅜㄹㅣㄷㅏㅇ	-9741
▁ㅅㅏㄹㅏㅁㅇㅔㄱㅔ	-9742
▁ㅇㅏㄴㅣㄹㅏㅁㅕㄴ	-9743
▁ㄷㅐㅎㅘ	-9744
ㅂㅓㄴㅎㅗ	-9745
ㄷㅏㄴㅣㄱㅗ	-9746
ㅅㅜㅎㅛㄱㅘ	-9747
▁ㅇㅣㄹㅎㅏㄹ	-9748
ㅂㅜㅌㅓㄴㅡㄴ	-9749
▁ㄱㅜㄱㅎㅚㅇㅢ	-9750
▁ㅌㅐㅇㅓㄴㅏㄴ	-9751
▁ㅇㅣㄴㅏㄹㅏㅇㅔ	-9752
▁ㅈㅗㅎㅇㅡㅁㅕㄴ	-9753
▁ㅎㅖㅌㅐㄱㅇㅡㄹ	-9754
!~	-9755
▁90%	-9756
▁ㅂㅐㅌ	-9757
ㅋㅣㄹㅗ	-9758
▁ㄱㅡㄷㅐ	-9759
▁ㄲㅗㄹㅣ	-9760
▁ㅇㅏㄴㅘ	-9761
ㅇㅠㅈㅓㅇ	-9762
ㅈㅏㄱㅕㄱ	-9763
ㅈㅓㄴㅅㅔ	-9764
ㅈㅣㄹㅇㅔ	-9765
▁ㅎㅗㅎㅘㅇ	-9766
▁ㅁㅗㅂㅏㅇㅣㄹ	-9767
▁ㅈㅓㅇㅂㅜㄷㅗ	-9768
▁ㅁㅏㄶㅇㅡㅁㅕㄴ	-9769
▁ㅅㅏㅇㅎㅘㅇㅇㅡㄹ	-9770
▁ㅍㅕㅇㅂㅓㅁㅎㅏㄴ	-9771
ㄱㅣㅍ	-9772
ㅍㅣㅅㅡ	-9773
ㅏㄹㄸㅐ	-9774
▁ㅆㅡㄴㅑ	-9775
ㅅㅇㅡㅁㅕㄴ	-9776
ㅎㅐㅇㅇㅡㄹ	-9777
▁ㅁㅕㅇㅅㅣㅁ	-9778
▁ㄲㅡㅌㄴㅏㄴㅡㄴ	-9779
▁ㅁㅓㅅㅇㅣㅆㄷㅏ	-9780
▁ㅇㅣㄴㅅㅓㅇㅇㅣ	-9781
ㄱㅜㄱㅁㅣㄴㅇㅡㄴ	-9782
ㅎㅏㄱㅗㅇㅣㅆㄷㅏ	-9783
▁ㅇㅣㄹㅂㅗㄴㅇㅔㅅㅓ	-9784
ㅋㅏㅁ	-9785
▁sbs	-9786
ㅎㅐㅈㅕ	-9787
▁ㅅㅔㅇㅝ	-9788
▁ㅇㅑㅇㅣ	-9789
ㅁㅏㄴㄷㅐ	-9790
▁ㄴㅏㄹㅡㄹ	-9791
▁ㅁㅕㄴㅈㅔ	-9792
▁ㅂㅜㅍㅜㄹ	-9793
▁ㅈㅓㄱㅡㅁ	-9794
▁ㅁㅏㄹㄷㅡㄴ	-9795
▁ㅂㅗㄹㅁㅏㄴ	-9796
▁ㅌㅏㄴㅅㅐㅇ	-9797
▁ㅊㅚㅅㅗㅎㅏㄴㅇㅢ	-9798
▁36	-9799
ㅋㅓㅂ	-9800
ㅍㅓㄴ	-9801
▁ㄴㅏㅃ	-9802
ㅇㅣㄴㅐ	-9803
▁ㅋㅡㄹㅣ	-9804
▁ㅂㅏㅇㅇㅓ	-9805
▁ㅇㅏㅂㄷㅗ	-9806
ㅅㅣㄷㅐㅇㅔ	-9807
▁ㅅㅣㄹㅈㅓㄱ	-9808
ㅅㅗㄹㅣㄹㅡㄹ	-9809
▁ㄷㅓㄹㅓㅂㄷㅏ	-9810
▁ㅁㅗㄹㅡㄹㄲㅏ	-9811
▁ㅂㅜㄹㅡㄴㅡㄴ	-9812
▁ㅇㅣㅅㅏㄹㅏㅁ	-9813
▁ㅎㅏㄴㅏㄴㅡㄴ	-9814
▁ㄷㅡㄹㅇㅓㅇㅗㄴ	-9815
ㄸㅐㅁㅜㄴㅇㅣㄷㅏ	-9816
▁ㄱㅜㅅㅗㄱㅅㅜㅅㅏ	-9817
▁ㅁㅏㅇㅡㅁㄷㅐㄹㅗ	-9818
▁ㅇㅣㄴㄱㅏㄴㅇㅡㄹ	-9819
▁sm	-9820
ㄱㅣㄴㅑ	-9821
ㅔㄹㅏㅇ	-9822
▁ㅁㅗㅇㅕ	-9823
▁ㅍㅗㅅㅡ	-9824
ㄴㅏㅆㄴㅔ	-9825
ㅈㅓㅂㅜㄴ	-9826
ㅎㅑㅇㅇㅣ	-9827
▁ㅂㅔㄷㅐㅅ	-9828
▁ㅂㅡㄹㄹㅜ	-9829
▁ㅇㅏㅅㅣㅇㅏ	-9830
▁ㅇㅑㄱㅈㅓㅇ	-9831
▁ㅈㅏㄴㄸㅡㄱ	-9832
▁ㅈㅗㄴㅈㅜㅇ	-9833
▁ㅈㅗㄹㅇㅓㅂ	-9834
ㅎㅏㄷㅓㄹㅏㄷㅗ	-9835
▁ㅂㅏㅇㅅㅗㅇㅇㅔ	-9836
▁ㅈㅓㅊㅜㄹㅅㅏㄴ	-9837
▁ㄱㅘㄴㄹㅕㄴㄷㅚㄴ	-9838
▁ㅈㅓㅇㅅㅣㄴㅇㅡㄹ	-9839
▁ㄱㅣㅈㅏㅇㅑㅇㅂㅏㄴ	-9840
▁ㅁㅜㄴㅈㅔㅈㅣㅁㅏㄴ	-9841
,2	-9842
ㄷㄷㄷ	-9843
ㄹㅡㅁ	-9844
▁ㄲㅘㄱ	-9845
ㄲㅜㄹㅗ	-9846
ㅅㄱㅏㅄ	-9847
ㄷㅐㅇㅡㅇ	-9848
ㅁㅜㄹㄱㅏ	-9849
ㅅㅜㄴㅣㅁ	-9850
ㅌㅓㄴㅡㄴ	-9851
ㅍㅜㄹㅇㅣ	-9852
ㅐㅇㅜㄱㅗ	-9853
ㅎㅏㄴㅈㅜㄹ	-9854
▁ㄷㅗㄴㅈㅗㅁ	-9855
ㅎㅐㅈㅣㄴㄷㅏ	-9856
▁ㄷㅜㅂㅓㄴㅉㅐ	-9857
▁ㅈㅗㅎㄴㅔㅇㅛ	-9858
▁26	-9859
ㅜㄴㅑ	-9860
▁ㄷㅣㄹ	-9861
▁ㅋㅐㅂ	-9862
ㄹㅗㅁㅏㄴ	-9863
ㅎㅏㄴㄷㅐ	-9864
▁ㄱㅓㅅㅇㅔ	-9865
▁ㄱㅡㄸㅐㄴ	-9866
▁ㅂㅜㅈㅏㄱ	-9867
▁ㅇㅕㄱㅣㄴ	-9868
ㅇㅣㅇㅑㄱㅣ	-9869
▁ㅁㅗㅅㅁㅣㄷ	-9870
ㅎㅏㄴㅣㄲㅏㄴ	-9871
▁ㄴㅐㅁㅅㅐㄱㅏ	-9872
▁ㅊㅓㅇㅇㅘㄷㅐㅇㅔ	-9873
▁ㅁㅏㄶㅅㅡㅂㄴㅣㄷㅏ	-9874
ㅇㅟㄴ	-9875
▁ㅂㅐㅅ	-9876
ㅈㅣㅁㅝ	-9877
ㅜㄹㅇㅔ	-9878
▁ㄱㅣㅇㅓ	-9879
▁ㅎㅏㅇㅣ	-9880
ㅇㅏㅇㅜㅅ	-9881
ㅊㅔㄴㅡㄴ	-9882
ㅅㅣㄴㅗㅌㅡ	-9883
▁ㄷㅡㄹㅓㄴㅏ	-9884
▁ㅇㅏㅍㅈㅏㅇ	-9885
▁ㅇㅣㅈㅔㅇㅑ	-9886
▁ㅇㅏㄴㄷㅚㅅㅓ	-9887
ㅇㅣㄷㅡㄹㅇㅡㄴ	-9888
▁ㅁㅏㅈㄴㅡㄴㄱㅓ	-9889
▁ㅂㅏㄷㄴㅡㄴㄷㅏ	-9890
▁ㅈㅓㅇㄱㅝㄴㅇㅡㄹ	-9891
ㄲㅕ	-9892
ㅈㅗㅇㅢ	-9893
ㅕㄹㅡㄹ	-9894
▁ㅎㅓㅅㅔ	-9895
ㄱㅗㅇㅂㅜ	-9896
ㅂㅏㄹㅍㅛ	-9897
ㅇㅐㅍㅡㄹ	-9898
ㅇㅣㄹㄱㅏ	-9899
▁ㄱㅓㅁㅌㅗ	-9900
▁ㄱㅜㄱㄱㅐ	-9901
▁ㅇㅖㅈㅓㅇ	-9902
ㅇㅣㅆㅇㅓㅇㅑ	-9903
▁ㄱㅏㄱㅕㄱㄷㅗ	-9904
▁ㅇㅐㄷㅡㄹㄷㅗ	-9905
▁ㄴㅓㅁㅇㅓㄱㅏㄹ	-9906
▁ㅊㅐㄱㅇㅣㅁㅇㅡㄴ	-9907
ㅍㅏㅂ	-9908
ㅏㄴㅇㅔ	-9909
▁ㅍㅏㄱㅚ	-9910
▁ㅈㅣㄴㅂㅗ	-9911
▁ㄷㅡㅇㄹㅗㄱ	-9912
▁ㅈㅡㄱㄱㅏㄱ	-9913
▁ㅎㅏㄷㅏㄴㅣ	-9914
ㄱㅓㄹㅏㄴㅡㄴ	-9915
ㄷㅡㄹㄲㅣㄹㅣ	-9916
ㅅㅜㅇㅣㅆㄱㅔ	-9917
▁ㄷㅗㄹㅇㅏㅇㅘ	-9918
▁ㅂㅓㅂㄷㅐㄹㅗ	-9919
▁ㄱㅔㅇㅣㅁㅇㅡㄴ	-9920
▁ㅁㅜㄴㅈㅔㅇㅣㄴ	-9921
se	-9922
ㅉㅗㄱㅇㅔ	-9923
▁ㅈㅗㅈㅗㅇ	-9924
ㅎㅏㄴㅌㅔㄴ	-9925
▁ㅁㅕㄴㅅㅏㅇ	-9926
▁ㅂㅏㄴㅇㅕㅇ	-9927
ㅅㅣㅅㅡㅌㅔㅁ	-9928
▁ㄱㅣㅂㅜㄴㅇㅣ	-9929
▁ㅂㅓㄹㅣㄴㅡㄴ	-9930
▁ㅊㅏㅁㄱㅗㄹㅗ	-9931
▁ㅎㅡㅇㅎㅐㄹㅏ	-9932
▁ㅎㅏㄹㅌㅔㄴㄷㅔ	-9933
▁ㄴㅏㄹㅏㄲㅗㄹㅇㅣ	-9934
▁ㄷㅐㅂㅜㅂㅜㄴㅇㅢ	-9935
▁ㄱㅕㄹㅎㅗㄴㅎㅏㄱㅗ	-9936
▁ㄱㅗㅇㅁㅜㅇㅝㄴㅇㅣ	-9937
ㅑㅁ	-9938
▁28	-9939
ㄴㅓㅎㅢ	-9940
▁ㅊㅏㄹㅖ	-9941
ㄱㅖㅌㅏㅇ	-9942
ㅎㅘㄴㅇㅣ	-9943
▁ㄱㅓㄹㄱㅗ	-9944
▁ㄱㅕㄹㅈㅔ	-9945
▁ㅂㅏㄲㅟㄹ	-9946
▁ㅂㅓㅂㅁㅜ	-9947
▁ㅈㅗㅅㅓㅇ	-9948
▁ㅈㅗㅇㅕㄴ	-9949
ㄴㅡㄴㄱㅓㅅ	-9950
ㅂㅓㄹㅕㅇㅑ	-9951
ㅌㅔㄴㅣㄲㅏ	-9952
ㅌㅗㅇㅈㅏㅇ	-9953
▁ㅇㅕㄴㄱㅘㄴ	-9954
▁ㅈㅓㄴㅁㅕㄴ	-9955
▁ㅊㅓㄴㄱㅜㄱ	-9956
▁ㅊㅜㄹㅅㅓㄱ	-9957
▁ㅍㅗㄱㄷㅗㅇ	-9958
▁ㅈㅓㅇㄷㅗㅇㅢ	-9959
ㅇㅓㅄㅈㅣㅁㅏㄴ	-9960
▁ㅇㅓㅄㅇㅓㅈㅣㄹ	-9961
▁ㅁㅓㄹㅉㅓㅇㅎㅏㄴ	-9962
▁ㅇㅣㄹㅂㅗㄴㅇㅡㄹㅗ	-9963
▁ㅈㅣㄱㅡㅁㅊㅓㄹㅓㅁ	-9964
▁ㅎㅕㄴㅅㅣㄹㅇㅣㄷㅏ	-9965
▁ㅅㅏㄹㅏㅁㄷㅡㄹㅇㅔㄱㅔ	-9966
ㄴㅏㅇㅑ	-9967
ㄹㅕㅇㅛ	-9968
ㅅㅜㅇㅘ	-9969
▁ㅂㅓㅅㅡ	-9970
▁ㅇㅣㅇㅘ	-9971
ㄹㅗㅅㄷㅔ	-9972
ㅇㅢㄹㅡㄹ	-9973
ㅌㅡㅁㅏㄴ	-9974
ㅏㄹㅏㄱㅏ	-9975
▁ㅇㅛㅊㅓㅇ	-9976
▁ㅊㅐㅇㅛㅇ	-9977
ㅂㅓㅂㅇㅣㄴ	-9978
▁ㅅㅣㅁㅎㅏㄴ	-9979
▁ㅇㅣㅆㅈㅏㄶㅇㅏ	-9980
▁ㅈㅣㄴㅅㅣㄹㅇㅣ	-9981
▁ㅈㅏㄹㅅㅐㅇㄱㅣㄴ	-9982
me	-9983
ㅂㅏㄼ	-9984
ㅜㅇㅘ	-9985
ㅡㅇㅟ	-9986
ㄲㅓㄱㅗ	-9987
ㄷㅐㅇㅟ	-9988
▁ㅌㅐㅎㅜ	-9989
ㄱㅜㄱㄴㅐ	-9990
ㅁㅏㄴㅅㅔ	-9991
ㅇㅜㄹㅣㄱㅏ	-9992
▁ㅁㅗㄹㅡㄱㅔ	-9993
▁ㅎㅘㅇㄱㅡㅁ	-9994
▁ㅎㅣㅂㅎㅏㅂ	-9995
ㅎㅐㅆㄷㅓㄴㅣ	-9996
▁ㄱㅡㄹㅓㄴㄱㅔ	-9997
▁ㅂㅣㅆㅏㅁㅕㄴ	-9998
▁ㅂㅣㅈㅜㅇㅓㄹ	-9999
▁ㅎㅏㄹㅏㄴㅡㄴ	-10000
▁ㅇㅏㅍㅡㄹㅣㅋㅏ	-10001
▁ㅇㅣㅆㄷㅓㄴㄷㅔ	-10002
▁ㅇㅕㅇㅇㅝㄴㅎㅏㄴ	-10003
▁ㅈㅜㅇㅇㅛㅎㅏㄴㄱㅓㄴ	-10004
ㄱㅜㄱㅁㅣㄴㄷㅡㄹㅇㅡㄴ	-10005
▁ㅂㅠ	-10006
ㄲㅏㅅ	-10007
ㅠㄱㅣ	-10008
ㄱㅠㅁㅗ	-10009
ㄸㅐㅁㅐ	-10010
▁ㅇㅏㄴㅐ	-10011
▁ㅇㅢㅈㅣ	-10012
▁ㅋㅏㅍㅣ	-10013
ㅇㅣㅂㅓㄹ	-10014
▁ㅁㅏㄱㄱㅗ	-10015
▁ㅂㅓㅂㅇㅢ	-10016
▁ㅎㅏㄱㅣㄹ	-10017
▁ㅎㅏㄹㄱㅓ	-10018
▁ㅁㅜㄱㅗㅈㅚ	-10019
▁ㅇㅏㄹㅁㅕㄴ	-10020
ㅇㅝㄴㅇㅡㄹㅗ	-10021
ㅇㅣㄴㄷㅔㅇㅛ	-10022
▁ㄷㅓㅂㅡㄹㅇㅠ	-10023
▁ㄷㅚㅈㅏㄶㅇㅏ	-10024
▁ㅈㅐㅅㅏㄴㅇㅡㄹ	-10025
▁ㅊㅐㅇㄱㅣㄴㅡㄴ	-10026
▁ㅅㅔㅅㅏㅇㅇㅔㅅㅓ	-10027
▁ㅇㅏㅇㅣㅍㅗㄴㅇㅣ	-10028
▁ㄷㅡㄹㅇㅓㅇㅗㅁㅕㄴ	-10029
ㅂㅏㄲㅝ	-10030
ㅆㅏㄱㅔ	-10031
ㅇㅏㄹㅣ	-10032
ㅌㅣㄱㅏ	-10033
▁ㄷㅗㅇㅈㅓㅇ	-10034
▁ㅅㅓㅇㄱㅕㅇ	-10035
▁ㄸㅓㄷㅡㄴㅡㄴ	-10036
▁ㅇㅏㄴㅆㅡㄱㅗ	-10037
▁ㅈㅔㅈㅗㅇㅓㅂ	-10038
▁ㄱㅣㅁㄱㅕㅇㅅㅜㄱ	-10039
▁ㅇㅣㅆㄴㅡㄴㄱㅓㄴ	-10040
ㅎㅏㄴㄷㅏㄴㅡㄴㄱㅔ	-10041
▁ㄷㅏㅇㅇㅕㄴㅎㅏㅈㅣ	-10042
▁ㅇㅏㄴㄴㅏㅇㅗㄴㄷㅏ	-10043
............	-10044
?"	-10045
ㅅㅡㄱ	-10046
ㄴㅗㅇㅖ	-10047
▁ㄲㅏㄱㅗ	-10048
▁ㅈㅐㄹㅛ	-10049
ㅈㅜㄱㅜㄱ	-10050
ㅇㅏㄴㅎㅏㅁ	-10051
▁ㄴㅗㅎㅇㅡㄴ	-10052
▁ㄷㅡㄹㅁㅓㄱ	-10053
▁ㅅㅣㄴㅂㅜㄴ	-10054
▁ㅊㅡㄱㄱㅡㄴ	-10055
ㄹㅕㄱㅇㅡㄹㅗ	-10056
ㅇㅓㅆㄱㅜㄴㅏ	-10057
▁ㅇㅟㅅㄷㅐㄱㅏㄹㅣ	-10058
▁ㄴㅐㄱㅔ	-10059
▁ㄷㅜㅂㅐ	-10060
ㄱㅏㄹㅇㅣ	-10061
ㄱㅏㅇㄷㅗ	-10062
ㄱㅣㅇㅓㄱ	-10063
ㅐㅇㅑㅈㅣ	-10064
▁ㄱㅡㅁㅅㅜ	-10065
▁ㅈㅐㄴㅡㅇ	-10066
▁ㅈㅓㄱㅇㅣ	-10067
▁ㅉㅣㅈㅇㅓ	-10068
ㄱㅗㅇㄱㅡㅂ	-10069
ㄷㅚㄴㅣㄲㅏ	-10070
ㅅㅣㅁㅍㅏㄴ	-10071
ㅈㅣㄴㅇㅏㄶ	-10072
▁ㅅㅐㅇㅈㅗㄴ	-10073
▁ㅅㅣㅋㅕㅅㅓ	-10074
▁ㅈㅓㄱㅇㅡㅇ	-10075
▁ㅎㅏㄴㅏㄹㅗ	-10076
ㄷㅓㄹㅓㅇㅜㄴ	-10077
▁ㅅㅜㅈㅜㄴㅇㅡㄹㅗ	-10078
▁ㅈㅗㅇㅅㅣㄴㅎㅕㅇ	-10079
▁ㅇㅏㄹㅁㅕㄴㅅㅓㄷㅗ	-10080
ㅡㅍ	-10081
▁5%	-10082
ㄱㅏㅌㄱㅗ	-10083
ㅁㅣㄹㅡㄹ	-10084
ㅈㅏㅂㅇㅣ	-10085
▁ㄴㅏㅁㅈㅜ	-10086
▁ㅁㅗㄹㅋㅏ	-10087
▁ㅅㅏㅁㄱㅏ	-10088
▁ㅅㅓㄷㅡㄴ	-10089
▁ㅇㅠㄷㅗㄱ	-10090
▁ㅎㅏㅍㅣㄹ	-10091
▁ㅂㅓㅌㅣㄱㅗ	-10092
▁ㅇㅏㄴㅁㅏㅇ	-10093
ㅅㅏㅇㅇㅔㅅㅓ	-10094
▁ㄱㅣㅈㅏㄴㅡㄴ	-10095
▁ㅇㅑㅇㅅㅣㅁㄷㅗ	-10096
▁ㅇㅠㄱㅈㅣㄷㅏㅁ	-10097
▁ㄱㅐㅅㅓㅇㄱㅗㅇㄷㅏㄴ	-10098
ㄱㅋ	-10099
▁ㅋㅜㄹ	-10100
ㅂㅗㅁㅕ	-10101
ㅈㅏㅇㅣ	-10102
▁ㄷㅐㅅㅏ	-10103
ㅁㅏㅇㅇㅣ	-10104
ㅎㅏㄱㅓㅅ	-10105
▁ㄴㅓㅁㄱㅕ	-10106
▁ㅂㅐㄱㄴㅏㄹ	-10107
▁ㅎㅏㄴㄱㅡㄹ	-10108
ㅇㅗㄹㄹㅣㄱㅗ	-10109
ㅎㅏㄱㅣㄴㅡㄴ	-10110
ㅎㅐㅅㅓㄹㅏㄷㅗ	-10111
▁ㅁㅗㅅㅅㅐㅇㄱㅣㄴ	-10112
!"	-10113
▁ㄴㅜㅇ	-10114
ㅅㅗㄹㅗ	-10115
ㅡㅁㅏㄴ	-10116
ㄷㅏㄹㅇㅔ	-10117
ㅅㅓㄴㅅㅜ	-10118
ㅍㅏㄹㅇㅏ	-10119
▁ㅅㅏㄻㅇㅢ	-10120
▁ㅅㅔㅅㅡㅂ	-10121
▁ㅈㅜㅁㅜㄴ	-10122
ㄱㅗㅇㄱㅕㄱ	-10123
ㅁㅗㄹㅡㄱㅗ	-10124
ㅈㅓㄹㅎㅏㄴ	-10125
ㅇㅣㄷㅓㄴㄷㅔ	-10126
▁ㅁㅏㄴㄴㅏㄴㅡㄴ	-10127
▁ㅈㅏㅅㅣㄴㅇㅡㄹ	-10128
▁ㅎㅣㅁㅇㅓㅄㄴㅡㄴ	-10129
▁ㄷㅜㄱㅐ	-10130
▁ㅇㅐㅂㅣ	-10131
▁ㅇㅣㄴㅏ	-10132
ㄱㅣㅎㅚㄱ	-10133
ㅇㅓㅇㅗㄹ	-10134
ㅈㅡㅇㄱㅓ	-10135
▁ㄱㅗㅇㅐㄱ	-10136
▁ㅂㅏㅇㅅㅜ	-10137
▁ㅇㅏㄹㅐㅅ	-10138
ㄱㅏㄱㅕㄱㅇㅣ	-10139
▁ㅇㅏㅇㅣㅋㅗㄴ	-10140
ㅇㅣㄹㅏㄴㅡㄴㄷㅔ	-10141
▁ㄱㅕㅇㅇㅕㅇㅈㅣㄴ	-10142
▁ㅇㅏㅍㅇㅡㄹㅗㄴㅡㄴ	-10143
▁ㅈㅏㅇㅕㅇㅇㅓㅂㅈㅏ	-10144
25	-10145
ve	-10146
ㅅㄴㅏ	-10147
▁ㅌㅗㅂ	-10148
ㄷㅔㄱㅣ	-10149
ㄷㅡㄴㅏ	-10150
ㅍㅡㄹㅏ	-10151
ㄴㅗㅁㅇㅢ	-10152
▁ㄱㅓㄹㄹㅣ	-10153
▁ㅇㅏㄴㅂㅘ	-10154
▁ㅇㅣㄴㅌㅓ	-10155
▁ㅈㅏㅇㅇㅐ	-10156
▁ㅈㅜㄴㄷㅏ	-10157
ㄱㅏㅁㅈㅓㅇ	-10158
ㅆㄱㅜㅁㅏㄴ	-10159
ㅎㅘㄱㅇㅣㄴ	-10160
▁ㄲㅡㅁㅉㅣㄱ	-10161
▁ㅁㅣㄴㅅㅐㅇ	-10162
▁ㅇㅏㅇㅣㅌㅔㅁ	-10163
▁ㅎㅏㄹㅁㅓㄴㅣ	-10164
▁ㅅㅣㄴㅏㄹㅣㅇㅗ	-10165
▁ㅇㅓㅉㅐㅆㄷㅡㄴ	-10166
▁ㄷㅚㄴㅡㄴㄱㅓㅈㅣ	-10167
▁ㅇㅔㅇㅓㅋㅓㄴㄷㅗ	-10168
.0	-10169
▁MB	-10170
ㅎㅐㄱㅏ	-10171
ㅠㅇㅓㄹ	-10172
▁ㅇㅖㅃㅓ	-10173
ㄱㅣㅅㅣㅀ	-10174
ㅅㅔㅌㅏㄱ	-10175
▁ㅎㅓㅈㅓㅂ	-10176
ㅇㅏㅆㄷㅓㄴ	-10177
ㅈㅓㄴㄹㅕㄱ	-10178
▁ㅁㅗㅅㅁㅓㄱ	-10179
▁ㅅㅓㄹㅈㅓㅇ	-10180
▁ㅈㅓㅇㅊㅣㄱㅏ	-10181
ㄱㅓㅈㅣㅅㅁㅏㄹ	-10182
▁ㄷㅏㄴㅅㅜㄴㅎㅣ	-10183
▁ㅇㅓㄴㅈㅔㄴㄱㅏ	-10184
▁ㅁㅣㄱㅜㄱㅇㅡㄹㅗ	-10185
▁ㅋㅋㅋㅋㅋㅋㅋㅋㅋㅋㅋㅋ	-10186
ㅡㅌㅗㅂ	-10187
ㅅㅣㄹㅏㄱ	-10188
▁ㅇㅏㄴㅂㅗㄴ	-10189
▁ㅈㅓㅁㅅㅣㅁ	-10190
▁ㅈㅣㄴㅅㅏㅇ	-10191
▁ㅎㅏㄴㅏㅇㅛ	-10192
ㄹㅣㅁㅕㄴㅅㅓ	-10193
▁ㅈㅓㅇㅊㅣㅇㅔ	-10194
▁ㄷㅏㅇㅎㅏㄴㅡㄴ	-10195
ㅈㅣㄱㅇㅝㄴㄷㅡㄹ	-10196
▁ㅈㅣㄴㅅㅣㄹㅇㅡㄴ	-10197
▁ㄸㅓㄹㅇㅓㅈㅣㄴㄷㅏ	-10198
▁ㅅㅡㅇㅅㅡㅇㅈㅏㅇㄱㅜ	-10199
24	-10200
▁27	-10201
ㅡㄴㅑㅇ	-10202
ㄷㅜㄱㅏㄱ	-10203
ㅈㅔㅈㅏㄱ	-10204
▁ㄱㅗㅇㄱㅣ	-10205
▁ㅇㅗㅍㅡㄴ	-10206
▁ㅇㅣㅇㅜㅅ	-10207
ㅃㅏㅈㅣㄱㅔ	-10208
ㅈㅜㅈㅔㅇㅔ	-10209
ㅍㅡㄹㅗㄱㅏ	-10210
▁ㅁㅏㅈㅇㅡㄹ	-10211
▁ㅁㅔㄹㄹㅗㄴ	-10212
▁ㅅㅣㄹㅎㅐㅇ	-10213
▁ㅈㅣㅋㅣㄱㅗ	-10214
▁ㅎㅏㅁㅌㅡㅅ	-10215
ㅂㅏㄷㅇㅏㄹㅏ	-10216
ㅊㅣㅁㅕㄴㅅㅓ	-10217
ㅎㅐㅈㅣㅁㅕㄴ	-10218
▁ㅇㅓㅈㅣㄱㅏㄴ	-10219
▁ㅇㅓㄹㅁㅏㅈㅓㄴ	-10220
▁ㅂㅗㄹㄸㅐㅁㅏㄷㅏ	-10221
▁ㅅㅏㅁㅅㅓㅇㅈㅓㄴ	-10222
▁ㅈㅓㅇㅅㅣㄴㅈㅓㄱ	-10223
ㅋㅑ	-10224
ㅉㅓㄹ	-10225
ㅂㅗㅇㅠ	-10226
ㅌㅓㅇㅔ	-10227
ㄱㅣㅎㅏㄴ	-10228
ㄷㅏㄴㅣㄹ	-10229
ㄷㅏㅂㄷㅏ	-10230
▁ㅇㅠㅂㅜㄴ	-10231
▁ㄱㅜㄴㅇㅣㄴ	-10232
▁ㄷㅗㅇㅊㅏㅁ	-10233
▁ㅇㅏㄴㅣㄴㅣ	-10234
ㅈㅏㄹㅏㄴㅡㄴ	-10235
▁ㄱㅏㅇㅎㅏㄱㅔ	-10236
▁ㄱㅏㅌㅇㅡㄴㅣ	-10237
▁ㅅㅏㅆㄴㅡㄴㄷㅔ	-10238
▁ㅇㅠㅁㅕㅇㅎㅏㄴ	-10239
▁ㅇㅣㅆㄱㅔㅆㄴㅑ	-10240
ㅂㅗㄱㅗㅅㅣㅍㄷㅏ	-10241
▁ㄱㅣㅈㅏㅎㅚㄱㅕㄴ	-10242
▁ㅂㅏㅇㅂㅓㅂㅇㅡㄴ	-10243
▁ㅅㅏㄹㅏㅇㅎㅏㅂㄴㅣㄷㅏ	-10244
▁ㅁㅏㄴㄷㅡㄹㅇㅓㄴㅗㅎㄱㅗ	-10245
ㅅㅏㅇㅑ	-10246
ㅓㅇㅜㅁ	-10247
▁ㅂㅏㄹㅐ	-10248
ㄱㅣㅂㅗㄴ	-10249
ㅅㅏㄹㅇㅏ	-10250
ㅣㄲㅣㄹㅣ	-10251
▁ㄷㅐㄹㅑㅇ	-10252
▁ㅈㅣㄴㅡㅇ	-10253
▁ㄱㅗㅁㅏㅇㅝ	-10254
ㄱㅡㄱㅓㅅㄷㅗ	-10255
▁ㄸㅓㄷㅡㄹㅇㅓ	-10256
▁ㄹㅗㅅㄷㅔㄴㅡㄴ	-10257
▁ㅅㅓㅇㅊㅏㅇㅎㅗ	-10258
ㅅㅡㄹㅔ	-10259
▁ㄸㅟㅇㅓ	-10260
▁ㅈㅣㄹㅜ	-10261
ㅇㅏㅆㅈㅣ	-10262
ㅎㅗㄹㅡㄹ	-10263
ㄱㅡㅁㅇㅡㄴ	-10264
ㅅㅐㅇㄱㅕㅆ	-10265
▁ㅇㅓㅉㅓㄷㅏ	-10266
▁ㅇㅗㅀㅇㅡㄴ	-10267
▁ㅇㅘㅇㅣㅍㅡ	-10268
ㅇㅓㄱㅉㅏㄹㅣ	-10269
▁ㅅㅏㅇㅎㅘㅇㅇㅔ	-10270
▁ㅈㅓㅇㅇㅢㄹㅡㄹ	-10271
ㅈㅓㅇㅅㅣㄴㅊㅏㄹ	-10272
ㅜㅅㅡ	-10273
ㅁㅣㄹㅗ	-10274
ㅈㅝㅇㅛ	-10275
ㄴㅏㅆㄷㅏ	-10276
ㅇㅜㅅㅓㄴ	-10277
ㅇㅣㅁㅇㅣ	-10278
▁ㄱㅐㅈㅓㅇ	-10279
▁ㄴㅗㄹㅡㅅ	-10280
▁ㅇㅠㅈㅓㅇ	-10281
ㄷㅡㄹㅇㅣㅁ	-10282
▁ㅈㅜㅇㅅㅣㅁ	-10283
▁ㅊㅓㄴㅁㅏㄴ	-10284
ㅇㅣㅆㅇㅓㄷㅗ	-10285
▁ㄱㅏㄴㅁㅏㄴㅇㅔ	-10286
▁ㅅㅗㄴㅕㅅㅣㄷㅐ	-10287
▁ㅈㅓㄱㅓㅅㄷㅡㄹ	-10288
▁ㅈㅜㄱㅇㅡㅁㅕㄴ	-10289
▁ㅎㅓㄴㅈㅐㄴㅡㄴ	-10290
▁ㄱㅗㅇㅈㅓㅇㅎㅏㄴ	-10291
▁ㄲㅗㅊㄱㅣㄹㅁㅏㄴ	-10292
▁ㅇㅓㅂㄷㅔㅇㅣㅌㅡ	-10293
▁ㄷㅐㅅㄱㅡㄹㅇㅏㄹㅂㅏ	-10294
ㄹㅎㅖ	-10295
ㄷㅟㅇㅔ	-10296
ㅡㄴㄷㅔ	-10297
ㅇㅓㄴㅓㅎ	-10298
ㅇㅣㄴㅓㅁ	-10299
▁ㄷㅏㄹㅇㅢ	-10300
▁ㅇㅐㄴㅏㅎ	-10301
▁ㅇㅔㄹㄹㅣ	-10302
▁ㅎㅗㅇㅊㅐ	-10303
ㅈㅣㅂㄱㅏㅄ	-10304
ㅎㅏㄴㅈㅓㄴ	-10305
ㅇㅣㅇㅠㄴㅡㄴ	-10306
▁ㄱㅗㅅㅡㅌㅗㅂ	-10307
▁ㄷㅚㄴㅡㄴㄱㅔ	-10308
ㄱㅣㄴㅎㅏㄴㄷㅔ	-10309
▁ㅇㅣㄱㅓㅅㄷㅡㄹㅇㅏ	-10310
▁ㄱㅣㅇㅓㅂㄷㅡㄹㅇㅡㄴ	-10311
▁ㅃㅓ	-10312
ㅅㅏㄷㅡ	-10313
▁ㅁㅝㅎㅐ	-10314
▁ㅂㅗㅁㅕ	-10315
▁ㅈㅣㅇㅓ	-10316
▁ㅁㅜㅅㅓㄴ	-10317
▁ㅅㅣㅁㄹㅣ	-10318
▁ㅋㅣㅇㅜㄴ	-10319
ㅁㅗㅅㅎㅏㄴ	-10320
ㅈㅜㅇㄱㅏㄴ	-10321
ㅊㅜㅇㄱㅕㄱ	-10322
▁ㅅㅣㄹㅁㅕㅇ	-10323
▁ㅆㅡㅂㅆㅡㄹ	-10324
▁ㅎㅏㄴㅂㅏㅇ	-10325
ㄴㅗㅁㅜㅎㅕㄴ	-10326
▁ㅇㅏㄹㅍㅏㄱㅗ	-10327
ㅇㅓㅄㄷㅏㄴㅡㄴ	-10328
▁ㄱㅏㅌㅇㅡㄴㄱㅓ	-10329
▁ㅎㅜㄹㄹㅠㅇㅎㅏㄴ	-10330
▁ㄷㅏㅇㅅㅣㄴㄷㅡㄹㅇㅣ	-10331
▁ㅎㅐㅇㅂㅗㄱㅎㅏㅅㅔㅇㅛ	-10332
▁ㅃㅐㄴ	-10333
ㅁㅏㄴㅣ	-10334
▁ㄱㅗㄹㅗ	-10335
ㅅㅗㅅㅗㄱ	-10336
ㅈㅣㄹㅏㅇ	-10337
▁ㄷㅡㄹㅇㅕ	-10338
ㅈㅜㅇㄷㅗㄱ	-10339
▁ㅇㅟㅇㅔㅅㅓ	-10340
▁ㅎㅏㄴㅍㅕㄴ	-10341
▁ㄴㅏㅇㅘㅆㄷㅏ	-10342
▁ㅇㅏㄴㄴㅏㅇㅗ	-10343
▁ㅈㅏㄱㅣㄴㅡㄴ	-10344
▁ㄴㅜㄱㅏㅂㅘㄷㅗ	-10345
▁ㄱㅣㄷㅐㄷㅚㅂㄴㅣㄷㅏ	-10346
ㅋㅋㅋㅋㅋㅋㅋㅋㅋㅋㅋㅋ	-10347
ㅜㄷㅗ	-10348
▁ㅎㅚㄱ	-10349
ㄱㅜㄹㅗ	-10350
ㅔㅇㅣㄴ	-10351
ㅅㅗㅎㅏㄴ	-10352
ㅉㅣㄱㄱㅗ	-10353
▁ㅁㅏㅇㄱㅏ	-10354
▁ㅈㅓㅇㅇㅜ	-10355
▁ㅎㅡㄹㄹㅓ	-10356
ㄱㅓㄴㅅㅓㄹ	-10357
ㄱㅜㄱㅇㅡㄹ	-10358
ㅇㅏㄴㅎㅏㄴ	-10359
ㅇㅔㅅㅓㄴㅏ	-10360
ㅇㅣㅅㄴㅡㄴ	-10361
▁ㄱㅣㄴㅈㅏㅇ	-10362
▁ㅂㅗㅇㅣㄱㅗ	-10363
▁ㅋㅔㅇㅣㅅㅡ	-10364
▁ㅎㅕㄱㅁㅕㅇ	-10365
▁ㅁㅏㄶㅇㅏㅇㅛ	-10366
▁ㅅㅣㅁㅎㅏㄱㅔ	-10367
▁ㅈㅓㄴㄱㅣㄴㅡㄴ	-10368
ctv	-10369
▁ㄷㅗㄷ	-10370
ㅁㅜㅎㅛ	-10371
ㅁㅂㅓㄱㅓ	-10372
ㅁㅜㄹㄹㅗ	-10373
▁ㄷㅡㅇㅇㅔ	-10374
▁ㅈㅣㅅㅣㄱ	-10375
▁ㅈㅣㅈㅓㅇ	-10376
▁ㅎㅐㅅㅓㄱ	-10377
ㄷㅏㅂㄷㅏㅂ	-10378
▁ㅂㅓㅂㄹㅠㄹ	-10379
▁ㅅㅏㄱㅓㄴㅇㅣ	-10380
▁ㅎㅕㄹㅅㅔㄹㅗ	-10381
ㅊㅕㅁㅓㄱㅇㅡㄹ	-10382
▁ㄱㅏㄴㅡㅇㅅㅓㅇ	-10383
ㄱㅗㅇㅣㅆㄴㅡㄴㄷㅔ	-10384
.7	-10385
un	-10386
▁->	-10387
▁ㄸㅡㄱ	-10388
ㄹㅣㅇㅓ	-10389
ㅗㄹㅏㅇ	-10390
▁ㅇㅣㅌㅐ	-10391
▁ㅈㅜㅅㅏ	-10392
ㄸㅏㅇㅇㅔ	-10393
ㅅㅗㅅㅗㅇ	-10394
▁ㄱㅕㄹㅋㅗ	-10395
▁ㅇㅟㅂㅓㅂ	-10396
▁ㅊㅜㅊㅡㄱ	-10397
▁ㅌㅗㄹㅗㄴ	-10398
ㅅㅣㅋㅣㅈㅏ	-10399
ㅎㅐㅇㅈㅓㅇ	-10400
ㅎㅐㅈㅝㄹㅏ	-10401
▁ㅂㅏㄴㅁㅕㄴ	-10402
▁ㅃㅜㄴㅁㅏㄴ	-10403
▁ㅅㅗㅂㅣㄱㅏ	-10404
▁ㅎㅕㅇㅍㅕㅇ	-10405
▁ㅎㅏㅅㅣㄱㅣㄹ	-10406
ㅇㅣㅆㄷㅏㄴㅡㄴ	-10407
▁ㄷㅏㅇㅑㅇㅎㅏㄴ	-10408
▁ㅂㅣㅆㅏㄷㅏㄱㅗ	-10409
?.	-10410
ㅅㅕ	-10411
ㄱㅏㅇㅘ	-10412
ㄷㅐㅇㅘ	-10413
▁ㅈㅗㅊㅣ	-10414
ㅂㅐㅅㅏㅇ	-10415
▁ㄱㅐㄲㅜㄹ	-10416
▁ㄷㅏㄴㅇㅓ	-10417
ㄱㅓㄴㅣㄲㅏ	-10418
ㅂㅜㄹㅍㅕㄴ	-10419
ㅅㅓㅂㅣㅅㅡ	-10420
▁ㅈㅓㄴㄷㅏㄹ	-10421
▁ㅈㅣㄱㅁㅜㅇ	-10422
▁ㅅㅜㅊㅓㄴㅇㅓㄱ	-10423
▁ㅌㅏㄴㅎㅐㄱㅇㅣ	-10424
▁ㅇㅏㄴㅣㄱㅔㅆㅈㅣ	-10425
▁ㅇㅕㅇㅎㅑㅇㅇㅡㄹ	-10426
▁ㅊㅓㄹㅂㅏㅂㅌㅗㅇ	-10427
▁ㄱㅏㅁㅇㅗㄱㅇㅔㅅㅓ	-10428
▁ㅇㅓㄴㄹㅗㄴㅇㅔㅅㅓ	-10429
▁>	-10430
ㅗㄹㅣㅇㅏ	-10431
▁ㄱㅏㅈㅣㄹ	-10432
▁ㄱㅓㅅㅡㄹ	-10433
▁ㅂㅣㄹㅣㄱㅏ	-10434
ㄱㅓㅅㅇㅣㅈㅣ	-10435
ㄱㅓㅈㅏㄶㅇㅏ	-10436
▁ㄱㅣㄷㅏㄹㅣㄹ	-10437
▁ㅇㅏㄴㄷㅚㄴㅣ	-10438
ㄱㅓㅅㅇㅣㄴㄱㅏ	-10439
▁ㄷㅐㄱㅣㅇㅓㅂㅇㅔ	-10440
▁ㅎㅕㄴㅁㅕㅇㅎㅏㄴ	-10441
▁ㅈㅓㅇㅅㅣㄴㅊㅏㄹㅣㅈㅣ	-10442
ㄱㅓㄱㅣ	-10443
ㅅㅡㅁㅏ	-10444
ㅐㅂㅏㄹ	-10445
▁ㄱㅏㄱㅣ	-10446
ㄴㅐㅁㅕㄴ	-10447
ㄷㅗㄱㄱㅛ	-10448
ㅂㅜㄲㅡㄹ	-10449
ㅎㅐㅇㅇㅣ	-10450
▁ㄷㅔㄹㅕㅇ	-10451
▁ㅈㅏㅊㅣㅇ	-10452
▁ㄷㅏㄹㅡㄷㅏ	-10453
▁ㄷㅗㅇㅈㅓㄴ	-10454
▁ㅈㅏㄹㅇㅏㄴ	-10455
ㄷㅚㅇㅓㅆㄷㅏ	-10456
ㄸㅓㄴ	-10457
ㅆㅡㄴㅑ	-10458
ㅇㅓㅈㅔ	-10459
▁ㅇㅟㄹㅗ	-10460
▁ㅍㅔㅇㅣ	-10461
ㄹㅕㄱㄷㅗ	-10462
▁ㄷㅗㄱㄷㅗ	-10463
ㅂㅕㅇㅇㅝㄴ	-10464
ㅆㅓㅂㅜㅌㅓ	-10465
▁ㅇㅘㄴㅅㅓㅇ	-10466
▁ㅈㅏㅂㄴㅡㄴ	-10467
▁ㅎㅕㄴㅇㅕㄱ	-10468
ㅈㅓㄴㄱㅣㅅㅔ	-10469
▁ㄱㅏㄱㅕㄱㅇㅔ	-10470
▁ㄴㅏㄱㅏㅁㅕㄴ	-10471
▁ㅅㅣㄴㅈㅔㅍㅜㅁ	-10472
▁ㄷㅗㄹㅇㅏㄱㅏㄴㄷㅏ	-10473
▁ㅈㅡㅇㄱㅓㅇㅣㄴㅁㅕㄹ	-10474
,,,,,	-10475
▁ㄱㅐㅁㅜㅅㅣ	-10476
▁ㅈㅓㄴㅎㅘㄴ	-10477
▁ㅊㅏㄹㅕㄹㅏ	-10478
ㄷㅡㄹㅁㅏㄴㅇㅢ	-10479
ㄹㅣㄴㅡㄴㄱㅓㄴ	-10480
▁ㄱㅏㅈㅓㅇㅇㅔㅅㅓ	-10481
▁ㅁㅗㄹㅡㄱㅔㅆㄱㅗ	-10482
▁ㅇㅓㄹㅣㅅㅓㄱㅇㅡㄴ	-10483
▁ㅁㅣㅂ	-10484
▁ㅅㅏㅇㅠ	-10485
▁ㅎㅣㅌㅡ	-10486
ㅅㅣㄴㄷㅗ	-10487
ㅇㅣㄴㄱㅘ	-10488
▁ㄱㅏㅌㅈㅣ	-10489
▁ㄱㅜㅅㅓㅇ	-10490
▁ㄲㅗㄹㅇㅣ	-10491
▁ㅂㅏㅇㅊㅣ	-10492
▁ㅅㅣㅈㅣㅂ	-10493
▁ㄴㅐㄹㅕㅇㅑ	-10494
▁ㅇㅠㅌㅠㅂㅡ	-10495
ㅇㅣㄴㅡㄴㄷㅔ	-10496
ㅎㅏㄴㅡㄴㄱㅏ	-10497
▁ㅊㅐㅇㄱㅣㄱㅗ	-10498
▁ㄱㅜㄱㄱㅏㄴㅡㄴ	-10499
▁ㅇㅓㅄㄷㅏㅁㅕㄴ	-10500
ㅎㅏㄴㅡㄴㄱㅓㄴㅑ	-10501
▁ㅈㅜㄱㅇㅡㄹㄸㅐㄲㅏㅈㅣ	-10502
ㄷㅟㅅ	-10503
ㅓㅂㅗ	-10504
ㅂㅜㅌㅏㄱ	-10505
ㅅㅏㄹㄱㅣ	-10506
ㅝㅇㅑㅈㅣ	-10507
▁ㄷㅓㄴㅈㅕ	-10508
▁ㅅㅗㅇㅡㅁ	-10509
▁ㅇㅣㅂㅜㄴ	-10510
▁ㅍㅏㅌㅏㄴ	-10511
ㅂㅗㄴㅐㄱㅗ	-10512
ㅇㅣㄴㅇㅑㅇ	-10513
ㅈㅣㅇㅏㄶㄱㅔ	-10514
▁ㄷㅓㅇㅜㄴㄷㅔ	-10515
▁ㄹㅗㅂㅗㅅㅇㅣ	-10516
▁ㅅㅣㅊㅓㅇㅈㅏ	-10517
▁ㅆㅡㄴㅡㄴㄱㅔ	-10518
▁ㅎㅏㄴㅎㅛㅈㅜ	-10519
▁ㅎㅡㄺㅅㅜㅈㅓ	-10520
▁ㅍㅗㄱㅣㅎㅏㄱㅗ	-10521
▁ㅎㅘㅈㅏㅇㅍㅜㅁ	-10522
ㅎㅏㄱㅗㅇㅣㅆㄴㅔ	-10523
▁ㅅㅣㅀㅇㅓㅎㅏㄴㅡㄴ	-10524
▁ㅍㅣㄹㅇㅛㅇㅓㅄㄱㅗ	-10525
▁ㅇㅣㅂㅓㄴㄱㅣㅎㅚㅇㅔ	-10526
▁ㄷㅞ	-10527
▁1~2	-10528
▁ㅅㅓㅂㅣ	-10529
▁ㅋㅡㄱㅗ	-10530
ㄹㅣㅈㅡㅁ	-10531
ㅇㅏㅆㄴㅑ	-10532
ㅝㄴㅇㅡㄹ	-10533
▁ㅁㅏㄹㅇㅔ	-10534
ㄱㅏㅇㄱㅜㄱ	-10535
???????	-10536
▁ㅎㅐㅇㅑㅎㅏㄹ	-10537
ㅁㅏㄴㅇㅝㄴㄷㅐ	-10538
ㅉㅉㅉㅉㅉㅉㅉㅉ	-10539
▁ㄴㅗㅂㅔㄹㅅㅏㅇ	-10540
▁ㄸㅓㄹㅇㅓㄸㅡㄹ	-10541
▁ㅁㅓㄱㄴㅡㄴㄷㅏ	-10542
▁ㅊㅚㅅㅓㄴㅇㅡㄹ	-10543
▁ㅊㅓㄹㅈㅓㅎㅏㄱㅔ	-10544
▁ㄱㅣㅂㅗㄴㅈㅓㄱㅇㅡㄹㅗ	-10545
▁//	-10546
ㄷㅡㅂ	-10547
▁ㅉㅣㅁ	-10548
ㄲㅓㄹㅏ	-10549
ㅅㅇㅡㄹ	-10550
▁ㄱㅖㅈㅘ	-10551
▁ㅅㅡㅌㅔ	-10552
ㅁㅗㄹㄹㅏ	-10553
▁ㅅㅓㅇㅑㅇ	-10554
▁ㅈㅓㄴㅁㅐ	-10555
ㅅㅣㄴㅁㅜㄴ	-10556
ㅈㅏㅂㅇㅡㄹ	-10557
ㅈㅜㄱㅇㅡㄹ	-10558
ㅌㅗㅇㅇㅡㄴ	-10559
▁ㄴㅜㄱㅜㄴㅑ	-10560
▁ㅅㅑㅇㅗㅁㅣ	-10561
ㅅㅏㄱㅣㄲㅜㄴ	-10562
ㅍㅓㅅㅔㄴㅌㅡ	-10563
▁ㅇㅏㄴㅂㅘㄷㅗ	-10564
▁ㅈㅓㅇㅂㅜㅌㅏㅅ	-10565
▁ㅁㅏㅈㅣㅁㅏㄱㅇㅔ	-10566
▁ㄴㅜㅈㅣㄴㅈㅔㄴㅡㄴ	-10567
▁MBC	-10568
ㄱㅓㅅㅇㅔ	-10569
ㅇㅣㄴㄷㅐ	-10570
ㅇㅣㄴㅕㄴ	-10571
ㅇㅣㅁㅓㄱ	-10572
ㅎㅐㅇㅅㅏ	-10573
▁ㄴㅏㄹㅆㅣ	-10574
▁ㄴㅡㄲㅣㄴ	-10575
ㄲㅜㄹㅏㅈㅣ	-10576
ㅅㅡㅋㅣㅅㅡ	-10577
▁ㄱㅕㅇㅂㅜㄱ	-10578
ㅎㅐㅂㅗㅁㅕㄴ	-10579
▁ㅁㅣㄱㅜㄱㄱㅘ	-10580
▁ㄷㅏㅇㅅㅣㄴㅇㅢ	-10581
▁ㅇㅛㄱㅅㅣㅁㅇㅣ	-10582
▁ㅈㅣㄴㅎㅘㄹㅗㄴ	-10583
▁ㄱㅣㅈㅜㄴㅇㅡㄹㅗ	-10584
▁ㅇㅓㅄㅇㅡㄹㄷㅡㅅ	-10585
▁ㅇㅣㄴㅅㅐㅇㅇㅡㄹ	-10586
▁ㅈㅓㅇㅅㅣㄴㅊㅏㄹㅣ	-10587
▁ㅅㅐㅇㄱㅏㄱㄴㅏㄴㄷㅏ	-10588
▁ㄸㅜㄱ	-10589
▁ㅇㅠㅈㅓ	-10590
ㅋㅐㄹㅣㄱ	-10591
▁ㄴㅗㄱㅊㅟ	-10592
▁ㅁㅗㅇㅡㄴ	-10593
▁ㅇㅏㄴㄱㅏㄴ	-10594
▁ㅇㅏㄴㅁㅣㄷ	-10595
▁ㅊㅓㅇㄹㅕㅁ	-10596
▁ㄴㅜㄴㅁㅜㄹㅇㅣ	-10597
▁ㅇㅏㄹㄱㅔㅆㄷㅏ	-10598
▁ㅇㅣㅆㄴㅡㄴㄱㅏ	-10599
ㅌㅔㄹㅓ	-10600
▁ㄸㅡㄱㅗ	-10601
▁ㅊㅗㄱㅣ	-10602
ㅆㅣㄹㅡㄹ	-10603
ㅣㅇㅟㅎㅐ	-10604
▁ㅂㅓㄹㅣㄹ	-10605
▁ㅅㅓㄴㅅㅜ	-10606
▁ㅎㅛㅇㅠㄹ	-10607
ㅈㅓㅇㅅㅏㅇ	-10608
ㅍㅗㄱㅂㅏㄹ	-10609
▁ㅁㅕㅇㅎㅘㄱ	-10610
▁ㅇㅏㅅㅟㅇㅝ	-10611
▁ㅂㅐㅇㅜㄴㅡㄴ	-10612
▁ㅋㅔㅇㅣㅂㅡㄹ	-10613
ㄴㅕㄴㅇㅣㅁㅕㄴ	-10614
ㅎㅏㄴㅌㅔㅁㅏㄴ	-10615
▁ㅅㅣㄱㅏㄴㄲㅡㄹ	-10616
▁ㅇㅠㅈㅐㅅㅓㄱㅇㅣ	-10617
▁ㅈㅣㄱㅡㅁㅂㅗㄷㅏ	-10618
▁ㄷㅔㄹㅕ	-10619
▁ㅇㅕㅇㅑ	-10620
▁ㅈㅏㄹㅏ	-10621
▁ㅎㅘㅍㅖ	-10622
ㄱㅓㄹㅏㄴ	-10623
ㅈㅔㄷㅗㅇ	-10624
ㅎㅐㅇㅑㅇ	-10625
▁ㅅㅣㄴㄱㅠ	-10626
▁ㅅㅣㅀㄱㅗ	-10627
ㅆㄱㅔㅆㅈㅣ	-10628
▁ㅁㅣㄴㅈㅜㅇ	-10629
>>>>>>>>	-10630
▁ㄷㅚㄴㅡㄴㅈㅣ	-10631
ㅂㅏㄷㄴㅡㄴㄷㅏ	-10632
▁ㅎㅏㄴㄱㅜㄱㅇㅕ	-10633
▁ㅊㅓㄴㅁㅜㄴㅎㅏㄱ	-10634
▁ㅎㅏㄹㅇㅏㅂㅓㅈㅣ	-10635
ㅎㅏㄴㅡㄴㄱㅓㄴㄷㅔ	-10636
▁ㅂㅗㅇㅕㅈㅜㅅㅔㅇㅛ	-10637
▁ㅇㅏㄴㄷㅚㄴㄷㅏㄴㅡㄴ	-10638
ㄱㅝ	-10639
ㅅㅅ	-10640
▁,,,	-10641
ㅁㅏㅇㅛ	-10642
ㅎㅏㄱㅏ	-10643
ㄹㅓㄴㅈㅣ	-10644
ㅇㅏㄴㅓㅎ	-10645
▁ㄱㅓㄹㅇㅓ	-10646
▁ㅍㅕㄴㅎㅣ	-10647
ㅁㅗㅅㅊㅏㄹ	-10648
ㅂㅏㅇㅅㅣㄱ	-10649
▁ㄴㅗㅁㅇㅡㄴ	-10650
▁ㅂㅏㅇㅌㅗㅇ	-10651
▁ㅇㅗㅈㅣㄱㅔ	-10652
ㅇㅣㄴㅈㅣㄷㅗ	-10653
▁ㄱㅣㄱㅏㅁㅏㄱ	-10654
ㅇㅣㄹㅏㄴㄱㅓㄹ	-10655
▁ㄸㅗㄱㄱㅏㅌㄴㅔ	-10656
▁ㅇㅣㅆㅇㅓㅆㅇㅡㅁㅕㄴ	-10657
ㅂㅣㅁ	-10658
ㅡㅡㅡ	-10659
0000	-10660
▁ㅊㅕㅇ	-10661
ㅅㅓㄴㅏ	-10662
ㅇㅓㄴㅏ	-10663
ㅌㅓㄹㅗ	-10664
ㅌㅡㄴㅏ	-10665
▁ㅁㅐㅁㅐ	-10666
▁ㅆㅡㄹㅓ	-10667
ㄷㅗㄱㅈㅐ	-10668
ㅅㅛㅍㅣㅇ	-10669
ㅇㅣㄴㅌㅡ	-10670
ㅈㅣㅅㄱㅗ	-10671
▁ㄱㅗㅅㅡㄹ	-10672
▁ㅊㅏㄷㅏㄴ	-10673
ㄱㅓㅇㅖㅇㅛ	-10674
ㄱㅡㅁㅇㅐㄱ	-10675
▁ㄴㅜㄴㄱㅏㅁ	-10676
▁ㅅㅜㄴㅈㅣㄴ	-10677
▁ㅇㅓㅁㅓㄴㅣ	-10678
▁ㄴㅏㄱㅅㅜㅎㅛㄱㅘ	-10679
▁ㅅㅣㅈㅏㄱㅎㅐㅅㅓ	-10680
▁ㅈㅜㅇㄱㅜㄱㅇㅣㄴㄷㅡㄹ	-10681
▁as	-10682
▁ㅈㅓㄴㅗㅁ	-10683
▁ㅊㅚㅈㅗㅇ	-10684
▁ㅌㅔㄴㄷㅔ	-10685
ㅁㅏㄹㄷㅡㄴ	-10686
ㅎㅕㅇㅇㅡㄴ	-10687
▁ㄷㅏㅇㅎㅘㅇ	-10688
▁ㅁㅗㅅㅈㅏㅂ	-10689
▁ㅇㅑㅇㅅㅏㄴ	-10690
ㅂㅗㅎㅓㅁㄹㅛ	-10691
▁ㅂㅗㅇㅕㅈㅜㄴ	-10692
▁ㅇㅣㅇㅣㄱㅇㅣ	-10693
▁ㅆㅡㄴㅁㅏㄴㅋㅡㅁ	-10694
▁ㅁㅣㅊㅣㄴㄷㅡㅅㅇㅣ	-10695
▁ㅎㅐㅍㅣㅇㅔㄴㄷㅣㅇ	-10696
▁ㄴㅏㅁㅈㅏㄷㅡㄹㅇㅡㄴ	-10697
▁ㅎㅔㄹㅈㅗㅅㅓㄴㅇㅡㄴ	-10698
▁ㅉㅓㅂ	-10699
ㅣㄴㅈㅣ	-10700
▁ㅂㅘㅅㅓ	-10701
ㅇㅏㄴㄷㅙ	-10702
ㅈㅜㅅㅣㄱ	-10703
▁ㅂㅐㅁㅏㄴ	-10704
▁ㅇㅣㄹㄱㅐ	-10705
▁ㅌㅗㅇㅈㅔ	-10706
▁ㅎㅐㅂㅗㄹ	-10707
ㄱㅕㄹㅈㅓㅇ	-10708
ㅇㅣㄹㄷㅏㅇ	-10709
ㅎㅏㄴㅊㅓㄱ	-10710
▁ㄱㅏㄴㅈㅓㅂ	-10711
▁ㅁㅓㅅㅇㅣㅆ	-10712
▁ㅇㅕㄱㅣㄱㅏ	-10713
▁ㅇㅖㅃㅡㄱㅗ	-10714
▁ㅎㅏㄴㅏㅇㅢ	-10715
▁ㄱㅣㅇㅓㅂㄷㅗ	-10716
▁ㅂㅓㄹㅇㅓㅅㅓ	-10717
!!!!!!!!!	-10718
▁ㅍㅣㄴㅜㄴㅁㅜㄹ	-10719
▁ㄲㅗㅂㅏㄱㄲㅗㅂㅏㄱ	-10720
▁ㅅㅏㄹㅏㅁㅇㅣㄴㄷㅔ	-10721
bl	-10722
ㅅㅐㅁ	-10723
ㅁㅣㄱㅏ	-10724
ㅆㅡㅈㅣ	-10725
▁ㅅㅠㅍㅓ	-10726
▁ㅎㅚㅇㅢ	-10727
ㅇㅝㄹㅅㅔ	-10728
▁ㄴㅗㅇㅅㅏ	-10729
▁ㄷㅓㅁㅣㄴ	-10730
▁ㅁㅣㄹㅕㄴ	-10731
▁ㅋㅜㅍㅏㅇ	-10732
ㄷㅡㄷㄴㅡㄴ	-10733
ㅈㅕㅆㅇㅡㅁ	-10734
▁ㅅㅗㄱㅅㅏㅇ	-10735
▁ㅎㅏㄱㅇㅝㄴ	-10736
ㅊㅓㅁㅓㄱㄱㅗ	-10737
▁ㄷㅏㄱㄱㅡㄴㅔ	-10738
▁ㅎㅏㄴㄱㅏㅈㅣ	-10739
▁ㅇㅏㅇㅣㄷㅣㅇㅓ	-10740
▁ㅇㅣㅇㅘㄴㅇㅛㅇ	-10741
ㅁㅏㄴㅇㅝㄴㅇㅡㄴ	-10742
ㅡㅅㅑ	-10743
▁250	-10744
▁ㄱㅠㄴ	-10745
ㄱㅖㄴㅡㄴ	-10746
ㅇㅕㄹㅗㄴ	-10747
ㅈㅗㅈㅣㄱ	-10748
▁ㄱㅣㄹㄱㅔ	-10749
ㅇㅟㅎㅐㅅㅓ	-10750
▁ㄱㅡㅇㅈㅓㅇ	-10751
▁ㄴㅏㅇㅣㅇㅔ	-10752
▁ㅂㅏㄹㅁㅗㄱ	-10753
▁ㅅㅓㅅㅓㅎㅣ	-10754
▁ㄱㅣㅁㅇㅜㅂㅣㄴ	-10755
ㅁㅣㅌ	-10756
ㅇㅣㅇㅘ	-10757
▁1500	-10758
▁ㄷㅐㄱㅏ	-10759
▁ㄷㅐㄹㅗ	-10760
ㅅㅣㄹㅇㅔ	-10761
▁ㄱㅜㅇㅕㄱ	-10762
▁ㄱㅡㄱㅏㄴ	-10763
▁ㄴㅗㄹㄹㅓ	-10764
▁ㅅㅜㄴㅇㅟ	-10765
ㅈㅗㅇㅂㅓㅁ	-10766
▁ㅈㅏㅇㄷㅏㅁ	-10767
▁ㄱㅐㄱㅗㅅㅐㅇ	-10768
▁ㄴㅓㅁㅇㅓㅅㅓ	-10769
▁ㅌㅡㄱㄱㅓㅁㅇㅔ	-10770
ㅈㅣㅁㅏㅂㅅㅣㄷㅏ	-10771
▁ㅇㅕㅈㅏㅊㅣㄴㄱㅜ	-10772
▁ㅁㅜㄴㅈㅐㅇㅣㄴㅇㅣ	-10773
▁ㅆㅡㄹㄷㅔㅇㅓㅄㅇㅣ	-10774
▁ㅇㅏㄴㄷㅡㄹㅗㅇㅣㄷㅡ	-10775
ㅅㅡㅍㅗ	-10776
ㅇㅏㅆㅇㅓ	-10777
▁ㄱㅏㅅㅓㅇ	-10778
▁ㅁㅜㄹㅡㅍ	-10779
▁ㅅㅜㅈㅏㅇ	-10780
ㅂㅗㄴㅇㅣㄴ	-10781
▁ㄱㅣㄹㅇㅡㄹ	-10782
▁ㄸㅏㅇㄱㅏㅄ	-10783
▁ㅅㅣㄱㅅㅏㅇ	-10784
▁ㅅㅣㄴㅂㅏㄹ	-10785
ㅁㅏㄴㅂㅘㄷㅗ	-10786
ㅅㅡㅋㅡㄹㅣㅁ	-10787
ㅌㅐㅇㅢ	-10788
ㅎㅜㅇㅢ	-10789
▁ㄱㅘㄷㅗ	-10790
▁ㅎㅐㅂㅗ	-10791
ㅁㅏㄶㄷㅏ	-10792
ㅎㅘㄷㅚㄴ	-10793
▁ㄱㅏㅂㅕㅂ	-10794
▁ㅅㅜㄴㅡㄴ	-10795
▁ㅈㅣㅂㅜㄹ	-10796
ㅂㅐㅌㅓㄹㅣ	-10797
ㅎㅏㄴㅑㄱㅗ	-10798
▁ㄸㅏㅇㅇㅡㄹ	-10799
▁ㅁㅗㄹㅡㅈㅣ	-10800
▁ㅇㅝㄴㄹㅜㅁ	-10801
▁ㅈㅏㄹㄷㅚㄹ	-10802
▁ㅈㅟㄲㅗㄹㅣ	-10803
▁ㅈㅣㄴㅉㅏㅇ	-10804
ㅅㅔㅅㅏㅇㅇㅔ	-10805
▁ㄷㅗㄹㄹㅣㄱㅗ	-10806
▁ㅅㅜㅂㅏㄲㅇㅔ	-10807
ㄴㅓㅁㄷㅡㄹㅇㅣ	-10808
ㄷㅚㄴㅡㄴㄱㅓㄴ	-10809
▁ㄱㅜㄱㅁㅣㄴㄱㅘ	-10810
▁ㅇㅕㄱㅣㄲㅏㅈㅣ	-10811
▁ㅇㅣㄱㅓㅅㄷㅡㄹ	-10812
▁ㅈㅏㄹㅎㅏㅁㅕㄴ	-10813
ㅅㅐㅇㄱㅏㄱㅇㅡㄴ	-10814
▁ㄱㅣㄷㅏㄹㅣㄴㅡㄴ	-10815
▁ㅇㅖㅈㅓㄴㅂㅜㅌㅓ	-10816
▁1/	-10817
ㄹㅓㄹ	-10818
ㄹㅗㄹ	-10819
▁the	-10820
ㅅㅇㅡㅁ	-10821
ㅋㅔㅇㅣ	-10822
ㄷㅏㄹㅇㅏ	-10823
ㅁㅗㄴㅡㄴ	-10824
ㅊㅣㅇㅏㄶ	-10825
▁ㅁㅜㄹㄹㅠ	-10826
▁ㅂㅣㅇㅜㅅ	-10827
▁ㅇㅙㄹㅋㅔ	-10828
▁ㄱㅡㅁㅇㅕㄴ	-10829
▁ㅌㅏㄹㅊㅜㄹ	-10830
ㄹㅕㅆㄴㅡㄴㄷㅔ	-10831
ㅎㅏㄴㄱㅓㄴㄷㅔ	-10832
▁ㄱㅘㄴㅅㅣㅁㅇㅡㄹ	-10833
▁ㅂㅏㄹㅇㅏㄱㅇㅡㄹ	-10834
ll	-10835
ㄲㅓㅁ	-10836
▁ㄱㅏㄷ	-10837
ㅈㅣㅎㅛ	-10838
▁oecd	-10839
▁ㅇㅣㅁㅗ	-10840
ㄲㅏㄴㅡㄴ	-10841
▁ㄱㅓㅈㅓㄹ	-10842
▁ㅆㅡㄹㅁㅗ	-10843
▁ㄷㅏㄹㄷㅏㄹ	-10844
▁ㅅㅓㄹㄷㅡㄱ	-10845
▁ㅅㅣㄱㅍㅜㅁ	-10846
▁ㅇㅣㄹㅈㅓㅇ	-10847
▁ㅊㅏㅈㄴㅡㄴ	-10848
▁ㄴㅏㅎㅏㄴㅌㅔ	-10849
▁ㅌㅗㅇㅎㅐㅅㅓ	-10850
▁ㅇㅏㅁㅜㄹㅐㄷㅗ	-10851
▁ㄱㅜㅅㅗㄱㅎㅏㄹㅏ	-10852
▁ㅇㅣㅇㅛㅇㅎㅐㅅㅓ	-10853
▁ㅈㅓㅇㄷㅏㅇㅎㅏㄴ	-10854
▁ㄷㅡㄹㅇㅓㅇㅗㄴㅡㄴ	-10855
▁ㅇㅓㅇㅣㅇㅓㅄㄴㅡㄴ	-10856
▁ㅇㅣㄹㅓㄴㅇㅣㄹㅇㅣ	-10857
ㅅㅚ	-10858
▁ㄴㅕ	-10859
ㄱㅣㅇㅑ	-10860
ㄸㅡㄱㅗ	-10861
ㅇㅏㅁㅏ	-10862
ㅇㅣㄴㅗㅁ	-10863
ㅣㄲㅏㅇㅛ	-10864
▁ㄱㅣㅈㅏㄴ	-10865
▁ㅁㅝㅅㅇㅣ	-10866
▁ㅇㅣㄴㅡㄴ	-10867
ㅍㅕㅇㄱㅠㄴ	-10868
▁ㅎㅕㄴㅈㅏㅇ	-10869
ㅎㅐㅈㅜㄴㄷㅏ	-10870
▁ㅁㅜㄱㅐㄴㅕㅁ	-10871
▁ㅇㅣㅅㅏㅇㅇㅡㄴ	-10872
▁ㅇㅣㅈㅐㅇㅛㅇㅇㅡㄴ	-10873
ㅍㅣㅅ	-10874
▁ㄱㅏㄷㅗㅇ	-10875
▁ㄱㅣㅇㅝㄴ	-10876
▁ㄸㅓㄴㅓㅁ	-10877
▁ㅅㅓㄱㅇㅠ	-10878
ㅎㅐㅆㅇㅓㅇㅑ	-10879
▁ㅂㅗㅂㅅㅣㄷㅏ	-10880
▁ㅎㅏㄷㅓㄴㅈㅣ	-10881
▁ㄷㅡㄹㅏㅁㅏㅇㅔ	-10882
▁ㅇㅖㅅㄴㅏㄹㅇㅔ	-10883
▁ㅎㅏㄷㅓㄹㅏㄷㅗ	-10884
▁ㄱㅕㄹㄱㅜㄱㅇㅔㄴ	-10885
▁ㄴㅏㄹㅏㄱㅕㅇㅈㅔ	-10886
▁ㅂㅕㄴㅎㅗㅅㅏㄱㅏ	-10887
▁ㅇㅏㅊㅣㅁㅂㅜㅌㅓ	-10888
▁ㄷㅏㅅㅣㅎㅏㄴㅂㅓㄴ	-10889
ㅋㅜㄹ	-10890
ㅊㅣㄹㅛ	-10891
▁ㅈㅜㅇㅛ	-10892
▁ㅊㅚㅇㅜ	-10893
▁ㅁㅜㄷㄱㅗ	-10894
▁ㅊㅓㄴㅈㅣ	-10895
ㄱㅡㄴㅅㅓㅇ	-10896
ㅇㅣㅆㄷㅓㄴ	-10897
ㅈㅣㄴㅈㅓㅇ	-10898
ㅎㅐㅆㄴㅡㄴ	-10899
▁ㄱㅗㅇㅇㅕㄴ	-10900
▁ㄱㅣㅅㅏㄷㅗ	-10901
▁ㅅㅣㄹㅎㅕㄴ	-10902
▁ㅈㅣㅇㅂㅓㄹ	-10903
ㅎㅐㅆㄴㅔㅇㅛ	-10904
▁ㅆㅡㅁㅕㄴㅅㅓ	-10905
▁ㅂㅏㄹㅈㅓㄴㅇㅣ	-10906
▁ㅇㅏㄴㅇㅓㅇㅜㄹ	-10907
▁ㅇㅗㄹㅎㅐㄴㅡㄴ	-10908
▁ㅈㅜㅇㄱㅜㄱㄷㅗ	-10909
ㅎㅏㄱㅣㅈㅓㄴㅇㅔ	-10910
▁ㅅㅏㄹㅏㅁㅇㅣㄷㅏ	-10911
▁ㅎㅐㅇㄷㅗㅇㅇㅡㄹ	-10912
ㅇㅓㅄㅅㅡㅂㄴㅣㄷㅏ	-10913
▁ㄱㅏㅈㅓㄴㅈㅔㅍㅜㅁ	-10914
---	-10915
ㅂㅐㅌ	-10916
▁ㅂㅠㅇ	-10917
ㅂㅣㄱㅛ	-10918
ㅂㅣㄴㅏ	-10919
ㅎㅚㅇㅔ	-10920
▁ㅂㅏㅋㅟ	-10921
ㅏㅇㅘㅅㅓ	-10922
▁ㄱㅜㄱㄱㅗ	-10923
ㅇㅡㅂㅅㅣㄷㅏ	-10924
ㅎㅏㄴㄱㅓㄱㅗ	-10925
ㅎㅐㅆㄱㅜㄴㅏ	-10926
▁ㄱㅕㅇㅈㅔㅇㅔ	-10927
▁ㅁㅜㅇㅓㅅㅇㅣ	-10928
▁ㅇㅏㅅㅟㅇㅜㄴ	-10929
ㅎㅏㄴㅡㄴㄷㅡㅅ	-10930
▁ㅅㅔㅅㅏㅇㅇㅡㄴ	-10931
▁ㅎㅏㄴㄱㅜㄱㄷㅗ	-10932
▁ㅁㅏㄴㄷㅡㄹㅇㅓㅈㅣㄴ	-10933
▁ㅅㅏㅎㅕㅇㅅㅣㅋㅕㄹㅏ	-10934
~5	-10935
▁ㅅㅔㅇ	-10936
ㄲㅓㄴㅑ	-10937
ㄷㅔㅇㅛ	-10938
ㅎㅗㄱㅜ	-10939
▁ㅇㅣㅇㅔ	-10940
ㅁㅏㅈㅇㅏ	-10941
ㅈㅓㄹㅎㅣ	-10942
ㅌㅗㅇㅇㅔ	-10943
▁ㄱㅘㅅㅣㄹ	-10944
▁ㅇㅜㄹㄱㅗ	-10945
ㄱㅡㄹㅓㄴㅏ	-10946
ㅈㅓㄻㅇㅡㄴ	-10947
ㅈㅜㄱㅇㅣㄹ	-10948
▁ㅁㅕㅊㅇㅣㄹ	-10949
▁ㅂㅡㄹㅍㅣㅇ	-10950
▁ㅇㅣㄹㅅㅏㅇ	-10951
ㅅㅣㅈㅏㅇㅇㅣ	-10952
▁ㅂㅓㅌㅣㄴㅡㄴ	-10953
▁ㄷㅏㅇㅡㅁㅇㅡㄴ	-10954
▁ㅈㅣㄴㅅㅔㅇㅕㄴ	-10955
▁ㅍㅣㄱㅏㅌㅇㅡㄴ	-10956
ㅅㅐㅇㄱㅏㄱㅇㅡㄹ	-10957
▁ㅅㅐㅇㄱㅏㄱㅎㅏㄴㅣ	-10958
▁ㅇㅣㅀㅇㅓㅂㅓㄹㅣㄴ	-10959
▁)	-10960
▁ㄴㅜㄴㅏ	-10961
▁ㄷㅣㅈㅏ	-10962
▁ㄸㅗㄹㅏ	-10963
ㄴㅏㅇㅗㅁ	-10964
ㅅㅜㅎㅏㄴ	-10965
ㅐㅇㄱㅏㄱ	-10966
▁ㄲㅡㄹㄹㅕ	-10967
▁ㅁㅏㅈㅣㄴ	-10968
▁ㅁㅓㅅㅈㅣ	-10969
▁ㅇㅐㄴㅡㄴ	-10970
▁ㅈㅣㄹㅗㄹ	-10971
ㄸㅏㄱㅜㄹㅗ	-10972
ㅇㅓㅂㅓㄹㅣ	-10973
ㅇㅔㄹㅏㅇㅣ	-10974
▁ㅂㅏㅇㅁㅜㄴ	-10975
▁ㅇㅗㄴㅌㅗㅇ	-10976
▁ㅇㅛㅇㄷㅗㄴ	-10977
▁ㅍㅗㄴㅇㅡㄴ	-10978
▁ㅎㅗㄴㅂㅏㅂ	-10979
ㅇㅏㅇㅣㅍㅗㄴ	-10980
ㅇㅏㅈㅜㅁㅁㅏ	-10981
▁ㅇㅣㄱㅓㄹㄹㅗ	-10982
▁ㅁㅏㄹㅇㅏㅁㅓㄱㄱㅗ	-10983
▁ㅇㅏㄱㅍㅡㄹㄷㅏㄴㅡㄴ	-10984
▁ㅇㅏㄴㅁㅓㄱㅇㅡㅁㅕㄴ	-10985
di	-10986
ㄱㅐㄴ	-10987
▁ㅇㅞㅂ	-10988
ㅎㅚㄱㅏ	-10989
ㅅㅜㅊㅜㄹ	-10990
ㅅㅣㅎㅓㅁ	-10991
ㅇㅓㄱㅇㅔ	-10992
▁ㅅㅟㄴㅡㄴ	-10993
▁ㅇㅣㄴㅈㅐ	-10994
ㅅㅣㄱㄷㅏㅇ	-10995
ㅅㅣㄹㅇㅓㅂ	-10996
▁ㅁㅏㄶㅇㅣㄴ	-10997
▁ㅈㅣㄴㅊㅜㄹ	-10998
▁ㅍㅗㄱㅎㅐㅇ	-10999
ㅈㅓㄱㅇㅡㄹㅗㄴ	-11000
▁ㄷㅐㅊㅐㄱㅇㅡㄹ	-11001
ㅎㅏㅈㅣㅁㅏㅅㅔㅇㅛ	-11002
▁ㅈㅓㅇㄱㅝㄴㄱㅛㅊㅔ	-11003
kr	-11004
▁ㄸㅜㅀ	-11005
▁ㅍㅏㅁ	-11006
ㄹㅣㅌㅣ	-11007
ㅏㄴㅣㄹㅏ	-11008
▁ㅇㅣㅇㅘㅇ	-11009
▁ㅈㅚㄴㅡㄴ	-11010
ㅅㅐㅇㄱㅣㄴ	-11011
ㅇㅣㄴㅁㅜㄹ	-11012
ㅗㅎㅏㅁㅕㄴ	-11013
ㅜㅅㅏㄹㅏㅁ	-11014
▁ㄱㅏㅇㅅㅓㅇ	-11015
▁ㅂㅏㄹㅐㅇㅛ	-11016
▁ㅎㅣㄹㄹㅣㅇ	-11017
ㅂㅏㄱㄱㅡㄴㅔ	-11018
ㅇㅡㅂㄴㅣㄷㅏ	-11019
▁ㄱㅐㅇㅣㄴㅇㅣ	-11020
▁ㅊㅓㅇㅡㅁㅇㅔ	-11021
ㅎㅏㄹㅅㅜㅇㅣㅆ	-11022
▁ㄷㅚㄹㅌㅔㄴㄷㅔ	-11023
▁ㅇㅏㄶㅇㅏㅆㄴㅏ	-11024
▁ㅇㅏㄶㅈㅣㅁㅏㄴ	-11025
▁ㅉㅏㄱㅗㅊㅣㄴㅡㄴ	-11026
▁ㅌㅡㄹㅓㅁㅍㅡㄱㅏ	-11027
▁ㄴㅜㅈㅣㄴㅅㅔㄴㅡㄴ	-11028
▁ㅁㅗㅅㅎㅏㄴㅡㄴㄷㅔ	-11029
CT	-11030
ㅈㅠ	-11031
▁sk	-11032
▁ㅋㅕ	-11033
ㅅㄴㅏㄹ	-11034
ㅅㅡㄴㅏ	-11035
ㅊㅣㅁㅏㄴ	-11036
▁ㄱㅘㄴㄹㅛ	-11037
▁ㄱㅣㅇㅜㄴ	-11038
▁ㅁㅔㄹㅡㅅㅡ	-11039
ㅇㅡㄹㄹㅏㄱㅗ	-11040
▁ㅈㅏㅂㅇㅏㅇㅑ	-11041
▁ㅌㅜㅈㅏㄹㅡㄹ	-11042
ㅈㅏㄷㅡㄹㅁㅏㄴ	-11043
▁ㅌㅡㄱㄱㅓㅁㄷㅗ	-11044
▁ㅁㅗㄹㅡㄴㅡㄴㄷㅔ	-11045
▁ㅇㅏㄹㅇㅏㅇㅑㅈㅣ	-11046
▁ㅇㅣㅆㄴㅡㄴㄷㅡㅅ	-11047
▁ㅁㅛ	-11048
ㅏㄹㅇㅣ	-11049
▁ㅈㅏㄱㅗ	-11050
▁ㅈㅝㄷㅗ	-11051
ㅈㅜㄹㄷㅗ	-11052
ㅍㅣㅇㄱㅖ	-11053
▁ㄱㅕㅇㄱㅗ	-11054
▁ㄴㅏㅈㅇㅏ	-11055
▁ㅂㅓㅂㄱㅘ	-11056
▁ㅇㅏㄴㄱㅗ	-11057
▁ㅈㅓㅁㅇㅠ	-11058
ㅂㅜㄹㄹㅑㅇ	-11059
▁ㄷㅏㅇㅊㅓㅁ	-11060
▁ㅇㅏㄴㅅㅏㄹ	-11061
▁ㅈㅗㄱㅅㅗㄱ	-11062
▁ㅌㅓㅈㅣㄱㅗ	-11063
ㅇㅓㅄㅇㅓㅇㅛ	-11064
ㅎㅐㅆㅇㅓㄷㅗ	-11065
▁ㅂㅏㄺㅎㅣㄱㅗ	-11066
▁ㅇㅠㄴㅡㄴㅣㅁ	-11067
ㅇㅣㅅㅏㅇㅇㅡㄴ	-11068
▁ㅈㅏㅇㄴㅏㄴㅈㅣㄹ	-11069
▁ㄱㅕㄹㅎㅗㄴㅎㅐㅅㅓ	-11070
▁ㄷㅡㄹㅇㅓㄱㅏㅁㅕㄴ	-11071
▁ㅇㅈ	-11072
ㅎㅡㅂ	-11073
▁ㄱㅡㄹㅕ	-11074
▁ㅋㅏㅍㅔ	-11075
▁ㅎㅗㅇㅢ	-11076
▁ㄱㅓㄷㅓㄹ	-11077
▁ㄴㅗㄴㅡㄴ	-11078
▁ㅅㅜㄷㅏㄴ	-11079
▁ㅇㅣㅆㅈㅛ	-11080
▁ㅎㅘㄱㄷㅐ	-11081
ㄷㅡㅇㄹㅗㄱ	-11082
ㅁㅐㄴㄴㅏㄹ	-11083
ㅈㅣㄹㄷㅡㅅ	-11084
▁ㅅㅏㅇㄷㅏㅇ	-11085
▁ㅅㅓㅇㅈㅓㄱ	-11086
ㅅㅏㄴㅡㄴㄷㅔ	-11087
ㅈㅜㄴㅡㄴㄱㅓ	-11088
ㅈㅣㄴㄷㅏㄱㅗ	-11089
▁ㄸㅗㄷㅏㄹㅡㄴ	-11090
▁ㅍㅏㄹㅇㅏㄹㅏ	-11091
▁ㄴㅏㅂㅏㄹㅇㅣㄱㅗ	-11092
▁ㅁㅏㄹㅈㅏㅇㄴㅏㄴ	-11093
ㅎㅏㄴㅡㄴㅅㅏㄹㅏㅁ	-11094
ㅁㅐㅁ	-11095
ㄷㅐㅇㅜ	-11096
▁~~~~	-11097
▁ㅁㅣㅇㅝ	-11098
▁ㅇㅣㅈㅐ	-11099
▁ㅌㅗㅎㅐ	-11100
ㄴㅐㅁㅅㅐ	-11101
ㅈㅣㅂㅇㅡㄹ	-11102
▁ㅂㅏㄴㄱㅏㅇ	-11103
ㄲㅡㅌㄲㅏㅈㅣ	-11104
▁ㅎㅏㄴㅡㄴㄱㅏ	-11105
ㅎㅏㄹㄸㅐㄴㅡㄴ	-11106
▁ㅅㅗㄴㅂㅏㄷㅏㄱ	-11107
▁ㄱㅣㄹㅔㄱㅣㄷㅡㄹ	-11108
▁ㄱㅡㅈㅣㄱㅏㅌㅇㅡㄴ	-11109
ㅇㅞ	-11110
ㅇㅕㅍ	-11111
ㄷㅔㅁㅗ	-11112
ㅅㅏㄱㅔ	-11113
ㅆㅓㄷㅗ	-11114
▁ㄱㅗㅇㅢ	-11115
▁ㄴㅏㄷㅐ	-11116
▁ㅅㅡㅇㅟ	-11117
▁ㅈㅓㄹㅓ	-11118
▁ㅈㅔㅅㅏ	-11119
ㄱㅓㅅㄴㅑ	-11120
ㄷㅓㅇㅇㅣ	-11121
ㅅㅏㅂㅕㄱ	-11122
ㅅㅗㄴㅎㅐ	-11123
▁ㄱㅏㅇㅡㄹ	-11124
▁ㅎㅐㅇㅇㅟ	-11125
ㄴㅏㄹㅏㅇㅢ	-11126
ㅈㅜㅇㄷㅏㄴ	-11127
▁ㅂㅗㄱㅗㄷㅗ	-11128
▁ㅇㅣㄱㅔㄷㅏ	-11129
▁ㅇㅐㅂㄷㅡㅇㅇㅣ	-11130
ㄷㅏㄴㅣㅁㅕㄴㅅㅓ	-11131
ㅎㅏㄴㅡㄴㄱㅓㄴㅈㅣ	-11132
ㅣㄴㄷㅔ	-11133
▁ㅎㅠㄱㅏ	-11134
ㅈㅔㅇㅣㄹ	-11135
ㅈㅡㅇㅇㅣ	-11136
▁ㄱㅡㄹㅣㄴ	-11137
▁ㅁㅝㄹㄲㅏ	-11138
▁ㅅㅗㄱㄷㅗ	-11139
ㅁㅜㄹㄱㅓㄴ	-11140
ㅂㅡㄹㄹㅐㄱ	-11141
ㅈㅓㄴㅎㅏㄴ	-11142
ㅈㅜㅁㅓㄴㅣ	-11143
ㅎㅏㅅㅣㄴㅔ	-11144
▁ㄷㅏㅎㅏㄱㅗ	-11145
▁ㅌㅏㄱㅅㅏㅇ	-11146
ㅇㅡㄹㄲㅏㅇㅛ	-11147
▁ㅇㅏㄴㄷㅚㄴㅑ	-11148
▁ㅇㅏㄴㅎㅏㅈㅣ	-11149
▁ㅌㅏㅇㅣㅁㅣㅇ	-11150
ㅁㅓㄱㅇㅡㅁㅕㄴ	-11151
▁ㄱㅏㅈㅗㄱㄷㅡㄹ	-11152
▁ㅂㅏㄷㅇㅏㅁㅓㄱ	-11153
▁ㅂㅗㄴㅇㅣㄴㄷㅡㄹ	-11154
ㅃㅡㅁ	-11155
ㅇㅡㅅㅣ	-11156
ㅊㅣㅁㅕ	-11157
ㅘㅎㅏㄱ	-11158
ㄸㅐㅁㅅㅣ	-11159
ㅇㅓㅇㅛㅇ	-11160
▁ㅅㅜㅁㄱㅕ	-11161
▁ㅇㅗㄱㅡㄹ	-11162
ㅇㅡㄴㄱㅓㄴ	-11163
ㅊㅏㅇㅣㅈㅡ	-11164
▁ㄱㅡㄱㅂㅗㄱ	-11165
▁ㄴㅏㄱㅏㄱㅗ	-11166
▁ㅇㅣㄴㄱㅕㄱ	-11167
ㅈㅣㄱㅡㅁㄷㅗ	-11168
▁ㄱㅕㅇㅇㅠㅊㅏ	-11169
▁ㅁㅏㄱㅇㅏㅇㅑ	-11170
▁ㅎㅏㄱㅔㅆㄴㅑ	-11171
▁ㅅㅓㅇㅣㄴㄱㅜㄱ	-11172
▁ㅈㅓㄹㅕㅁㅎㅏㄴ	-11173
▁ㄴㅏㅇㅗㄴㅡㄴㄱㅓ	-11174
▁ㄴㅓㅎㅢㄷㅡㄹㅇㅣ	-11175
ㅁㅏㄴㅇㅝㄴㅇㅡㄹㅗ	-11176
▁ㄱㅜㅇㄱㅡㅁㅎㅏㄴㅔ	-11177
▁ㅅㅐㅇㄱㅏㄱㅎㅐㄹㅏ	-11178
6%	-11179
ㄴㅐㄹㅏ	-11180
ㅁㅏㅇㅢ	-11181
ㅂㅣㅆㅏ	-11182
ㅋㅗㅅㅡ	-11183
ㅍㅣㄱㅏ	-11184
▁ㄷㅗㅂㅐ	-11185
ㄱㅛㅎㅘㄴ	-11186
ㅃㅐㅁㅓㄱ	-11187
ㅇㅝㄴㄹㅐ	-11188
ㅈㅗㅇㅇㅣ	-11189
ㅈㅣㄴㄷㅏㅇ	-11190
▁ㅂㅓㅂㅇㅏㄴ	-11191
ㅇㅏㅇㅣㄷㅗㄹ	-11192
ㅇㅣㄹㄲㅏㅇㅛ	-11193
ㅈㅣㄴㅏㅁㅕㄴ	-11194
▁ㅇㅣㄹㅡㅁㅇㅣ	-11195
ㅈㅓㅇㅊㅐㄱㅇㅡㄹ	-11196
▁ㅈㅓㅇㅊㅣㅇㅣㄴㄷㅡㄹㅇㅣ	-11197
▁ㅁㅊ	-11198
▁ㅂㅚ	-11199
▁ㅆㅛ	-11200
ㅓㅎㅓ	-11201
▁you	-11202
▁ㅅㅡㄴ	-11203
▁ㅎㅓㅂ	-11204
ㄷㅐㅇㅑ	-11205
ㄹㅏㅇㅛ	-11206
ㅅㅏㅁㅜ	-11207
ㅓㅇㅜㄹ	-11208
▁ㅇㅘㅇㅜ	-11209
▁ㅈㅏㄴㅕ	-11210
▁ㄴㅡㄲㅣㄹ	-11211
▁ㄷㅚㄹㅈㅣ	-11212
▁ㅁㅏㅈㄴㅏ	-11213
▁ㅍㅣㄸㅏㅁ	-11214
ㄱㅗㅇㅅㅏㄴ	-11215
ㄷㅐㅇㅔㅅㅓ	-11216
▁ㅁㅗㄱㅈㅓㄱ	-11217
▁ㅌㅗㅇㅎㅏㅂ	-11218
ㄷㅡㄹㅇㅓㅅㅓ	-11219
ㅈㅓㅇㅇㅔㅅㅓ	-11220
▁ㅁㅏㄶㄷㅏㄱㅗ	-11221
▁ㅇㅏㄷㅡㄹㅇㅣ	-11222
▁ㅎㅏㄷㅓㅁㅏㄴ	-11223
ㅁㅏㄴㅇㅝㄴㄷㅗ	-11224
ㅇㅏㄴㄷㅚㄴㄷㅏ	-11225
▁ㅅㅏㅁㄱㅖㅌㅏㅇ	-11226
▁ㅌㅐㅇㅑㅇㄱㅘㅇ	-11227
▁ㄱㅜㄱㅁㅣㄴㅅㅓㅇ	-11228
▁ㄱㅣㅁㅎㅕㄴㅈㅜㅇ	-11229
▁ㅃㅏㅇㅃㅏㅇㅎㅏㄱㅔ	-11230
▁ㄴㅏㅊ	-11231
ㄱㅠㅈㅔ	-11232
ㄹㅣㅈㅏ	-11233
▁ㄱㅏㄹㅕ	-11234
ㅇㅣㄴㅇㅔ	-11235
▁ㅁㅕㄴㅅㅔ	-11236
▁ㅅㅓㅁㅕㅇ	-11237
ㅇㅕㅇㅈㅏㅇ	-11238
ㅈㅏㄹㅗㅅㅓ	-11239
ㅈㅣㅂㅇㅏㄴ	-11240
ㅎㅐㅈㅝㅅㅓ	-11241
ㄴㅕㄴㅇㅣㄷㅏ	-11242
▁ㅅㅣㅈㅏㅇㅇㅣ	-11243
ㅈㅣㄴㅡㄴㄱㅓㄴ	-11244
▁ㄱㅓㄹㄹㅣㅁㅕㄴ	-11245
▁ㄲㅗㄱㄷㅜㄱㅏㄱ	-11246
▁ㄷㅗㄴㅇㅣㅁㅕㄴ	-11247
▁ㅊㅐㄱㅇㅣㅁㅇㅣ	-11248
▁ㅅㅏㄹㅏㅁㅇㅡㄹㅗ	-11249
▁ㅈㅜㅇㅇㅛㅎㅏㄴㄱㅔ	-11250
▁ㅊㅓㅇㅇㅘㄷㅐㅇㅔㅅㅓ	-11251
▁ㅎㅕㅂㄹㅕㄱㅇㅓㅂㅊㅔ	-11252
ㅎㅚㅇ	-11253
ㅐㄴㅣ	-11254
ㅇㅕㄷㅗ	-11255
ㅇㅠㅈㅣ	-11256
ㅈㅗㅊㅣ	-11257
▁ㅂㅓㄹㅕ	-11258
ㅅㅏㅎㅕㅇ	-11259
ㅅㅣㅈㅡㄴ	-11260
ㅐㅇㅗㄹㅐ	-11261
▁ㄱㅏㄱㅇㅗ	-11262
▁ㄱㅓㄷㅇㅓ	-11263
▁ㄴㅡㄹㄹㅕ	-11264
▁ㄷㅜㄷㅡㄹ	-11265
▁ㅁㅐㅇㅣㅂ	-11266
▁ㅂㅗㄷㅏㄴ	-11267
▁ㅈㅗㄹㅗㅇ	-11268
▁ㅈㅣㅊㅜㄹ	-11269
▁ㅎㅏㄹㄱㅔ	-11270
▁ㄷㅡㅇㅇㅡㄹ	-11271
▁ㅁㅝㅎㅏㄱㅗ	-11272
▁ㅈㅓㄹㅓㄱㅗ	-11273
▁ㅊㅓㄴㅇㅝㄴ	-11274
▁ㅈㅐㅅㅏㄴㅇㅣ	-11275
▁ㄱㅣㅅㅐㅇㅊㅜㅇ	-11276
▁ㅇㅏㄶㅇㅡㄴㄷㅔ	-11277
▁ㅈㅓㅇㅅㅏㅇㅎㅘ	-11278
▁ㅇㅓㅇㅣㄱㅏㅇㅓㅄ	-11279
▁ㅇㅜㄹㅣㄴㅏㄹㅏㅇㅢ	-11280
▁ㅇㅣㄹㅓㅎㄱㅔㄲㅏㅈㅣ	-11281
▁is	-11282
ㅅㅐㄲ	-11283
▁ㄲㅡㅀ	-11284
▁ㅃㅗㄹ	-11285
▁ㅇㅐㄴ	-11286
▁ㅉㅣㄴ	-11287
ㄱㅡㅁㄷㅗ	-11288
ㅅㅡㅁㅏㄴ	-11289
ㅇㅏㅊㅣㅁ	-11290
ㅂㅓㅂㅇㅝㄴ	-11291
▁ㄱㅣㅁㅈㅣㄴ	-11292
▁ㄷㅟㅅㅂㅜㄱ	-11293
▁ㅂㅏㄹㅇㅕㄹ	-11294
▁ㅅㅏㄱㄱㅏㅁ	-11295
ㄷㅡㄹㅇㅣㄴㅔ	-11296
▁ㄱㅡㄴㄹㅗㅈㅏ	-11297
▁ㅇㅕㅈㅏㄹㅏㅇ	-11298
▁ㄱㅡㄹㅓㄴㄱㅓㄴ	-11299
▁ㄷㅚㄴㄷㅏㅁㅕㄴ	-11300
▁ㅇㅣㄹㅈㅏㄹㅣㄱㅏ	-11301
ㄹㅡㄴ	-11302
▁ㄲㅓㅂ	-11303
▁ㅉㅣㅈ	-11304
ㅏㅁㅏㄶ	-11305
▁ㅈㅔㄱㅓ	-11306
ㄱㅡㄴㅓㄹ	-11307
ㅁㅗㄷㅔㄹ	-11308
ㅅㅡㅂㅏㄱ	-11309
▁ㅁㅐㄱㅈㅜ	-11310
▁ㅇㅣㅈㅎㅕ	-11311
ㄷㅗㄹㅇㅏㅇ	-11312
▁ㅂㅏㄹㅅㅏㅇ	-11313
▁ㅎㅏㄴㅇㅣㄹ	-11314
▁ㄱㅜㄱㄴㅐㅇㅔ	-11315
▁ㅁㅓㄱㅇㅓㄷㅗ	-11316
▁ㅇㅣㄹㅎㅐㅅㅓ	-11317
▁ㅇㅣㄹㅓㅎㅏㄴ	-11318
▁ㅈㅏㅅㅣㄱㅇㅣ	-11319
ㅊㅓㅇㅁㅜㄴㅎㅚ	-11320
▁ㅁㅏㄴㄷㅡㄹㄱㅣ	-11321
▁ㅇㅏㄴㅂㅗㄴㄷㅏ	-11322
▁ㅇㅟㅎㅓㅁㅎㅏㄴ	-11323
hn	-11324
▁ㅅㄲ	-11325
▁ㄱㅡㅇㅢ	-11326
▁ㅁㅏㄷㅏ	-11327
ㄷㅡㅇㅇㅔ	-11328
ㅇㅣㄴㅎㅏ	-11329
ㅇㅣㄹㅈㅣ	-11330
ㅈㅣㄴㅏㄴ	-11331
ㅈㅣㅇㅡㄴ	-11332
ㅊㅓㄴㅈㅣ	-11333
▁ㄱㅣㄲㅓㅅ	-11334
ㅈㅗㅎㅇㅡㅁ	-11335
▁ㄱㅣㅁㄱㅜㄱ	-11336
▁ㅅㅏㄹㅁㅏㄴ	-11337
▁ㅊㅣㄴㅊㅓㄱ	-11338
ㄷㅏㅂㅗㅁㅕㄴ	-11339
ㅅㅡㅌㅡㄴㅡㄴ	-11340
▁ㅁㅗㅅㅎㅏㅈㅣ	-11341
▁ㅎㅏㄴㄴㅏㄹㅏ	-11342
ㄱㅣㅇㅓㅂㄷㅡㄹ	-11343
ㄷㅏㅇㅎㅏㄴㅡㄴ	-11344
▁ㄷㅏㅂㅇㅓㅄㄷㅏ	-11345
▁ㅅㅏㅇㅏㄱㅎㅏㄴ	-11346
▁ㅍㅖㅈㅣㅎㅏㄱㅗ	-11347
▁ㅎㅣㅁㄷㅡㄹㅈㅣ	-11348
▁ㄷㅗㄴㅇㅣㅆㄴㅡㄴ	-11349
▁ㅌㅏㄴㅎㅐㄱㅇㅡㄹ	-11350
ㅁㅏㄴㄷㅡㄹㅇㅓㅅㅓ	-11351
▁ㅌㅡㄱㄱㅓㅁㅇㅔㅅㅓ	-11352
ㄱㅜㄱㅁㅣㄴㅇㅕㄴㄱㅡㅁ	-11353
▁ㅅㅏㄴㅇㅓㅂㅇㅡㄴㅎㅐㅇ	-11354
▁;;	-11355
ㅃㅐㄱ	-11356
read	-11357
▁ㅆㅓㄲ	-11358
ㄷㅙㅅㅓ	-11359
ㅂㅜㄹㅣ	-11360
ㅍㅖㄱㅣ	-11361
▁ㅊㅐㅇㅝ	-11362
ㅂㅓㄹㅇㅓ	-11363
ㅇㅠㅌㅗㅇ	-11364
▁ㄷㅏㄴㄱㅖ	-11365
▁ㅂㅓㅂㅡㄹ	-11366
▁ㅇㅓㅅㅓㄹ	-11367
▁ㅊㅚㄱㅏㅇ	-11368
▁ㅍㅐㄴㅓㄹ	-11369
ㄷㅡㄹㅁㅕㄴ	-11370
ㅈㅕㅇㅑㅈㅣ	-11371
ㅉㅗㄱㅇㅡㄴ	-11372
▁ㄱㅘㅇㅂㅗㄱ	-11373
▁ㄷㅓㅇㅟㅇㅔ	-11374
ㄱㅏㅌㅇㅏㅅㅓ	-11375
ㄷㅚㄱㅔㅆㄴㅔ	-11376
ㅅㅏㄴㅡㄴㄱㅔ	-11377
▁ㅇㅏㅊㅣㅁㅇㅔ	-11378
▁ㅇㅗㄹㄹㅏㅅㅓ	-11379
▁ㅁㅏㄴㄷㅡㄴㄷㅏ	-11380
▁ㅅㅓㄹㅎㅕㄴㅇㅣ	-11381
▁ㅅㅓㅇㅂㅓㅁㅈㅚ	-11382
▁ㄷㅏㅇㅂㅜㄴㄱㅏㄴ	-11383
▁ㅇㅣㄴㄱㅏㄴㅈㅓㄱㅇㅡㄹㅗ	-11384
ㅈㅝㅆ	-11385
▁ㅍㅓㅂ	-11386
▁ㄱㅏㅎㅐ	-11387
▁ㄴㅐㄹㅏ	-11388
ㅃㅏㄷㅡㄹ	-11389
▁ㄱㅐㄴㅜㄹ	-11390
ㄷㅗㅇㅁㅜㄹ	-11391
ㅈㅏㄱㅈㅓㄴ	-11392
▁ㄱㅕㅇㄴㅏㅁ	-11393
▁ㅍㅗㄴㅍㅏㄹ	-11394
ㄸㅡㄱㅇㅣㄴㅏ	-11395
ㅁㅏㄹㅇㅣㄷㅏ	-11396
▁ㄱㅏㄴㅡㄴㄱㅔ	-11397
▁ㅅㅜㅈㅜㄴㅇㅢ	-11398
▁ㅂㅜㅈㅗㄱㅎㅏㄴ	-11399
▁ㄱㅡㄹㅓㄴㅡㄴㄷㅔ	-11400
▁ㄱㅣㅈㅏㄷㅡㄹㅇㅣ	-11401
▁ㅊㅐㄱㅇㅣㅁㅈㅣㄹ	-11402
▁ㄷㅐㅌㅗㅇㄹㅕㅇㄱㅘ	-11403
▁800	-11404
ㄴㅜㄱㅜ	-11405
▁ㄴㅏㄱㅗ	-11406
ㄱㅓㄹㄹㅣ	-11407
ㅌㅗㅁㅏㄱ	-11408
▁ㅅㅜㄴㅅㅣ	-11409
ㅈㅏㅇㅊㅏㅇ	-11410
▁ㅁㅕㅇㅁㅗㄱ	-11411
▁ㅁㅗㄱㅏㅈㅣ	-11412
▁ㄱㅏㅅㅡㅁㅇㅣ	-11413
▁ㅁㅝㄷㅡㄴㅈㅣ	-11414
▁ㅂㅗㄴㅡㄴㄱㅔ	-11415
▁ㅅㅏㄹㄷㅏㄱㅏ	-11416
▁ㅇㅗㅈㅣㄹㅏㅍ	-11417
▁ㅇㅟㅈㅡㅇㅈㅚ	-11418
▁ㅁㅜㅊㅐㄱㅇㅣㅁ	-11419
▁ㅇㅓㄹㅁㅏㄴㄷㅔ	-11420
ㅂㅏㄹㅏㅂㄴㅣㄷㅏ	-11421
▁ㅇㅓㄱㅇㅜㄹㅎㅏㄴ	-11422
▁ㅇㅛㄱㅁㅓㄱㅇㅡㄹ	-11423
▁ㅁㅓㄱㄱㅗㅅㅏㄹㄱㅣ	-11424
▁ㅇㅕㄴㄱㅣㄷㅐㅅㅏㅇ	-11425
▁ㄱㅗㅇㅎㅘㅇㅈㅏㅇㅇㅐ	-11426
ㄱㅗㄷ	-11427
ㅉㅣㅇ	-11428
ㄱㅣㄹㅗㄱ	-11429
ㄷㅐㄹㅏㄴ	-11430
ㄷㅚㄴㄱㅔ	-11431
ㅈㅏㄹㅕㄱ	-11432
ㅌㅗㄹㅗㄱ	-11433
▁ㅈㅏㄴㅡㄴ	-11434
ㅂㅏㅇㅇㅡㄹ	-11435
▁ㄱㅡㄴㅔㄱㅏ	-11436
▁ㄱㅣㅁㅅㅗㅎ	-11437
▁ㅆㅏㅇㅣㅋㅗ	-11438
▁ㅇㅐㄱㅈㅓㅇ	-11439
▁ㅇㅓㄷㅣㄷㅏ	-11440
▁ㅈㅐㅁㅣㄷㅗ	-11441
▁ㅈㅓㅇㅇㅠㄴ	-11442
ㄷㅡㄹㅂㅗㄷㅏ	-11443
▁ㄴㅏㅎㅗㄴㅈㅏ	-11444
▁ㅎㅐㅁㅂㅓㄱㅓ	-11445
ㅂㅜㅈㅏㅇㄱㅘㄴ	-11446
ㅅㅣㅊㅓㅇㄹㅠㄹ	-11447
▁ㄴㅓㅁㄷㅡㄹㅇㅣ	-11448
▁ㅁㅏㄴㄷㅡㄹㅈㅏ	-11449
▁ㅇㅣㅆㄴㅡㄴㄱㅓㅅ	-11450
▁ㅎㅏㄴㅡㄴㄱㅓㅅㄷㅗ	-11451
▁ㄴㅐㅂ	-11452
ㅂㅗㄴㅏ	-11453
ㅇㅣㅂㅡ	-11454
▁ㄹㅣㅍㅓ	-11455
▁ㅇㅣㄹㅝ	-11456
▁ㅎㅏㄹㅕ	-11457
▁ㅎㅚㄱㅖ	-11458
ㄱㅏㅌㅡㄴ	-11459
ㅇㅗㄴㅡㄴ	-11460
ㅈㅜㄴㅇㅣ	-11461
▁ㅅㅏㄻㅇㅣ	-11462
▁ㅈㅣㅂㄷㅗ	-11463
ㄷㅏㅂㅗㄴㅣ	-11464
▁ㄱㅏㅇㅑㅈㅣ	-11465
▁ㄷㅏㄺㅇㅡㄴ	-11466
▁ㅇㅏㄴㅣㅈㅛ	-11467
ㅅㅏㄷㅡㄹㅇㅣ	-11468
▁ㄴㅗㅇㅣㄴㄴㅔ	-11469
▁ㅁㅗㅅㅎㅏㄴㅣ	-11470
▁ㅁㅜㄴㅈㅔㄹㅗ	-11471
▁ㅅㅗㄷㅡㄱㅇㅣ	-11472
▁ㅈㅏㄹㅎㅐㄹㅏ	-11473
▁ㅍㅣㅎㅐㄴㅡㄴ	-11474
ㅇㅣㅇㅓㅆㄷㅓㄴ	-11475
▁ㅇㅜㅅㄱㅣㄴㄱㅔ	-11476
▁ㅇㅓㄹㄱㅜㄹㅇㅡㄴ	-11477
▁ㅅㅐㅇㄱㅏㄱㅇㅡㄹㅗ	-11478
▁ㄱㅣㅂㅗㄴㅈㅓㄱㅇㅣㄴ	-11479
~~!	-11480
▁ㄱㄱ	-11481
▁ㄹㅣㅂ	-11482
▁ㅉㅜㅇ	-11483
ㅁㅜㄱㅏ	-11484
ㅆㅣㅇㅢ	-11485
▁ㄴㅏㅈㅊ	-11486
ㅅㅣㅍㅇㅓ	-11487
ㅇㅓㅄㄴㅑ	-11488
▁ㄴㅐㅈㅣㅂ	-11489
▁ㅁㅓㄴㅈㅣ	-11490
▁ㅍㅐㄴㅇㅣ	-11491
▁ㅎㅘㄱㅂㅗ	-11492
▁ㅎㅏㅅㅣㄱㅗ	-11493
ㅗㅎㅇㅡㅁㅕㄴ	-11494
▁ㄱㅐㅅㅜㅈㅏㄱ	-11495
▁ㄷㅏㄹㅡㄴㄱㅓ	-11496
▁ㅇㅓㄴㅈㅔㄱㅗ	-11497
▁ㄱㅓㄴㅁㅜㄹㅈㅜ	-11498
▁ㅅㅓㄹㄹㅔㅂㅏㄹ	-11499
▁ㅇㅏㄴㅆㅡㄴㅡㄴ	-11500
▁ㅇㅣㅆㅇㅡㄹㄷㅡㅅ	-11501
▁ㅅㅏㄹㅏㅁㅎㅏㄴㅌㅔ	-11502
▁ㅎㅏㄹㅅㅜㅇㅣㅆㄴㅡㄴ	-11503
▁ㅅㅓㅇㄱㅘㅇㅕㄴㅂㅗㅇㅈㅔ	-11504
▁ㄹㅏㅁ	-11505
▁ㅅㅔㅅㅜ	-11506
ㅇㅣㄴㄱㅣ	-11507
▁ㄱㅏㅅㅣㄱ	-11508
▁ㄱㅣㅂㅏㄴ	-11509
▁ㅅㅏㅁㅅㅣ	-11510
▁ㅍㅣㄹㅡㄹ	-11511
ㄱㅕㄹㄹㅗㄴ	-11512
ㅊㅏㅇㅇㅝㄴ	-11513
▁ㄴㅗㅇㄹㅏㄱ	-11514
▁ㅅㅓㄴㅈㅓㄴ	-11515
▁ㄱㅣㅅㅏㅁㅏㄴ	-11516
▁ㄴㅓㅁㅜㅎㅏㄴㅔ	-11517
▁ㅂㅗㄴㅇㅣㄴㅇㅢ	-11518
▁ㅇㅓㄹㅁㅏㄹㅡㄹ	-11519
▁ㅈㅓㅇㅇㅡㄴㅇㅣ	-11520
▁ㅈㅏㅇㅅㅏㅎㅏㄴㅡㄴ	-11521
ㅓㅇㅘ	-11522
▁ㅇㅠㄹㅏ	-11523
ㅎㅏㄷㅡㅅ	-11524
▁ㄷㅙㅆㄱㅗ	-11525
▁ㅂㅏㅁㅇㅔ	-11526
▁ㅎㅓㄹㅏㄱ	-11527
ㅇㅝㄴㄷㅡㄹ	-11528
▁ㄴㅗㅈㅗㄱㅏ	-11529
▁ㄷㅗㅇㄱㅡㅂ	-11530
▁ㅂㅏㄹㄱㅘㅇ	-11531
▁ㅊㅓㄱㄱㅕㄹ	-11532
▁ㅍㅐㄴㄷㅓㅁ	-11533
▁ㅍㅣㅎㅐㄱㅏ	-11534
▁ㅎㅢㄷㅐㅇㅢ	-11535
▁ㅈㅣㅈㅣㅇㅠㄹ	-11536
ㄴㅕㄴㅇㅏㄴㅇㅔ	-11537
ㅕㅇㅑㅎㅏㄴㄷㅏ	-11538
▁ㅃㅏㄹㅇㅏㅁㅓㄱ	-11539
▁ㅎㅏㄴㅏㅎㅏㄴㅏ	-11540
▁ㄱㅡㄹㅐㅂㅘㅆㅈㅏ	-11541
ㅇㅣㅇㅕㅆㄴㅡㄴㄷㅔ	-11542
▁ㅈㅜㅇㄱㅜㄱㅇㅡㄹㅗ	-11543
ㅐㄹㅏ	-11544
ㅏㅁㅏㄹ	-11545
▁ㅇㅣㄹㅏ	-11546
▁ㅇㅏㄴㅌㅓ	-11547
▁ㅇㅕㅇㅇㅓ	-11548
▁ㅊㅓㅇㅇㅘ	-11549
▁ㄴㅏㅁㅈㅏㅇ	-11550
▁ㄷㅡㄹㅇㅕㅇ	-11551
▁ㄸㅐㄲㅏㅈㅣ	-11552
▁ㅈㅓㅇㅎㅗㅅ	-11553
▁ㅎㅗㅇㅋㅗㅇ	-11554
▁ㅇㅕㅍㅇㅔㅅㅓ	-11555
▁ㅈㅜㄴㄷㅏㄱㅗ	-11556
▁ㅇㅝㄹㄱㅡㅂㅇㅣ	-11557
▁ㅇㅣㄱㅓㅅㅇㅡㄴ	-11558
▁ㄷㅡㄹㅇㅓㅇㅘㅅㅓ	-11559
▁ㅅㅐㅇㄱㅏㄱㅇㅏㄴ	-11560
▁ㅈㅗㅎㅇㅡㄴㅇㅣㄹ	-11561
▁ㅋㅋㅋㅋㅋㅋㅋㅋㅋㅋㅋㅋㅋ	-11562
▁ai	-11563
ㅎㅗㅁ	-11564
ㅐㅇㅐㄱ	-11565
▁ㅇㅔㅎㅕ	-11566
ㅏㄶㅇㅡㄴ	-11567
▁ㅅㅠㅍㅓㅁ	-11568
▁ㅇㅙㄷㅡㄹ	-11569
ㅂㅗㅇㅣㄱㅗ	-11570
ㅅㅣㅋㅣㅈㅣ	-11571
ㅗㅅㅗㄷㅡㄱ	-11572
▁ㄱㅗㅇㅌㅗㅇ	-11573
▁ㄱㅜㅈㅗㅈㅗ	-11574
▁ㅆㅏㄱㅏㅈㅣ	-11575
▁ㅈㅣㅂㅊㅏㄱ	-11576
▁ㅎㅏㄴㄱㅓㄹ	-11577
ㅉㅗㄱㅇㅔㅅㅓ	-11578
▁ㄷㅐㅅㅓㄴㄸㅐ	-11579
▁ㅇㅟㄷㅐㅎㅏㄴ	-11580
▁ㅈㅐㅇㅛㅇㅇㅏ	-11581
▁ㅊㅏㅈㅇㅏㅅㅓ	-11582
ㅈㅐㅇㅇㅣㄷㅡㄹ	-11583
▁ㅎㅏㄴㅂㅓㄴㅇㅔ	-11584
▁ㅂㅓㄹㅆㅓㅂㅜㅌㅓ	-11585
▁ㅇㅏㅅㅟㅂㄴㅔㅇㅛ	-11586
ㅇㅣㅆㅇㅓㅆㄴㅡㄴㄷㅔ	-11587
ㅔㅅ	-11588
▁ㅈㅗㅂ	-11589
ㄱㅡㄱㅓ	-11590
ㅈㅏㅃㅏ	-11591
▁ㄲㅓㅈㅣ	-11592
▁ㅈㅜㅈㅔ	-11593
ㅂㅜㄴㅎㅐ	-11594
ㅈㅓㅇㅈㅣ	-11595
▁ㅊㅚㅅㅜㄴ	-11596
▁ㅊㅣㅈㅗㄹ	-11597
ㄷㅡㄹㅇㅣㄴ	-11598
ㅈㅏㄱㅈㅓㅇ	-11599
ㅉㅡㅅㅉㅡㅅ	-11600
▁ㄸㅐㅂㅜㅌㅓ	-11601
▁ㅇㅕㄴㅅㅗㄱ	-11602
▁ㅅㅗㅂㅣㄹㅡㄹ	-11603
▁ㅇㅓㅉㅓㄴㅈㅣ	-11604
▁ㅈㅗㅎㄷㅓㄹㅏ	-11605
ㅅㅜㅇㅓㅄㄴㅡㄴ	-11606
▁ㅁㅣㄴㄴㅗㅊㅗㅇ	-11607
▁ㅇㅕㅇㅎㅘㄴㅡㄴ	-11608
▁xx	-11609
ㄴㅐㄱ	-11610
ㄷㅜㅁ	-11611
ㅈㅣㄱㅡㅅ	-11612
ㅍㅡㄴㅡㄴ	-11613
ㅎㅢㄹㅗㅇ	-11614
▁ㅅㅗㄱㅊㅗ	-11615
▁ㅇㅏㅇㅜㅇ	-11616
▁ㅇㅚㅅㅣㄱ	-11617
▁ㅇㅣㅂㅈㅜ	-11618
▁ㅈㅓㅇㅊㅔ	-11619
ㅂㅏㅇㅇㅡㄴ	-11620
▁ㄱㅣㅁㅂㅏㅂ	-11621
▁ㄸㅐㅁㅏㄷㅏ	-11622
▁ㅁㅕㅇㄷㅗㅇ	-11623
▁ㅊㅜㄹㄱㅜㄱ	-11624
▁ㄷㅐㅂㅏㄱㄴㅏ	-11625
▁ㅈㅓㄱㅓㅅㄷㅗ	-11626
▁ㅈㅓㄴㅂㅜㅌㅓ	-11627
▁ㄷㅐㅅㄱㅡㄹㄹㅗ	-11628
▁ㅁㅗㄹㄹㅏㅆㄷㅏ	-11629
ㄱㅓㅅㄱㅏㅌㅇㅡㅁ	-11630
▁ㄷㅗㄹㄷㅐㄱㅏㄹㅣ	-11631
▁ㅎㅏㄴㅌㅗㅇㅅㅗㄱ	-11632
ㅆㅏㅎ	-11633
ㄱㅏㄴㅣ	-11634
▁ㅂㅏㅃㅏ	-11635
ㅁㅜㄹㅇㅔ	-11636
ㅇㅓㅂㅘㅆ	-11637
▁ㅅㅓㅂㅇㅚ	-11638
ㅂㅜㄹㅂㅓㅂ	-11639
▁ㄷㅓㄹㅓㅇㅝ	-11640
▁ㅂㅗㅇㅣㄴㅔ	-11641
▁ㅅㅣㄹㅊㅓㄴ	-11642
▁ㅇㅜㅅㄱㅣㅁ	-11643
▁ㅉㅏㄼㅇㅡㄴ	-11644
ㅈㅏㄹㅎㅏㄱㅗ	-11645
▁ㄴㅗㄹㅐㄹㅡㄹ	-11646
▁ㅅㅏㄹㄹㅣㄱㅗ	-11647
▁ㅅㅓㅇㅜㄹㄷㅐ	-11648
▁ㄱㅜㄱㅅㅏㄴㅊㅏ	-11649
▁ㅈㅏㄹㅅㅐㅇㄱㅕㅆ	-11650
▁ㅇㅏㄶㅇㅡㄹㄲㅏㅇㅛ	-11651
▁ㅇㅣㅆㅇㅡㄹㅌㅔㄴㄷㅔ	-11652
ㅋㅓㄱ	-11653
blog	-11654
▁SBS	-11655
▁ㄷㅐㄴ	-11656
ㅁㅝㄱㅏ	-11657
▁ㅅㅗㅎㅘ	-11658
▁ㅍㅣㅈㅏ	-11659
ㅂㅗㄴㄷㅔ	-11660
ㅅㅣㅁㄷㅗ	-11661
ㅍㅕㄴㅇㅣ	-11662
▁ㄱㅟㅇㅕㅂ	-11663
▁ㅅㅜㅁㅇㅓ	-11664
▁ㅇㅕㅇㅅㅔ	-11665
ㅅㅏㄴㅇㅡㄴ	-11666
ㅈㅣㄹㅇㅏㄶ	-11667
▁ㄴㅜㄱㅜㄷㅗ	-11668
▁ㅅㅗㅇㅅㅗㅇ	-11669
▁ㅇㅓㅁㄱㅕㄱ	-11670
▁ㅇㅓㅉㅓㄴㅑ	-11671
▁ㅎㅏㄴㅈㅓㅇ	-11672
ㅈㅏㄷㅡㄹㅇㅏ	-11673
▁ㅁㅣㅌㅇㅔㅅㅓ	-11674
▁ㅇㅏㄴㄷㅚㄴㅔ	-11675
▁ㄱㅙㄴㅊㅏㄶㅇㅏ	-11676
▁ㄱㅣㄷㅐㅎㅏㄱㅗ	-11677
▁ㅈㅓㅇㅅㅣㄴㅂㅕㅇㅈㅏ	-11678
ㅁㅣㅇ	-11679
ㄹㅣㅁㅏㄴ	-11680
ㅅㅓㅇㅇㅢ	-11681
ㅊㅏㄹㅑㅇ	-11682
▁ㄱㅏㅇㄷㅗ	-11683
▁ㄴㅕㄴㅇㅣ	-11684
▁ㄷㅣㅈㅔㄹ	-11685
▁ㅈㅜㅁㅓㄴ	-11686
ㄱㅣㅅㅏㅇㅔ	-11687
ㄴㅣㅁㅇㅡㄴ	-11688
ㅂㅗㄷㅏㄱㅏ	-11689
ㅅㅐㅇㄷㅡㄹ	-11690
ㅇㅓㅂㅇㅡㄹ	-11691
ㅈㅜㄴㅣㄲㅏ	-11692
▁ㄹㅓㅅㅣㅇㅏ	-11693
ㅈㅜㅇㅇㅔㅅㅓ	-11694
▁ㄱㅣㄷㅗㄱㄱㅛ	-11695
▁ㅈㅓㅈㅣㄹㄹㅓ	-11696
ㅇㅣㅆㅈㅣㅁㅏㄴ	-11697
▁ㅇㅓㅊㅓㄱㅜㄴㅣ	-11698
▁ㅇㅣㅈㅔㅅㅓㅇㅑ	-11699
▁ㅌㅗㅇㅊㅣㅎㅐㅇㅇㅟ	-11700
▁ㅎㅏㄴㅡㄴㅈㅣㅅㅇㅣ	-11701
ㅣㄷㅗ	-11702
▁ㄹㅣㅁ	-11703
ㅁㅏㄷㅣ	-11704
ㅂㅓㅌㅓ	-11705
ㅇㅏㄹㅐ	-11706
ㅊㅔㅈㅔ	-11707
▁ㅎㅘㄱㅏ	-11708
ㄴㅕㄴㅇㅏ	-11709
ㅇㅑㄷㅏㅇ	-11710
ㅎㅏㅁㅇㅔ	-11711
▁ㅂㅓㅂㄷㅗ	-11712
ㄹㅣㅅㅡㅌㅡ	-11713
▁ㄲㅗㄹㄹㅏㅇ	-11714
▁ㅁㅏㅈㅇㅡㅁ	-11715
▁ㅂㅜㄹㅎㅐㅇ	-11716
▁ㅈㅏㄱㅈㅓㄴ	-11717
ㄷㅡㄹㅎㅏㄱㅗ	-11718
▁ㄱㅏㅂㅅㅣㄷㅏ	-11719
▁ㄴㅏㅇㅣㄷㅡㄹ	-11720
▁ㅇㅚㅊㅣㄴㅡㄴ	-11721
▁ㅁㅜㄴㅈㅔㅇㅣㅁ	-11722
▁ㅇㅣㄹㅡㅁㅇㅡㄹ	-11723
▁ㅎㅏㄴㄱㅜㄱㅎㅕㅇ	-11724
ㄷㅐㅌㅗㅇㄹㅕㅇㅇㅡㄴ	-11725
▁ㄱㅐㄷㅙㅈㅣㄷㅡㄹㅇㅣ	-11726
ㄸㅡㄴ	-11727
▁mbc	-11728
ㄱㅣㅇㅘ	-11729
ㅂㅜㄴㅏ	-11730
~~!!!	-11731
▁ㅇㅟㄴㅓ	-11732
ㄴㅡㅈㄱㅔ	-11733
ㄷㅏㄹㅡㄹ	-11734
ㄷㅚㄹㄲㅏ	-11735
ㅁㅏㄴㄴㅏ	-11736
ㅂㅗㄱㄱㅟ	-11737
ㅇㅓㄹㅁㅏ	-11738
▁ㄷㅏㄴㄷㅜ	-11739
ㄱㅜㅇㄱㅡㅁ	-11740
ㅡㄴㅡㄴㄱㅔ	-11741
▁ㄴㅓㅁㅇㅡㄴ	-11742
▁ㅇㅏㄴㄱㅏㄹ	-11743
ㅇㅣㄴㅇㅔㄱㅔ	-11744
▁ㅍㅡㄹㄹㅔㅇㅣ	-11745
▁ㄷㅏㄴㅁㅏㄹㄱㅣ	-11746
▁ㅂㅏㄱㅅㅜㄹㅡㄹ	-11747
▁,,	-11748
ㅗㄱㅡ	-11749
▁ㅈㅓㅈ	-11750
ㅁㅗㄹㅗ	-11751
ㅅㅡㅋㅔ	-11752
▁ㄸㅏㄹㅇㅣ	-11753
▁ㅁㅜㄴㅈㅏ	-11754
▁ㅈㅓㅇㅈㅣ	-11755
ㄱㅓㄹㅣㄱㅏ	-11756
ㅇㅡㄴㅅㅜㄱ	-11757
ㅈㅏㄱㅇㅡㄴ	-11758
ㅊㅏㅇㅊㅜㄹ	-11759
▁ㄷㅏㄹㅇㅕㄴ	-11760
▁ㅎㅐㅈㅝㄹㅏ	-11761
ㅅㅓㄴㅇㅔㅅㅓ	-11762
ㅕㅆㄷㅏㄴㅡㄴ	-11763
▁ㄱㅓㅍㅜㅁㅇㅣ	-11764
▁ㅇㅏㄶㅇㅏㅇㅛ	-11765
▁ㅇㅣㅆㅇㅓㄹㅏ	-11766
ㄷㅚㄴㄷㅏㅁㅕㄴ	-11767
▁ㄲㅣㄹㅣㄲㅣㄹㅣ	-11768
▁ㅅㅏㅇㅇㅓㅂㅇㅛㅇ	-11769
▁ㅈㅓㅇㅅㅣㄴㅊㅏㄹㅣㄹ	-11770
/2	-11771
=>	-11772
▁34	-11773
▁80%	-11774
▁ㅇㅡㅂ	-11775
ㄷㅏㄹㅏ	-11776
ㄷㅐㄴㅣ	-11777
▁ㅂㅐㄱㅗ	-11778
▁ㅇㅐㄷㅗ	-11779
ㅁㅏㄶㄱㅗ	-11780
ㅈㅕㅆㄱㅗ	-11781
ㅈㅣㄱㅡㄴ	-11782
ㅈㅣㅂㄷㅗ	-11783
▁ㄷㅚㄴㄱㅓ	-11784
▁ㅁㅣㅋㅜㄱ	-11785
▁ㅈㅗㄹㅣㅂ	-11786
▁ㅎㅗㅇㅇㅓ	-11787
▁ㅅㅏㅇㅣㅇㅔ	-11788
▁ㅇㅜㅈㅜㅇㅢ	-11789
▁ㅈㅜㅇㅎㅓㄴ	-11790
▁ㅈㅣㄴㅅㅜㄹ	-11791
▁ㄱㅣㅁㄱㅜㄹㅏ	-11792
▁ㅃㅗㅂㅇㅏㅇㅑ	-11793
ㄷㅡㄹㅇㅔㄱㅔㄴ	-11794
ㅈㅜㅇㅣㄴㄱㅗㅇ	-11795
▁ㅂㅜㄲㅡㄹㅓㅂㄷㅏ	-11796
ㅂㅓㅌ	-11797
ㅆㄴㅣ	-11798
ㅅㅣㄷㅗ	-11799
▁ㅅㅏㄹㅣ	-11800
ㅂㅐㅅㅗㅇ	-11801
▁ㅇㅕㄹㅓㅅ	-11802
▁ㅇㅗㅁㅏㄴ	-11803
▁ㅈㅚㄱㅏㅄ	-11804
▁ㄱㅜㄱㅃㅗㅇ	-11805
▁ㄱㅡㅂㅅㅣㄱ	-11806
▁ㄸㅗㄷㅏㅅㅣ	-11807
▁ㅁㅣㄷㅇㅡㅁ	-11808
▁ㅈㅜㄹㅇㅣㄹ	-11809
▁ㄱㅟㅇㅕㅂㄱㅗ	-11810
▁ㄴㅐㄹㅣㅁㅕㄴ	-11811
ㅊㅏㅁㅇㅕㄱㅅㅏ	-11812
▁ㄱㅏㅌㄷㅓㄴㄷㅔ	-11813
▁ㅂㅗㄹㅅㅜㅇㅣㅆ	-11814
▁ㅇㅓㅄㄴㅡㄴㄷㅡㅅ	-11815
▁ㅇㅏㄴㄴㅏㅇㅗㄴㅡㄴ	-11816
▁ㅇㅏㄶㅇㅏㅆㄴㅡㄴㄷㅔ	-11817
ㅜㅁㅇㅣ	-11818
ㅂㅓㄹㅣㅁ	-11819
▁ㄷㅏㄹㄹㅓ	-11820
▁ㄷㅡㄷㄱㅣ	-11821
▁ㅁㅜㄷㅓㅁ	-11822
▁ㅃㅐㅁㅕㄴ	-11823
▁ㅅㅏㅈㅓㅇ	-11824
▁ㅇㅛㅂㅓㄴ	-11825
ㅉㅏㄱㅉㅏㄱ	-11826
ㅊㅚㄱㅗㅇㅢ	-11827
▁ㄱㅓㄹㄹㅣㄹ	-11828
▁ㅇㅏㅍㅇㅡㄹ	-11829
▁ㅊㅏㅈㅇㅡㄹ	-11830
ㄱㅜㄱㅇㅡㄹㅗ	-11831
▁ㄴㅗㄹㅐㄴㅡㄴ	-11832
▁ㅇㅓㄹㅕㅇㅜㄹ	-11833
▁ㅌㅏㅇㅣㅌㅡㄹ	-11834
▁ㅊㅓㅂㅓㄹㅇㅡㄹ	-11835
▁ㄴㅜㅈㅣㄴㅅㅔㄱㅏ	-11836
▁ㅈㅓㅇㅊㅐㄱㅇㅡㄴ	-11837
▁ㅇㅣㄹㅂㅗㄴㅊㅓㄹㅓㅁ	-11838
ㄱㅜㅁㅐ	-11839
ㄷㅏㄹㅗ	-11840
ㅏㅇㅡㄹ	-11841
▁ㅇㅏㅎㅠ	-11842
▁ㅇㅐㅁㅐ	-11843
ㄱㅣㄹㅡㅁ	-11844
ㅇㅏㅆㄱㅗ	-11845
▁ㄱㅡㄹㅣㅂ	-11846
▁ㅇㅔㅅㅈㅣ	-11847
▁ㄴㅜㄴㄲㅏㄹ	-11848
▁ㅁㅏㄴㅎㅏㄴ	-11849
▁ㅅㅣㄹㄱㅓㅁ	-11850
▁ㅇㅕㄹㅁㅕㄴ	-11851
▁ㅍㅏㄴㅇㅡㄹ	-11852
ㅎㅏㅈㅣㄴㅡㄴ	-11853
▁ㄷㅗㅅㅣㄹㅏㄱ	-11854
▁ㅅㅏㄴㅈㅏㅂㅜ	-11855
▁ㅍㅡㄹㅗㅈㅔㄱ	-11856
ㅅㅏㅁㅅㅓㅇㅇㅣ	-11857
▁ㄱㅏㅁㅂㅏㅇㅇㅔ	-11858
▁ㅇㅡㄴㅈㅣㅇㅝㄴ	-11859
▁ㅇㅣㄹㅂㅔㅊㅜㅇ	-11860
▁ㅅㅐㄲㅣㄷㅡㄹㅇㅣ	-11861
900	-11862
ㅅㅗㄴㅕ	-11863
ㅈㅐㄹㅗ	-11864
ㄱㅏㅁㅇㅔ	-11865
ㅊㅣㅋㅣㄴ	-11866
ㅎㅏㅁㅡㄴ	-11867
▁ㄲㅐㄷㅏㄹ	-11868
▁ㅅㅜㅎㅏㄱ	-11869
▁ㅈㅡㄱㅅㅣ	-11870
ㅂㅜㄴㅇㅕㄹ	-11871
ㅇㅣㄹㄷㅏㄴ	-11872
ㅕㅆㄴㅔㅇㅛ	-11873
▁ㄴㅏㅇㅗㄱㅔ	-11874
▁ㅇㅣㅂㅎㅏㄱ	-11875
▁ㅈㅓㄱㄷㅏㅇ	-11876
▁ㅎㅕㄴㅂㅣㄴ	-11877
ㄴㅕㄴㅇㅣㄴㅏ	-11878
ㅁㅕㄴㅇㅔㅅㅓ	-11879
ㅁㅜㅈㅗㄱㅓㄴ	-11880
ㅇㅣㅈㅏㄶㅇㅏ	-11881
ㅇㅣㅈㅔㄴㅡㄴ	-11882
▁ㅇㅐㅆㅡㄴㄷㅏ	-11883
▁ㅈㅏㄷㅡㄹㅇㅣ	-11884
▁ㅈㅣㅋㅣㄴㅡㄴ	-11885
▁ㅎㅏㄱㅗㄴㅡㄴ	-11886
▁ㄱㅕㄹㄱㅘㄴㅡㄴ	-11887
▁ㄱㅕㄹㅎㅗㄴㄷㅗ	-11888
▁ㄱㅗㅅㅡㄹㅏㄴㅎㅣ	-11889
▁ㄱㅣㅁㅈㅓㅇㅇㅣㄹ	-11890
▁ㅅㅐㅇㄱㅏㄱㅎㅏㄹ	-11891
▁ㅅㅏㅇㄱㅘㄴㅇㅓㅄㄴㅡㄴ	-11892
▁ㅅㅐㅇㄱㅏㄱㅎㅐㅂㅘㄹㅏ	-11893
▁ㅇㅓㄴㄹㅗㄴㅍㅡㄹㄹㅔㅇㅣ	-11894
▁ㅋㅗㅅ	-11895
▁ㅎㅜㅅ	-11896
ㄷㅚㄱㅣ	-11897
ㅇㅔㄴㅏ	-11898
ㅇㅛㅇㅎㅘ	-11899
ㅎㅓㄴㅈㅐ	-11900
▁ㄱㅕㅇㅁㅐ	-11901
▁ㄱㅣㅅㅏㄱ	-11902
▁ㅁㅜㄷㅏㅇ	-11903
ㅇㅣㄷㅓㄹㅏ	-11904
ㅏㅇㅗㅁㅕㄴ	-11905
▁ㄴㅠㅅㅡㅇㅔ	-11906
▁ㄷㅏㅁㅎㅏㅂ	-11907
▁ㄹㅣㅅㅡㅌㅡ	-11908
▁ㅁㅗㅇㅕㅅㅓ	-11909
▁ㅉㅣㄱㄴㅡㄴ	-11910
▁ㅉㅣㄱㅇㅡㄹ	-11911
▁ㅇㅣㅎㅐㄹㅡㄹ	-11912
▁ㅈㅐㅁㅣㅇㅓㅄ	-11913
▁ㅎㅏㄴㄱㅖㄱㅏ	-11914
▁ㅎㅗㄴㅈㅏㅅㅓ	-11915
ㅇㅣㄴㄱㅏㄴㅇㅣ	-11916
▁ㅇㅚㄱㅜㄱㅇㅡㄹㅗ	-11917
▁ㄷㅚㄹㄱㅓㅅㅇㅣㄷㅏ	-11918
▁ㅈㅓㅇㅇㅠㄹㅏㄴㅡㄴ	-11919
~30	-11920
ㅅㅏㄻ	-11921
▁ㄱㅏㄷㅗ	-11922
▁ㄸㅏㅈㅕ	-11923
ㅊㅓㄴㅎㅣ	-11924
▁ㅅㅡㄹㅍㅓ	-11925
▁ㅇㅠㅂㅕㅇ	-11926
ㄱㅗㅇㅈㅣㄱ	-11927
ㅅㅣㄴㄱㅕㅇ	-11928
ㅅㅣㄴㅔㅇㅛ	-11929
ㅇㅝㄴㅊㅣㄱ	-11930
▁ㅃㅏㄹㄱㅏㄴ	-11931
▁ㄱㅗㅅㅇㅔㅅㅓ	-11932
▁ㄷㅡㄹㅇㅓㅇㅘ	-11933
▁ㄹㅔㅈㅓㄴㄷㅡ	-11934
▁ㅈㅐㅁㅣㅆㄷㅏ	-11935
▁ㅈㅓㅂㅓㄴㅇㅔ	-11936
ㅇㅣㄴㅌㅓㄴㅔㅅ	-11937
▁ㄱㅕㅇㅇㅠㄱㅏㅄ	-11938
▁ㅇㅜㄹㅣㄷㅗㅇㄴㅔ	-11939
▁ㅇㅠㅈㅓㄴㅁㅜㅈㅚ	-11940
▁ㅈㅓㅇㄱㅝㄴㅇㅡㄴ	-11941
▁ㅈㅓㅇㅅㅣㄴㅈㅗㅁ	-11942
ㅣㅇㅐ	-11943
ㄲㅏㄱㅗ	-11944
ㅜㄴㄷㅏ	-11945
▁ㄱㅡㅇㅘ	-11946
▁ㄴㅔㄱㅏ	-11947
▁ㅇㅏㄴㅌ	-11948
▁ㄱㅏㅁㅅㅗ	-11949
▁ㅂㅗㅇㅅㅏ	-11950
ㅎㅏㄱㅣㄱㅏ	-11951
▁ㄱㅗㅅㅇㅡㄴ	-11952
▁ㅇㅜㄹㅣㄹㅡㄹ	-11953
▁ㅈㅣㅈㅓㅂㅜㄴ	-11954
▁ㄸㅏㄸㅡㅅㅎㅏㄴ	-11955
▁ㅇㅓㅇㄸㅜㅇㅎㅏㄴ	-11956
▁ㅊㅗㄷㅡㅇㅎㅏㄱㅅㅐㅇ	-11957
ㅎㅑ	-11958
ㅈㅣㅈ	-11959
ㅈㅗㄹㅣ	-11960
ㅎㅏㅊㅏ	-11961
ㅗㄹㄹㅕ	-11962
▁ㄴㅡㄹㄹ	-11963
▁ㅅㅣㅂㅣ	-11964
▁ㅇㅏㄲㅣ	-11965
▁ㅇㅣㅅㅓ	-11966
▁ㅈㅏㄱㅚ	-11967
▁ㅋㅣㅇㅜ	-11968
ㅅㅔㅇㅛㅇ	-11969
ㅇㅏㄴㅌㅏ	-11970
ㅇㅜㅃㅓㅇ	-11971
ㅎㅏㅁㄲㅔ	-11972
▁ㄱㅏㅂㅕㅇ	-11973
▁ㄱㅜㅎㅕㅇ	-11974
▁ㄷㅜㄷㅏㄹ	-11975
▁ㅂㅜㄷㅏㅇ	-11976
▁ㅇㅣㄱㅡㄹ	-11977
ㅇㅣㅈㅣㅇㅛ	-11978
ㅕㄱㅏㄴㅡㄴ	-11979
▁ㄱㅓㄴㅊㅜㄱ	-11980
▁ㅇㅕㄴㅇㅖㄴ	-11981
▁ㅈㅜㅇㄱㅗㅇ	-11982
ㅇㅣㄴㄷㅏㄱㅗ	-11983
ㅈㅓㅇㅇㅠㄹㅏ	-11984
ㅍㅡㄹㅗㄴㅡㄴ	-11985
▁ㄱㅡㄷㅏㅇㅡㅁ	-11986
ㅇㅡㄹㄸㅐㄴㅡㄴ	-11987
▁ㅇㅏㅁㅗㄹㄹㅏㅇ	-11988
▁ㅇㅑㄷㅏㅇㅇㅡㄴ	-11989
▁ㅈㅔㅍㅜㅁㅇㅡㄴ	-11990
▁ㅂㅏㅇㅅㅗㅇㄱㅜㄱ	-11991
▁ㅇㅣㄴㅏㄹㅏㄹㅡㄹ	-11992
ㄴㅕㄴㅈㅓㄴㅂㅜㅌㅓ	-11993
ㅂㅜㅅ	-11994
ㅇㅏㄵ	-11995
▁ㅇㅔㅇ	-11996
ㄱㅏㄹㅜ	-11997
ㅆㄱㅜㄴ	-11998
▁ㅅㅡㄹㅍ	-11999
ㅇㅑㅇㅇㅣ	-12000
ㅇㅣㅁㄷㅐ	-12001
ㅊㅓㄴㅇㅣ	-12002
ㅌㅡㄹㅇㅓ	-12003
▁ㄱㅙㅆㅣㅁ	-12004
▁ㄱㅜㄱㅌㅗ	-12005
▁ㄱㅟㅅㅣㄴ	-12006
▁ㅈㅗㅇㅕㅇ	-12007
▁ㅎㅐㅇㅑㅇ	-12008
ㅂㅜㄴㅁㅕㅇ	-12009
ㅅㅗㄹㅣㄱㅏ	-12010
▁ㄴㅗㅇㄷㅏㄴ	-12011
▁ㅆㅡㄹㅏㄱㅗ	-12012
▁ㅈㅓㄴㄹㅏㄱ	-12013
ㅇㅣㄹㅅㅜㄷㅗ	-12014
ㅋㅣㅇㅜㄴㅡㄴ	-12015
ㅎㅏㄷㅏㅁㅕㄴ	-12016
▁ㅃㅗㅂㅇㅏㅅㅓ	-12017
▁ㅅㅏㄴㄷㅏㄱㅗ	-12018
▁ㅇㅘㅈㅜㅇㅇㅔ	-12019
▁ㅍㅣㅇㄱㅖㄹㅗ	-12020
▁ㄴㅗㅁㅜㅎㅕㄴㅇㅣ	-12021
▁ㅅㅗㅂㅣㅈㅏㄹㅡㄹ	-12022
▁ㄱㅜㄱㅁㅣㄴㅎㅕㄹㅅㅔ	-12023
▁ㅅㅏㅇㄱㅘㄴㅇㅓㅄㅇㅣ	-12024
▁ㅇㅣㅂㅈㅏㅇㅇㅔㅅㅓㄴㅡㄴ	-12025
▁ㅆㅓㅅ	-12026
ㅂㅜㅈㅏ	-12027
ㅊㅏㄹㅖ	-12028
▁ㅍㅣㄷㅣ	-12029
▁ㅂㅗㄴㅐㄴ	-12030
▁ㅈㅐㅈㅓㅇ	-12031
ㅅㅜㄴㅎㅘㄴ	-12032
▁ㅂㅣㅇㅘㅇㅣ	-12033
▁ㅇㅏㄴㅂㅗㅇ	-12034
▁ㅈㅡㅇㅇㅣㄴ	-12035
ㅁㅗㅅㅎㅏㄱㅔ	-12036
▁ㅇㅏㄴㅣㄹㅏㄴ	-12037
▁ㅈㅏㄱㄱㅏㄱㅏ	-12038
▁ㅈㅓㄹㅓㄴㄱㅔ	-12039
ㅅㅏㄹㅏㅁㅇㅡㄹ	-12040
▁ㄱㅣㅅㅜㄹㄹㅕㄱ	-12041
▁ㄴㅗㅁㄷㅡㄹㅇㅏ	-12042
▁ㄴㅜㄴㄱㅏㄹㅣㄱㅗ	-12043
▁ㅇㅓㅄㅇㅓㅆㄷㅓㄴ	-12044
▁ㅁㅜㄹㄱㅏㅅㅏㅇㅅㅡㅇ	-12045
▁700	-12046
ㅗㅇㅗㅇ	-12047
▁ㅇㅗㄱㅗ	-12048
ㅅㅜㅅㅓㄱ	-12049
ㅅㅜㅇㅣㄱ	-12050
ㅇㅓㅂㅗㄴ	-12051
ㅊㅟㅇㅓㅂ	-12052
▁ㅂㅜㄹㅡㄴ	-12053
▁ㅌㅐㅂㅏㄴ	-12054
ㅃㅓㄴㅃㅓㄴ	-12055
ㅅㅗㅇㅔㅅㅓ	-12056
ㅅㅣㄹㅣㅈㅡ	-12057
ㅊㅏㅇㅇㅜㄱ	-12058
ㅊㅡㅇㅇㅡㄴ	-12059
▁ㅃㅓㄹㅈㅣㅅ	-12060
▁ㅅㅏㄱㅗㄱㅏ	-12061
▁ㅇㅏㅇㅣㄷㅣ	-12062
▁ㅇㅒㄱㅣㄱㅏ	-12063
▁ㅌㅓㄹㅇㅓㅅㅓ	-12064
▁ㅈㅐㅁㅣㅆㅇㅡㅁ	-12065
▁ㅎㅐㅆㅇㅡㄹㄲㅏ	-12066
ㅎㅏㅅㅕㅆㅇㅓㅇㅛ	-12067
▁ㅅㅓㅇㄱㅗㅇㅎㅏㄴ	-12068
▁ㅇㅓㄹㅁㅏㄷㅡㄴㅈㅣ	-12069
▁ㄱㅐㄹㄹㅓㄱㅅㅣㄴㅗㅌㅡ	-12070
SD	-12071
ㄲㅝ	-12072
ㄱㅅㅡ	-12073
ㅁㅜㅈㅣ	-12074
ㅂㅏㅈㅣ	-12075
▁ㅅㅏㅊㅐ	-12076
▁ㅇㅖㅃㅡ	-12077
ㄹㅐㅇㅝㄴ	-12078
ㅇㅏㄴㄷㅚ	-12079
ㅇㅕㅅㅓㅇ	-12080
▁ㄷㅗㅈㅓㄱ	-12081
▁ㅅㅗㅈㅜㅇ	-12082
▁ㅅㅡㅇㅂㅜ	-12083
▁ㅊㅚㅈㅓㄱ	-12084
ㅂㅘㅇㅑㅈㅣ	-12085
ㅅㅣㄴㅊㅓㅇ	-12086
▁ㅅㅏㅇㅣㄷㅏ	-12087
▁ㅅㅜㄹㅣㅂㅣ	-12088
▁ㅇㅓㄱㅡㄹㅗ	-12089
▁ㅇㅣㄹㅅㅏㅁ	-12090
▁ㅍㅕㅇㅊㅏㅇ	-12091
ㅇㅏㄴㅎㅐㄷㅗ	-12092
▁ㅅㅐㅇㄱㅣㄱㅗ	-12093
▁ㅈㅏㅂㅇㅏㄹㅏ	-12094
▁ㅈㅐㅇㅛㅇㅇㅣ	-12095
▁ㅅㅏㄹㄹㅣㄴㅡㄴ	-12096
▁ㅇㅕㄹㅇㅐㅅㅓㄹ	-12097
▁ㅇㅣㄴㅅㅐㅇㅇㅣ	-12098
▁ㅇㅓㅄㅇㅓㅆㅇㅡㅁㅕㄴ	-12099
.............	-12100
▁ㅉㅏㅁ	-12101
▁ㄹㅓㅅㅣ	-12102
▁ㅅㅏㄴㅏ	-12103
ㅂㅜㄱㅕㄱ	-12104
ㅅㅔㅅㅡㅂ	-12105
ㅅㅜㅁㅏㄴ	-12106
ㅇㅓㄹㅕㅇ	-12107
ㅊㅐㅇㄱㅕ	-12108
▁ㅅㅣㄹㅅㅣ	-12109
▁ㅇㅘㅆㄷㅏ	-12110
▁ㅋㅣㅇㅜㄹ	-12111
▁ㅎㅘㅅㅓㅇ	-12112
ㄴㅏㅇㅗㄴㅔ	-12113
▁ㅇㅣㄴㅁㅐㄱ	-12114
▁ㅅㅏㄷㅡㄴㅡㄴ	-12115
▁ㅈㅗㅅㅏㄹㅡㄹ	-12116
▁ㅇㅓㅄㅇㅐㅁㅕㄴ	-12117
▁ㅈㅓㄹㅓㄴㄱㅓㄹ	-12118
▁ㅈㅚㅇㅓㅄㄴㅡㄴ	-12119
ㅁㅏㄴㅇㅝㄴㅇㅡㄹ	-12120
▁ㅁㅜㅇㅓㅅㅂㅗㄷㅏ	-12121
▁ㄱㅡㄹㅓㅎㄷㅏㅁㅕㄴ	-12122
▁ㅃㅓㄴㅃㅓㄴㅎㅏㄱㅔ	-12123
▁ㅇㅏㅇㅣㅅㅡㅋㅡㄹㅣㅁ	-12124
~~~^^	-12125
ㅇㅠㄹㅓㅂ	-12126
ㅈㅗㅇㅇㅢ	-12127
ㅍㅏㄴㅇㅣ	-12128
ㅎㅏㄹㅡㄹ	-12129
▁ㅁㅓㄴㄱㅏ	-12130
▁ㅆㅓㅁㅓㄱ	-12131
ㄱㅔㅇㅣㅌㅡ	-12132
▁ㄱㅕㅁㅅㅗㄴ	-12133
▁ㄴㅗㅇㅖㄹㅗ	-12134
▁ㅅㅓㅇㅅㅜㄱ	-12135
ㅈㅓㄹㅓㅎㄱㅔ	-12136
ㅕㅆㅈㅣㅁㅏㄴ	-12137
▁ㅁㅗㄹㅡㅁㅕㄴ	-12138
▁ㅇㅕㄱㅅㅏㄱㅏ	-12139
▁ㅇㅣㅈㅓㄴㅇㅔ	-12140
▁ㅁㅏㄹㄱㅗㄴㅡㄴ	-12141
▁ㅅㅣㄹㅅㅣㄱㅏㄴ	-12142
▁ㅇㅏㅈㅣㄱㅇㅡㄴ	-12143
▁ㅊㅗㅅㅂㅜㄹㅅㅣㅇㅟ	-12144
▁ㅊㅐㄱㅇㅣㅁㅈㅣㄴㅡㄴ	-12145
▁ㄱㅐㄷㅙㅈㅣㄷㅡㄹㅇㅡㄴ	-12146
1%	-12147
ㅈㅐㄴ	-12148
▁ㅂㅐㄴ	-12149
ㅅㅡㅇㅢ	-12150
ㅅㅏㅎㅏㄴ	-12151
ㅈㅣㄴㄱㅔ	-12152
▁ㅁㅏㅅㄷㅗ	-12153
▁ㅈㅓㄹㅓㄹ	-12154
▁ㅋㅏㅁㅔㄹ	-12155
ㅠㅠㅠㅠㅠㅠ	-12156
▁ㄱㅟㅇㅕㅇㅝ	-12157
▁ㄱㅣㅁㅈㅜㄴ	-12158
ㅅㅣㄹㅇㅔㅅㅓ	-12159
ㅇㅣㅇㅓㅆㅈㅣ	-12160
ㅋㅗㄴㅅㅓㅌㅡ	-12161
ㅎㅏㄹㄹㅕㅁㅕㄴ	-12162
▁ㄱㅣㅅㅏㄹㅏㄱㅗ	-12163
▁ㅁㅜㅅㅣㅎㅏㄴㅡㄴ	-12164
▁ㅈㅐㅁㅣㅇㅣㅆㄱㅔ	-12165
▁ㅈㅜㅇㅇㅛㅎㅏㅈㅣ	-12166
98%	-12167
iew	-12168
nhn	-12169
ㅌㅜㄴ	-12170
ㅗㅇㅏ	-12171
ㅇㅔㅇㅣ	-12172
ㅏㄴㅇㅣ	-12173
ㅕㅁㅊㅣ	-12174
▁ㄹㅔㅇㅣ	-12175
▁ㅋㅓㅅㅓ	-12176
ㄱㅜㄴㅕㅇ	-12177
ㅇㅘㄴㅎㅘ	-12178
ㅇㅣㄹㅓㄹ	-12179
ㅎㅏㄴㅁㅣ	-12180
▁ㄱㅏㅁㅅㅜ	-12181
▁ㄱㅓㅅㄱㅘ	-12182
▁ㄴㅏㅎㄱㅗ	-12183
▁ㅁㅏㄴㅜㄹ	-12184
▁ㅇㅗㄹㅐㄱ	-12185
▁ㅇㅗㄹㅐㅅ	-12186
▁ㅇㅓㅂㅈㅓㄱ	-12187
ㄱㅕㅇㅈㅔㄱㅏ	-12188
ㅎㅏㄴㄱㅓㄴㅑ	-12189
▁ㄱㅡㄸㅐㄴㅡㄴ	-12190
▁ㅅㅓㅇㅜㄹㅇㅔ	-12191
▁ㅇㅏㄴㅎㅏㄴㅏ	-12192
▁ㅇㅔㄹㅈㅣㄱㅏ	-12193
▁ㅊㅏㄱㅎㅏㄱㅗ	-12194
ㄱㅣㅁㄱㅣㅊㅜㄴ	-12195
▁ㄱㅡㄱㅓㅅㅇㅡㄹ	-12196
▁ㅅㅜㅇㅣㅂㅅㅏㄴ	-12197
ㅎㅐㅆㅇㅓㅇㅑㅈㅣ	-12198
▁ㅇㅔㅇㅓㅋㅓㄴㅇㅡㄴ	-12199
.4	-12200
▁ㄷㅓㅎ	-12201
ㄴㅣㅇㅏ	-12202
ㅏㅇㅜㅅ	-12203
▁ㅅㅓㄹㅠ	-12204
ㅅㅣㄹㅅㅔ	-12205
▁ㄱㅖㅇㅕㄹ	-12206
▁ㄱㅜㄱㅅㅔ	-12207
▁ㄴㅗㅍㄷㅏ	-12208
▁ㅈㅏㅈㅣㄴ	-12209
▁ㅌㅓㅈㅕㅆ	-12210
ㅇㅓㅂㅇㅡㄴ	-12211
▁ㅂㅗㄴㅐㄹㅏ	-12212
▁ㅂㅜㄴㄹㅑㅇ	-12213
ㄷㅓㅇㅣㅅㅏㅇ	-12214
▁ㅁㅜㄹㄱㅏㄹㅇㅣ	-12215
▁ㅅㅣㄹㄹㅕㄱㅇㅣ	-12216
▁ㅇㅏㄴㅆㅡㄴㄷㅏ	-12217
▁ㅈㅔㅂㅏㄹㅈㅗㅁ	-12218
▁ㅇㅣㅆㅇㅡㅁㅕㄴㅅㅓ	-12219
▁ㅈㅏㄹㅎㅐㅆㄷㅏㄱㅗ	-12220
▁ㅅㅐㅇㄱㅏㄱㅇㅓㅄㅇㅣ	-12221
▁ㅅㅔㄱㅖㅈㅓㄱㅇㅡㄹㅗ	-12222
23	-12223
ㄲㅣㅁ	-12224
ㅊㅜㄱㅣ	-12225
▁ㅈㅜㄱㅜ	-12226
ㄱㅘㅇㅎㅢ	-12227
ㄴㅚㅁㅜㄹ	-12228
ㄹㅓㄱㅅㅣ	-12229
ㅁㅝㄴㄱㅏ	-12230
ㅅㅏㄱㅘㄴ	-12231
ㅈㅣㄹㄹㅗ	-12232
▁ㅂㅐㄷㅏㅇ	-12233
▁ㅊㅗㅇㄹㅣ	-12234
▁ㅎㅣㅁㄷㅡ	-12235
ㅈㅣㄴㅇㅕㅇ	-12236
ㅎㅕㅇㅇㅡㄹ	-12237
▁ㄴㅏㅂㅍㅜㅁ	-12238
▁ㄷㅡㄱㅅㅣㄹ	-12239
▁ㅁㅗㄹㅡㄴㅣ	-12240
ㄱㅓㅂㅗㅁㅕㄴ	-12241
ㅇㅡㄹㄱㅓㄷㅏ	-12242
▁ㄹㅗㅅㄷㅔㄱㅏ	-12243
▁ㅇㅣㅅㅏㅇㅇㅢ	-12244
▁ㅊㅓㅁㅓㄱㄱㅗ	-12245
▁ㄱㅣㅅㅜㄹㅇㅡㄹ	-12246
▁ㅂㅜㄱㅎㅏㄴㅇㅡㄴ	-12247
▁ㅇㅣㄹㅡㅁㅇㅡㄹㅗ	-12248
▁ㄱㅓㄱㅈㅓㅇㅇㅣㄷㅏ	-12249
▁ㅂㅏㄷㅇㅡㅁㅕㄴㅅㅓ	-12250
▁ㄱㅘㄴㅅㅣㅁㅇㅓㅄㄷㅏ	-12251
TA	-12252
ㄴㅗㄱ	-12253
▁ㄸㅜㅇ	-12254
▁ㅇㅕㅈㅣ	-12255
ㄹㅏㅇㅣㅁ	-12256
ㅅㅔㅇㅣㄹ	-12257
ㅇㅏㄱㅏㄹ	-12258
ㅌㅡㄹㅗㄹ	-12259
ㄱㅕㅂㅅㅏㄹ	-12260
ㅅㅓㄴㅇㅓㄴ	-12261
ㅈㅣㄴㅎㅐㅇ	-12262
▁ㄱㅓㅁㅊㅣㅁ	-12263
▁ㄴㅘㄷㅜㄱㅗ	-12264
▁ㅂㅔㅌㅓㄹㅣ	-12265
▁ㅂㅕㄹㄹㅗㅇ	-12266
▁ㅈㅓㅇㅂㅜㄹ	-12267
▁ㅁㅓㄱㅇㅓㄹㅏ	-12268
▁ㅇㅏㄶㅇㅏㄷㅗ	-12269
▁ㅇㅣㅅㅣㅇㅕㅇ	-12270
▁ㅅㅏㅁㅅㅓㅇㄱㅘ	-12271
▁ㅇㅡㅁㅅㅣㄱㅈㅓㅁ	-12272
ㄷㅗㄹㅇㅏㄱㅏㄴㄷㅏ	-12273
▁ㅈㅜㅈㅏㅇㅎㅏㄴㅡㄴ	-12274
▁ㅇㅜㄹㅣㄴㅏㄹㅏㄹㅡㄹ	-12275
▁ㅈㅜㅇㄱㅜㄱㅎㅏㄴㅌㅔ	-12276
▁ㅅㅔㅈㅏ	-12277
▁ㅊㅜㄱㅜ	-12278
ㅈㅜㅁㅁㅏ	-12279
ㅘㅆㄷㅓㄴ	-12280
▁ㄴㅗㄹㅇㅣ	-12281
▁ㅁㅕㅇㅅㅣ	-12282
▁ㅅㅗㅌㅗㅇ	-12283
▁ㅇㅣㄹㅇㅔ	-12284
▁ㅈㅏㅂㅏㄹ	-12285
ㅅㅓㅇㅁㅕㅇ	-12286
▁ㄱㅣㅎㅚㄱㅏ	-12287
▁ㅁㅗㄱㅇㅡㄹ	-12288
▁ㅇㅏㄴㅂㅏㄷ	-12289
▁ㄸㅏㄱㅂㅘㄷㅗ	-12290
▁ㅅㅏㄹㅏㅈㅣㄹ	-12291
▁ㅅㅣㅁㅎㅏㄷㅏ	-12292
ㅇㅓㄱㅇㅣㅁㅕㄴ	-12293
▁ㄱㅗㅌㅗㅇㅇㅡㄹ	-12294
▁ㅁㅣㄹㅇㅑㅇㅇㅔ	-12295
▁ㅅㅏㄱㅓㄴㅇㅡㄹ	-12296
▁ㅇㅣㅇㅘㄴㅇㅕㅇ	-12297
▁ㄱㅗㅇㅇㅣㄴㅇㅣㄴㅈㅡㅇ	-12298
ㅎㅜㅇ	-12299
▁ㅈㅓㅉ	-12300
ㄷㅐㅅㅓ	-12301
ㅔㅁㅂㅓ	-12302
▁ㄱㅐㄴㅗ	-12303
▁ㅁㅐㅈㅜ	-12304
ㅂㅗㅈㅏㅇ	-12305
ㅎㅏㄴㅅㅜ	-12306
ㅓㄴㅊㅜㄱ	-12307
▁ㄱㅐㅂㅗㅇ	-12308
▁ㄱㅣㅇㅓㄴ	-12309
▁ㄹㅔㅇㅏㄹ	-12310
▁ㅇㅑㄷㅗㅇ	-12311
▁ㅉㅏㅇㄲㅔ	-12312
ㄱㅓㄴㅁㅏㄴ	-12313
▁ㄱㅓㄲㅜㄹㅗ	-12314
▁ㄱㅜㄱㄴㅐㅇ	-12315
▁ㄴㅏㄹㅏㄹㅗ	-12316
▁ㄷㅏㅂㅇㅡㄴ	-12317
▁ㄸㅐㄹㅣㄱㅗ	-12318
▁ㅂㅓㄹㅇㅡㄹ	-12319
▁ㅂㅣㅈㅇㅡㄹ	-12320
▁ㅇㅗㅂㅓㅇㅝ	-12321
ㅇㅏㅆㅇㅡㄴㅣ	-12322
▁ㅂㅜㅂㅜㄴㅇㅣ	-12323
▁ㅂㅜㅍㅐㅎㅏㄴ	-12324
▁ㅅㅡㄹㅍㅡㄷㅏ	-12325
▁ㅅㅣㅍㅇㅓㄷㅗ	-12326
▁ㄱㅏㅆㄴㅡㄴㄷㅔ	-12327
▁ㄷㅡㄷㅂㅗㅈㅏㅂ	-12328
▁ㅇㅝㄴㅅㅜㅇㅇㅣ	-12329
▁ㅇㅣㄹㅂㅗㄴㄷㅗ	-12330
ㅁㅏㄴㅇㅝㄴㄱㅝㄴ	-12331
▁ㅇㅣㄹㅓㅁㅕㄴㅅㅓ	-12332
ㅎㅏㄴㅡㄴㄱㅓㄴㄱㅏ	-12333
▁ㄱㅡㅁㄹㅣㅇㅣㄴㅅㅏㅇ	-12334
ㅍㅕ	-12335
ㅊㅓㅅ	-12336
ㅍㅗㅇ	-12337
ㄹㅣㅇㅏ	-12338
ㅅㄷㅡㄴ	-12339
▁ㅅㅏㅊㅣ	-12340
▁ㅈㅒㄴㅔ	-12341
ㅍㅏㅇㅓㅂ	-12342
▁ㄱㅏㅈㅜㅇ	-12343
▁ㅁㅏㄹㅈㅣ	-12344
▁ㅅㅔㅂㅡㄴ	-12345
▁ㅇㅜㄴㅡㄴ	-12346
▁ㅇㅣㄹㅅㅣ	-12347
▁ㅈㅓㄴㄱㅘ	-12348
ㄱㅗㅇㅇㅑㄱ	-12349
ㅂㅜㄹㅇㅏㄴ	-12350
▁ㅂㅏㄹㄷㅏㄹ	-12351
▁ㅇㅓㅁㅎㅏㄴ	-12352
▁ㅍㅗㄱㄹㅕㄱ	-12353
ㅈㅗㅎㅇㅏㅇㅛ	-12354
▁ㅅㅣㄱㅡㄴㅓㄹ	-12355
▁ㅅㅏㅅㅣㄹㅇㅡㄴ	-12356
▁ㅇㅗㄹㅐㅇㅗㄹㅐ	-12357
▁ㅇㅣㄹㅂㅗㄴㅇㅡㄹ	-12358
ㅌㅌ	-12359
ㅡㅎ	-12360
ㅈㅐㄹㅛ	-12361
▁ㄱㅛㄱㅘ	-12362
ㄱㅣㅂㅜㄴ	-12363
ㄸㅐㅁㅏㄴ	-12364
ㅇㅕㄴㅎㅣ	-12365
▁ㅂㅏㄹㅏㄹ	-12366
▁ㅃㅏㄹㄷㅐ	-12367
▁ㅇㅏㅂㄹㅠ	-12368
▁ㅇㅕㄴㅎㅠ	-12369
ㅎㅏㄹㄱㅓㄴ	-12370
ㅎㅏㄹㄱㅓㄹ	-12371
ㅑㅁㅏㄹㄹㅗ	-12372
▁ㅁㅕㅇㄹㅕㅇ	-12373
▁ㅂㅏㅂㅗㄹㅗ	-12374
▁ㅌㅣㅍㅏㄴㅣ	-12375
ㅅㅣㅋㅣㄷㅡㄹ	-12376
▁ㅁㅏㄶㅇㅡㄴㅈㅣ	-12377
▁ㅂㅏㄷㅇㅏㄷㅡㄹ	-12378
ㅎㅏㅅㅣㅂㄴㅣㄷㅏ	-12379
▁ㄱㅡㄹㅓㄴㄱㅓㅈㅣ	-12380
▁ㄴㅏㅇㅗㄴㄷㅏㄱㅗ	-12381
▁ㄷㅏㅂㄷㅏㅂㅎㅏㄴ	-12382
▁ㅂㅗㄴㅇㅣㄴㅇㅡㄴ	-12383
▁ㅈㅜㅇㅇㅛㅎㅏㄷㅏ	-12384
▁ㄴㅓㅁㅇㅓㄱㅏㄴㅡㄴ	-12385
▁ㅎㅣㅁㄷㅡㄹㄷㅏㄱㅗ	-12386
▁ㅗ	-12387
▁ㅆㅔ	-12388
ㅅㅔㄹ	-12389
ㅈㅔㄴ	-12390
▁ㄱㅡㅇㅚ	-12391
▁ㅅㅟㄱㅗ	-12392
ㄱㅜㄴㄷㅐ	-12393
ㅅㅗㅅㅣㄱ	-12394
ㅇㅣㄴㅅㅏ	-12395
▁ㅇㅏㄶㄴㅔ	-12396
▁ㅊㅏㄴㅡㄴ	-12397
▁ㅍㅕㅇㅎㅘ	-12398
▁ㅎㅓㄱㅕㅇ	-12399
ㅈㅜㄹㅕㄱㅗ	-12400
▁ㄱㅗㄹㅂㅣㄴ	-12401
▁ㅇㅏㄴㄴㅏㄴ	-12402
▁ㅇㅕㅇㄴㅏㅁ	-12403
▁ㅈㅏㄱㅅㅏㄹ	-12404
ㅇㅓㅆㄴㅔㅇㅛ	-12405
▁ㅂㅗㄱㅣㅅㅣㅀ	-12406
▁ㅇㅣㅁㅣㄴㅎㅗ	-12407
ㅇㅓㅆㅇㅡㄹㄲㅏ	-12408
▁ㅂㅏㄴㅅㅓㅇㅎㅐㄹㅏ	-12409
▁ㅅㅔㄱㅖㅈㅓㄱㅇㅣㄴ	-12410
ot	-12411
.25	-12412
▁120	-12413
ㄴㅐㅇㅑ	-12414
ㅏㄴㄱㅔ	-12415
▁ㄱㅗㅊㅕ	-12416
▁ㅂㅐㅉㅐ	-12417
▁ㅈㅜㅇㅠ	-12418
ㄱㅣㅇㅔㄴ	-12419
ㄴㅕㄴㅊㅏ	-12420
ㅇㅓㅉㅓㄹ	-12421
▁ㄲㅏㄲㅇㅏ	-12422
▁ㅁㅐㄱㅏㄱ	-12423
▁ㅂㅕㄹㄱㅓ	-12424
▁ㅅㅣㅅㅓㄹ	-12425
▁ㅇㅣㄴㅕㅁ	-12426
▁ㅈㅣㄴㄹㅣ	-12427
▁ㅎㅏㅅㅣㄹ	-12428
ㅇㅏㄴㅐㄱㅗ	-12429
ㅈㅣㅅㅇㅡㄴ	-12430
▁ㄱㅡㄹㅐㅇㅛ	-12431
▁ㅇㅏㄲㅏㅇㅝ	-12432
▁ㅇㅏㄴㄱㅓㄹ	-12433
▁ㅇㅝㄴㅈㅏㄱ	-12434
▁ㅈㅗㅁㅁㅏㄴ	-12435
▁ㅌㅏㄹㄹㅏㄱ	-12436
▁ㅁㅏㄴㄴㅏㄱㅗ	-12437
▁ㅂㅣㄹㅣㄹㅡㄹ	-12438
▁ㅇㅏㄶㅇㅡㄴㅣ	-12439
ㅇㅕㄹㅅㅣㅁㅎㅣ	-12440
ㅈㅓㅇㄱㅝㄴㅇㅣ	-12441
▁ㄷㅟㅅㅌㅗㅇㅅㅜ	-12442
▁ㅅㅗㄴㅈㅏㅂㄱㅗ	-12443
▁ㅈㅗㅎㅇㅏㅆㄷㅏ	-12444
▁ㅌㅗㅇㅅㅣㄴㅂㅣ	-12445
▁ㅇㅏㄴㅈㅗㅇㅂㅓㅁ	-12446
▁ㄱㅡㄹㅓㅎㅈㅣㅁㅏㄴ	-12447
ㄸㅡ	-12448
▁ㅎㄷㄷ	-12449
▁ㅅㅜㅈㅜ	-12450
ㅂㅜㅈㅓㅇ	-12451
▁ㅁㅗㅅㅂㅗ	-12452
▁ㅇㅕㅇㄱㅜ	-12453
▁ㅊㅏㄹㅣㄹ	-12454
▁ㅊㅟㅎㅑㅇ	-12455
▁ㅎㅏㄹㅂㅐ	-12456
ㅅㅣㄹㅁㅏㅇ	-12457
ㅇㅣㅂㅎㅏㄱ	-12458
▁ㄴㅏㄹㅏㅇㅑ	-12459
▁ㅎㅘㄴㅅㅐㅇ	-12460
ㅈㅣㅇㅏㄶㄷㅏ	-12461
▁ㄱㅐㅇㅣㄷㅡㄱ	-12462
▁ㅁㅜㅈㅔㅎㅏㄴ	-12463
▁ㅁㅣㅊㅕㅆㄷㅏ	-12464
▁ㅈㅓㅅㅡㅇㅅㅏ	-12465
▁ㅅㅗㄹㅣㅎㅏㄴㅔ	-12466
▁ㄱㅗㅇㅇㅑㄱㅇㅡㄹ	-12467
▁ㅎㅐㄱㅍㅗㄱㅌㅏㄴ	-12468
▁n	-12469
tic	-12470
ㅎㅓㅇ	-12471
▁ㅍㅓㄱ	-12472
ㅅㄱㅏㄹ	-12473
ㅇㅣㄱㅜ	-12474
ㅊㅣㄴㅣ	-12475
▁cctv	-12476
ㅊㅗㅇㄹㅣ	-12477
ㅊㅜㄹㅅㅣ	-12478
ㅓㅁㄷㅡㄹ	-12479
▁ㄷㅙㅆㅈㅣ	-12480
▁ㅂㅗㄴㅐㄹ	-12481
▁ㅇㅕㄹㅓㅁ	-12482
▁ㅇㅗㅇㅕㅁ	-12483
▁ㅇㅠㅇㅕㄴ	-12484
▁ㅊㅣㅁㅕㄴ	-12485
▁ㄴㅏㅇㅣㄷㅗ	-12486
▁ㅂㅐㅇㅝㄹㅏ	-12487
▁ㅂㅜㄹㅓㅇㅝ	-12488
▁ㅅㅏㄹㄹㅕㄴ	-12489
ㅁㅜㄴㅈㅔㄱㅏ	-12490
ㅅㅡㅂㅏㄱㅔㄴ	-12491
▁ㄱㅕㅇㅈㅔㄷㅗ	-12492
▁ㅁㅏㄴㄷㅡㄴㅔ	-12493
▁ㅂㅏㄷㅇㅏㄷㅗ	-12494
▁ㅇㅣㅌㅐㄱㅗㄴ	-12495
▁ㅈㅓㄴㅊㅔㄱㅏ	-12496
ㅇㅓㅅㄴㅡㄴㄷㅔ	-12497
▁ㄱㅓㅅㅇㅣㄴㄷㅔ	-12498
▁ㅂㅜㅅㅏㄴㅎㅐㅇ	-12499
▁ㅅㅓㅇㅎㅢㄹㅗㅇ	-12500
▁ㅇㅣㅈㅓㅇㅎㅕㄴ	-12501
▁ㅈㅣㅇㅈㅣㅇㄷㅐ	-12502
ㅁㅏㄴㅇㅣㄹㅏㄷㅗ	-12503
ㅇㅣㅇㅓㅆㅇㅡㅁㅕㄴ	-12504
▁ㅂㅕㄴㅎㅗㅇㅣㄴㄷㅏㄴ	-12505
85	-12506
ㅓㅍ	-12507
ㄴㅣㄱ	-12508
▁3~4	-12509
ㅂㅣㅎㅐ	-12510
ㄱㅏㅁㅏㄴ	-12511
ㄴㅏㅁㄴㅕ	-12512
ㅅㅐㄱㅇㅣ	-12513
ㅎㅏㄱㅜㄴ	-12514
▁ㄷㅓㄱㅇㅔ	-12515
▁ㅂㅏㄱㅆㅣ	-12516
▁ㅂㅓㅂㅇㅔ	-12517
▁ㅈㅗㅇㅅㅏ	-12518
ㄱㅡㄴㅏㅁㅏ	-12519
ㅁㅜㄴㅇㅡㄹ	-12520
ㅎㅐㅈㅜㅈㅣ	-12521
▁ㄱㅏㅁㅁㅕㄴ	-12522
▁ㄴㅓㄴㅔㄱㅏ	-12523
▁ㄷㅏㄴㅈㅗㅇ	-12524
▁ㅇㅣㄴㅇㅝㄴ	-12525
▁ㅎㅏㅂㄱㅕㄱ	-12526
▁ㅎㅘㅇㄷㅏㅇ	-12527
ㄷㅡㅇㅇㅡㄹㅗ	-12528
ㅇㅜㄹㅣㄴㅏㄹ	-12529
ㅇㅣㅇㅓㅆㄱㅗ	-12530
▁ㅁㅣㄱㅜㄱㄷㅗ	-12531
▁ㅂㅏㄲㅜㅁㅕㄴ	-12532
ㅅㅐㅇㄱㅏㄱㅇㅣ	-12533
▁ㅎㅏㄴㅈㅓㄴㅇㅣ	-12534
▁ㄱㅜㄱㅈㅓㅇㅇㅡㄹ	-12535
▁ㅁㅏㄴㄷㅡㄴㅡㄴㄷㅔ	-12536
▁ㅇㅏㄴㅌㅏㄲㅏㅂㄴㅔㅇㅛ	-12537
op	-12538
ㄴㅓㄱ	-12539
ㅗㄱㅏ	-12540
▁ㅆㅓㄹ	-12541
ㅅㅔㄷㅗ	-12542
▁ㅇㅏㄱㅏ	-12543
▁ㅈㅗㄱㅣ	-12544
▁ㅎㅏㄷㅡ	-12545
▁ㅎㅘㅈㅔ	-12546
ㄱㅐㄴㅡㄴ	-12547
ㅇㅜㄹㅡㄹ	-12548
▁ㄱㅚㅁㅜㄹ	-12549
▁ㄱㅡㄴㄱㅓ	-12550
▁ㄸㅏㅇㅇㅔ	-12551
▁ㅁㅗㅅㅜㄴ	-12552
▁ㅂㅣㄱㅓㅂ	-12553
ㅇㅕㅈㅏㄱㅏ	-12554
ㅈㅣㄱㅈㅏㅇ	-12555
▁ㅂㅗㅇㄱㅡㅂ	-12556
▁ㅇㅑㅇㅈㅓㄱ	-12557
ㅈㅓㅇㅂㅜㅇㅢ	-12558
ㅎㅏㅅㅣㅁㅕㄴ	-12559
▁ㅁㅐㄹㅕㄱㅇㅣ	-12560
▁ㅇㅓㅉㅓㅁㅕㄴ	-12561
▁ㄷㅐㅅㄱㅏㄹㅡㄹ	-12562
▁ㅂㅏㄹㅇㅕㄴㄱㅣ	-12563
▁ㄱㅣㅅㅏㅈㅔㅁㅗㄱ	-12564
▁ㅎㅏㄴㄱㅜㄱㅇㅣㄴㄷㅡㄹ	-12565
ㄷㅏㄴㅑ	-12566
ㅁㅝㄴㅑ	-12567
ㅂㅏㅇㅔ	-12568
ㅏㄱㅣㄹ	-12569
▁ㅈㅓㅈㅜ	-12570
ㅁㅓㄱㄱㅣ	-12571
ㅊㅐㄴㅓㄹ	-12572
▁ㄷㅚㄹㅅㅜ	-12573
▁ㅁㅣㅅㅓㅇ	-12574
▁ㅆㅡㄷㅓㄴ	-12575
▁ㅊㅐㄱㅝㄴ	-12576
▁ㄱㅏㅈㅕㄷㅏ	-12577
▁ㄱㅡㅂㄱㅡㅂ	-12578
▁ㅅㅓㅇㅅㅣㄹ	-12579
▁ㅎㅏㄴㅊㅏㅇ	-12580
ㅁㅏㄴㅎㅏㄷㅏ	-12581
ㅎㅏㄹㄸㅐㄷㅗ	-12582
▁ㅁㅗㅅㅎㅏㄴㅑ	-12583
▁ㅎㅣㅁㄴㅐㄹㅏ	-12584
▁ㄴㅓㄷㅗㄴㅏㄷㅗ	-12585
▁ㅂㅏㄹㅈㅓㄴㅅㅗ	-12586
▁ㅈㅣㅇㅝㄴㅇㅡㄹ	-12587
▁ㅎㅏㄴㅡㄴㄱㅓㅇㅑ	-12588
▁ㅁㅏㄹㅇㅣㅂㄴㅣㄷㅏ	-12589
▁ㅇㅓㄴㅈㅔㄴㄱㅏㄴㅡㄴ	-12590
▁ㅎㅓㄴㅂㅓㅂㅈㅐㅍㅏㄴ	-12591
▁ㅅㅐㄲ	-12592
▁ㅍㅓㄴ	-12593
▁ㄷㅣㅈㅣ	-12594
▁ㅂㅗㅌㅐ	-12595
ㅂㅏㄴㅇㅔ	-12596
ㅈㅓㅇㅇㅜ	-12597
ㅈㅗㄱㅇㅣ	-12598
▁ㄱㅡㄹㄱㅜ	-12599
▁ㅇㅣㅌㅡㄹ	-12600
ㅅㅓㄴㅅㅐㅇ	-12601
▁ㅇㅑㅇㄱㅡㄱ	-12602
▁ㅇㅗㄹㄹㅣㅁ	-12603
▁ㅈㅔㄴㅈㅏㅇ	-12604
▁ㅈㅗㅂㅇㅡㄴ	-12605
ㅂㅏㄱㅅㅏㅁㅗ	-12606
▁ㅁㅗㅅㅎㅏㄴㅔ	-12607
▁ㅈㅜㄱㅇㅓㅅㅓ	-12608
▁ㅅㅏㅇㅛㅇㄹㅑㅇ	-12609
▁ㅇㅏㅇㅣㄹㅓㄴㅣ	-12610
▁ㅊㅓㅇㅅㅗㄴㅕㄴ	-12611
▁ㄷㅐㅎㅕㅇㅁㅏㅌㅡ	-12612
ㄱㅏㅌㅇㅡㄴㅅㅗㄹㅣ	-12613
ㄱㅔㅆㄷㅏㄴㅡㄴㄷㅔ	-12614
ㅎㅓㄱ	-12615
▁ㅌㅡㅁ	-12616
ㅅㅏㄹㅣ	-12617
ㅏㅇㅏㅇ	-12618
ㅗㅇㅜㄴ	-12619
ㅡㄹㄹㅣ	-12620
▁ㄷㅏㄹㅣ	-12621
▁ㅂㅐㅎㅜ	-12622
▁ㅊㅔㅋㅡ	-12623
ㄴㅡㄴㄷㅐ	-12624
ㄷㅙㅆㄴㅔ	-12625
ㅅㅣㅍㄴㅔ	-12626
ㅈㅓㅇㄹㅣ	-12627
▁ㅁㅝㄹㄹㅗ	-12628
▁ㅅㅜㅇㅛㅇ	-12629
▁ㅇㅏㅍㅅㅓ	-12630
▁ㅈㅣㄱㅡㅅ	-12631
ㅇㅓㄷㅣㅅㅓ	-12632
ㅣㄴㅡㄴㄱㅓ	-12633
▁ㄴㅏㅇㅔㄱㅔ	-12634
▁ㅁㅕㅊㅍㅜㄴ	-12635
▁ㅂㅏㅇㅅㅣㄱ	-12636
▁ㅇㅣㅂㅇㅡㄴ	-12637
▁ㅇㅣㅃㅡㄱㅔ	-12638
ㅎㅐㅂㅘㅆㅈㅏ	-12639
ㅕㅆㄴㅡㄴㅈㅣ	-12640
▁ㄱㅗㅅㅗㄷㅡㄱ	-12641
▁ㄱㅜㄱㅡㄹㅇㅣ	-12642
▁ㄱㅣㅈㅜㄴㅇㅣ	-12643
▁ㅇㅗㄹㄹㅣㅈㅣ	-12644
▁ㅇㅘㅆㄷㅏㄱㅏ	-12645
▁ㅇㅣㅂㅇㅡㄹㅗ	-12646
▁ㄱㅜㄱㄱㅏㅈㅓㄱ	-12647
▁ㄴㅓㅁㅅㅏㅂㅕㄱ	-12648
▁ㅅㅏㄹㅏㅇㅎㅐㅇㅛ	-12649
▁ㅇㅏㄹㄱㅔㅆㄴㅡㄴㄷㅔ	-12650
▁ㅇㅓㅄㅇㅓㅆㄴㅡㄴㄷㅔ	-12651
.(	-12652
▁u	-12653
▁ㅇㅏㅅ	-12654
▁ㅇㅕㅂ	-12655
ㄷㅓㄹㅓ	-12656
ㅊㅚㄷㅐ	-12657
ㅍㅣㄱㅗ	-12658
▁ㄱㅣㅇㅕ	-12659
▁ㅈㅐㄱㅖ	-12660
▁ㅉㅏㅇㄲ	-12661
ㄱㅓㄹㅇㅣ	-12662
ㅊㅜㅊㅓㄴ	-12663
▁ㄱㅡㄲㅏㅅ	-12664
▁ㅊㅜㅈㅓㄱ	-12665
▁ㅅㅏㅌㅐㄱㅏ	-12666
▁ㅅㅡㅌㅡㄹㅔ	-12667
▁ㅇㅏㄱㅇㅛㅇ	-12668
ㅎㅏㄴㄱㅓㅇㅑ	-12669
▁ㅂㅏㄲㅇㅔㅅㅓ	-12670
▁ㅅㅏㄹㅏㅇㅇㅡㄹ	-12671
▁ㅇㅏㄴㅊㅓㄹㅅㅜ	-12672
▁ㅇㅓㅇㅜㄹㄹㅣㄴㅡㄴ	-12673
-3	-12674
sid	-12675
▁23	-12676
▁ㄹㅣㄴ	-12677
ㄴㅐㄱㅣ	-12678
ㅈㅗㄱㅖ	-12679
ㅊㅏㄱㅔ	-12680
ㄱㅓㅆㄷㅏ	-12681
▁ㄷㅏㄴㄱㅣ	-12682
▁ㅁㅏㅁㅇㅣ	-12683
▁ㅅㅐㅇㄱㅖ	-12684
▁ㅅㅜㅅㅡㅂ	-12685
▁ㅆㅡㅈㅏㄹ	-12686
▁ㅇㅣㄱㅕㄴ	-12687
▁ㅎㅏㅇㅇㅢ	-12688
ㄱㅓㄴㅁㅜㄹ	-12689
▁ㅇㅣㄱㅓㅈㅣ	-12690
ㄱㅏㅁㅇㅣㄷㅏ	-12691
ㄷㅗㅇㅓㅄㄷㅏ	-12692
ㅌㅐㄱㅡㄱㄱㅣ	-12693
▁ㄴㅡㄲㅣㄴㄷㅏ	-12694
▁ㅅㅏㄹㄹㅕㅇㅑ	-12695
▁ㅅㅣㅍㅇㅓㅇㅛ	-12696
▁ㅇㅕㅇㅎㅘㄱㅏ	-12697
ㅂㅏㄱㅂㅗㄱㅓㅁ	-12698
ㅈㅜㄹㅇㅏㄹㄱㅗ	-12699
ㅎㅏㄴㄱㅓㅇㅣㅁ	-12700
▁ㄴㅏㅂㄷㅡㄱㅇㅣ	-12701
▁ㄴㅐㅇㅛㅇㅇㅡㄴ	-12702
▁ㄴㅗㅇㅣㄴㄷㅡㄹ	-12703
▁ㅈㅣㄱㅡㅁㄲㅓㅅ	-12704
▁ㅈㅓㄴㄱㅣㅅㅔㄱㅏ	-12705
▁ㅁㅣㄷㅅㅡㅂㄴㅣㄷㅏ	-12706
▁ㅈㅗㅎㅅㅡㅂㄴㅣㄷㅏ	-12707
ac	-12708
ay	-12709
ㄸㅒ	-12710
▁70%	-12711
ㄹㅓㄴㅏ	-12712
ㄼㅇㅡㄴ	-12713
ㅊㅓㅇㅔ	-12714
▁ㄲㅣㄱㅗ	-12715
▁ㄴㅔㅇㅣ	-12716
▁ㄹㅏㅇㅣ	-12717
▁ㅇㅚㅊㅣ	-12718
▁ㅇㅠㄴㅣ	-12719
ㅅㅡㅁㅐㄴ	-12720
ㅎㅘㅈㅏㅇ	-12721
▁ㅇㅜㅅㅡㅂ	-12722
▁ㅈㅡㄹㄱㅓ	-12723
▁ㅎㅔㄹㅈㅣ	-12724
ㅅㅗㄴㅅㅗㄴ	-12725
ㅇㅕㄴㅈㅏㅇ	-12726
ㅇㅕㅁㅂㅕㅇ	-12727
ㅇㅗㅎㅣㄹㅕ	-12728
ㅈㅜㄹㅇㅡㄴ	-12729
▁ㄷㅏㄴㅁㅜㄹ	-12730
▁ㄸㅗㅇㅇㅡㄹ	-12731
▁ㅁㅗㄹㄹㅕㅇ	-12732
▁ㅅㅐㄱㄲㅏㄹ	-12733
▁ㅌㅡㄴㅌㅡㄴ	-12734
▁ㅎㅏㄷㅡㅇㅞ	-12735
▁ㅅㅏㅎㅚㄹㅡㄹ	-12736
▁ㅈㅜㄱㅇㅓㅇㅑ	-12737
ㅂㅜㄴㄷㅡㄹㄷㅗ	-12738
▁ㅅㅏㄹㅊㅓㅂㅜㄴ	-12739
▁ㅇㅕㄴㅂㅗㅇㅇㅣ	-12740
▁ㅇㅕㅇㅎㅘㄹㅡㄹ	-12741
▁ㅊㅓㄴㅊㅓㄴㅎㅣ	-12742
ㅎㅏㄴㅅㅣㅁㅎㅏㄴ	-12743
▁ㅇㅣㅅㅏㅇㅎㅏㄷㅏ	-12744
▁ㄱㅕㄹㅎㅗㄴㅎㅏㅁㅕㄴ	-12745
um	-12746
ㅜㄷ	-12747
ㄱㅏㅊㅣ	-12748
ㅏㅁㅏㅈ	-12749
?....	-12750
▁ㄱㅜㅈㅔ	-12751
▁ㄷㅗㄴㅣ	-12752
ㄷㅚㄹㅈㅣ	-12753
ㅅㅐㄹㅗㅁ	-12754
ㅅㅡㄹㅏㅇ	-12755
ㅇㅣㄹㅇㅡ	-12756
ㅈㅜㄴㅕㄴ	-12757
ㅉㅏㅇㄲㅐ	-12758
▁ㅁㅗㅁㅇㅣ	-12759
▁ㅁㅜㄹㄹㅣ	-12760
▁ㅃㅏㄴㅡㄴ	-12761
▁ㅅㅜㄹㅗㄱ	-12762
ㄴㅏㅇㅗㄱㅗ	-12763
ㅇㅛㅇㅇㅡㄴ	-12764
▁ㅅㅏㅂㅈㅣㄹ	-12765
▁ㅅㅣㅁㅅㅣㅁ	-12766
▁ㅊㅏㅇㅣㄴㅏ	-12767
ㅇㅣㅅㅏㅇㅇㅣ	-12768
ㅎㅏㄱㅜㅁㅏㄴ	-12769
ㅎㅏㄹㄲㅏㅇㅛ	-12770
▁ㄱㅡㄹㅣㅂㄷㅏ	-12771
▁ㅈㅓㄴㄱㅣㄱㅏ	-12772
▁ㅊㅜㄱㅎㅏㅎㅐ	-12773
▁ㅎㅏㄱㅔㅆㄴㅔ	-12774
▁ㄱㅡㄹㅓㄴㄱㅓㄹ	-12775
▁ㄱㅣㅇㅓㄱㅇㅡㄹ	-12776
▁ㄷㅐㄱㅏㄹㅣㅇㅔ	-12777
▁ㅁㅓㄱㄴㅡㄴㄷㅔ	-12778
▁ㅇㅕㄱㅅㅏㅅㅏㅇ	-12779
▁ㄱㅡㄹㅐㄴㅗㅎㄱㅗ	-12780
▁ㅈㅓㅇㅅㅣㄴㅁㅗㅅㅊㅏㄹ	-12781
as	-12782
ㅈㅏㅅ	-12783
ㅍㅔㄴ	-12784
ㄷㅗㅇㅢ	-12785
ㅅㅡㅌㅔ	-12786
▁ㅂㅣㅎㅏ	-12787
ㄱㅖㅅㅏㄴ	-12788
ㅇㅣㄴㄱㅜ	-12789
ㅋㅡㄴㅡㄴ	-12790
ㅕㄹㅎㅏㅂ	-12791
ㅡㄴㅍㅜㅁ	-12792
ㅡㅁㅇㅡㄴ	-12793
▁ㅇㅠㄴㅇㅏ	-12794
▁ㅇㅢㅎㅏㄱ	-12795
▁ㅎㅜㅇㅝㄴ	-12796
▁ㅃㅏㄹㅡㄱㅔ	-12797
▁ㅅㅜㄹㅈㅣㅂ	-12798
▁ㅌㅡㄱㅈㅣㅂ	-12799
▁ㄷㅡㄹㅇㅓㄷㅗ	-12800
▁ㅇㅗㄹㅡㄴㄷㅏ	-12801
▁ㅇㅣㅆㄷㅏㄴㅣ	-12802
ㄱㅓㅅㄱㅏㅌㅇㅏ	-12803
▁ㄱㅕㄹㄱㅘㄹㅡㄹ	-12804
▁ㅅㅏㅇㅓㅂㅇㅡㄹ	-12805
▁ㅅㅏㅎㅚㅈㅜㅇㅢ	-12806
▁ㅇㅏㄴㅂㅗㄴㅡㄴ	-12807
▁ㅈㅐㅁㅣㅆㄴㅡㄴ	-12808
▁ㅎㅐㅆㄱㅔㅆㅈㅣ	-12809
▁ㅇㅛㄱㅁㅓㄱㄴㅡㄴ	-12810
▁ㅁㅏㄴㄷㅡㄹㄹㅕㄱㅗ	-12811
ㅁㅣㄴㅏ	-12812
ㅜㅅㅡㄴ	-12813
▁ㅁㅗㅈㅣ	-12814
ㄹㅕㄱㅇㅔ	-12815
ㅃㅜㄴㅇㅣ	-12816
▁ㄱㅗㅇㅅㅣ	-12817
▁ㄷㅡㄹㅇㅏ	-12818
▁ㅈㅜㅁㅓㄱ	-12819
▁ㅈㅡㄹㄱㅣ	-12820
▁ㅍㅖㅇㅓㅂ	-12821
ㄱㅜㄱㅇㅣㄴ	-12822
ㄱㅜㄱㅈㅓㄱ	-12823
ㅊㅜㄹㅅㅓㄱ	-12824
▁ㅁㅗㅅㅊㅏㅈ	-12825
▁ㅅㅣㄴㅅㅗㄱ	-12826
▁ㅅㅣㅁㅋㅜㅇ	-12827
▁ㅇㅏㄴㅂㅏㄲ	-12828
▁ㅈㅏㅇㄷㅗㅇ	-12829
▁ㅎㅏㅈㅣㄷㅗ	-12830
▁ㅎㅜㄴㄹㅕㄴ	-12831
ㅎㅏㄱㅣㄹㅡㄹ	-12832
▁ㅃㅐㄱㅗㄴㅡㄴ	-12833
▁ㅅㅏㄹㅇㅏㅅㅓ	-12834
▁ㅇㅓㅄㄷㅓㄹㅏ	-12835
ㅆㄴㅡㄴㄷㅔㄷㅗ	-12836
ㅇㅣㄴㅈㅣㄴㅡㄴ	-12837
▁ㅁㅏㅇㅊㅣㄴㅡㄴ	-12838
▁ㅋㅓㄴㅌㅔㄴㅊㅡ	-12839
▁ㅎㅐㅆㄷㅏㅁㅕㄴ	-12840
▁ㅅㅓㅁㅣㄴㄷㅡㄹㅇㅢ	-12841
▁ㅇㅟㅎㅐㅅㅓㄹㅏㄷㅗ	-12842
ri	-12843
aid	-12844
▁ㄹㅗㅇ	-12845
ㄱㅏㄹㅣ	-12846
ㄴㅡㄹㅏ	-12847
ㅁㅣㄹㅐ	-12848
ㅂㅜㅍㅐ	-12849
ㅉㅏㄱㅗ	-12850
ㅍㅏㄱㅏ	-12851
ㅕㄴㄱㅣ	-12852
ㅣㅁㅏㄹ	-12853
▁ㄴㅓㄴㅏ	-12854
▁ㅇㅣㅈㅣ	-12855
▁ㅈㅗㅊㅏ	-12856
▁ㅈㅜㄹㅗ	-12857
ㄷㅏㄴㅇㅔ	-12858
ㅕㅇㅑㅈㅛ	-12859
▁ㄷㅐㄱㅝㄴ	-12860
▁ㅂㅗㄱㅘㄴ	-12861
▁ㅂㅣㅈㅇㅣ	-12862
▁ㅈㅗㅈㅓㄹ	-12863
ㅈㅣㄴㅔㅇㅛ	-12864
▁ㄴㅗㄱㅏㄷㅏ	-12865
▁ㅁㅔㄴㅌㅏㄹ	-12866
▁ㅇㅣㄹㄴㅕㄴ	-12867
▁ㅎㅕㅇㄹㅑㅇ	-12868
▁ㅂㅜㄹㄹㅓㅅㅓ	-12869
▁ㅇㅣㅅㅔㅇㅕㅇ	-12870
▁ㅋㅡㄴㅅㅗㄹㅣ	-12871
▁ㄱㅕㅇㅇㅜㄴㅡㄴ	-12872
▁ㅂㅜㄴㅇㅑㅇㄱㅏ	-12873
▁ㅇㅣㄹㅓㄴㅇㅣㄹ	-12874
▁ㅈㅓㅇㅇㅠㄴㅎㅚ	-12875
ㅈㅓㅇㅂㅜㅇㅔㅅㅓ	-12876
▁ㅇㅣㄴㅊㅓㄴㄱㅗㅇㅎㅏㅇ	-12877
▁*	-12878
▁900	-12879
▁ㅆㅐㅁ	-12880
▁ㅎㅜㅂㅐ	-12881
ㅇㅣㄷㅗㅇ	-12882
ㅉㅗㄱㅇㅣ	-12883
ㅎㅏㄱㅓㄴ	-12884
▁ㅃㅗㅂㄱㅗ	-12885
▁ㅇㅣㄺㄱㅗ	-12886
▁ㅊㅏㅇㅝㄴ	-12887
ㄹㅣㄴㅣㄲㅏ	-12888
▁ㅂㅜㄴㅅㅣㄱ	-12889
▁ㅅㅜㅇㅛㄱㅏ	-12890
▁ㅇㅝㄴㄱㅡㅁ	-12891
▁ㅇㅣㄹㅎㅏㄴ	-12892
▁ㅈㅓㅁㄹㅕㅇ	-12893
▁ㄱㅐㅁㅣㄷㅡㄹ	-12894
▁ㄴㅏㅇㅗㄹㄸㅐ	-12895
▁ㄷㅚㄱㅔㅆㅈㅣ	-12896
▁ㄷㅜㅅㅏㄹㅏㅁ	-12897
▁ㅂㅐㅂㅜㄹㅡㄴ	-12898
▁ㅅㅗㅇㅈㅣㅎㅛ	-12899
▁ㅈㅔㅍㅜㅁㅇㅣ	-12900
▁ㅎㅐㅆㅇㅓㅇㅑ	-12901
ㅇㅓㄱㅇㅣㅅㅏㅇ	-12902
▁ㅁㅏㅈㅈㅣㅁㅏㄴ	-12903
▁ㅂㅣㄴㅂㅜㄱㅕㄱ	-12904
▁ㅇㅏㄴㅁㅓㄱㄱㅗ	-12905
▁ㅇㅝㄴㅈㅏㄹㅕㄱ	-12906
▁ㅊㅓㅅㅂㅓㄴㅉㅐ	-12907
▁ㅅㅗㄴㅎㅐㅂㅐㅅㅏㅇ	-12908
ㅁㅏㄴㅇㅝㄴㅇㅣㅁㅕㄴ	-12909
▁ㄱㅜㄱㅁㅣㄴㄷㅡㄹㅁㅏㄴ	-12910
ㅋㅋㅋㅋㅋㅋㅋㅋㅋㅋㅋㅋㅋ	-12911
▁4.	-12912
▁ㅋㅠ	-12913
ㄷㅜㅅ	-12914
ㅅㅣㄱㅔ	-12915
▁ㅁㅓㄴㅑ	-12916
▁ㅈㅜㄱㅣ	-12917
ㄱㅘㅎㅏㄱ	-12918
ㄱㅜㄱㅈㅔ	-12919
ㅇㅖㅇㅑㄱ	-12920
ㅎㅏㄱㅗㄴ	-12921
▁ㄱㅗㅎㅑㅇ	-12922
▁ㄱㅣㅁㅎㅢ	-12923
▁ㅇㅏㄲㅣㄹ	-12924
ㄱㅘㄴㅅㅣㅁ	-12925
ㅁㅣㄴㄷㅡㄹ	-12926
ㅅㅓㅇㅎㅏㄴ	-12927
ㅊㅣㄴㅇㅣㄹ	-12928
ㅍㅗㄱㄹㅏㄱ	-12929
ㅎㅏㅁㅇㅡㄴ	-12930
ㅎㅏㅅㅕㅅㅓ	-12931
▁ㄴㅓㅎㅢㄱㅏ	-12932
▁ㅂㅏㄲㅝㅅㅓ	-12933
▁ㅂㅜㅈㅏㄱㅏ	-12934
ㅇㅜㄹㅣㄴㅡㄴ	-12935
ㅈㅏㄹㅏㅁㅕㄴ	-12936
ㅎㅚㅅㅏㄴㅡㄴ	-12937
▁ㄱㅓㄷㅇㅓㅅㅓ	-12938
▁ㄴㅐㄴㅗㅎㄱㅗ	-12939
▁ㅇㅠㅈㅓㄴㅈㅏ	-12940
▁ㅁㅏㄱㄷㅐㅎㅏㄴ	-12941
▁ㅁㅏㄶㄷㅏㄴㅡㄴ	-12942
▁ㅇㅕㄱㅎㅏㄹㅇㅡㄹ	-12943
▁ㄱㅜㅇㄱㅡㅁㅎㅐㅅㅓ	-12944
▁ㅎㅏㄴㅡㄴㄱㅓㄴㅈㅣ	-12945
ㅂㅇㅣ	-12946
▁ㅌㅓㅇ	-12947
ㅂㅣㅇㅘ	-12948
ㅍㅡㅌㅡ	-12949
▁ㅂㅏㅃㅡ	-12950
▁ㅈㅔㄷㅐ	-12951
ㄱㅡㄱㅓㄴ	-12952
ㅁㅜㄴㅡㅇ	-12953
ㅂㅗㅈㅡㅇ	-12954
ㅇㅣㅃㅡㄴ	-12955
ㅋㅟㄷㅡㄹ	-12956
ㅎㅐㅅㅓㄴ	-12957
▁ㄱㅐㅂㅏㅇ	-12958
▁ㅁㅣㄷㅈㅣ	-12959
▁ㅂㅣㅅㅏㅇ	-12960
▁ㅇㅣㄹㄱㅏ	-12961
ㅅㅣㄴㅏㅇㅛ	-12962
ㅇㅓㅈㅣㄱㅗ	-12963
▁ㄱㅔㅇㅣㅌㅡ	-12964
▁ㄱㅣㅁㅇㅣㄹ	-12965
▁ㄴㅏㄹㅏㅇㅘ	-12966
▁ㅅㅗㄴㅁㅗㄱ	-12967
▁ㅆㅏㄷㅏㄱㅗ	-12968
ㅇㅓㅄㅇㅓㄷㅗ	-12969
▁ㄱㅏㅈㅗㄱㅇㅣ	-12970
▁ㅅㅏㅂㅓㅂㅂㅜ	-12971
▁ㅅㅣㅋㅣㅁㅕㄴ	-12972
▁ㅇㅏㅇㅣㄹㅡㄹ	-12973
▁ㅈㅓㅇㄷㅗㄱㅏ	-12974
▁ㅇㅓㄹㅁㅏㅇㅏㄴ	-12975
▁ㅊㅓㅇㅡㅁㅇㅔㄴ	-12976
▁ㅅㅣㄴㄱㅕㅇㅇㅏㄴ	-12977
▁ㅇㅓㅇㅣㅇㅓㅄㄷㅏ	-12978
▁ㅁㅏㄹㅎㅏㄴㅡㄴㄱㅓ	-12979
▁ㅇㅏㄴㅌㅏㄲㅏㅇㅜㄴ	-12980
▁32	-12981
▁45	-12982
▁it	-12983
ㄴㅣㄴㅔ	-12984
ㅈㅗㄹㅏ	-12985
ㅍㅐㅅㅡ	-12986
ㅎㅣㄴㅏ	-12987
▁ㅎㅓㄴㅣ	-12988
ㄱㅗㅅㄷㅗ	-12989
ㅅㅏㄹㄷㅏ	-12990
▁ㄱㅐㄸㅓㄱ	-12991
▁ㅊㅏㄹㅡㄹ	-12992
ㄱㅓㄹㅣㅁㅕ	-12993
ㅅㅐㅇㅁㅕㅇ	-12994
ㅅㅓㄴㅇㅡㄴ	-12995
▁ㄱㅗㅇㄱㅏㄴ	-12996
▁ㄴㅏㅁㅂㅏㄹ	-12997
▁ㅂㅏㄴㄱㅏㅄ	-12998
▁ㅈㅣㄱㅈㅓㄴ	-12999
ㄱㅔㅆㄷㅓㄹㅏ	-13000
▁ㄷㅏㄱㅌㅓㅅㅡ	-13001
▁ㅂㅗㄴㅡㄴㄱㅓ	-13002
▁ㅅㅣㅀㄷㅏㄱㅗ	-13003
ㅏㄴㅡㄴㄱㅓㅈㅣ	-13004
▁ㄱㅏㅁㅈㅓㅇㅇㅣ	-13005
▁ㅁㅕㅇㅂㅏㄱㅇㅣ	-13006
▁ㅇㅣㄱㅣㅈㅜㅇㅢ	-13007
▁ㅅㅗㅂㅣㅈㅏㄴㅡㄴ	-13008
▁ㅁㅗㅅㅎㅏㄴㅡㄴㄱㅔ	-13009
▁ㅅㅏㄹㅇㅏㄱㅏㄴㅡㄴ	-13010
▁ㅂㅜㄷㅗㅇㅅㅏㄴㅇㅡㄴ	-13011
▁ㅃㅏㄹㄱㅐㅇㅇㅣㄷㅡㄹ	-13012
▁ㄱㅡㄴㅂㅗㄴㅈㅓㄱㅇㅣㄴ	-13013
nd	-13014
▁ㅆㅗㄹ	-13015
▁ㄲㅣㅇㅝ	-13016
ㅅㅗㅁㅜㄴ	-13017
ㅏㄴㅇㅡㄹ	-13018
▁ㄱㅡㄷㅡㄹ	-13019
▁ㅇㅣㅌㅗㅇ	-13020
▁ㅊㅚㅇㅡㄴ	-13021
▁ㅎㅏㄴㄸㅐ	-13022
ㅂㅗㄴㅔㅇㅛ	-13023
ㅇㅏㄴㄷㅚㅁ	-13024
ㅇㅔㅅㅓㅇㅢ	-13025
▁ㅁㅏㄴㅜㄹㅏ	-13026
▁ㅇㅡㅇㅍㅏㄹ	-13027
▁ㅍㅕㄴㅎㅏㄴ	-13028
ㄱㅣㅇㅓㅂㅇㅔ	-13029
ㅁㅏㄹㅇㅣㄴㅑ	-13030
ㅇㅣㄴㅣㄲㅏㄴ	-13031
▁ㅎㅐㅇㅑㅎㅏㅁ	-13032
▁ㄲㅡㅌㄴㅏㅆㄷㅏ	-13033
▁ㄷㅗㄹㅇㅏㄱㅏㄹ	-13034
▁ㅂㅗㅇㅕㅈㅜㄱㅗ	-13035
ㅁㅏㄴㅇㅡㄹㅗㄷㅗ	-13036
ㅎㅏㄴㄱㅜㄱㅇㅡㄴ	-13037
▁ㄱㅏㄱㅕㄱㅇㅡㄹㅗ	-13038
▁ㄱㅏㄸㅡㄱㅇㅣㄴㅏ	-13039
▁ㅅㅏㅇㅛㅇㅎㅏㄱㅗ	-13040
▁ㅇㅏㄴㅣㄹㄲㅏㅇㅛ	-13041
▁ㅅㅣㅍㅅㅡㅂㄴㅣㄷㅏ	-13042
▁ㅇㅓㅂㄱㅡㄹㅔㅇㅣㄷㅡ	-13043
,3	-13044
▁MC	-13045
▁ㅆㅔㄴ	-13046
ㄴㅏㅈㅣ	-13047
ㄷㅡㄴㅔ	-13048
ㅅㅗㅅㅓ	-13049
ㅋㅓㅍㅣ	-13050
ㅋㅣㄱㅏ	-13051
ㄴㅏㄱㅣㄹ	-13052
▁ㄱㅓㄷㅡㅂ	-13053
▁ㄱㅗㅂㄱㅔ	-13054
▁ㄴㅓㄹㅡㄹ	-13055
▁ㅈㅜㅁㅗㄱ	-13056
▁ㅈㅣㅅㅇㅣ	-13057
▁ㅍㅏㄴㅌㅏ	-13058
▁ㅎㅐㅆㅇㅓ	-13059
ㄷㅏㄹㄱㅑㄹ	-13060
▁ㄱㅓㄹㅏㄱㅗ	-13061
▁ㅁㅗㅅㄴㅏㄴ	-13062
▁ㅂㅓㄹㅕㄹㅏ	-13063
▁ㅇㅗㄹㅇㅣㄴ	-13064
▁ㅊㅏㅈㅇㅏㅇ	-13065
ㅎㅏㄱㅓㄷㅡㄴ	-13066
ㅎㅐㅅㅓㄴㅡㄴ	-13067
ㅗㅁㄷㅡㄹㅇㅣ	-13068
▁ㄷㅐㅅㅏㅇㅇㅣ	-13069
▁ㅁㅔㅇㅣㄴㅇㅔ	-13070
▁ㅂㅏㄲㅟㅁㅕㄴ	-13071
▁ㅂㅏㄺㅎㅕㅇㅑ	-13072
▁ㅇㅏㄴㄴㅐㄱㅗ	-13073
ㅎㅏㄴㅡㄴㅈㅣㅅ	-13074
▁ㄴㅏㅁㅍㅕㄴㅇㅣ	-13075
▁ㄴㅗㄹㅕㄱㅇㅡㄹ	-13076
▁ㅅㅏㄹㅏㅈㅣㄱㅗ	-13077
▁ㅎㅏㄷㅏㅎㅏㄷㅏ	-13078
▁ㅎㅘㄱㄹㅠㄹㅇㅣ	-13079
ㅎㅐㄷㅏㄹㄹㅏㄱㅗ	-13080
!!!!!!!!!!	-13081
▁ㅇㅡㅇㅇㅝㄴㅎㅏㄱㅗ	-13082
▁ㅇㅗㄴㄱㅜㄱㅁㅣㄴㅇㅣ	-13083
▁ㅊㅚㅅㅜㄴㅅㅣㄹㅇㅣㄱㅏ	-13084
ㅁㅠ	-13085
ㅂㅔㅅ	-13086
ㄷㅐㅇㅛ	-13087
ㅌㅓㄱㅏ	-13088
▁ㅂㅗㅈㅗ	-13089
ㄴㅐㄴㅕㄴ	-13090
ㄷㅏㅇㅊㅗ	-13091
ㄷㅓㄱㅜㄴ	-13092
ㅁㅓㄱㅇㅓ	-13093
ㅕㄴㅂㅗㅇ	-13094
▁ㅁㅏㄹㅇㅑ	-13095
▁ㅂㅜㅇㅑㅇ	-13096
▁ㅅㅗㅇㅝㄴ	-13097
▁ㅈㅣㅁㅜㄴ	-13098
▁ㅎㅕㄴㅈㅣ	-13099
▁ㄴㅗㄹㄹㅏㅂ	-13100
▁ㄷㅜㄹㅕㅇㅝ	-13101
▁ㅅㅣㅁㅈㅏㅇ	-13102
▁ㅅㅣㅍㅇㅡㅁ	-13103
▁ㅋㅗㅁㅣㄷㅣ	-13104
▁ㅋㅡㄹㄹㅣㄱ	-13105
▁ㅂㅗㅇㅕㅈㅜㄱㅣ	-13106
▁ㄱㅘㅇㅂㅗㄱㅈㅓㄹ	-13107
▁ㄷㅏㅇㅅㅣㄴㅇㅡㄹ	-13108
▁ㅁㅏㅇㅎㅐㄱㅏㄴㅡㄴ	-13109
▁ㅎㅏㅂㄹㅣㅈㅓㄱㅇㅣㄴ	-13110
▁ㅅㅣㄴㅇㅛㅇㄷㅡㅇㄱㅡㅂ	-13111
▁ㅆㅘ	-13112
ㅜㄹㅣㄴ	-13113
▁ㄹㅔㄷㅡ	-13114
▁ㅇㅒㄱㅏ	-13115
▁ㅈㅗㅎㅚ	-13116
ㅂㅓㅂㄷㅗ	-13117
ㅈㅏㄶㄴㅑ	-13118
ㅈㅣㄴㄱㅓ	-13119
▁ㅁㅏㄹㅌㅜ	-13120
▁ㅅㅣㄱㅏㄱ	-13121
▁ㅇㅗㅈㅜㅁ	-13122
▁ㅈㅗㅎㄴㅑ	-13123
▁ㅊㅟㄷㅡㄱ	-13124
▁ㅎㅟㅊㅓㅇ	-13125
ㄴㅡㅇㅎㅏㄴ	-13126
▁ㄲㅏㅇㅌㅗㅇ	-13127
▁ㅂㅏㄱㄹㅎㅖ	-13128
▁ㅂㅕㄴㄱㅕㅇ	-13129
▁ㅂㅣㅊㅇㅡㄹ	-13130
▁ㅇㅏㄹㄸㅡㄹ	-13131
▁ㅈㅡㅇㅁㅏㄹ	-13132
ㄱㅏㄴㄷㅏㄱㅗ	-13133
ㅎㅏㄴㄱㅓㄷㅏ	-13134
▁ㄷㅓㅇㅜㄱㄷㅓ	-13135
▁ㅇㅣㄷㅡㄹㅇㅣ	-13136
ㅍㅏㄹㅇㅏㅁㅓㄱ	-13137
ㅎㅐㅅㄴㅡㄴㄷㅔ	-13138
▁ㄱㅓㄱㅈㅓㅇㅇㅣ	-13139
▁ㄱㅜㅇㅕㄱㅈㅣㄹ	-13140
▁ㄱㅣㅁㅈㅔㄷㅗㅇ	-13141
▁ㅂㅓㅁㅈㅚㄹㅡㄹ	-13142
▁ㅇㅏㄴㄷㅡㄹㅇㅓ	-13143
▁ㅈㅐㅍㅏㄴㄱㅘㄴ	-13144
▁ㅊㅣㅋㅣㄴㅈㅣㅂ	-13145
ㅎㅏㅁㅕㄴㅅㅓㄷㅗ	-13146
▁ㅈㅣㅈㅣㅎㅏㄴㅡㄴ	-13147
▁ㄱㅏㅇㄹㅕㄱㅎㅏㄱㅔ	-13148
▁ㄷㅡㄹㅏㅁㅏㅇㅔㅅㅓ	-13149
▁ㅇㅏㄴㅈㅜㅇㅇㅔㄷㅗ	-13150
▁ㅈㅗㄴㅈㅐㅎㅏㄴㅡㄴ	-13151
▁kt	-13152
ㄱㅐㅁ	-13153
ㄲㅜㅇ	-13154
ㅂㅓㅇ	-13155
▁ㅇㅓㄵ	-13156
ㅈㅓㄱㅓ	-13157
▁ㄴㅏㄴㅏ	-13158
▁ㅅㅏㄷㅐ	-13159
▁ㅇㅠㅇㅏ	-13160
ㄹㅐㄴㄷㅡ	-13161
ㅈㅜㄹㄲㅔ	-13162
▁ㄷㅜㅁㅕㅇ	-13163
▁ㅁㅜㅇㅓㄴ	-13164
▁ㅂㅗㄹㄸㅐ	-13165
▁ㅇㅠㅇㅔㄴ	-13166
▁ㅈㅐㅂㅏㄹ	-13167
▁ㅊㅔㅇㅠㄱ	-13168
▁ㅊㅣㅁㅕㅇ	-13169
▁ㅍㅏㄴㅇㅔ	-13170
ㄷㅡㅇㅇㅡㄴ	-13171
ㅇㅣㄴㅅㅓㅇ	-13172
ㅈㅣㅇㄱㅡㄹ	-13173
ㅎㅓㄴㄴㅏㄹ	-13174
▁ㅂㅏㄺㅎㅕㄴ	-13175
▁ㅅㅜㄴㅅㅣㄱ	-13176
▁ㅊㅐㅇㄱㅣㄹ	-13177
▁ㄱㅜㄴㄷㅐㄱㅏ	-13178
ㄷㅓㄱㅂㅜㄴㅇㅔ	-13179
▁ㅂㅣㄹㅗㅅㅎㅏㄴ	-13180
▁ㅇㅏㄴㅣㅇㅔㅇㅛ	-13181
▁ㅇㅣㅈㅔㅂㅜㅌㅓ	-13182
▁ㄱㅣㅁㅈㅗㅇㄱㅜㄱ	-13183
▁ㅅㅏㅁㅈㅗㄱㅇㅡㄹ	-13184
▁ㅇㅏㄴㅎㅏㄴㅡㄴㄱㅔ	-13185
▁ㅇㅗㅇㅎㅗㅎㅏㄴㅡㄴ	-13186
▁ㅈㅏㅇㄴㅏㄴㅎㅏㄴㅏ	-13187
▁ㅇㅏㄴㅡㄴㅎㅕㅇㄴㅣㅁ	-13188
ㄴㅜㄹㅣ	-13189
ㄹㅗㄷㅗ	-13190
ㅖㅅㅏㄴ	-13191
ㅟㅇㅝㄴ	-13192
▁ㄱㅓㅈㅜ	-13193
▁ㅈㅜㅈㅜ	-13194
ㅁㅜㄴㅡㄴ	-13195
ㅅㅏㅂㅓㅂ	-13196
ㅇㅓㅅㄷㅏ	-13197
ㅈㅓㄴㅇㅠ	-13198
ㅋㅓㄴㅅㅠ	-13199
▁ㄲㅜㅁㄷㅗ	-13200
▁ㄴㅗㅈㅓㅁ	-13201
▁ㅊㅜㅈㅗㅇ	-13202
▁ㅎㅑㅇㅎㅜ	-13203
ㄱㅣㅁㅇㅕㅇ	-13204
▁ㅍㅕㅇㄷㅏㅇ	-13205
▁ㅎㅕㅂㅅㅏㅇ	-13206
ㄱㅏㄴㅡㄴㄷㅔ	-13207
ㅊㅣㄴㅡㄴㄱㅓ	-13208
▁ㄱㅖㄹㅏㄴㅇㅣ	-13209
▁ㄷㅏㄴㅊㅔㄹㅗ	-13210
▁ㅅㅏㄹㅏㅇㅇㅣ	-13211
▁ㅆㅏㅇㅜㄴㅡㄴ	-13212
▁ㅇㅓㅄㄴㅏㅇㅛ	-13213
▁ㅎㅏㄴㅡㄹㅇㅣ	-13214
▁ㅂㅐㅌㅓㄹㅣㄱㅏ	-13215
▁ㅈㅏㅇㅅㅏㄲㅜㄴ	-13216
▁ㅌㅣㅂㅣㅇㅔㅅㅓ	-13217
▁ㅊㅓㅇㅇㅘㄷㅐㄱㅏ	-13218
ㅃㅐㅅ	-13219
ㅇㅏㅁㅜ	-13220
▁ㅈㅔㅈㅐ	-13221
▁ㅎㅘㄹㅕ	-13222
ㅇㅓㅂㅗㄹ	-13223
▁ㄹㅏㅇㅣㄴ	-13224
▁ㅁㅗㅇㅏㄴ	-13225
▁ㅂㅕㄴㅎㅢ	-13226
▁ㅂㅗㄴㅂㅗ	-13227
▁ㅅㅡㅋㅡㄹ	-13228
▁ㅈㅣㅅㄱㅗ	-13229
ㅘㅆㅇㅡㄴㅣ	-13230
▁ㄲㅗㅅㅣㄷㅏ	-13231
ㅇㅡㄹㄸㅐㄷㅗ	-13232
▁ㄷㅐㅎㅏㄱㄱㅛ	-13233
▁ㅈㅜㅇㅣㄴㅇㅣ	-13234
▁ㄱㅓㅅㄷㅡㄹㅇㅏ	-13235
▁ㄱㅜㄱㅁㅣㄴㄷㅗ	-13236
▁ㅇㅘㅆㄴㅡㄴㄷㅔ	-13237
▁ㄷㅏㄴㅣㅁㅕㄴㅅㅓ	-13238
▁ㅅㅏㄹㅏㅁㄷㅡㄹㅁㅏㄴ	-13239
oid	-13240
ㄹㅔㅅ	-13241
▁ㅇㅘㅆ	-13242
ㅂㅗㄷㅡ	-13243
ㅅㅜㄷㅏ	-13244
▁ㅁㅐㄷㅗ	-13245
▁ㅇㅏㅂㅏ	-13246
▁ㅋㅗㅁㅔ	-13247
ㅂㅏㄺㅎㅕ	-13248
ㅂㅣㅅㅡㅅ	-13249
ㅇㅕㅇㅅㅜ	-13250
ㅇㅢㅎㅗㄱ	-13251
▁ㄷㅗㄴㄱㅘ	-13252
▁ㄷㅗㄴㅇㅢ	-13253
▁ㅂㅐㄱㅍㅓ	-13254
▁ㅇㅣㄷㅡㄹ	-13255
▁ㅈㅐㅁㅣㅅ	-13256
ㄱㅔㅎㅏㄱㅗ	-13257
ㄱㅣㄲㅏㅈㅣ	-13258
ㄴㅏㅁㅇㅛㅇ	-13259
ㅕㅆㄷㅏㄱㅗ	-13260
▁ㄱㅜㄴㅂㅗㄱ	-13261
▁ㄱㅣㅅㅏㅎㅘ	-13262
▁ㄸㅓㄴㅏㄹㅏ	-13263
▁ㅁㅐㄱㄹㅏㄱ	-13264
▁ㅇㅣㅅㄴㅡㄴ	-13265
▁ㅈㅓㄴㅅㅓㄹ	-13266
▁ㅇㅏㅁㅜㄹㅓㅎ	-13267
▁ㅇㅣㄱㅜㄱㅈㅜ	-13268
▁ㅇㅣㅂㅔㄴㅌㅡ	-13269
ㅁㅏㄹㄱㅗㄴㅡㄴ	-13270
▁ㅁㅓㄱㄴㅡㄴㄱㅓ	-13271
▁ㅂㅜㄹㄱㅜㅅㅗㄱ	-13272
▁ㄴㅓㅎㅢㄷㅡㄹㅇㅡㄴ	-13273
▁ㄷㅏㄹㅡㄴㅅㅏㄹㅏㅁ	-13274
▁ㅈㅓㄴㄱㅣㅅㅏㅇㅛㅇ	-13275
▁ㅇㅓㅁㅏㅇㅓㅁㅏㅎㅏㄴ	-13276
▁ㅁㅗㄹㅡㄱㅔㅆㄴㅡㄴㄷㅔ	-13277
ㅃㅗ	-13278
▁ㅆㅡㅁ	-13279
ㄷㅏㄹㄹ	-13280
ㅌㅡㅇㅘ	-13281
▁ㅇㅗㅂㅓ	-13282
ㄱㅏㅇㅘㅇ	-13283
ㅂㅕㄴㅎㅗ	-13284
ㅅㅜㄱㅡㄴ	-13285
ㅊㅜㅇㅇㅣ	-13286
▁ㄱㅡㄹㅡㅅ	-13287
▁ㄴㅏㅈㅊㅝ	-13288
▁ㅇㅏㅇㅜㄹ	-13289
▁ㅇㅔㅁㅂㅣ	-13290
ㄹㅑㅇㅎㅏㄴ	-13291
▁ㅅㅣㄴㅇㅣㅂ	-13292
▁ㅇㅣㄱㅅㅜㄱ	-13293
▁ㅁㅏㄹㅎㅐㄹㅏ	-13294
▁ㅁㅜㅈㅏㄱㅈㅓㅇ	-13295
▁ㅂㅜㄹㅇㅣㅇㅣㄱ	-13296
▁ㅃㅐㄷㅗㄹㄹㅣㄴ	-13297
▁ㅇㅏㄹㅇㅏㅆㄴㅔ	-13298
▁ㅈㅓㅇㅂㅗㄹㅡㄹ	-13299
▁ㅉㅏㅇㄲㅐㄷㅡㄹ	-13300
▁ㄸㅓㄹㅇㅓㅈㅕㅅㅓ	-13301
▁ㅂㅏㄱㄱㅡㄴㅔㄱㅏ	-13302
▁ㅅㅜㄴㅅㅣㄹㅣㄱㅏ	-13303
▁ㅇㅓㅇㅣㅇㅓㅄㄴㅔ	-13304
▁ㅈㅣㅇㅂㅓㄹㅈㅓㄱ	-13305
▁ㄱㅏㅁㅂㅏㅇㅇㅔㅅㅓ	-13306
▁ㄱㅐㅇㅣㄴㅈㅓㅇㅂㅗ	-13307
▁ㅅㅐㅇㄱㅏㄱㅎㅏㄴㅏ	-13308
▁ㅈㅓㅇㅎㅘㄱㅎㅏㄱㅔ	-13309
▁ㅂㅗㄴㅇㅣㄴㄷㅡㄹㅇㅣ	-13310
▁ㅇㅏㄴㅎㅐㅆㅇㅡㅁㅕㄴ	-13311
▁ㅅㅐㅇㄱㅏㄱㅎㅏㄴㅡㄴㄷㅔ	-13312
▁ㅈㅓㄱㄱㅡㄱㅈㅓㄱㅇㅡㄹㅗ	-13313
ㅔㅁ	-13314
ㄴㅗㅅ	-13315
ㄴㅏㄱㅣ	-13316
ㅇㅜㅇㅠ	-13317
ㅡㄹㅓㄴ	-13318
ㄱㅐㄹㅡㄹ	-13319
ㄱㅡㄴㄹㅗ	-13320
▁ㅈㅏㄹㄹㅏ	-13321
ㄲㅗㄹㅌㅗㅇ	-13322
ㄹㅣㄹㄷㅡㅅ	-13323
ㅇㅣㅆㅇㅓㅆ	-13324
▁ㅅㅏㅇㅣㅌㅡ	-13325
▁ㅆㅏㄱㅆㅡㄹ	-13326
▁ㅊㅜㄹㅂㅏㄹ	-13327
▁ㅅㅏㅂㄴㅣㄷㅏ	-13328
▁ㅅㅏㅈㅏㅇㅇㅣ	-13329
▁ㅅㅗㄹㅣㄴㅡㄴ	-13330
▁ㅆㅡㄴㄷㅏㄱㅗ	-13331
▁ㅈㅓㅇㅂㅜㄴㅏ	-13332
▁ㅍㅏㄹㅕㅁㅊㅣ	-13333
ㄷㅏㅇㅇㅕㄴㅎㅣ	-13334
▁ㄴㅐㅇㅛㅇㅇㅡㄹ	-13335
▁ㄸㅓㄹㅇㅓㅈㅕㅆ	-13336
▁ㅇㅗㄹㄹㅏㄱㅏㄹ	-13337
▁ㅇㅜㄹㅣㅂㅗㄷㅏ	-13338
▁ㅈㅓㅇㄱㅝㄴㅇㅢ	-13339
ㅇㅣㄹㅏㄴㅡㄴㄱㅓㄹ	-13340
▁ㄷㅐㄱㅣㅇㅓㅂㅁㅏㄴ	-13341
▁ㅈㅐㅅㅏㄴㅁㅗㄹㅅㅜ	-13342
ㅎㅐㅇㅑㅎㅏㄴㅡㄴㄷㅔ	-13343
▁ㅇㅣㄱㅓㅅㄷㅡㄹㅇㅡㄴ	-13344
oi	-13345
ore	-13346
ㅅㅔㄱ	-13347
ㅗㅇㅑ	-13348
▁ㄲㅗㅅ	-13349
ㅅㅐㄱㅣ	-13350
ㅜㄱㅇㅣ	-13351
▁ㄲㅓㄴㅐ	-13352
▁ㄴㅐㄷㅏ	-13353
▁ㄴㅐㅈㅣ	-13354
▁ㅁㅣㅎㅘ	-13355
▁ㅆㅏㅇㅜ	-13356
ㅇㅏㄴㅎㅐ	-13357
ㅈㅏㅅㅏㄴ	-13358
ㅎㅏㄹㄲㅔ	-13359
▁ㅁㅝㅇㅣㅁ	-13360
▁ㅅㅗㄴㅇㅖ	-13361
▁ㅎㅏㄹㅈㅣ	-13362
▁ㄴㅏㅁㅂㅜㄱ	-13363
▁ㄷㅏㄴㄷㅏㄴ	-13364
▁ㅅㅣㄱㄹㅑㅇ	-13365
▁ㅇㅜㅅㄱㅕㅆ	-13366
▁ㅁㅏㅇㅎㅏㅈㅣ	-13367
▁ㅁㅓㄹㅣㄹㅡㄹ	-13368
▁ㄱㅘㅇㅇㅜㅃㅓㅇ	-13369
▁ㄴㅏㅇㅡㄹㄷㅡㅅ	-13370
▁ㅇㅣㄹㅓㄷㅏㄱㅏ	-13371
▁ㅎㅐㅁㅓㄱㅇㅡㄹ	-13372
▁ㄴㅜㅈㅣㄴㅈㅔㄱㅏ	-13373
~8	-13374
ㅗㄴㅑ	-13375
ㄷㅐㄱㅜ	-13376
ㅊㅣㅇㅔ	-13377
ㄱㅔㅅㄴㅑ	-13378
ㄱㅗㅇㅇㅠ	-13379
ㄱㅡㅂㅇㅕ	-13380
ㅅㅐㅇㅇㅔ	-13381
▁ㄱㅏㅄㅇㅣ	-13382
▁ㄱㅏㅇㅈㅗ	-13383
▁ㄷㅗㄹㄹㅣ	-13384
▁ㅈㅓㄱㅓㅅ	-13385
▁ㅈㅣㄱㅕㅂ	-13386
ㅁㅓㅇㅊㅓㅇ	-13387
▁ㄷㅚㄹㄱㅓㅅ	-13388
▁ㄹㅏㄷㅣㅇㅗ	-13389
▁ㅁㅏㄶㅇㅣㅆ	-13390
▁ㅇㅕㄱㅈㅓㄱ	-13391
▁ㅇㅟㅎㅏㅇㅕ	-13392
▁ㅇㅣㄴㅁㅕㅇ	-13393
▁ㅎㅏㄴㅍㅏㄴ	-13394
ㄱㅏㅌㅇㅏㄷㅗ	-13395
ㅇㅑㅇㅇㅏㅊㅣ	-13396
ㅡㅈㅣㅂㅜㅈㅣ	-13397
▁ㄱㅓㄴㄱㅏㅇㅛ	-13398
▁ㅇㅏㄶㅇㅏㅅㅓ	-13399
▁ㅈㅓㄴㄱㅣㅊㅏ	-13400
ㅇㅏㄴㅎㅏㄴㅡㄴ	-13401
▁ㅂㅏㄷㅇㅏㅆㄷㅏ	-13402
▁ㅂㅗㅇㅕㅈㅝㅇㅑ	-13403
▁ㅈㅓㅇㄷㅗㄲㅓㅅ	-13404
▁ㅇㅣㄹㅈㅏㄹㅣㄹㅡㄹ	-13405
▁ㅈㅜㄹㅇㅓㄷㅡㄴㅡㄴ	-13406
ㄹㅡ	-13407
ㅎㅜㄱ	-13408
ㅆㅡㄴㅔ	-13409
▁ㄷㅓㄷㅓ	-13410
▁ㅈㅣㄹㅌ	-13411
▁ㅍㅏㅇㅝ	-13412
ㅂㅜㅇㅑㅇ	-13413
▁ㄱㅗㄹㄹㅏ	-13414
▁ㄲㅏㅂㅜㄹ	-13415
▁ㅈㅏㄱㅣㄴ	-13416
▁ㅊㅓㅂㅜㄴ	-13417
▁ㅎㅚㅅㅐㅇ	-13418
ㄱㅏㄴㅊㅓㅂ	-13419
ㅇㅓㄴㅐㄱㅗ	-13420
ㅏㅁㄷㅐㄹㅗ	-13421
▁ㅌㅣㅇㅏㄹㅏ	-13422
▁ㅎㅏㄴㅈㅏㄴ	-13423
ㅇㅣㄴㅡㄴㄱㅔ	-13424
--------	-13425
▁ㅇㅣㅆㅇㅓㅆㄱㅗ	-13426
ㅎㅣㅁㄴㅐㅅㅔㅇㅛ	-13427
▁ㅁㅜㄹㄱㅓㄴㅇㅡㄹ	-13428
▁ㅈㅗㅎㅇㅏㅎㅏㄱㅗ	-13429
ㅎㅏㄴㅅㅣㅁㅎㅏㄷㅏ	-13430
▁ㅈㅏㅅㅣㄴㄷㅡㄹㅇㅢ	-13431
▁ㄱㅣㅁㅈㅓㅇㅇㅡㄴㅇㅣ	-13432
▁ㅂㅓㅂㄹㅣㅈㅓㄱㅇㅣㄴ	-13433
▁ㅇㅏㄶㅇㅏㅆㅇㅡㅁㅕㄴ	-13434
pp	-13435
ㄷㅡㄴㅣ	-13436
ㄷㅡㄹㅣ	-13437
ㄹㅗㄱㅏ	-13438
ㅅㅏㄱㅟ	-13439
ticle	-13440
▁ㄷㅏㄱㅏ	-13441
▁ㅁㅝㄹㅐ	-13442
▁ㅈㅗㄹㅠ	-13443
ㅁㅏㄹㅕㄴ	-13444
ㅂㅜㄹㄹㅓ	-13445
ㅇㅏㄴㄷㅏ	-13446
ㅎㅐㅇㅗㄴ	-13447
▁ㄱㅏㄹㅊㅟ	-13448
▁ㄱㅓㄴㅡㄴ	-13449
▁ㄱㅡㄴㄷㅐ	-13450
▁ㅇㅓㅄㅈㅛ	-13451
ㄷㅏㄴㅅㅗㄱ	-13452
ㅈㅓㄴㄹㅑㄱ	-13453
▁ㄱㅘㄱㅓㅇㅔ	-13454
▁ㅂㅐㅇㅜㄱㅗ	-13455
▁ㅇㅖㅃㅡㄷㅏ	-13456
ㄱㅏㅌㅈㅣㄷㅗ	-13457
ㅃㅜㄴㅇㅣㅈㅣ	-13458
▁ㄴㅏㄴㅡㄴㄷㅔ	-13459
▁ㅅㅣㅈㅏㅇㅇㅔ	-13460
▁ㅎㅐㅁㅓㄱㄱㅗ	-13461
ㄷㅡㄹㅇㅣㄴㄷㅔ	-13462
▁ㅇㅏㄴㅎㅏㄴㅡㄴㄷㅔ	-13463
▁ㅈㅏㄹㄴㅏㄱㅏㄴㅡㄴ	-13464
▁ㄱㅓㄱㅈㅓㅇㄷㅚㄴㄷㅏ	-13465
ㅉㅣㅂ	-13466
1000	-13467
▁ㄹㅏㄹ	-13468
ㅂㅐㄴㅏ	-13469
ㅎㅘㄷㅐ	-13470
▁ㅁㅜㄱㅔ	-13471
▁ㅈㅣㄱㅗ	-13472
ㄷㅐㅎㅕㅇ	-13473
ㅈㅏㅁㅓㄱ	-13474
ㅈㅣㅈㅣㄴ	-13475
▁ㅈㅣㅇㅣㄴ	-13476
▁ㅊㅣㅁㅎㅐ	-13477
▁ㅎㅏㄹㅁㅐ	-13478
ㄱㅓㄹㄹㅣㄴ	-13479
ㅅㅏㄹㅁㅕㄴ	-13480
▁ㄷㅗㄹㄹㅣㄹ	-13481
▁ㅇㅏㄴㅂㅗㅁ	-13482
▁ㅇㅜㅅㄴㅡㄴ	-13483
▁ㅋㅡㄹㄹㅓㅂ	-13484
▁ㅎㅘㅇㅞㅇㅣ	-13485
ㅂㅐㅇㅣㅅㅏㅇ	-13486
ㅂㅗㄴㅡㄴㄱㅔ	-13487
ㅈㅏㅂㅇㅏㅅㅓ	-13488
ㅁㅏㄴㅎㅏㄴㅡㄴ	-13489
▁ㄱㅜㄱㅁㅣㄴㅇㅔ	-13490
▁ㄱㅡㄱㅓㅅㅁㅏㄴ	-13491
▁ㄷㅐㅎㅏㄱㅅㅐㅇ	-13492
▁ㅁㅏㅇㅎㅐㅆㄷㅏ	-13493
▁ㅂㅏㄴㅌㅗㅁㅏㄱ	-13494
▁ㅇㅝㄴㅇㅣㄴㅇㅣ	-13495
▁ㅇㅣㅆㅇㅓㅆㄴㅏ	-13496
▁ㅂㅏㄷㅇㅏㅇㅑㅈㅣ	-13497
▁ㅊㅓㅂㅓㄹㅎㅐㅇㅑ	-13498
ㅈㅣㅇㅏㄶㄴㅡㄴㄷㅏ	-13499
▁ㅈㅜㄱㅜㅈㅏㅇㅊㅏㅇ	-13500
ㅎㅏㄴㅡㄴㄱㅓㅅㅇㅡㄴ	-13501
oo	-13502
ㄸㅜ	-13503
ㅆㅛ	-13504
..,	-13505
ㄱㅗㄹㅣ	-13506
ㄱㅡㄸㅐ	-13507
ㅅㅜㄹㅣ	-13508
ㅈㅓㅎㅏ	-13509
ㅎㅣㅈㅣ	-13510
▁ㅁㅣㅁㅗ	-13511
▁ㅈㅣㅇㅝ	-13512
ㄷㅏㄴㅇㅟ	-13513
ㅇㅖㅅㅏㄴ	-13514
ㅈㅗㅇㄱㅛ	-13515
ㅈㅣㅇㅗㄱ	-13516
ㅘㅇㅑㅈㅣ	-13517
▁ㅊㅗㅇㅅㅜ	-13518
ㄷㅓㅇㅟㅇㅔ	-13519
ㄷㅚㅇㅓㅅㅓ	-13520
ㅇㅜㅅㅇㅡㅁ	-13521
youtube	-13522
▁ㄱㅗㄹㅁㅗㄱ	-13523
▁ㄴㅐㄴㅘㄹㅏ	-13524
▁ㄸㅓㅇㄸㅓㅇ	-13525
▁ㅁㅕㅇㅂㅜㄴ	-13526
▁ㅂㅜㄱㅎㅐㄱ	-13527
▁ㅃㅏㅈㅣㄱㅗ	-13528
▁ㅇㅝㄴㅊㅓㄴ	-13529
▁ㅈㅗㅇㅌㅡㄱ	-13530
ㅈㅏㅎㅏㄴㅌㅔ	-13531
ㅇㅡㄹㅗㅂㅜㅌㅓ	-13532
▁ㅁㅏㄴㄴㅏㅁㅕㄴ	-13533
▁ㅁㅣㄷㅇㅡㅁㅇㅣ	-13534
▁ㅅㅓㅎㅕㄴㅈㅣㄴ	-13535
▁ㅅㅜㄴㅅㅣㄹㅇㅏ	-13536
▁ㅇㅣㄹㅂㅗㄴㄱㅘ	-13537
▁ㅎㅏㄹㄹㅕㅁㅕㄴ	-13538
▁ㅈㅓㅇㄷㅏㅇㅎㅏㄱㅔ	-13539
▁ㄷㅡㄹㅇㅓㅆㄴㅡㄴㄷㅔ	-13540
es	-13541
ㅆㅣㅇ	-13542
ㅏㄴㅐ	-13543
▁ㅈㅓㅅ	-13544
ㅇㅗㄹㅐ	-13545
ㅈㅓㄱㅏ	-13546
▁ㄴㅣㅁㅣ	-13547
▁ㅊㅚㅊㅗ	-13548
▁ㅎㅏㅅㅜ	-13549
ㄱㅏㅌㅈㅣ	-13550
ㄲㅓㅇㅣㅁ	-13551
ㅂㅏㄷㅈㅣ	-13552
ㅇㅣㅅㄷㅏ	-13553
▁ㅂㅐㅇㅝㅆ	-13554
▁ㅅㅣㄴㅇㅣ	-13555
▁ㅇㅖㅇㅓㄴ	-13556
▁ㅇㅝㄹㄷㅡ	-13557
▁ㅈㅓㄴㅡㅇ	-13558
▁ㅈㅜㄹㄱㅗ	-13559
▁ㅈㅣㅇㅕㄴ	-13560
▁ㅌㅚㅇㅣㅁ	-13561
▁ㄱㅏㄴㅅㅓㅂ	-13562
▁ㄴㅣㅁㄷㅡㄹ	-13563
▁ㅂㅐㅇㅜㄹㅗ	-13564
▁ㅈㅏㄹㄷㅡㄹ	-13565
▁ㅈㅏㄹㅎㅏㅁ	-13566
▁ㅈㅣㄱㅇㅕㅇ	-13567
▁ㅉㅗㄱㅂㅏㄱ	-13568
ㄷㅗㅇㅓㅄㅇㅣ	-13569
▁ㄱㅏㅂㅕㅂㄱㅔ	-13570
▁ㄱㅟㅇㅕㅇㅜㄴ	-13571
▁ㅂㅜㅇㅕㄱㅈㅏ	-13572
▁ㅅㅏㄹㅇㅏㄷㅗ	-13573
▁ㅅㅗㄷㅡㄱㅅㅔ	-13574
▁ㄱㅗㅁㅏㅇㅝㅇㅛ	-13575
▁ㄱㅣㅁㅇㅠㅈㅓㅇ	-13576
▁ㅇㅣㅆㅇㅡㄹㅈㅣ	-13577
▁ㅇㅏㅍㅏㅌㅡㄴㅡㄴ	-13578
ㄱㅓㅅㄱㅏㅌㅇㅏㅇㅛ	-13579
▁ㅇㅏㄴㄷㅚㄴㅡㄴㄱㅓ	-13580
▁ㅈㅜㅇㄱㅜㄱㅇㅓㅅㅓㄴ	-13581
▁ㅋㅋㅋㅋㅋㅋㅋㅋㅋㅋㅋㅋㅋㅋ	-13582
▁ㅏ	-13583
ㅍㅏㅅ	-13584
atch	-13585
ㅅㅔㄷㅏ	-13586
▁ㄱㅏㄱㅜ	-13587
▁ㅇㅣㅎㅘ	-13588
▁ㅈㅜㅇㅢ	-13589
ㄱㅜㄴㅇㅣ	-13590
ㄴㅕㄴㅇㅢ	-13591
ㅂㅏㄷㄱㅔ	-13592
ㅈㅜㄱㄱㅗ	-13593
▁ㅅㅣㅅㅓㄴ	-13594
▁ㅇㅣㅅㅜㄴ	-13595
ㄱㅣㄹㅇㅡㄹ	-13596
ㅇㅏㅁㅌㅡㄴ	-13597
ㅇㅡㅁㅇㅏㄱ	-13598
ㅍㅏㄴㄷㅏㄴ	-13599
▁ㄱㅕㅇㅅㅏㅇ	-13600
▁ㅁㅓㄱㅇㅓㅆ	-13601
▁ㅎㅐㅇㅚㅇㅔ	-13602
ㅇㅡㄹㅕㄴㅡㄴ	-13603
ㅈㅓㄴㅇㅡㄹㅗ	-13604
ㅈㅜㄱㅇㅣㄱㅗ	-13605
ㅎㅏㄹㅅㅜㄱㅏ	-13606
▁ㅅㅏㄴㅡㄴㄱㅓ	-13607
▁ㅇㅣㅅㅏㅇㅇㅣ	-13608
ㅅㅣㄱㅏㄴㅇㅡㄹ	-13609
▁ㅂㅘㅆㅇㅡㅁㅕㄴ	-13610
▁ㅅㅏㄱㅓㄴㅇㅡㄴ	-13611
▁ㅇㅜㄹㅣㅇㅔㄱㅔ	-13612
▁ㅎㅐㄱㅕㄹㅊㅐㄱ	-13613
▁ㄱㅏㄴㅡㅇㅎㅏㄷㅏ	-13614
▁ㄷㅐㅍㅛㅈㅓㄱㅇㅣㄴ	-13615
▁ㅇㅏㄴㅣㄷㅓㄹㅏㄷㅗ	-13616
▁ㅇㅣㅂㅈㅏㅇㅇㅔㅅㅓㄴ	-13617
▁ㅈㅓㅇㅅㅣㄴㅊㅏㄹㅣㄱㅗ	-13618
.3	-13619
ㅜㅠ	-13620
ㅎㅘㅇㅔ	-13621
▁ㄱㅔㅇㅣ	-13622
ㅇㅏㄱㅇㅢ	-13623
ㅇㅟㅂㅏㄴ	-13624
ㅈㅐㅁㅣㅆ	-13625
▁ㄱㅏㅅㅏㅇ	-13626
▁ㄴㅓㅁㅜㅇ	-13627
▁ㅂㅏㄱㅎㅛ	-13628
▁ㅅㅏㅇㄱㅏ	-13629
▁ㅌㅓㄸㅡㄹ	-13630
▁ㅂㅏㄴㅉㅏㄱ	-13631
▁ㅆㅏㅇㅇㅛㄱ	-13632
▁ㅆㅡㅅㅔㅇㅛ	-13633
▁ㅇㅏㄴㅈㅏㅂ	-13634
▁ㅇㅛㄱㅇㅡㄴ	-13635
ㅈㅕㅆㄷㅏㄱㅗ	-13636
▁ㄷㅚㄱㅔㅆㄷㅏ	-13637
ㅅㅗㄴㅅㅓㄱㅎㅢ	-13638
▁ㄱㅣㅁㄹㅐㅇㅝㄴ	-13639
▁ㄴㅏㄹㅏㅅㄷㅗㄴ	-13640
▁ㅅㅏㅁㅅㅓㅇㄲㅓ	-13641
▁ㅅㅗㄹㅡㅁㄷㅗㄷ	-13642
▁ㅇㅣㄴㅏㄹㅏㅇㅢ	-13643
▁ㄱㅣㅇㅓㅂㅇㅔㅅㅓ	-13644
▁ㅂㅜㅈㅏㄷㅡㄹㅇㅣ	-13645
▁ㅇㅝㄹㄱㅡㅂㅇㅡㄹ	-13646
▁ㄱㅐㅇㅣㄴㅈㅓㄱㅇㅣㄴ	-13647
28	-13648
ㅂㅣㄱ	-13649
..??	-13650
▁ㅊㅕㅁ	-13651
ㅊㅔㄹㅗ	-13652
ㅎㅚㅇㅢ	-13653
ㄱㅏㅍㅗㄹ	-13654
ㄴㅓㅁㅇㅣ	-13655
ㄷㅜㄹㅡㄹ	-13656
ㄸㅡㄷㅇㅓ	-13657
ㅂㅏㅇㅎㅐ	-13658
ㅇㅗㄹㅡㄴ	-13659
ㅎㅞㅅㅗㄴ	-13660
▁ㄷㅏㄴㅣㄴ	-13661
▁ㅇㅑㅇㅇㅏ	-13662
▁ㅈㅜㅇㅅㅗ	-13663
▁ㅊㅏㅁㄱㅏ	-13664
▁ㅋㅗㄹㄹㅏ	-13665
ㅅㅣㅁㅎㅏㄴ	-13666
ㅇㅏㄶㄴㅡㄴ	-13667
ㅇㅠㄹㅇㅡㄹ	-13668
▁ㅁㅏㄹㄷㅓㄴ	-13669
ㄷㅗㄴㅈㅜㄱㅗ	-13670
ㄷㅚㄴㅡㄴㅈㅣ	-13671
ㅇㅡㄴㅣㄲㅏㄴ	-13672
▁ㅈㅡㅇㄱㅓㄹㅗ	-13673
▁ㅅㅏㅇㅡㄴㅍㅜㅁ	-13674
▁ㅅㅗㄴㅎㅐㄹㅡㄹ	-13675
▁ㅇㅠㅌㅗㅇㅇㅓㅂ	-13676
▁ㅈㅓㅇㅎㅗㅅㅓㅇ	-13677
▁ㅌㅏㄴㅎㅐㄱㅅㅗ	-13678
▁ㄷㅐㅎㅐㅅㅓㄴㅡㄴ	-13679
▁ㅂㅏㅋㅟㅂㅓㄹㄹㅔ	-13680
▁ㅅㅐㅇㄱㅏㄱㅎㅐㄷㅗ	-13681
▁ㅇㅣㅆㄴㅡㄴㄱㅓㄷㅏ	-13682
▁ㅇㅣㅈㅣㄴㅇㅜㄱㅇㅣ	-13683
▁ㅇㅡㅇㅇㅝㄴㅎㅏㄴㄷㅏ	-13684
▁ㅇㅣㄴㅈㅓㅇㅎㅏㄴㅡㄴ	-13685
▁IS	-13686
ㄹㅗㅅ	-13687
ㅆㅈㅛ	-13688
ㄱㅖㅇㅔ	-13689
ㄴㅐㅇㅔ	-13690
ㅅㅏㄴㅔ	-13691
▁ㄱㅗㅅㅏ	-13692
ㅇㅏㅇㅓㅍ	-13693
ㅇㅣㄴㄷㅣ	-13694
▁ㄸㅡㄴㅡㄴ	-13695
▁ㅂㅓㄹㅡㅅ	-13696
▁ㅅㅗㄱㅇㅔ	-13697
▁ㅅㅡㄹㄹㅣ	-13698
▁ㅈㅏㅅㅗㄴ	-13699
▁ㅊㅜㄱㅅㅗ	-13700
ㅇㅑㅇㅅㅣㅁ	-13701
ㅎㅐㅈㅕㅅㅓ	-13702
▁ㄴㅏㅇㅗㄴㅏ	-13703
▁ㄷㅣㅅㅡㅍㅐ	-13704
▁ㄸㅏㅇㅋㅗㅇ	-13705
▁ㅂㅗㄴㄱㅕㄱ	-13706
▁ㅂㅗㄴㅐㅇㅑ	-13707
▁ㅅㅐㅁㅅㅜㅇ	-13708
▁ㅇㅢㅇㅚㄹㅗ	-13709
▁ㅈㅣㅈㅏㅊㅔ	-13710
ㄴㅏㅈㅜㅇㅇㅔ	-13711
▁ㄷㅏㄺㅅㅏㅁㅗ	-13712
▁ㄷㅡㄹㅓㅇㅜㄴ	-13713
ㅅㅣㅈㅏㅇㅇㅡㄴ	-13714
▁ㄱㅗㅇㅎㅏㅇㅇㅣ	-13715
▁ㅁㅣㄷㄴㅡㄴㄷㅏ	-13716
▁ㅈㅐㄱㅕㄹㅎㅏㅂ	-13717
▁ㄴㅜㅈㅣㄴㅅㅔㄹㅗ	-13718
▁ㅂㅡㄹㄹㅐㄱㅍㅣㅇㅋㅡ	-13719
▁ㅌㅏㄴㅎㅐㄱㅇㅣㄴㅇㅛㅇ	-13720
1=	-13721
.^^	-13722
▁ㅁㅣㅁ	-13723
▁ㅆㅓㅁ	-13724
ㄷㅐㄹㅣ	-13725
ㅅㅜㅇㅏ	-13726
ㅣㄱㅡㄱ	-13727
▁2500	-13728
▁ㅈㅏㅇㅟ	-13729
ㄷㅐㅈㅏㅇ	-13730
ㅁㅏㄶㄴㅔ	-13731
ㅁㅜㄴㅈㅐ	-13732
ㅅㅏㄹㅇㅔ	-13733
ㅅㅟㅂㄱㅔ	-13734
ㅈㅓㄹㄹㅗ	-13735
▁ㅅㅗㄹㅣㄹ	-13736
▁ㅎㅕㅇㅈㅔ	-13737
ㅊㅏㅇㅣㄱㅏ	-13738
ㅊㅓㄴㄱㅜㄱ	-13739
ㅊㅓㅇㅁㅏㅇ	-13740
▁ㄱㅣㅍㅇㅡㄴ	-13741
▁ㄴㅗㅇㅎㅕㅂ	-13742
▁ㅁㅣㄹㅐㅇㅔ	-13743
▁ㅂㅓㄹㅂㅓㄹ	-13744
▁ㅇㅏㅃㅏㄱㅏ	-13745
▁ㅉㅗㄱㅂㅏㄹ	-13746
▁ㅊㅗㅇㅅㅏㄹ	-13747
ㅈㅣㄷㅡㄹㅇㅣ	-13748
▁ㄷㅏㄹㅡㄴㄱㅔ	-13749
▁ㅇㅕㄱㅅㅏㅇㅢ	-13750
▁ㅇㅠㅊㅣㅇㅝㄴ	-13751
▁ㅊㅣㄴㄱㅜㄱㅏ	-13752
ㅎㅏㄹㄱㅓㅁㅕㄴ	-13753
▁ㅆㅡㅈㅣㅁㅏㄹㅏ	-13754
▁ㄱㅡㄹㅓㄴㄷㅔㄷㅗ	-13755
▁ㅅㅣㅁㅍㅏㄴㅇㅡㄹ	-13756
▁ㅍㅗㄱㅌㅏㄴㅇㅡㄹ	-13757
▁ㅎㅗㅇㅢㅎㅗㅅㅣㄱ	-13758
▁ㅇㅓㄹㅁㅏㅈㅓㄴㅇㅔ	-13759
▁ㄷㅐㅌㅗㅇㄹㅕㅇㅇㅔㄱㅔ	-13760
▁ㅈㅗㅎㅇㅏㅎㅏㄴㅡㄴㄷㅔ	-13761
is	-13762
ㅡㄹㅐ	-13763
ㄷㅗㄷㅗ	-13764
ㄸㅐㄹㅕ	-13765
ㅈㅣㅅㅐ	-13766
▁ㅅㅏㄹㅛ	-13767
▁ㅎㅏㅇㅟ	-13768
ㄷㅜㄹㄷㅏ	-13769
ㄷㅡㄴㄷㅔ	-13770
ㄸㅓㄴㅡㄴ	-13771
ㅊㅓㅂㅏㄷ	-13772
ㅣㅁㅇㅡㄴ	-13773
▁ㄱㅗㄹㅕㅇ	-13774
▁ㄷㅏㅁㅂㅗ	-13775
▁ㅂㅜㅌㅇㅕ	-13776
▁ㅇㅏㅈㅏㄱ	-13777
▁ㅇㅑㅇㅂㅗ	-13778
▁ㅈㅜㄹㅇㅣ	-13779
ㄴㅓㅁㅇㅡㄴ	-13780
ㅁㅜㄹㅅㅏㄴ	-13781
ㅇㅣㄴㅁㅣㄴ	-13782
ㅇㅣㄹㅐㅅㅓ	-13783
▁ㄴㅐㅅㅜㄱㅏ	-13784
▁ㄴㅐㅇㅈㅓㅇ	-13785
▁ㄷㅏㄻㅇㅡㄴ	-13786
▁ㅅㅓㅇㄷㅗㅇ	-13787
▁ㅅㅣㅀㅇㅡㅁ	-13788
▁ㅇㅐㄱㅅㅕㄴ	-13789
▁ㅇㅟㅈㅜㄹㅗ	-13790
▁ㅈㅗㅇㅎㅏㅂ	-13791
ㅇㅓㅂㅗㅁㅕㄴ	-13792
▁ㄱㅣㄷㅐㄷㅚㅁ	-13793
▁ㄴㅐㄹㅣㄴㅡㄴ	-13794
▁ㅅㅣㄴㄴㅏㄱㅔ	-13795
▁ㅅㅣㄴㄹㅚㄱㅏ	-13796
▁ㅇㅓㄸㅓㄹㄲㅏ	-13797
▁ㅈㅐㅂㅓㄹㅇㅣ	-13798
ㄷㅏㄴㅡㄴㄱㅓㅅ	-13799
▁ㅇㅏㅍㅏㅌㅡㄱㅏ	-13800
▁ㅇㅣㄹㅡㅁㅁㅏㄴ	-13801
▁ㅈㅚㄱㅏㅄㅇㅡㄹ	-13802
ㅊㅓㅇㅁㅏㅇㅊㅓㅇ	-13803
▁ㄷㅐㅅㄱㅡㄹㅇㅡㄴ	-13804
▁ㅁㅏㅇㅡㅁㅇㅡㄹㅗ	-13805
▁ㅎㅏㄴㅡㄴㄱㅓㄷㅏ	-13806
ㅈㅓㄴㄱㅣㅇㅛㄱㅡㅁ	-13807
▁ㅁㅜㅇㅓㅅㅇㅣㄴㅈㅣ	-13808
▁ㅇㅣㅆㄷㅏㄴㅡㄴㄱㅔ	-13809
ㅇㅡㅇㅇㅝㄴㅎㅏㅂㄴㅣㄷㅏ	-13810
▁ㄱㅗㅇㅁㅜㅇㅝㄴㄷㅡㄹㅇㅣ	-13811
jtbc	-13812
▁ㅆㅑㅇ	-13813
ㅈㅏㄴㅑ	-13814
ㅡㅁㅇㅔ	-13815
watch	-13816
ㄱㅘㅇㅕㄴ	-13817
ㄱㅝㄴㅇㅔ	-13818
ㅁㅐㅇㅣㄹ	-13819
ㅁㅜㄴㅇㅔ	-13820
ㅌㅜㅇㅣㅂ	-13821
ㅎㅐㅂㅗㄴ	-13822
▁ㅁㅜㄴㅊㅔ	-13823
▁ㅅㅓㄴㅂㅐ	-13824
▁ㅈㅓㄱㅇㅓ	-13825
▁ㅈㅣㅂㅈㅜ	-13826
▁ㅌㅐㄱㅅㅣ	-13827
▁ㅍㅕㄴㅍㅏ	-13828
ㄴㅏㄴㅔㅇㅛ	-13829
ㅁㅜㄹㅇㅡㄴ	-13830
▁ㅇㅣㅂㄱㅡㅁ	-13831
▁ㅈㅏㄹㅍㅏㄹ	-13832
ㄱㅏㅌㅇㅡㄴㅣ	-13833
ㄱㅜㄱㄱㅏㄱㅏ	-13834
ㄷㅏㄴㅣㄲㅏㄴ	-13835
ㅂㅏㄹㅏㄴㄷㅏ	-13836
ㅈㅣㅇㅏㄶㅇㅏ	-13837
▁ㅁㅜㄷㅗㅊㅜㅇ	-13838
▁ㅇㅚㄱㅖㅇㅣㄴ	-13839
▁ㅇㅛㄱㅡㅁㅇㅣ	-13840
▁ㅁㅏㄹㄹㅏㄴㅡㄴ	-13841
▁ㅂㅏㄱㅈㅣㅇㅝㄴ	-13842
▁ㅅㅏㄹㅅㅜㅇㅣㅆ	-13843
▁ㅅㅏㅎㅚㅇㅔㅅㅓ	-13844
ㅎㅏㄹㅁㅏㄴㅎㅏㄴ	-13845
▁ㅎㅏㅂㅊㅏㅇㄷㅏㄴ	-13846
▁ㅇㅏㄴㅣㄹㅌㅔㄴㄷㅔ	-13847
▁ㅇㅣㄹㅂㅗㄴㄱㅣㅇㅓㅂ	-13848
▁ㅁㅣㄴㅈㅜㅈㅜㅇㅢㄹㅡㄹ	-13849
ㄶㅇㅏ	-13850
..!!	-13851
ㅊㅏㄱㅣ	-13852
▁ㄱㅒㄴㅔ	-13853
▁ㅅㅡㅌㅣ	-13854
▁ㅇㅗㅎㅜ	-13855
ㅇㅣㄱㅓㄹ	-13856
ㅜㅇㅊㅏㅇ	-13857
▁ㄴㅏㅈㅊㅜ	-13858
▁ㅂㅣㅆㅏㅁ	-13859
▁ㅇㅝㄹㅇㅛ	-13860
ㄷㅏㅇㅇㅡㄹ	-13861
▁ㄴㅏㄹㅡㅅㅑ	-13862
▁ㄴㅏㅇㅗㄴㅣ	-13863
▁ㄷㅗㅇㅁㅐㅇ	-13864
▁ㅂㅗㄱㅁㅕㄴ	-13865
▁ㅇㅏㄴㄱㅏㅁ	-13866
▁ㅇㅕㅇㄱㅏㅁ	-13867
▁ㅇㅣㄹㄷㅡㅇ	-13868
▁ㅇㅠㅎㅐㅈㅣㄴ	-13869
▁ㅁㅗㄱㅈㅓㄱㅇㅣ	-13870
▁ㅅㅏㅇㅅㅣㄱㅇㅣ	-13871
▁ㅇㅏㄴㅣㄴㅣㄲㅏ	-13872
▁ㅇㅣㄹㅊㅔㅎㅕㅇ	-13873
▁ㅈㅣㅂㄱㅜㅅㅓㄱ	-13874
▁ㅌㅜㄱㅎㅏㅁㅕㄴ	-13875
▁ㅈㅏㄹㅁㅗㅅㅇㅡㄴ	-13876
ㅎㅏㄴㅡㄴㄱㅓㅇㅣㅁ	-13877
▁ㄷㅗㄷㅜㄱㄴㅗㅁㄷㅡㄹ	-13878
▁ㄱㅜㄱㅁㅣㄴㅇㅕㄹㅓㅂㅜㄴ	-13879
ㅎㄱㅔ	-13880
ㄱㅗㅇㅘ	-13881
ㄴㅐㄹㅕ	-13882
ㅅㅗㅇㅠ	-13883
ㅇㅓㄹㅕ	-13884
ㅋㅏㅍㅔ	-13885
▁ㅂㅏㅈㅣ	-13886
▁ㅂㅗㄴㅏ	-13887
▁ㅈㅔㄹㅗ	-13888
ㄹㅕㄴㅗㅎ	-13889
ㅁㅕㅇㄷㅗ	-13890
ㅂㅗㄱㅇㅣ	-13891
ㅇㅕㄴㅕㄴ	-13892
ㅇㅡㄹㅈㅣ	-13893
ㅕㄹㅎㅏㄴ	-13894
ㅜㄹㅏㄷㅗ	-13895
▁ㄴㅏㄹㄹㅗ	-13896
▁ㄸㅓㄴㅡㄴ	-13897
▁ㅁㅗㅅㅂㅘ	-13898
▁ㅂㅣㄹㅇㅓ	-13899
▁ㅈㅏㅂㅎㅕ	-13900
▁ㅉㅓㄴㄷㅏ	-13901
▁ㅎㅎㅎㅎㅎ	-13902
ㅍㅏㄴㅇㅡㄹ	-13903
▁ㅁㅏㅅㅇㅣㅆ	-13904
▁ㅁㅜㄹㄹㅓㄱ	-13905
▁ㅇㅓㅂㅈㅗㅇ	-13906
ㄷㅐㅂㅜㅂㅜㄴ	-13907
ㅇㅣㅂㅓㄴㅇㅔ	-13908
▁ㄷㅏㅇㅡㅁㅈㅜ	-13909
▁ㅇㅏㅅㅟㅇㅜㅁ	-13910
ㅇㅣㄹㅅㅜㄹㅗㄱ	-13911
▁ㅂㅏㄷㄴㅡㄴㄱㅔ	-13912
▁ㅂㅏㄷㄴㅡㄴㄷㅔ	-13913
▁ㅈㅐㄱㅓㄴㅊㅜㄱ	-13914
▁ㅉㅏㅇㄱㅐㄷㅡㄹ	-13915
▁ㄱㅣㅁㄱㅜㄱㅈㅣㄴ	-13916
▁ㄴㅏㅇㅗㄴㅡㄴㄱㅔ	-13917
▁ㄷㅡㄹㅇㅓㄱㅏㄱㅗ	-13918
▁ㅇㅓㅄㅇㅓㅈㅣㄱㅗ	-13919
▁ㅇㅓㅉㅓㄹㅅㅜㅇㅓㅄㅇㅣ	-13920
▁ㅈㅏㅇㄱㅣㅈㅓㄱㅇㅡㄹㅗ	-13921
▁ㄷㅐㅌㅗㅇㄹㅕㅇㅇㅣㄹㅏㄱㅗ	-13922
DP	-13923
▁ㅈㅛ	-13924
ㅉㅣㅁ	-13925
▁ㅊㅜㄴ	-13926
ㅜㄹㅁㅕ	-13927
▁ㅇㅘㄹㅏ	-13928
▁ㅈㅗㅅㅔ	-13929
ㄱㅕㅇㅜㄹ	-13930
ㄹㅣㄷㅡㄹ	-13931
ㅂㅗㅇㅠㄱ	-13932
ㅂㅜㅈㅏㅇ	-13933
ㅂㅜㅍㅜㅁ	-13934
ㅈㅗㅇㅛㅇ	-13935
▁ㄱㅐㅌㅏㄴ	-13936
▁ㄱㅣㅇㅜㄹ	-13937
▁ㄸㅗㅇㄲㅗ	-13938
▁ㅂㅓㅂㅈㅗ	-13939
▁ㅇㅏㅇㅣㄹ	-13940
▁ㅎㅘㄱㅏㄴ	-13941
▁ㅠㅠㅠㅠㅠ	-13942
ㅊㅓㅇㄴㅕㄴ	-13943
▁ㄱㅕㄹㅁㅏㄹ	-13944
▁ㄷㅐㄱㅠㅁㅗ	-13945
▁ㄷㅡㄹㅇㅓㄴ	-13946
▁ㅁㅏㅇㅊㅕㄴ	-13947
▁ㅇㅓㅁㅈㅓㅇ	-13948
▁ㅈㅔㅈㅗㅅㅏ	-13949
▁ㅊㅜㄹㅇㅣㅂ	-13950
▁ㅎㅏㄹㅁㅓㄴ	-13951
ㅅㅏㅇㄷㅐㄹㅗ	-13952
▁ㄱㅡㄷㅏㅇㅅㅣ	-13953
▁ㄴㅏㄹㄹㅣㄱㅗ	-13954
▁ㅁㅏㄹㅎㅐㅅㅓ	-13955
▁ㅁㅜㄹㅣㅎㅏㄴ	-13956
▁ㅅㅏㄷㅡㄹㅡㄹ	-13957
ㄱㅗㅇㄱㅣㅇㅓㅂ	-13958
ㄷㅙㅆㄴㅡㄴㄷㅔ	-13959
▁ㄷㅗㄴㅂㅓㄹㅇㅓ	-13960
▁ㅇㅐㄱㅜㄱㅅㅣㅁ	-13961
▁ㅇㅓㅄㄱㅔㅆㅈㅣ	-13962
▁ㅈㅣㅇㅝㄴㄱㅡㅁ	-13963
ㅈㅣㅁㅏㄹㄹㅏㄱㅗ	-13964
▁ㅇㅙㄴㅁㅏㄴㅎㅏㄴ	-13965
▁ㅇㅕㄹㅗㄴㅁㅗㄹㅇㅣ	-13966
▁ㄱㅏㅈㅣㄱㅏㅈㅣㅎㅏㄴㄷㅏ	-13967
▁AS	-13968
ㄱㅜㄷ	-13969
ㅗㄱㅔ	-13970
▁ㅇㅑㄹ	-13971
▁ㅊㅏㅊ	-13972
ㄱㅖㅇㅢ	-13973
ㅅㅟㄱㅗ	-13974
ㅇㅓㄴㅡ	-13975
ㅎㅓㄱㅏ	-13976
▁ㅅㅗㅅㅜ	-13977
ㅇㅜㅁㅕㄴ	-13978
ㅈㅓㅁㄷㅗ	-13979
▁ㄴㅏㅂㅂㅜ	-13980
▁ㅁㅜㄹㅇㅔ	-13981
▁ㅊㅕㅂㅏㄱ	-13982
article	-13983
▁ㅁㅕㄹㅈㅗㅇ	-13984
▁ㅂㅗㄴㅓㅅㅡ	-13985
▁ㅃㅗㅂㅇㅡㄹ	-13986
▁ㅇㅣㄴㅅㅣㄴ	-13987
ㄷㅓㄱㅜㅁㅏㄴ	-13988
ㅎㅏㄹㄹㅏㄱㅗ	-13989
▁ㅂㅗㅇㅕㅈㅜㄹ	-13990
▁ㅅㅏㄹㅇㅏㄱㅏ	-13991
▁ㅅㅏㄹㅏㅁㄱㅘ	-13992
▁ㅇㅣㄱㅓㄴㅁㅝ	-13993
▁ㅁㅣㅅㅓㅇㄴㅕㄴ	-13994
▁ㅇㅏㅂㅓㅈㅣㄱㅏ	-13995
▁ㅇㅣㄹㄴㅕㄴㅇㅔ	-13996
▁ㄸㅐㅁㅜㄴㅇㅣㅈㅣ	-13997
▁ㅅㅏㅅㅣㄹㅇㅣㄷㅏ	-13998
▁ㅇㅣㄹㅓㄴㄷㅔㄷㅗ	-13999
▁ㅈㅣㄱㅡㅁㅇㅣㄴㅏ	-14000
▁ㅎㅐㅆㅇㅓㅇㅑㅈㅣ	-14001
ㅈㅜㅇㅅㅗㄱㅣㅇㅓㅂ	-14002
21	-14003
ㄸㅐㄱ	-14004
ㅆㅏㅁ	-14005
▁ㅊㅡㅇ	-14006
ㄱㅜㅇㅢ	-14007
ㄷㅐㄴㅏ	-14008
ㄷㅐㄷㅏ	-14009
▁ㅊㅕㄷㅗ	-14010
ㄱㅏㄴㅇㅢ	-14011
ㅇㅡㄴㅈㅣ	-14012
▁ㄷㅏㄹㅇㅏ	-14013
▁ㅁㅣㄹㄱㅗ	-14014
▁ㅇㅣㅀㄱㅗ	-14015
▁ㅎㅘㅇㅈㅔ	-14016
▁ㅎㅜㅂㅏㄴ	-14017
ㄷㅏㄴㅁㅏㄹ	-14018
ㄸㅏㅇㅟㄹㅗ	-14019
ㅂㅗㅈㅣㄷㅗ	-14020
ㅅㅣㅎㅏㄱㅗ	-14021
ㅇㅕㄹㅁㅕㄴ	-14022
ㅏㅇㅣㄷㅗㄹ	-14023
▁ㄱㅘㄴㄱㅗㅇ	-14024
▁ㄸㅗㅇㅁㅏㄴ	-14025
ㄱㅣㄴㅡㄴㄱㅔ	-14026
ㅈㅜㅇㅇㅣㄷㅏ	-14027
ㅎㅏㄹㄸㅐㄱㅏ	-14028
▁ㅁㅏㄹㅎㅏㅈㅣ	-14029
▁ㅇㅏㄴㄴㅏㅇㅘ	-14030
▁ㅇㅏㄴㅎㅐㅅㅓ	-14031
▁ㅍㅏㄴㅅㅏㄱㅏ	-14032
▁ㄴㅐㄹㅕㅇㅘㄹㅏ	-14033
▁ㄴㅓㄱㅏㅌㅇㅡㄴ	-14034
▁ㅅㅔㅁㅜㅈㅗㅅㅏ	-14035
ㄷㅏㄴㅡㄴㄱㅓㅈㅣ	-14036
▁ㅂㅜㄱㅎㅏㄴㅇㅡㄹ	-14037
▁ㅅㅣㄴㄷㅗㅇㅂㅣㄴ	-14038
▁ㅎㅏㄱㅔㅆㄷㅏㄱㅗ	-14039
▁ㅅㅗㅍㅡㅌㅡㅇㅞㅇㅓ	-14040
▁ㅌㅏㄴㅎㅐㄱㅂㅏㄴㄷㅐ	-14041
▁ㅅㅐㅇㄱㅏㄱㅎㅐㅂㅗㅁㅕㄴ	-14042
▁ㅇㅕㄴㅇㅖㅇㅣㄴㄷㅡㄹㅇㅡㄴ	-14043
▁ㄷㅏㅌ	-14044
▁ㅋㅜㅇ	-14045
ㅇㅏㅅㅟ	-14046
ㅌㅜㅅㅡ	-14047
▁ㅁㅐㅅㅜ	-14048
▁ㅊㅜㅋㅏ	-14049
ㄴㅏㄹㅇㅔ	-14050
ㅅㅓㄹㅊㅣ	-14051
ㅕㅇㅇㅡㄹ	-14052
▁ㄱㅠㅈㅓㅇ	-14053
▁ㄹㅔㅂㅔㄹ	-14054
▁ㅂㅜㄹㅋㅙ	-14055
▁ㅅㅜㄴㅡㅇ	-14056
ㄱㅏㄱㅈㅗㅇ	-14057
ㄲㅓㄹㅏㄱㅗ	-14058
ㅊㅓㅇㅇㅝㄴ	-14059
▁ㄱㅕㄹㅎㅏㅁ	-14060
▁ㄷㅗㄴㅈㅜㄹ	-14061
▁ㅈㅝㅇㅑㅈㅣ	-14062
▁ㅈㅣㄴㄷㅗㅇ	-14063
▁ㅈㅣㄴㅇㅕㅇ	-14064
▁ㅉㅗㄱㅉㅗㄱ	-14065
ㄲㅣㄷㅡㄹㅇㅏ	-14066
ㅇㅣㄴㄱㅓㄷㅏ	-14067
▁ㅍㅣㄹㅇㅛㄷㅗ	-14068
ㅎㅏㄴㄱㅓㄴㅈㅣ	-14069
▁ㅁㅏㄴㅇㅑㄱㅇㅔ	-14070
▁ㅁㅣㄱㅜㄱㅇㅡㄹ	-14071
▁ㅇㅣㄴㅁㅜㄹㅇㅣ	-14072
▁ㅈㅗㅎㄷㅓㄴㄷㅔ	-14073
▁ㅎㅢㅁㅏㅇㅇㅡㄹ	-14074
ㅈㅓㅇㄱㅝㄴㅇㅡㄴ	-14075
▁ㄱㅣㅁㅇㅡㄴㅅㅜㄱ	-14076
▁ㄲㅏㄹㄲㅡㅁㅎㅏㄱㅔ	-14077
▁ㅂㅏㄱㄱㅡㄴㅎㅖㄷㅗ	-14078
▁ㅎㅏㄹㄱㅓㅅㅇㅣㄷㅏ	-14079
▁ㄱㅜㄱㅁㅣㄴㅎㅏㄴㅌㅔ	-14080
▁ㅅㅏㅇㄱㅘㄴㅇㅓㅄㄷㅏ	-14081
ㄴㄷㅔ	-14082
ㅟㄱㅏ	-14083
▁60%	-14084
▁ㅌㅓㄴ	-14085
ㅂㅗㄹㅛ	-14086
ㅏㄴㄱㅓ	-14087
▁ㅂㅏㅇㅣ	-14088
ㄲㅡㄹㄱㅗ	-14089
ㅁㅕㄴㅈㅔ	-14090
ㅊㅕㅆㄷㅏ	-14091
▁ㄱㅘㅇㅣㅇ	-14092
▁ㅇㅓㅍㅡㄹ	-14093
▁ㅇㅣㅈㅈㅣ	-14094
ㄷㅗㄴㅂㅓㄹ	-14095
ㅇㅕㄴㅎㅏㄴ	-14096
ㅇㅕㅆㅇㅡㅁ	-14097
ㅇㅡㄹㄱㅓㅅ	-14098
ㅈㅣㄴㅇㅜㅇ	-14099
▁ㅁㅏㄱㅁㅏㄹ	-14100
▁ㅁㅝㄹㅏㄷㅗ	-14101
▁ㅁㅣㄴㅅㅣㅁ	-14102
▁ㅇㅛㄱㅁㅏㄴ	-14103
ㄱㅏㄱㅕㄱㅇㅔ	-14104
▁ㄷㅡㄹㅏㅁㅏㅇ	-14105
▁ㅈㅜㄷㅜㅇㅇㅣ	-14106
▁ㅎㅏㄴㅁㅏㄹㅣ	-14107
ㅅㅣㄱㅏㄴㅆㅣㄱ	-14108
ㅇㅣㅆㄷㅏㅁㅕㄴ	-14109
▁ㄷㅐㅅㅏㅇㅇㅡㄴ	-14110
▁ㄷㅗㄹㅇㅏㅇㅗㄹ	-14111
▁ㅇㅝㄹㄱㅡㅂㄷㅗ	-14112
▁ㅁㅏㅈㅅㅡㅂㄴㅣㄷㅏ	-14113
▁ㅂㅏㄴㅅㅓㅇㅎㅏㄱㅗ	-14114
▁ㅇㅏㄶㄴㅡㄴㄷㅏㄱㅗ	-14115
▁ㅍㅣㄹㅇㅛㅇㅓㅄㄴㅡㄴ	-14116
ㄱㅣㄴㅣ	-14117
ㄱㅣㅂㅜ	-14118
ㅗㄴㅇㅣ	-14119
▁6000	-14120
▁ㅁㅜㄹㅕ	-14121
▁ㅂㅜㄹㅕ	-14122
▁ㅇㅏㄲㅏ	-14123
ㄱㅏㄷㅗㅇ	-14124
ㅂㅗㅇㅏㄴ	-14125
ㅆㅣㄷㅡㄹ	-14126
ㅇㅗㄴㄷㅏ	-14127
ㅈㅗㄴㅈㅐ	-14128
ㅈㅣㅂㅏㅇ	-14129
ㅊㅏㄴㄷㅏ	-14130
▁ㄱㅏㅎㅗㄱ	-14131
▁ㄱㅗㅇㅈㅜ	-14132
▁ㄱㅣㅁㅎㅖ	-14133
▁ㅇㅏㄶㅈㅣ	-14134
▁ㅇㅕㄱㅅㅟ	-14135
▁ㅈㅓㄱㅡㅂ	-14136
▁ㅊㅓㅎㅕㅇ	-14137
▁ㅎㅏㄴㅎㅐ	-14138
ㄷㅏㄴㅔㅇㅛ	-14139
ㅇㅑㄱㅍㅜㅁ	-14140
ㅎㅏㅅㅣㅇㅗ	-14141
ㅔㅇㅣㅅㅕㄴ	-14142
▁ㄱㅏㅂㅘㄹㅏ	-14143
▁ㅌㅓㅁㅜㄴㅣ	-14144
▁ㅌㅣㅂㅣㅇㅔ	-14145
▁ㅎㅏㄴㅁㅜㄹ	-14146
ㅍㅡㄹㄹㅓㅅㅡ	-14147
▁ㄱㅐㄴㅕㅁㅇㅣ	-14148
▁ㄴㅏㄹㅏㅌㅏㅅ	-14149
▁ㅂㅓㅂㅈㅗㄱㅖ	-14150
▁ㅂㅗㄴㅇㅣㄴㄷㅗ	-14151
▁ㅅㅏㄹㅇㅏㄱㅏㄹ	-14152
▁ㅅㅣㄱㅁㅣㄴㅈㅣ	-14153
▁ㅇㅖㅈㅓㄴㅇㅔㄴ	-14154
▁ㅇㅣㄷㅡㄱㅇㅡㄹ	-14155
▁ㅎㅏㄴㅏㄹㅏㄷㅗ	-14156
ㅇㅗㄹㄹㅣㅁㅍㅣㄱ	-14157
▁ㅁㅗㄹㅡㅁㅕㄴㅅㅓ	-14158
▁ㅁㅗㄹㅡㅂㄴㅣㄷㅏ	-14159
▁ㅇㅣㄹㅐㄴㅗㅎㄱㅗ	-14160
ㅈㅏㄷㅡㄹㅎㅏㄴㅌㅔ	-14161
ㅎㅏㄴㄷㅏㄴㅡㄴㄷㅔ	-14162
▁ㅇㅗㅈㅜㄱㅎㅏㅁㅕㄴ	-14163
ㄱㅓㅅㄷㅗㅇㅏㄴㅣㄱㅗ	-14164
ㅅㅣㄱㅏㄴㄷㅗㅇㅇㅏㄴ	-14165
▁ㄱㅕㅇㅈㅔㅅㅓㅇㅈㅏㅇ	-14166
▁ㅁㅣㅊㅣㄴㄱㅓㅅㄷㅡㄹ	-14167
.9	-14168
ㅌㅙ	-14169
net	-14170
▁29	-14171
▁ㅆㅗㄷ	-14172
▁ㅋㅣㄹ	-14173
ㄸㅏㄹㅗ	-14174
ㅇㅠㅇㅢ	-14175
ㅍㅡㄱㅔ	-14176
ㅜㅅㅓㅇ	-14177
▁ㅇㅔㄱㅔ	-14178
▁ㄱㅏㅈㅡㅇ	-14179
▁ㄷㅏㅇㅏㄹ	-14180
▁ㅁㅏㄶㄴㅑ	-14181
▁ㅃㅏㅈㅣㄹ	-14182
▁ㅅㅡㅋㅐㄴ	-14183
▁ㅇㅓㅄㅇㅔ	-14184
▁ㅈㅏㅁㅅㅜ	-14185
▁ㅍㅕㄴㄹㅣ	-14186
▁ㅎㅡㄱㅈㅏ	-14187
ㅅㅡㅌㅡㄹㅗ	-14188
ㅇㅑㅇㅂㅏㄴ	-14189
ㅇㅣㄴㅏㄹㅏ	-14190
ㅎㅐㅇㅑㅈㅛ	-14191
▁ㄱㅗㅊㅕㅇㅑ	-14192
▁ㄱㅘㄴㅈㅗㅇ	-14193
▁ㄷㅡㄹㅌㅗㅇ	-14194
▁ㅇㅡㅇㄷㅏㅂ	-14195
▁ㅊㅓㅇㅊㅜㄴ	-14196
▁ㅊㅜㄹㄷㅗㅇ	-14197
▁ㅋㅣㅇㅜㄱㅗ	-14198
▁ㅇㅏㅅㅟㅂㄴㅔ	-14199
▁ㅇㅙㄴㅑㅁㅕㄴ	-14200
▁ㅇㅏㄴㅣㄴㄱㅓㅅ	-14201
▁ㅇㅏㅍㅇㅡㄹㅗㄴ	-14202
▁ㅇㅓㅄㄱㅜㅁㅏㄴ	-14203
▁ㅇㅓㄴㅈㅔㄴㄱㅏㄴ	-14204
▁ㅊㅗㄷㅡㅇㅎㅏㄱㄱㅛ	-14205
ㅎㅐㅆㅇㅡㄹㅌㅔㄴㄷㅔ	-14206
▁ㄷㅐㅅㄱㅡㄹㄷㅏㄴㅡㄴ	-14207
km	-14208
ㅎㅡㅁ	-14209
ㄱㅜㅇㅑ	-14210
ㄲㅏㄴㅏ	-14211
ㅇㅠㄷㅗ	-14212
ㅏㅁㅇㅣ	-14213
▁ㄷㅐㅁㅏ	-14214
▁ㅅㅏㅈㅜ	-14215
▁ㅇㅏㄲㅕ	-14216
▁ㅇㅗㄹㅠ	-14217
ㅂㅕㅇㅇㅔ	-14218
ㅇㅣㄴㅏㅁ	-14219
▁ㄱㅡㄴㅏㅁ	-14220
▁ㄴㅗㄹㄹㅐ	-14221
▁ㅂㅐㅅㅏㅇ	-14222
▁ㅃㅓㅇㅌㅟ	-14223
▁ㅎㅏㄴㄲㅣ	-14224
▁ㅎㅐㅅㅏㄴ	-14225
ㅂㅗㄹㅏㄱㅗ	-14226
ㅈㅣㄱㅇㅓㅂ	-14227
ㅎㅏㄴㅈㅣㄴ	-14228
▁ㄱㅏㅇㅊㅓㄹ	-14229
▁ㄲㅡㅌㅈㅏㅇ	-14230
▁ㄷㅏㅇㅣㅇㅓ	-14231
▁ㅁㅏㅈㅇㅡㄴ	-14232
▁ㅇㅏㄱㅇㅕㄱ	-14233
▁ㅈㅓㄴㅎㅕㄴ	-14234
▁ㄷㅐㄷㅏㄴㅎㅐ	-14235
▁ㄷㅐㅊㅐㄱㅇㅣ	-14236
▁ㄹㅏㅁㅣㄹㅏㄴ	-14237
▁ㅇㅛㄱㅎㅏㅈㅣ	-14238
▁ㅇㅣㅆㄷㅓㄹㅏ	-14239
▁ㅈㅐㅁㅣㅆㅇㅓ	-14240
▁ㅉㅣㄱㅅㅗㄹㅣ	-14241
▁ㅊㅗㅂㅏㄴㅇㅔ	-14242
▁ㄱㅝㄴㄹㅕㄱㅇㅔ	-14243
▁ㅅㅡㅌㅗㄹㅣㄱㅏ	-14244
ㅅㅣㅈㅏㅇㅇㅔㅅㅓ	-14245
▁ㄱㅡㅇㅑㅁㅏㄹㄹㅗ	-14246
▁ㅇㅓㄹㄱㅜㄹㅇㅡㄹ	-14247
▁ㅂㅏㅇㅅㅏㄴㅂㅣㄹㅣ	-14248
▁ㅇㅗㄹㄹㅏㄱㅏㄴㅡㄴ	-14249
▁ㅈㅓㄴㅈㅏㅈㅔㅍㅜㅁ	-14250
▁ㅈㅣㄱㅡㅅㅈㅣㄱㅡㅅ	-14251
▁ㅊㅐㄱㅇㅣㅁㅈㅣㄱㅗ	-14252
▁ㅍㅗㄱㅅㅡㅂㅏㄱㅔㄴ	-14253
▁ㅂㅏㄱㅂㅗㄱㅓㅁㅇㅡㄴ	-14254
ㅍㅓㅂ	-14255
▁ㅁㅔㄱ	-14256
ㅂㅗㄹㅏ	-14257
▁4000	-14258
▁ㅇㅠㅌㅜ	-14259
▁ㅊㅏㄱㅏ	-14260
ㄷㅏㅁㅏㄴ	-14261
ㄷㅡㅂㅐㄱ	-14262
ㅇㅕㄴㅇㅐ	-14263
ㅇㅣㄴㅊㅣ	-14264
ㅈㅚㄴㅡㄴ	-14265
ㅊㅜㄹㅡㄹ	-14266
ㅕㅇㅂㅜㄱ	-14267
ㅗㄹㅏㄷㅗ	-14268
ㅗㅎㅏㄱㅔ	-14269
ㅡㄴㅌㅐㄱ	-14270
▁ㄱㅏㅅㅡㅂ	-14271
▁ㄷㅏㅅㅓㅅ	-14272
▁ㅎㅏㅂㄹㅠ	-14273
ㄱㅏㄴㅈㅣㄹ	-14274
ㄱㅘㄴㅇㅡㄹ	-14275
ㄷㅡㄹㅈㅗㅁ	-14276
▁ㅂㅏㄴㅈㅓㄴ	-14277
▁ㅂㅐㄱㅇㅣㄴ	-14278
▁ㅆㅡㄹㅐㄱㅣ	-14279
▁ㅇㅜㅅㅇㅡㄹ	-14280
▁ㅈㅏㅂㅇㅡㄴ	-14281
▁ㄲㅡㅌㅇㅣㄷㅏ	-14282
▁ㄷㅚㄹㄱㅓㄷㅏ	-14283
▁ㅇㅗㄹㅐㄷㅚㄴ	-14284
▁ㅎㅏㄴㄱㅕㄹㅔ	-14285
▁ㅁㅜㅎㅏㄴㅅㅏㅇ	-14286
▁ㅇㅓㄴㄹㅗㄴㅅㅏ	-14287
▁ㅈㅣㅊㅏㅇㅇㅜㄱ	-14288
▁ㅈㅣㅋㅕㅂㅗㄱㅗ	-14289
▁ㄷㅐㄱㅣㅇㅓㅂㅇㅢ	-14290
▁ㅂㅗㅇㅣㅂㄴㅣㄷㅏ	-14291
▁ㄷㅐㅎㅏㄴㅎㅏㅇㄱㅗㅇ	-14292
7%	-14293
ㅂㅐㅅ	-14294
▁ㅂㅔㄹ	-14295
ㄷㅗㄴㅣ	-14296
ㅍㅏㅋㅡ	-14297
▁ㅅㅣㅂㅏ	-14298
▁ㅊㅟㅈㅐ	-14299
ㄷㅐㄴㄷㅏ	-14300
ㅂㅗㅅㅣㄴ	-14301
ㅅㅏㅇㅇㅟ	-14302
ㅎㅡㄹㄹㅕ	-14303
▁ㅇㅣㅂㅇㅣ	-14304
▁ㅈㅗㅇㅇㅣ	-14305
▁ㅎㅘㅎㅏㄱ	-14306
ㅁㅏㄴㅇㅑㄱ	-14307
ㅂㅏㄹㅅㅐㅇ	-14308
ㅅㅜㄹㅏㄱㅗ	-14309
ㅅㅣㄴㅂㅜㄴ	-14310
▁ㄷㅏㄹㅡㅈㅣ	-14311
▁ㄷㅗㅇㄱㅕㄹ	-14312
▁ㅂㅏㄴㅊㅏㄴ	-14313
▁ㅅㅓㄴㅊㅜㄹ	-14314
▁ㅅㅣㅍㅇㅡㄹ	-14315
▁ㅇㅕㄴㅇㅣㄴ	-14316
▁ㅈㅓㄴㅅㅓㅇ	-14317
▁ㅍㅖㅈㅣㄱㅏ	-14318
▁ㄱㅕㅇㅜㄹㅇㅔ	-14319
▁ㄷㅡㅇㅇㅡㄹㅗ	-14320
▁ㅅㅏㄱㅣㅇㅓㅂ	-14321
▁ㅇㅔㄹㅅㅣㅌㅣ	-14322
▁ㅈㅐㅁㅣㅆㄱㅗ	-14323
▁ㅈㅣㄷㅡㄹㄷㅗ	-14324
▁ㄱㅡㄹㅓㄱㅗㄷㅗ	-14325
▁ㅎㅐㄱㅕㄹㄷㅚㄹ	-14326
▁ㅈㅗㅎㅇㅡㄴㄱㅓㄴ	-14327
▁ㅁㅗㄱㅈㅓㄱㅇㅡㄹㅗ	-14328
ㄷㅏㄲ	-14329
▁ㄱㅣㅅ	-14330
ㄴㅡㄴㅑ	-14331
▁ㅅㅗㅇㅟ	-14332
ㄲㅜㄴㅡㄴ	-14333
ㅅㅣㄴㅇㅢ	-14334
ㅇㅡㅅㅣㄹ	-14335
ㅈㅗㅎㅏㅂ	-14336
ㅘㅆㅇㅡㅁ	-14337
▁ㄱㅐㅇㅜㅅ	-14338
▁ㄱㅓㄷㅈㅏ	-14339
▁ㄷㅗㄹㄱㅗ	-14340
▁ㅂㅜㅈㅏㅇ	-14341
▁ㅅㅓㄴㅎㅗ	-14342
▁ㅅㅣㄷㅏㄹ	-14343
▁ㅈㅐㅇㅏㅇ	-14344
▁ㅈㅓㄴㄱㅛ	-14345
ㄷㅏㅇㅎㅏㄹ	-14346
ㅌㅗㅇㅇㅡㄹ	-14347
▁ㅁㅕㅊㅊㅓㄴ	-14348
▁ㅇㅣㅇㅠㄷㅗ	-14349
▁ㅈㅓㄱㅈㅓㅇ	-14350
▁ㅈㅓㄴㅇㅐㄱ	-14351
▁ㅍㅕㄴㅇㅏㄴ	-14352
ㄱㅗㅅㅇㅡㄹㅗ	-14353
ㄷㅓㄴㅣㅁㅏㄴ	-14354
ㅈㅏㅊㅔㄹㅡㄹ	-14355
▁ㅇㅒㄱㅣㄹㅡㄹ	-14356
▁ㅇㅕㄹㅗㄴㅇㅣ	-14357
▁ㅇㅗㄹㄹㅕㄷㅗ	-14358
▁ㄱㅗㅇㅈㅜㅇㅍㅏ	-14359
▁ㄱㅝㄴㄹㅕㄱㅇㅢ	-14360
▁ㅈㅓㄹㄷㅐㅇㅏㄴ	-14361
▁ㅂㅜㄹㅂㅓㅂㅇㅡㄹㅗ	-14362
▁ㅎㅓㄱㅜㅎㅓㄴㄴㅏㄹ	-14363
▁ㄱㅜㅅㅗㄱㅇㅕㅇㅈㅏㅇ	-14364
▁ㅁㅏㄴㄷㅡㄹㅇㅓㅆㄷㅏ	-14365
▁ㅂㅡㄹㄹㅐㄱㅋㅓㄴㅅㅠ	-14366
ㅝㄷㅗ	-14367
ㅏㄴㄹㅣ	-14368
▁ㄱㅓㅈㅔ	-14369
▁ㅇㅓㄲㅐ	-14370
▁ㄱㅘㄱㅏㅁ	-14371
▁ㅈㅗㅇㅑㅇ	-14372
▁ㄴㅗㄹㄹㅏㅇ	-14373
▁ㅂㅣㅆㅏㄷㅗ	-14374
▁ㅌㅡㄹㄹㅣㅁ	-14375
ㅁㅏㅈㅣㅁㅏㄱ	-14376
ㅈㅣㅇㅏㄶㄴㅑ	-14377
▁ㄱㅔㅇㅣㅁㅇㅔ	-14378
▁ㄱㅗㅁㅏㅂㄷㅏ	-14379
▁ㅁㅏㅇㅎㅐㅅㅓ	-14380
▁ㅈㅣㄱㅜㄹㅡㄹ	-14381
ㅅㅕㅆㅇㅡㅁㅕㄴ	-14382
ㅇㅏㄴㅎㅏㄴㄷㅏ	-14383
▁ㅁㅜㄷㅗㅇㅔㅅㅓ	-14384
▁ㅂㅏㄺㅎㅣㄴㅡㄴ	-14385
▁ㅂㅗㄴㅈㅓㄱㅇㅣ	-14386
▁ㅊㅗㅅㅂㅜㄹㅇㅣ	-14387
▁ㅂㅏㄱㅌㅗㅇㅇㅡㄴ	-14388
▁ㄷㅐㄱㅣㅇㅓㅂㅇㅡㄹ	-14389
▁ㅅㅐㅇㄱㅏㄱㅎㅏㄴㅑ	-14390
▁ㅎㅏㄱㅔㅆㅈㅣㅁㅏㄴ	-14391
▁ㄱㅣㄷㅐㅎㅏㄹㄱㅔㅇㅛ	-14392
▁ㅅㅏㄹㅇㅏㅇㅣㅆㄴㅡㄴ	-14393
ㅇㅗㅁ	-14394
ㅕㄱㅜ	-14395
ㅅㅔㅍㅗ	-14396
▁ㅁㅣㄹㅡ	-14397
▁ㅇㅏㅂㅜ	-14398
ㅂㅏㄹㄹㅗ	-14399
ㅏㅁㅏㄷㅏ	-14400
▁ㄱㅡㅉㅗㄱ	-14401
▁ㄷㅐㅂㅜㄱ	-14402
▁ㅇㅠㅅㅏㅇ	-14403
▁ㅈㅓㄴㅅㅣ	-14404
▁ㅎㅔㄹㅈㅟ	-14405
ㄲㅗㄹㅏㅈㅣ	-14406
ㅃㅜㄴㅇㅣㄴ	-14407
ㅊㅏㄴㅅㅓㅇ	-14408
ㅋㅔㅅㅁㅗㄴ	-14409
ㅌㅡㄱㅈㅣㅂ	-14410
ㅎㅏㄴㅈㅏㄴ	-14411
▁ㄱㅡㄴㅔㅇㅑ	-14412
▁ㅁㅏㅇㅊㅣㄴ	-14413
▁ㅇㅛㅇㅇㅕㄱ	-14414
▁ㅇㅣㄴㅇㅕㄴ	-14415
▁ㅈㅓㄹㅁㅏㅇ	-14416
▁ㅈㅜㄹㅈㅜㄹ	-14417
▁ㅎㅐㅁㅏㄷㅏ	-14418
ㅇㅓㄴㅐㄴㅡㄴ	-14419
▁ㄱㅐㄱㅓㅍㅜㅁ	-14420
▁ㄴㅏㅁㅇㅏㄷㅗ	-14421
▁ㅅㅗㄴㅇㅡㄹㅗ	-14422
▁ㅇㅏㅅㅣㄴㅡㄴ	-14423
ㄷㅏㅁㅂㅐㄱㅏㅄ	-14424
ㅂㅐㄱㅎㅘㅈㅓㅁ	-14425
ㅅㅣㄱㅏㄴㅇㅡㄴ	-14426
ㅍㅣㄹㅇㅛㅎㅏㄴ	-14427
▁ㄷㅗㄹㄹㅣㄴㅡㄴ	-14428
▁ㅇㅛㄱㅡㅁㅇㅡㄹ	-14429
▁ㅇㅣㄹㅇㅣㄴㄷㅔ	-14430
▁ㅈㅗㅎㄷㅏㄴㅡㄴ	-14431
▁ㅎㅕㄹㅅㅔㄹㅡㄹ	-14432
ㅅㅓㄴㅈㅣㄴㄱㅜㄱ	-14433
ㅈㅜㅇㄱㅗㅇㅇㅓㅂ	-14434
▁ㅂㅜㄴㅇㅑㅇㄱㅝㄴ	-14435
▁ㅅㅏㅁㄱㅕㅂㅅㅏㄹ	-14436
▁ㅇㅓㄴㄹㅗㄴㄷㅡㄹ	-14437
▁ㅇㅣㄹㅂㅗㄴㅇㅣㄴ	-14438
ㅇㅓㅆㅇㅡㄹㅌㅔㄴㄷㅔ	-14439
▁ㅂㅜㄲㅡㄹㅓㅇㅜㄴㅈㅜㄹ	-14440
ㄷㅐㅁ	-14441
ㅇㅇㅣ	-14442
ㅇㅘㄹ	-14443
ㄲㅏㄹㅣ	-14444
ㄷㅐㅁㅜㄴ	-14445
ㅇㅣㅁㅕㅇ	-14446
ㅉㅣㄱㅇㅓ	-14447
ㅎㅚㄴㅡㄴ	-14448
▁ㄱㅗㄷㅣㅇ	-14449
▁ㄸㅓㄹㄱㅗ	-14450
▁ㅁㅐㅁㅂㅓ	-14451
▁ㅁㅜㄴㅈㅚ	-14452
▁ㅇㅠㅎㅏㄱ	-14453
▁ㅁㅣㄴㄱㅏㅁ	-14454
▁ㅅㅏㅇㅅㅣㄹ	-14455
▁ㅈㅏㄱㅈㅓㅇ	-14456
ㅎㅏㄱㅗㅇㅣㅆ	-14457
ㅎㅐㅇㅑㄷㅚㅁ	-14458
▁ㄱㅡㅂㅎㅏㄱㅔ	-14459
▁ㄱㅡㅈㅓㄴㅇㅔ	-14460
▁ㄷㅗㄴㅇㅣㄴㅏ	-14461
▁ㅃㅜㄴㅇㅣㅈㅣ	-14462
▁ㅇㅓㄷㅣㅆㄴㅑ	-14463
▁ㅈㅏㄹㅎㅏㄴㅔ	-14464
▁ㄱㅜㄱㅎㅚㄴㅡㄴ	-14465
▁ㅂㅜㄱㅎㅏㄴㅇㅢ	-14466
▁ㅇㅡㄴㅎㅐㅇㅇㅔ	-14467
▁ㅊㅜㅇㅏㄱㅎㅏㄴ	-14468
ㅅㅏㅁㅅㅓㅇㅇㅡㄴ	-14469
▁ㅇㅣㅆㅇㅓㅆㅇㅡㅁ	-14470
▁ㅎㅏㄴㅡㄴㄱㅓㄴㅑ	-14471
▁ㅎㅓㅇㅟㅅㅏㅅㅣㄹ	-14472
▁ㄱㅜㄱㄱㅏㄱㅕㅇㅈㅔ	-14473
▁ㄱㅡㄷㅡㄹㅁㅏㄴㅇㅢ	-14474
▁ㄷㅚㅇㅓㅆㅇㅡㅁㅕㄴ	-14475
▁ㅁㅗㄹㅡㄱㅔㅆㅇㅡㅁ	-14476
ㅅㅓㅁㅣㄴㄷㅡㄹㅇㅡㄴ	-14477
▁ㅇㅜㅁㅈㅣㄱㅇㅣㄴㅡㄴ	-14478
▁ㅇㅣㄹㅂㅏㄴㅇㅣㄴㅇㅣ	-14479
ig	-14480
ㄷㅏㅎ	-14481
▁ㅋㅐㅁ	-14482
ㅂㅗㅇㅏ	-14483
ㅣㄴㅡㅇ	-14484
▁ㄲㅡㄱㅗ	-14485
▁ㄷㅚㄱㅣ	-14486
▁ㅅㅣㅅㅔ	-14487
▁ㅆㅡㄱㅣ	-14488
ㄹㅗㅂㅗㅅ	-14489
ㅈㅣㄱㅣㄹ	-14490
ㅊㅓㄴㅡㄴ	-14491
▁ㄱㅓㄹㅅㅡ	-14492
▁ㄴㅜㄹㄹㅓ	-14493
▁ㅇㅐㅇㅛㅇ	-14494
ㅅㅗㄹㅣㅇㅑ	-14495
ㅆㅓㄱㅇㅡㄴ	-14496
▁ㄲㅡㅌㅇㅡㄹ	-14497
▁ㅂㅏㅂㅗㄱㅏ	-14498
▁ㅇㅏㄲㅣㄱㅗ	-14499
▁ㅈㅔㅈㅏㄹㅣ	-14500
▁ㅈㅣㄱㅜㄱㅏ	-14501
▁ㅈㅣㅋㅕㅇㅑ	-14502
▁ㅎㅓㅅㅅㅗㄹ	-14503
▁ㄱㅏㅇㅜㄴㄷㅔ	-14504
▁ㄲㅗㅇㅜㅁㅕㄴ	-14505
▁ㅇㅒㄱㅣㄴㅡㄴ	-14506
▁ㄴㅏㄹㄱㅏㅇㄷㅗ	-14507
▁ㅅㅓㅁㅣㄴㅁㅏㄴ	-14508
▁ㅇㅡㄴㅎㅐㅇㅇㅣ	-14509
▁ㅎㅡㅈㅣㅂㅜㅈㅣ	-14510
▁ㅂㅜㄹㅍㅕㄴㅎㅏㄴ	-14511
▁ㅅㅣㄴㄷㅗㅇㅇㅕㅂ	-14512
▁ㅎㅐㅆㅅㅡㅂㄴㅣㄷㅏ	-14513
▁ㄱㅗㅇㅈㅜㅇㅂㅜㄴㅎㅐ	-14514
ㅁㅏㅌ	-14515
ㅋㅣㄱ	-14516
▁ㅉㅣㅇ	-14517
ㄱㅏㅅㅡ	-14518
ㅇㅓㅎㅠ	-14519
ㅎㅘㄷㅗ	-14520
▁ㅇㅐㅁㅣ	-14521
ㅈㅕㅆㅇㅓ	-14522
ㅎㅏㄴㅊㅐ	-14523
ㅎㅗㅌㅔㄹ	-14524
▁ㄱㅏㅇㅘㅇ	-14525
▁ㅁㅗㅇㅣㅁ	-14526
▁ㅅㅓㄱㅂㅏㅇ	-14527
▁ㅇㅑㄱㅎㅏㄴ	-14528
▁ㅇㅗㅍㅣㅅㅡ	-14529
▁ㅇㅙㅈㅏㄲㅜ	-14530
▁ㅎㅕㅇㄷㅗㄴ	-14531
ㅇㅣㅇㅕㅆㄷㅏ	-14532
▁ㄱㅓㄹㄹㅕㅅㅓ	-14533
▁ㅁㅏㅇㅊㅣㄱㅗ	-14534
▁ㅁㅕㅊㅇㅣㄴㅏ	-14535
ㅈㅏㅇㅕㅇㅇㅓㅂ	-14536
▁ㅁㅏㄶㅇㅣㄷㅡㄹ	-14537
▁ㅅㅏㄹㅏㅈㅕㅇㅑ	-14538
ㅎㅏㅈㅣㅇㅏㄶㄱㅗ	-14539
▁ㄱㅖㅅㅗㄱㅎㅐㅅㅓ	-14540
▁ㅁㅗㄱㅅㅗㄹㅣㄱㅏ	-14541
▁ㅇㅣㅇㅛㅇㅎㅏㄴㅡㄴ	-14542
▁ㅌㅜㄱㅣㄲㅜㄴㄷㅡㄹ	-14543
▁ㅉㅐ	-14544
ㄱㅓㅇㅘ	-14545
ㄱㅘㅈㅏ	-14546
ㅅㅗㅎㅘ	-14547
ㅇㅓㅇㅕ	-14548
ㅋㅡㄹㅗ	-14549
▁ㄴㅜㄹㅣ	-14550
▁ㅁㅜㅎㅛ	-14551
▁ㅅㅡㅋㅏ	-14552
ㄷㅐㅈㅓㄴ	-14553
ㄷㅓㄴㄱㅔ	-14554
ㅇㅐㄱㅜㄱ	-14555
ㅌㅚㅈㅣㄱ	-14556
ㅍㅗㄴㄷㅗ	-14557
▁ㅁㅗㅇㅛㄱ	-14558
▁ㅂㅏㄹㄹㅏ	-14559
▁ㅇㅑㅇㄷㅗ	-14560
▁ㅎㅗㄴㅇㅣ	-14561
ㅅㅏㄹㄹㅣㅁ	-14562
ㅈㅣㅇㅜㅈㅣ	-14563
ㅗㅅㅓㄴㅡㄴ	-14564
▁ㄷㅚㄴㅏㅇㅛ	-14565
▁ㅅㅣㄱㅣㅇㅔ	-14566
▁ㅈㅓㄱㅅㅐㄱ	-14567
ㅂㅜㄹㅣㄴㅡㄴ	-14568
▁ㄱㅓㅅㅂㅗㄷㅏ	-14569
▁ㅁㅜㄴㅈㅔㄴㅑ	-14570
▁ㅇㅓㄹㅣㄴㅇㅣ	-14571
ㅎㅣㅁㄷㅡㄹㄷㅏ	-14572
▁ㄱㅗㅇㅎㅘㄱㅜㄱ	-14573
▁ㅅㅣㄹㅇㅓㅂㅈㅏ	-14574
▁ㅎㅕㄹㅇㅏㄴㅇㅣ	-14575
▁ㅂㅜㄹㄱㅗㅇㅈㅓㅇ	-14576
▁ㅇㅘㄴㅂㅕㄱㅎㅏㄴ	-14577
▁ㅂㅏㅇㅂㅓㅂㅇㅡㄹㅗ	-14578
▁ㅇㅜㄹㅣㅈㅣㅂㅇㅡㄴ	-14579
26	-14580
35	-14581
ho	-14582
ta	-14583
400	-14584
ㅗㄴㅔ	-14585
▁ㅇㅠㅇ	-14586
ㄹㅏㄱㅜ	-14587
ㅂㅆㅡㄹ	-14588
ㅅㅏㅇㅛ	-14589
ㅓㅂㅓㄴ	-14590
▁ㄱㅐㄷㅗ	-14591
ㄱㅗㄹㅡㄹ	-14592
ㄱㅜㅇㅝㄴ	-14593
ㄱㅡㄹㅣㅁ	-14594
ㅇㅓㄴㅐㄹ	-14595
ㅊㅔㅈㅓㄱ	-14596
ㅎㅐㅅㄷㅏ	-14597
ㅗㅅㅓㅇㅢ	-14598
▁ㄷㅡㅇㅇㅢ	-14599
▁ㅂㅕㄴㄱㅣ	-14600
▁ㅂㅘㅈㅜㄹ	-14601
▁ㅈㅏㅁㅈㅐ	-14602
▁ㅈㅗㅅㅏㅁ	-14603
ㅂㅘㅆㅇㅡㅁ	-14604
ㅇㅗㄹㄹㅣㄹ	-14605
ㅇㅣㄴㅑㄱㅗ	-14606
ㅏㄴㅎㅏㄱㅗ	-14607
▁ㅂㅗㅇㅕㅈㅝ	-14608
▁ㅂㅗㅈㅣㄷㅗ	-14609
▁ㅇㅠㄴㅅㅓㄴ	-14610
▁ㅈㅓㄴㅇㅕㄱ	-14611
▁ㅊㅣㄴㅈㅓㄹ	-14612
▁ㅌㅏㄴㅌㅏㄴ	-14613
▁ㅎㅏㄴㅇㅡㄴ	-14614
ㄴㅕㄴㄷㅗㅇㅔ	-14615
ㄷㅗㄹㅇㅏㄱㅏ	-14616
▁ㄱㅓㄹㅣㄴㅡㄴ	-14617
▁ㄷㅐㄹㅣㅈㅓㅁ	-14618
▁ㅇㅏㄹㅈㅣㄷㅗ	-14619
▁ㅇㅟㅎㅏㄴㅡㄴ	-14620
ㅎㅐㅆㄱㅜㅁㅏㄴ	-14621
▁ㅁㅏㄶㄷㅓㄴㄷㅔ	-14622
▁ㅇㅏㄶㅇㅡㄴㄱㅏ	-14623
▁ㅇㅣㅁㅅㅣㄱㅗㅇ	-14624
▁ㅇㅣㅆㄱㅜㅁㅏㄴ	-14625
▁ㅈㅏㄹㄷㅚㄴㅡㄴ	-14626
▁ㅂㅏㅇㅅㅗㅇㅇㅡㄹ	-14627
▁ㅅㅏㄹㅇㅏㅇㅑㅈㅣ	-14628
▁ㅇㅏㄴㄷㅚㄴㅡㄴㄱㅔ	-14629
▁ㅅㅣㅍㅇㅓㅆㄴㅡㄴㄷㅔ	-14630
▁ㅅㅓㅁㅣㄴㄷㅡㄹㅇㅔㄱㅔ	-14631
..............	-14632
45	-14633
▁ㅅㅔㅁ	-14634
ㄱㅛㄱㅘ	-14635
ㅌㅜㄹㅣ	-14636
▁ㅇㅒㄷㅗ	-14637
ㄷㅡㄹㅣㄹ	-14638
ㅇㅗㄹㄹㅣ	-14639
▁ㄴㅏㄲㅅㅣ	-14640
▁ㄴㅗㅅㅜㄱ	-14641
▁ㄴㅜㄹㅣㄹ	-14642
▁ㄷㅐㄹㅠㄱ	-14643
▁ㄷㅟㅈㅣㄹ	-14644
▁ㅇㅒㄱㅣㄴ	-14645
ㅂㅕㅇㅅㅣㄴ	-14646
ㅈㅓㄴㅎㅘㄴ	-14647
ㅎㅏㄹㅇㅣㄹ	-14648
▁ㄴㅏㄱㅏㅇㅑ	-14649
▁ㅅㅐㅇㄱㅣㅁ	-14650
▁ㅈㅡㅇㄱㅝㄴ	-14651
▁ㅌㅔㅅㅡㅌㅡ	-14652
ㅅㅔㄹㅕㄱㅇㅣ	-14653
ㅅㅔㅅㅏㅇㅇㅣ	-14654
ㅕㅆㄷㅏㅁㅕㄴ	-14655
▁ㄱㅗㄷㅡㅇㅇㅓ	-14656
▁ㄱㅗㄹㄹㅏㅅㅓ	-14657
▁ㅁㅗㅅㅎㅏㄴㅏ	-14658
▁ㅁㅗㅈㅏㄹㅏㄴ	-14659
▁ㅂㅏㄹㅏㅁㅇㅔ	-14660
▁ㅂㅗㄱㅣㅇㅔㄴ	-14661
▁ㅈㅏㄹㅣㄹㅡㄹ	-14662
ㅇㅏㄴㄷㅚㅁㅕㄴ	-14663
▁ㄱㅖㅇㅑㄱㅈㅣㄱ	-14664
▁ㄱㅣㄹㅔㄱㅣㅇㅑ	-14665
▁ㅁㅓㄱㄴㅡㄴㄱㅔ	-14666
▁ㅎㅗㅈㅜㅁㅓㄴㅣ	-14667
▁ㅊㅓㅇㅡㅁㅇㅡㄹㅗ	-14668
ㅈㅗㅎㅇㅏㅎㅏㄴㅡㄴ	-14669
▁ㅊㅓㅇㅇㅘㄷㅐㄴㅡㄴ	-14670
▁ㅈㅓㄻㅇㅡㄴㅇㅣㄷㅡㄹ	-14671
ㅋㅋㅋㅋㅋㅋㅋㅋㅋㅋㅋㅋㅋㅋ	-14672
).	-14673
ㄱㅜㄹㅏ	-14674
ㄱㅡㅈㅔ	-14675
ㅣㄱㅅㅡ	-14676
▁ㄴㅏㅈㅣ	-14677
▁ㅌㅏㄱㅔ	-14678
ㄱㅛㅌㅗㅇ	-14679
ㄷㅣㄴㅡㄴ	-14680
ㅁㅔㄷㅏㄹ	-14681
▁ㄱㅘㄴㅅㅔ	-14682
▁ㅇㅏㄷㅏㄱ	-14683
ㅅㅐㅇㅇㅡㄹ	-14684
ㅇㅏㅈㅜㄱㅗ	-14685
ㅎㅕㅂㅂㅏㄱ	-14686
▁ㅃㅗㅂㄴㅡㄴ	-14687
▁ㅅㅣㄹㅣㅈㅡ	-14688
▁ㅇㅓㄷㅇㅡㄴ	-14689
ㄱㅓㅇㅓㅄㅇㅣ	-14690
ㄷㅡㅅㅎㅏㄷㅏ	-14691
ㅇㅏㅆㅇㅓㅇㅛ	-14692
ㅈㅓㄴㄱㅣㄹㅛ	-14693
ㅎㅏㅈㅏㅁㅕㄴ	-14694
▁ㄴㅓㅎㅇㅓㄹㅏ	-14695
▁ㅅㅗㄹㅣㅁㅏㄴ	-14696
▁ㅅㅜㅇㅣㅂㅇㅣ	-14697
▁ㅇㅏㄴㅇㅔㅅㅓ	-14698
▁ㅇㅜㅇㅕㄴㅎㅣ	-14699
▁ㅁㅏㅈㅂㅓㄹㅇㅣ	-14700
▁ㅍㅏㄴㅁㅐㄹㅑㅇ	-14701
▁ㅎㅕㄴㅅㅣㄹㅇㅔ	-14702
▁ㅅㅜㅈㅜㄴㅇㅣㄷㅏ	-14703
▁ㅇㅟㅎㅐㅅㅓㄴㅡㄴ	-14704
▁ㅆㅡㄹㅔㄱㅣㄷㅡㄹㅇㅣ	-14705
▁ㅈㅓㅇㅅㅏㅇㅈㅓㄱㅇㅡㄹㅗ	-14706
ㅉㅓㅂ	-14707
ㄱㅡㅈㅓ	-14708
ㅊㅣㅈㅏ	-14709
ㅣㅇㅏㄹ	-14710
▁ㄱㅛㅁㅛ	-14711
▁ㅇㅖㅂㅣ	-14712
ㅁㅏㅇㅣㄴ	-14713
ㅅㅣㄹㅍㅐ	-14714
ㅎㅐㅁㅓㄱ	-14715
▁ㄱㅐㅋㅗㄴ	-14716
▁ㄱㅐㅎㅓㄴ	-14717
▁ㅂㅣㅊㅏㅁ	-14718
▁ㅇㅕㅌㅡㄴ	-14719
▁ㅇㅘㅇㄸㅏ	-14720
▁ㅈㅏㄹㅏㄴ	-14721
▁ㅈㅗㅇㄹㅠ	-14722
ㅂㅜㅇㅔㅅㅓ	-14723
▁ㄱㅣㄴㄱㅡㅂ	-14724
▁ㅅㅐㅇㄱㅕㄴ	-14725
▁ㅇㅏㅍㅡㄷㅏ	-14726
▁ㅇㅓㅁㅈㅜㅇ	-14727
▁ㅈㅓㅇㅍㅜㅁ	-14728
▁ㅈㅜㅇㄷㅗㅇ	-14729
▁ㅎㅏㅈㅏㄱㅗ	-14730
ㅁㅏㄴㅎㅏㅈㅣ	-14731
ㅅㅗㄴㅇㅡㄹㅗ	-14732
▁ㅇㅣㄸㅏㄴㄱㅓ	-14733
▁ㄱㅡㅁㄹㅣㄹㅡㄹ	-14734
▁ㄱㅣㅁㅈㅣㄴㅌㅐ	-14735
▁ㄷㅏㅇㄷㅏㅇㅎㅣ	-14736
▁ㅂㅏㄺㅎㅕㅈㅣㄴ	-14737
▁ㅇㅏㄴㅁㅓㄱㅇㅓ	-14738
▁ㅇㅣㄹㅐㅈㅓㄹㅐ	-14739
▁ㅎㅚㅈㅏㅇㄴㅣㅁ	-14740
▁ㄷㅐㄷㅏㄴㅎㅏㄴㅔ	-14741
▁ㅁㅗㄱㅅㅜㅁㅇㅡㄹ	-14742
▁ㅅㅏㄱㅗㄴㅏㅁㅕㄴ	-14743
▁ㅅㅏㅇㅌㅐㅇㅔㅅㅓ	-14744
▁ㅅㅓㅇㅜㄹㅇㅔㅅㅓ	-14745
▁ㅂㅜㅈㅏㄷㅡㄹㅇㅡㄴ	-14746
▁ㅇㅘㅆㄷㅏㄱㅏㅆㄷㅏ	-14747
▁ㄱㅙㄴㅊㅏㄶㅇㅡㄴㄷㅔ	-14748
▁ㅊㅓㅇㅁㅜㄴㅎㅚㅇㅔㅅㅓ	-14749
▁ㅍㅣㄹㅇㅛㅎㅏㅂㄴㅣㄷㅏ	-14750
▁ㅅㅏㄹㅏㅁㄷㅡㄹㅎㅏㄴㅌㅔ	-14751
~6	-14752
ㅗㅇㅕ	-14753
▁ㅆㅡㅇ	-14754
ㅍㅏㄱㅚ	-14755
ㅓㄴㅇㅣ	-14756
ㅕㄴㄷㅏ	-14757
▁ㅈㅔㄱㅣ	-14758
▁ㅊㅚㅇㅕ	-14759
ㄱㅓㄹㅣㄹ	-14760
ㅇㅣㄱㅣㄹ	-14761
▁ㅇㅗㅇㅕㄴ	-14762
▁ㅇㅣㅁㅕㄴ	-14763
▁ㅈㅔㅇㅑㄱ	-14764
▁ㅊㅓㄹㄱㅓ	-14765
▁ㅊㅜㄱㄱㅜ	-14766
▁ㅎㅘㄹㅕㄱ	-14767
ㅅㅣㄱㅜㅇㅛ	-14768
ㅎㅐㅇㅅㅓㅇ	-14769
▁ㄱㅏㅈㅕㄱㅏ	-14770
▁ㄸㅡㅅㅇㅡㄹ	-14771
▁ㅇㅕㄱㅍㅜㅇ	-14772
▁ㅊㅏㄹㅣㄱㅗ	-14773
▁ㅎㅏㄹㅈㅣㅅ	-14774
▁ㄱㅣㅁㅊㅣㄴㅕ	-14775
▁ㄴㅠㅅㅡㄹㅡㄹ	-14776
▁ㄷㅚㅈㅣㅁㅏㄴ	-14777
▁ㅇㅣㄹㅡㅁㄷㅗ	-14778
▁ㅈㅜㅇㅇㅔㅅㅓ	-14779
▁ㅅㅏㅇㅇㅛㅇㅎㅘ	-14780
▁ㅇㅕㄱㅅㅏㄴㅡㄴ	-14781
▁ㅊㅣㄹㅍㅜㄴㅇㅣ	-14782
▁ㅎㅏㄴㅡㄴㄱㅓㄹ	-14783
ㅇㅣㄹㅏㅁㅕㄴㅅㅓ	-14784
ㅊㅏㅇㅝㄴㅇㅔㅅㅓ	-14785
▁ㄱㅛㅌㅗㅇㅅㅏㄱㅗ	-14786
▁ㄴㅡㄲㅕㅈㅣㄴㄷㅏ	-14787
▁ㅃㅏㅈㅕㄴㅏㄱㅏㄹ	-14788
ㅈㅣㅇㅏㄶㅇㅡㄹㄲㅏ	-14789
ㄴㅏㅌ	-14790
▁ㄷㅗㅂ	-14791
ㄷㅡㄴㅑ	-14792
ㄸㅜㄱㅣ	-14793
ㅅㅔㅇㅝ	-14794
ㅅㅜㅂㅐ	-14795
ㅍㅣㅇㅏ	-14796
ㅗㅅㅣㄴ	-14797
▁ㄷㅏㅋㅠ	-14798
▁ㄸㅢㅇㅝ	-14799
ㄱㅏㅁㅏㅇ	-14800
▁ㄱㅘㄴㅇㅕ	-14801
▁ㅁㅜㄹㅇㅣ	-14802
▁ㅇㅠㅎㅡㅇ	-14803
▁ㅇㅣㅂㄷㅐ	-14804
ㅅㅏㅇㄹㅠㄱ	-14805
▁ㄲㅏㅁㄴㅗㄹ	-14806
▁ㄴㅏㄱㅏㄹㅏ	-14807
▁ㅅㅏㄹㅇㅏㅇ	-14808
▁ㅈㅓㄱㅈㅏㄴ	-14809
▁ㅈㅣㅅㄴㅡㄴ	-14810
▁ㄱㅏㅊㅣㄹㅡㄹ	-14811
▁ㅇㅗㄹㅣㅂㅏㄹ	-14812
▁ㅈㅔㄷㅗㄹㅡㄹ	-14813
▁ㅈㅜㄴㅡㄴㄱㅔ	-14814
▁ㅂㅏㄹㅏㅁㅈㅣㄱ	-14815
ㅈㅏㅇㅣㅂㄴㅣㄷㅏ	-14816
▁ㅈㅗㅅㅓㄴㅇㅣㄹㅂㅗ	-14817
▁ㅇㅏㅇㅣㅍㅗㄴㅇㅡㄹㅗ	-14818
▁ㄱㅗㅁㅏㅂㅅㅡㅂㄴㅣㄷㅏ	-14819
▁ㅈㅗㄴㄱㅕㅇㅎㅏㅂㄴㅣㄷㅏ	-14820
~20	-14821
▁in	-14822
▁ㅃㅗ	-14823
ㅃㅐㅁ	-14824
ㅍㅏㅁ	-14825
ㅜㅇㅕ	-14826
ㄸㅔㄱㅣ	-14827
▁ㅂㅔㅇㅣ	-14828
▁ㅃㅏㅈㅣ	-14829
ㄷㅐㅁㅏㄴ	-14830
ㅅㅐㄱㅎㅣ	-14831
ㅈㅡㄴㅡㄴ	-14832
ㅎㅏㅊㅓㅇ	-14833
▁ㄷㅗㄹㅕㄴ	-14834
▁ㅁㅓㄱㅌㅟ	-14835
▁ㅂㅏㄷㅏㅅ	-14836
▁ㅂㅗㄱㅅㅏ	-14837
▁ㅂㅗㄷㅏㅂ	-14838
▁ㅈㅓㄴㄹㅏ	-14839
▁ㅊㅜㅈㅣㅇ	-14840
ㄱㅣㅅㅏㄱㅏ	-14841
ㅈㅏㄴㅏㅇㅛ	-14842
▁ㄱㅏㅁㅌㅏㄴ	-14843
▁ㄱㅏㅇㄱㅜㄱ	-14844
▁ㅁㅏㅇㅎㅏㅁ	-14845
▁ㅇㅕㅇㅇㅑㅇ	-14846
▁ㅇㅕㅇㅇㅣㅂ	-14847
▁ㅈㅏㅁㅈㅏㅁ	-14848
▁ㅈㅣㅅㅇㅡㄴ	-14849
▁ㅎㅏㄴㄱㅓㅅ	-14850
ㅆㅣㄱㅇㅣㄴㅏ	-14851
ㅈㅓㅁㅇㅡㄹㅗ	-14852
ㅈㅣㄹㅎㅏㄱㅗ	-14853
▁ㄷㅚㄷㅗㄹㅗㄱ	-14854
▁ㅁㅏㄹㄷㅐㄹㅗ	-14855
▁ㅅㅐㅇㄱㅕㅅㅓ	-14856
▁ㅇㅜㅅㄱㅣㄷㅏ	-14857
▁ㅍㅏㄹㅇㅏㄷㅗ	-14858
▁ㅇㅠㅂㅕㅇㅇㅓㄴ	-14859
▁ㅈㅓㅇㅊㅣㄴㅡㄴ	-14860
▁ㅈㅣㄱㅇㅓㅂㅇㅣ	-14861
▁ㅁㅗㄹㅅㅜㅎㅏㄱㅗ	-14862
▁ㅍㅏㄹㅇㅏㅁㅓㄱㄱㅗ	-14863
ㄴㅣㄴ	-14864
ㅅㅕㄹ	-14865
ㅌㅜㄹ	-14866
▁ㅍㅏㅂ	-14867
ㄱㅘㄷㅗ	-14868
ㅅㅜㅇㅑ	-14869
~!!!!	-14870
▁ㅇㅕㅇㅢ	-14871
▁ㅇㅟㄷㅐ	-14872
▁ㅈㅐㄹㅐ	-14873
▁ㅈㅟㄱㅗ	-14874
ㄱㅓㄴㅡㄹ	-14875
ㄷㅐㅎㅐㅇ	-14876
ㄷㅡㅅㅣㄴ	-14877
ㄹㅣㄴㄱㅓ	-14878
ㅁㅏㄶㅇㅏ	-14879
ㅂㅜㅁㅗㄴ	-14880
ㅍㅐㄱㅌㅡ	-14881
▁ㄱㅜㅅㅓㄱ	-14882
▁ㅉㅏㄹㄹㅏ	-14883
▁ㅊㅜㄹㅁㅏ	-14884
▁ㅌㅚㅁㅜㄹ	-14885
▁ㅍㅡㄹㅐㄴ	-14886
ㄴㅕㄴㅅㅐㅇ	-14887
ㅂㅏㄹㅇㅓㄴ	-14888
ㅓㅇㅜㄴㄷㅔ	-14889
▁ㄱㅖㄱㅣㄹㅗ	-14890
▁ㅂㅏㄱㅂㅗㅁ	-14891
▁ㅇㅣㄹㅇㅡㅋ	-14892
▁ㅈㅜㅇㅟㅇㅔ	-14893
▁ㅋㅏㄷㅓㄹㅏ	-14894
▁ㅍㅡㄹㅗㄷㅠ	-14895
ㄱㅓㅁㅕㄴㅅㅓ	-14896
ㅅㅡㅌㅏㅇㅣㄹ	-14897
ㅇㅓㅆㅇㅓㄷㅗ	-14898
▁ㄱㅣㅂㅗㄴㄹㅛ	-14899
▁ㅇㅏㄴㄱㅡㄹㅐ	-14900
▁ㅇㅗㄷㅣㅅㅕㄴ	-14901
▁ㅈㅏㄹㅂㅗㄱㅗ	-14902
▁ㅈㅜㅁㅏㄹㅇㅔ	-14903
ㄱㅏㅈㅓㅇㅇㅛㅇ	-14904
ㅈㅣㅇㅏㄶㅇㅡㅁ	-14905
▁ㄱㅣㅁㅅㅐㄹㅗㅁ	-14906
▁ㄴㅏㅃㅡㄴㄴㅗㅁ	-14907
▁ㄷㅗㄴㅈㅏㄴㅊㅣ	-14908
▁ㅁㅗㅅㅎㅐㅆㄷㅏ	-14909
▁ㅂㅗㄹㅅㅜㄹㅗㄱ	-14910
▁ㅇㅓㄴㅈㅔㄴㅡㄴ	-14911
▁ㅈㅡㄹㄱㅣㄴㅡㄴ	-14912
ㅇㅣㄹㅏㄴㅡㄴㄱㅓ	-14913
▁ㄷㅐㅂㅏㄱㅇㅣㄷㅏ	-14914
▁ㅅㅏㅁㅅㅣㅅㅔㄲㅣ	-14915
▁ㄱㅘㅇㅎㅘㅁㅜㄴㅇㅔ	-14916
▁ㅁㅏㄴㄷㅡㄴㅡㄴㄱㅔ	-14917
▁ㅂㅏㄱㅅㅏㅁㅗㄴㅡㄴ	-14918
▁ㅁㅜㄴㅈㅐㅇㅣㄴㅇㅡㄴ	-14919
????????????????	-14920
ㅎㅝㄹ	-14921
▁1,2	-14922
▁ㄱㅕㅂ	-14923
▁ㄴㅣㅇ	-14924
ㅂㅣㅅㅓ	-14925
ㅅㅗㄷㅗ	-14926
ㅅㅜㄱㅣ	-14927
ㅇㅏㅈㅓ	-14928
ㅈㅚㄷㅏ	-14929
ㅎㅏㄱㅓ	-14930
ㅎㅗㅇㅢ	-14931
▁ㄱㅗㄱㅏ	-14932
▁ㄷㅡㄷㅕ	-14933
▁ㅇㅠㅍㅗ	-14934
ㅈㅣㄹㄷㅗ	-14935
ㅊㅓㄹㅅㅜ	-14936
ㅎㅚㅂㅗㄱ	-14937
ㅕㄴㄷㅡㄹ	-14938
▁ㄱㅣㅁㅣㄹ	-14939
▁ㅂㅜㅈㅣㄹ	-14940
▁ㅌㅡㄹㄹㅕ	-14941
ㅇㅕㄱㅎㅏㄹ	-14942
ㅈㅣㄴㅇㅡㄹ	-14943
▁ㄷㅔㅇㅣㅌㅡ	-14944
▁ㅁㅗㅇㄸㅏㅇ	-14945
▁ㅁㅣㄴㅁㅏㅇ	-14946
▁ㅂㅓㄹㅁㅕㄴ	-14947
▁ㅂㅗㅇㅣㄴㅑ	-14948
▁ㅈㅗㅇㅇㅕㅇ	-14949
ㄴㅕㄴㅂㅜㅌㅓ	-14950
ㄷㅗㄹㄹㅣㄱㅗ	-14951
ㅁㅕㄴㅅㅓㄷㅗ	-14952
▁ㄸㅏㄹㅏㄱㅏㄹ	-14953
▁ㅌㅗㅇㅛㅇㅣㄹ	-14954
▁ㅎㅕㄴㅈㅐㅇㅢ	-14955
ㅌㅡㄱㄱㅓㅁㅇㅣ	-14956
▁ㄱㅓㅁㅊㅏㄹㄷㅗ	-14957
▁ㄷㅏㅇㅡㅁㄴㅏㄹ	-14958
▁ㅂㅏㄱㄱㅡㄴㅎㅔ	-14959
▁ㅅㅣㄴㄹㅚㄹㅡㄹ	-14960
▁ㅇㅣㅆㅇㅓㅆㄴㅔ	-14961
▁ㅎㅏㄴㅍㅜㄴㄷㅗ	-14962
ㅆㅇㅡㄹㅌㅔㄴㄷㅔ	-14963
▁ㄱㅕㄹㅎㅗㄴㅅㅣㄱ	-14964
▁ㅇㅓㅄㄴㅡㄴㄱㅓㅈㅣ	-14965
▁ㅇㅣㄴㅏㄹㅏㅇㅔㅅㅓ	-14966
▁ㅇㅣㅆㅇㅡㄹㄲㅏㅇㅛ	-14967
ㅁㅏㄴㅇㅝㄴㅈㅓㅇㄷㅗ	-14968
▁ㅁㅏㄹㅇㅏㅁㅓㄱㅇㅡㄴ	-14969
ㅇㅙㄴ	-14970
ㅇㅓㅉㅐ	-14971
ㅇㅣㄱㅡ	-14972
ㅡㄷㅡㄹ	-14973
ㅡㄹㅜㅂ	-14974
▁ㅇㅗㅌㅏ	-14975
▁ㅎㅐㅈㅣ	-14976
ㄱㅕㅇㅇㅣ	-14977
ㄱㅜㄴㄷㅔ	-14978
ㄱㅣㅁㅇㅔ	-14979
ㅊㅏㅁㅏㄴ	-14980
ㅎㅘㅇㄱㅛ	-14981
▁ㄱㅘㅇㅣㄹ	-14982
▁ㅈㅓㅂㄷㅐ	-14983
▁ㅊㅐㅇㅍㅣ	-14984
▁ㅍㅏㄹㅏㄴ	-14985
▁ㅍㅔㅂㅜㄱ	-14986
ㅅㅡㅅㅡㄹㅗ	-14987
ㅇㅡㄹㄸㅐㄴ	-14988
▁ㄴㅡㄲㅣㄱㅗ	-14989
▁ㅇㅣㄱㅣㅅㅏ	-14990
▁ㅇㅣㅂㅁㅏㅅ	-14991
▁ㅎㅜㄴㅎㅜㄴ	-14992
ㅅㅜㅇㅓㅄㄷㅏ	-14993
ㅇㅡㄹㄲㅏㅂㅘ	-14994
▁ㄱㅏㅅㅓㅇㅂㅣ	-14995
▁ㄷㅗㄹㅇㅏㅇㅗ	-14996
▁ㅅㅔㄱㅡㅁㄴㅐ	-14997
▁ㅇㅏㄴㄱㅏㄱㅗ	-14998
▁ㅇㅓㄸㅓㅎㅏㄴ	-14999
▁ㄲㅗㄹㅏㅈㅣㄱㅏ	-15000
▁ㅁㅏㅌㅡㅇㅔㅅㅓ	-15001
▁ㅂㅜㄹㅎㅏㅂㄹㅣ	-15002
▁ㅅㅗㅇㅇㅠㄴㅇㅏ	-15003
▁ㅅㅗㅈㅜㅇㅎㅏㄴ	-15004
▁ㅇㅓㄴㅈㅔㅉㅡㅁ	-15005
▁ㅇㅣㄴㅅㅐㅇㅇㅢ	-15006
ㅆㅇㅓㅆㄴㅡㄴㄷㅔ	-15007
ㅇㅣㄹㅏㄱㅗㄴㅡㄴ	-15008
ㅎㅏㅈㅣㅁㅏㄹㅈㅏ	-15009
▁ㄱㅏㄴㅡㄴㄱㅜㄴㅏ	-15010
▁ㄱㅗㅅㅗㄱㄷㅗㄹㅗ	-15011
▁ㅁㅏㄹㄱㅡㄷㅐㄹㅗ	-15012
▁ㅁㅗㅅㅎㅏㄴㄷㅏㄱㅗ	-15013
▁ㅅㅣㅈㅏㅇㄱㅕㅇㅈㅔ	-15014
▁ㅇㅏㄴㅎㅏㄴㄷㅏㄱㅗ	-15015
~7	-15016
ㅃㅣ	-15017
▁ㄸㅣ	-15018
ㅌㅔㄱ	-15019
▁ㄴㅔㅅ	-15020
ㄱㅣㄱㅖ	-15021
▁ㄱㅘㄷㅐ	-15022
▁ㄹㅗㅅㅡ	-15023
ㅅㅏㅅㅏㅇ	-15024
ㅈㅏㄹㅏㄴ	-15025
ㅈㅣㄱㅡㅂ	-15026
ㅓㄱㄴㅡㄴ	-15027
▁ㄱㅓㄷㅡㄹ	-15028
▁ㄴㅠㅇㅛㄱ	-15029
▁ㅁㅣㅁㅏㄴ	-15030
▁ㅃㅐㅂㅏㄱ	-15031
▁ㅅㅜㄴㅕㄴ	-15032
▁ㅋㅐㅂㅊㅕ	-15033
▁ㄴㅏㅌㅏㄴㅏ	-15034
▁ㄴㅜㄱㅜㅇㅢ	-15035
▁ㄷㅏㅇㅎㅏㄹ	-15036
▁ㅂㅏㅇㄱㅡㅁ	-15037
▁ㅅㅏㄷㅡㄱㅏ	-15038
▁ㅅㅐㅇㅅㅓㄴ	-15039
▁ㄸㅟㅇㅓㄴㅏㄴ	-15040
▁ㅁㅜㅈㅓㄴㅇㅠ	-15041
▁ㅅㅏㄱㅛㅇㅠㄱ	-15042
ㅇㅓㅆㄱㅔㅆㅈㅣ	-15043
▁ㄱㅡㄹㅐㅂㅘㅇㅑ	-15044
▁ㄴㅏㅁㅇㅏㅆㄷㅏ	-15045
▁ㅁㅗㅅㅎㅏㄱㅔㅆ	-15046
▁ㅅㅣㅇㅝㄴㅎㅏㄴ	-15047
▁ㅈㅏㅂㅇㅏㅁㅓㄱ	-15048
▁ㅍㅖㅈㅣㅎㅏㄹㅏ	-15049
ㅂㅗㅇㅣㄴㅡㄴㄷㅔ	-15050
ㅌㅡㄱㄱㅓㅁㅇㅡㄴ	-15051
▁ㅎㅏㄴㅅㅜㄴㄱㅏㄴ	-15052
[...]
