[UNK]	0
<s>	0
</s>	0
[PAD]	0
[CLS]	0
[MASK]	0
[SEP]	0
▁ㅇ	-0
ㅏㄴ	-1
ㅡㄴ	-2
ㅇㅣ	-3
ㅡㄹ	-4
▁ㄱ	-5
▁ㅈ	-6
ㅏㄹ	-7
ㄷㅏ	-8
▁ㅅ	-9
▁ㅁ	-10
ㅈㅣ	-11
ㄱㅗ	-12
ㅏㅇ	-13
ㅓㄴ	-14
▁ㅎ	-15
ㄷㅗ	-16
▁ㅂ	-17
ㅣㄴ	-18
ㄱㅏ	-19
▁ㄴ	-20
ㅕㄴ	-21
ㅓㅇ	-22
▁ㅇㅣ	-23
..	-24
ㄷㅡㄹ	-25
ㅏㅁ	-26
ㅏㄱ	-27
ㅜㄴ	-28
ㅇㅔ	-29
▁ㄷ	-30
ㅎㅏㄴ	-31
ㅇㅡㄹ	-32
ㅇㅓ	-33
ㅜㄹ	-34
ㅇㅡㄴ	-35
ㅓㄹ	-36
ㄴㅡㄴ	-37
ㅜㄱ	-38
ㅅㅓ	-39
ㅡㅁ	-40
ㅅㅣ	-41
ㅎㅐ	-42
ㅕㅇ	-43
ㅇㅣㄴ	-44
▁ㅊ	-45
ㄱㅔ	-46
ㅗㅇ	-47
ㄱㅣ	-48
ㅗㄴ	-49
ㅎㅏ	-50
ㅐㅇ	-51
ㄷㅔ	-52
ㅗㄹ	-53
ㄱㅓ	-54
ㅗㄱ	-55
▁ㅇㅏㄴ	-56
ㅋㅋ	-57
ㅓㅁ	-58
ㅁㅏㄴ	-59
ㅓㄱ	-60
ㅜㅇ	-61
ㅇㅏ	-62
ㅣㄹ	-63
ㅏㄴㅡㄴ	-64
...	-65
ㅗㅅ	-66
▁ㅍ	-67
ㅣㅁ	-68
▁ㅇㅓ	-69
ㅈㅏ	-70
ㄹㅏ	-71
ㄷㅐ	-72
ㅝㄴ	-73
ㅇㅛ	-74
ㅗㅁ	-75
▁ㄷㅏ	-76
ㄱㅜㄱ	-77
▁ㅎㅏㄴ	-78
ㅇㅢ	-79
▁ㅇㅏ	-80
ㅡㅇ	-81
ㅇㅣㄹ	-82
▁ㅇㅣㄹ	-83
ㅈㅔ	-84
▁ㅈㅣ	-85
▁ㄸ	-86
▁ㅌ	-87
▁ㄷㅐ	-88
ㅗㅎ	-89
ㅕㄱ	-90
▁ㄱㅏ	-91
▁ㄷㅗ	-92
ㄴㅣ	-93
ㅅㅏㅇ	-94
ㅈㅓㅇ	-95
ㄹㅗ	-96
▁ㄱㅡㄹ	-97
▁ㅇㅣㅆ	-98
ㅇㅡㅁ	-99
ㄷㅚ	-100
▁ㅈㅓㅇ	-101
ㅇㅡㄹㅗ	-102
ㅕㄹ	-103
ㅓㅂ	-104
ㄲㅏ	-105
▁ㄱㅣ	-106
ㅐㄱ	-107
ㅎㅏㄴㅡㄴ	-108
▁ㅅㅏㄹ	-109
ㅆㄷㅏ	-110
ㅜㅅ	-111
▁ㅅㅣ	-112
▁ㅁㅏ	-113
ㅁㅕㄴ	-114
ㅇㅑ	-115
ㄹㅣ	-116
ㅈㅏㅇ	-117
ㅂㄴㅣ	-118
ㅂㅗ	-119
ㅎㅏㄱㅗ	-120
▁ㅇㅓㅄ	-121
ㅂㅜ	-122
ㅁㅣㄴ	-123
ㅏㄹㅏ	-124
ㅅㅏ	-125
ㅈㅣㄴ	-126
ㄱㅓㄴ	-127
ㅅㅔ	-128
▁ㄱㅡ	-129
ㅂㄴㅣㄷㅏ	-130
ㅅㅜ	-131
ㄱㅘ	-132
ㅅㅡ	-133
▁ㅆ	-134
ㅎㅘ	-135
ㄷㅡㄹㅇㅣ	-136
ㅑㅇ	-137
ㄱㅡㅁ	-138
▁ㅋ	-139
▁ㄲ	-140
ㅈㅓㄴ	-141
▁ㅎㅏ	-142
ㅇㅝㄴ	-143
!!	-144
▁ㄱㅜㄱ	-145
ㄱㅓㅅ	-146
ㅅㅓㅇ	-147
ㅅㅣㄴ	-148
ㅎㅏㄱ	-149
ㅐㅁ	-150
ㄴㅔ	-151
▁ㅈㅣㄴ	-152
ㅇㅔㅅㅓ	-153
ㄴㅏ	-154
ㅈㅜ	-155
ㄴㅡㄴㄷㅔ	-156
▁ㅇㅣㄴ	-157
ㄷㅡ	-158
▁ㅈㅏㄹ	-159
ㅏㅁㅕㄴ	-160
ㅋㅋㅋㅋ	-161
ㅇㅏㄴ	-162
ㅎㅏㄹ	-163
ㅓㅅ	-164
ㅁㅏㄹ	-165
▁ㅎㅐ	-166
ㄱㅏㄴ	-167
▁ㅈㅓㄴ	-168
ㅈㅓㄱ	-169
▁1	-170
ㅓㅎ	-171
▁ㅂㅏ	-172
ㅐㄴ	-173
ㄷㅗㅇ	-174
ㅣㅇ	-175
▁ㄷㅚ	-176
ㅣㄴㅡㄴ	-177
....	-178
ㄷㅓㄴ	-179
ㅜㅁ	-180
ㄹㅡㄹ	-181
ㅇㅓㅂ	-182
▁ㅃ	-183
~~	-184
▁ㅅㅏ	-185
▁ㅈㅗㅎ	-186
▁ㅁㅏㄹ	-187
ㄷㅏㄴ	-188
▁ㄱㅡㄴ	-189
ㅉㅏ	-190
ㅎㅣ	-191
ㄱㅏㄱ	-192
ㅇㅣㅆ	-193
ㅅㅣㄹ	-194
▁ㅁㅗㅅ	-195
ㅊㅣ	-196
▁ㅈㅔ	-197
▁ㄴㅏ	-198
▁ㅂㅗ	-199
▁ㅅㅐㅇ	-200
??	-201
▁ㅁㅣ	-202
ㅅㅏㄹ	-203
ㅈㅜㅇ	-204
ㅇㅓㅄ	-205
▁ㅈㅏ	-206
▁ㄱㅗㅇ	-207
ㄷㅡㄴ	-208
▁ㄴㅓㅁ	-209
ㄴㅕㄴ	-210
▁ㄴㅐ	-211
ㄱㅔㅆ	-212
▁ㄱㅐ	-213
▁ㅅㅏㄹㅏㅁ	-214
ㅂㅏ	-215
▁ㅇㅕ	-216
ㅇㅣㅁ	-217
▁ㅅㅜ	-218
▁ㅈㅜㅇ	-219
ㅇㅓㅆ	-220
ㄱㅓㄹ	-221
▁ㅁㅏㄴ	-222
ㅇㅠ	-223
▁ㅇㅕㄴ	-224
ㅁㅏ	-225
ㄹㅕ	-226
▁ㅅㅔ	-227
ㅇㅣㄷㅏ	-228
ㅇㅡㅁㅕㄴ	-229
ㅈㅜㄴ	-230
ㅂㅣ	-231
ㄱㅏㅌ	-232
ㅘㄴ	-233
▁ㅉ	-234
▁ㅁㅏㄶ	-235
▁ㅂㅣ	-236
ㅅㅣㅁ	-237
ㄷㅡㄹㅇㅡㄴ	-238
ㅂㅗㄴ	-239
ㅂㅜㄴ	-240
ㅅㅐㅇ	-241
▁ㅇㅠ	-242
ㄷㅏㅇ	-243
ㄱㅡㄹ	-244
▁ㅇㅜㄹ	-245
ㅅㅏㄴ	-246
▁ㄴㅏㅁ	-247
ㅌㅗㅇ	-248
ㅣㄱㅗ	-249
ㅌㅔ	-250
ㅕㅆ	-251
▁ㅇㅙ	-252
ㅎㅐㅆ	-253
ㅅㅣㄱ	-254
ㄷㅏㄱㅗ	-255
▁ㄷㅡㄹ	-256
▁ㄷㅓ	-257
▁ㅇㅏㄹ	-258
ㅇㅓㅇ	-259
ㄸㅐ	-260
ㄷㅏㄴㅡㄴ	-261
ㅈㅣㄱ	-262
ㅊㅏ	-263
ㅡㄱ	-264
▁ㄴㅏㅇ	-265
ㅈㅣㅁㅏㄴ	-266
ㅎㅏㄱㅔ	-267
▁ㄷㅗㄴ	-268
▁ㅂㅜ	-269
▁ㅅㅏㅇ	-270
ㅎㅚ	-271
▁ㄱㅏㅌ	-272
▁ㅁㅝ	-273
ㅂㅏㄹ	-274
▁ㅈㅣㄴㅉㅏ	-275
▁ㅇㅛ	-276
ㅡㅂ	-277
▁ㅂㅏㄱ	-278
ㅅㅓㄴ	-279
▁ㅇㅗㄹ	-280
▁ㄱㅜㄱㅁㅣㄴ	-281
ㅈㅏㄱ	-282
▁ㅂㅜㄹ	-283
ㅊㅔ	-284
ㅎㅏㅁㅕㄴ	-285
ㅓㅎㄱㅔ	-286
▁ㅇㅓㄹ	-287
▁ㅎㅏㄹ	-288
▁ㅋㅋ	-289
▁ㅁㅜ	-290
ㅈㅣㄹ	-291
ㄱㅜ	-292
ㅌㅓ	-293
ㄱㅡㄴ	-294
ㅎㅐㅅㅓ	-295
ㄲㅏㅈㅣ	-296
ㅇㅕㄴ	-297
ㅎㅐㅇ	-298
ㅊㅓㅇ	-299
ㅂㅓㄴ	-300
▁ㅇㅏㄶ	-301
ㄷㅡㅅ	-302
▁ㄱㅓㅅ	-303
▁ㄱㅕㅇ	-304
▁ㅎㅘ	-305
▁ㅁㅜㄴ	-306
▁ㅎㅏㄴㅡㄴ	-307
▁ㅅㅐㅇㄱㅏㄱ	-308
▁ㅁㅗㄹ	-309
▁2	-310
ㅈㅐ	-311
ㄹㅕㄱ	-312
▁ㅅㅓㅇ	-313
ㄱㅗㅇ	-314
ㄱㅖ	-315
ㄴㅑ	-316
▁ㄱㅣㅁ	-317
▁ㅈㅏㄱ	-318
ㅇㅕ	-319
▁ㅊㅚ	-320
▁ㄷㅏㄹ	-321
ㅁㅕㅇ	-322
ㅂㅜㄹ	-323
ㅝㄹ	-324
ㅏㅇㅛ	-325
ㅌㅡ	-326
▁ㅂㅏㄹ	-327
ㅂㅏㅇ	-328
ㅇㅕㅇ	-329
ㅇㅣㄹㅏ	-330
▁ㄱㅓ	-331
▁ㅈㅓㄹ	-332
▁ㅈㅓ	-333
ㄱㅜㄴ	-334
ㅂㅘ	-335
▁ㅎㅐㅇ	-336
▁ㅇㅣㄹㅓㄴ	-337
▁ㅈㅏㅇ	-338
ㅂㅏㄱ	-339
▁ㅅㅣㄴ	-340
ㅇㅣㄴㄷㅔ	-341
ㅇㅣㄴㅏ	-342
ㄷㅏㄹ	-343
▁ㅇㅖ	-344
▁ㅈㅗㅁ	-345
▁ㄷㅏㅇ	-346
▁ㅇㅐ	-347
▁ㅇㅟ	-348
ㄹㅕㅇ	-349
ㅎㅏㅈㅣ	-350
▁ㄱㅕㄹ	-351
▁ㅅㅏㅁ	-352
ㄷㅚㄴ	-353
ㅈㅏㄹ	-354
ㅍㅡㄹ	-355
00	-356
▁ㄴㅓㅁㅜ	-357
ㅁㅜㄹ	-358
ㅎㅏㅁ	-359
ㅁㅣ	-360
▁ㅈㅜ	-361
▁ㄴㅏㄹ	-362
▁ㄱㅡㄴㅑㅇ	-363
ㅈㅜㄹ	-364
ㅗㅁㅕㄴ	-365
ㄱㅏㅁ	-366
ㅔㅇㅛ	-367
ㅊㅓㄹ	-368
▁ㅇㅓㄴ	-369
▁ㅇㅔ	-370
ㄱㅕㅇ	-371
▁ㅂㅗㄴ	-372
ㄴㅐ	-373
ㅇㅣㅂ	-374
▁ㅎㅏㄴㄱㅜㄱ	-375
ㅎㅏㄴㄷㅏ	-376
ㅠㅠ	-377
ㅣㄱㅏ	-378
▁ㅁㅓㄱ	-379
▁ㅂㅏㄷ	-380
ㅡㅌ	-381
ㅇㅟ	-382
ㅅㅗ	-383
ㅣㄱ	-384
▁ㅁㅗ	-385
ㅇㅏㅆ	-386
ㅈㅗㄱ	-387
▁ㄹ	-388
ㅇㅓㄴ	-389
▁ㅇㅕㅇ	-390
ㅈㅗ	-391
ㅇㅛㅇ	-392
ㄱㅣㄹ	-393
▁ㅈㅣㅂ	-394
▁ㄴㅗ	-395
▁ㅇㅏㄴㅣ	-396
▁ㅁㅜㄹ	-397
ㅎㅏㄷㅏ	-398
ㅁㅓㄱ	-399
▁ㅇㅣㅈㅔ	-400
▁ㅂㅏㄴ	-401
ㅇㅓㄱ	-402
ㄱㅐ	-403
▁ㅁㅏㅇ	-404
▁ㄱㅡㄹㅓㄴ	-405
▁ㅋㅋㅋㅋ	-406
ㅛㅇ	-407
ㅅㅗㄱ	-408
▁ㅇㅕㄹ	-409
ㄷㅐㄹㅗ	-410
▁3	-411
ㅡㄴㅡㄴ	-412
▁ㄷㅗㅇ	-413
ㄱㅏㅇ	-414
▁ㅈㅣㄱㅡㅁ	-415
ㅅㅜㄴ	-416
▁ㄷㅏㄴ	-417
ㅁㅜㄴ	-418
▁ㅇㅏㄴㅣㄴ	-419
▁ㅎㅕㄴ	-420
ㅂㅗㄷㅏ	-421
▁ㄱㅘ	-422
ㅎㅖ	-423
ㅂㅜㅌㅓ	-424
ㅓㄹㅏ	-425
ㅡㅅ	-426
ㅁㅗㅅ	-427
ㅂㅓㅂ	-428
▁ㄱㅏㅇ	-429
▁ㅈㅜㄱ	-430
ㄷㅣ	-431
▁ㅊㅏㅁ	-432
▁ㄴㅏㄴ	-433
ㅂㅓㄹ	-434
ㅂㅏㄴ	-435
▁ㅂㅏㅇ	-436
▁ㅇㅣㅆㄴㅡㄴ	-437
▁ㅇㅕㄱ	-438
▁ㄱㅏㅁ	-439
ㅎㅐㅇㅑ	-440
ㄱㅛ	-441
ㅈㅗㅁ	-442
ㅈㅣㅂ	-443
ㅎㅐㄹㅏ	-444
ㄴㅏㄹ	-445
▁ㅅㅓㄴ	-446
ㄱㅏㅌㅇㅡㄴ	-447
ㅂㅏㄷ	-448
▁ㅇㅗ	-449
ㄱㅘㄴ	-450
ㅣㄲㅏ	-451
ㅅㅡㅂㄴㅣㄷㅏ	-452
▁ㄱㅡㅁ	-453
ㅂㅗㄱ	-454
ㄱㅡㅂ	-455
ㅎㅏㄴㅌㅔ	-456
▁ㄱㅗ	-457
▁ㅇㅝㄴ	-458
!!!	-459
ㄴㅏㄴ	-460
▁ㅅㅣㄹ	-461
▁ㅅㅗㄹ	-462
ㅈㅗㅇ	-463
ㅇㅓㅅㅓ	-464
ㅎㅕㄴ	-465
ㅇㅐ	-466
▁ㅇㅏㅁ	-467
▁ㅈㅜㅇㄱㅜㄱ	-468
ㅇㅘ	-469
▁ㅈㅓㅇㅁㅏㄹ	-470
ㅊㅣㄴ	-471
▁ㅇㅢ	-472
▁ㄸㅗ	-473
ㅅㅓㄱ	-474
ㅅㅏㄹㅏㅁ	-475
ㄷㅡㅇ	-476
ㅇㅣㄱㅗ	-477
ㅎㅕㅇ	-478
ㅇㅖ	-479
▁.	-480
▁ㄱㅖ	-481
ㅣㄹㅏ	-482
▁ㄱㅡㄹㅐ	-483
▁ㄴㅗㄹ	-484
▁ㅁㅜㅅ	-485
ㄱㅝㄴ	-486
ㅍㅜㅁ	-487
ㅐㅁㅜㄴ	-488
ㄱㅓㅇ	-489
▁ㅈㅗ	-490
ㅂㅐ	-491
ㅈㅓ	-492
ㅊㅓㄴ	-493
▁ㅎㅣㅁ	-494
ㅇㅔㄱㅔ	-495
▁ㅇㅚ	-496
▁ㄱㅘㄴ	-497
ㅊㅜㄹ	-498
▁ㄴㅜ	-499
ㄱㅣㄴ	-500
ㄷㅗㄴ	-501
ㅌㅏ	-502
▁ㅇㅏㅍ	-503
ㅅㅔㅇㅛ	-504
ㅌㅗㅇㄹㅕㅇ	-505
▁ㅇㅓㄸ	-506
▁ㄴㅏㄹㅏ	-507
▁ㅊㅏ	-508
▁ㅁㅏㅈ	-509
ㅎㅏㅇ	-510
ㅅㅜㄹ	-511
ㅇㅏㅇ	-512
▁ㅇㅏㅇㅣ	-513
ㅈㅕ	-514
▁ㅁㅜㄴㅈㅔ	-515
ㄷㅜ	-516
▁ㅁㅏㄴㄷㅡㄹ	-517
ㄹㅣㄴ	-518
▁ㅇㅘ	-519
ㄱㅏㄹ	-520
ㅊㅏㄹ	-521
▁ㅅㅏㅁㅅㅓㅇ	-522
ㄹㅠ	-523
▁ㄱㅓㄴ	-524
ㄷㅗㄹ	-525
▁ㅅㅏㄱ	-526
▁ㅇㅗㄴ	-527
ㅣㅁㅕㄴ	-528
ㅎㅗㄴ	-529
ㅎㅗ	-530
ㅍㅏㄴ	-531
▁ㅂㅜㄴ	-532
ㄱㅔㅆㄷㅏ	-533
▁ㅈㅓㄱ	-534
ㅈㅓㄹ	-535
ㅇㅣㅈㅣ	-536
ㅅㅣㅋ	-537
▁ㅎㅐㅆ	-538
ㅅㅗㅇ	-539
ㄹㅗㄴ	-540
▁ㅇㅣㅂ	-541
▁ㅁㅏㄶㅇㅣ	-542
▁ㄷㅐㅎㅏㄴ	-543
▁ㅂㅓㄹ	-544
▁ㅇㅓㅁ	-545
ㅏㄱㅔ	-546
ㅕㅊ	-547
▁ㄷㅗㄹ	-548
▁ㅅㅓㄹ	-549
ㅣㄷㅡㄹ	-550
▁ㅋㅋㅋ	-551
▁ㄱㅏㄴ	-552
ㄱㅓㅁ	-553
ㄴㅏㅁ	-554
ㅈㅣㅁ	-555
ㅍㅣ	-556
ㅡㄱㅗ	-557
ㅎㅏㅂㄴㅣㄷㅏ	-558
▁ㅊㅓㅇ	-559
▁ㅇㅑ	-560
▁ㅈㅐ	-561
▁5	-562
ㅈㅗㅎ	-563
▁ㄱㅓㄹ	-564
ㅏㅁㅏ	-565
▁ㄱㅏㅌㅇㅡㄴ	-566
ㅅㅡㄹ	-567
ㅈㅓㄱㅇㅡㄹㅗ	-568
▁ㅁㅝㄴ	-569
▁ㅎㅏㄱㅗ	-570
ㅈㅓㅁ	-571
▁ㅇㅜㅅ	-572
ㅇㅓㅇㅛ	-573
ㅈㅛ	-574
▁ㅂㅘ	-575
▁ㄴㅜㄴ	-576
ㅍㅗㄴ	-577
ㅅㅗㄹ	-578
ㅊㅓㄹㅓㅁ	-579
▁ㅈㅗㅇ	-580
ㄱㅓㅈㅣ	-581
ㄷㅙ	-582
▁ㅇㅛㄱ	-583
ㅜㄹㅣ	-584
▁ㅃㅏㄹ	-585
ㅣㄹㅡㄹ	-586
ㅔㄹ	-587
▁ㅇㅕㄴㄱㅣ	-588
▁ㅇㅜㄹㅣㄴ	-589
ㅋㅋㅋ	-590
ㄱㅣㅇㅓㅂ	-591
ㅈㅣㄱㅗ	-592
▁ㅅㅣㅁ	-593
ㅁㅏㅇ	-594
ㅁㅣㄴㄱㅜㄱ	-595
ㄱㅡㄴㅎㅖ	-596
ㄷㅓㄹㅏ	-597
ㄱㅓㅅㄷㅗ	-598
ㅎㅕ	-599
▁ㅂㅏㄲ	-600
ㄹㅏㄱㅗ	-601
▁ㅅㅗㄴ	-602
▁ㅂㅐ	-603
▁ㅅㅗ	-604
▁ㅈㅐㅁ	-605
ㄴㅔㅇㅛ	-606
ㅈㅣㅅ	-607
ㅈㅣㄴㅡㄴ	-608
▁ㅆㅡㄹ	-609
▁ㅌㅡㄱ	-610
ㅈㅏㄷㅡㄹ	-611
ㄹㅏㄴ	-612
▁ㅇㅏㄴㄷㅚ	-613
▁ㄱㅜ	-614
ㅌㅐ	-615
ㅈㅝ	-616
ㄱㅏㅄ	-617
ㅇㅕㄱ	-618
▁ㅅㅔㄱㅡㅁ	-619
▁ㅈㅗㅎㅇㅡㄴ	-620
▁ㄱㅏㄱ	-621
ㅗㅅㅓㄴ	-622
ㅇㅏㅅㅓ	-623
▁ㄷㅏㄹㅡㄴ	-624
ㅆㅣ	-625
▁ㅂㅓㅂ	-626
▁ㅁㅜㅅㅡㄴ	-627
ㅇㅓㅇㅑ	-628
▁ㄷㅐㅌㅗㅇㄹㅕㅇ	-629
ㅇㅣㅂㄴㅣㄷㅏ	-630
▁ㅇㅓㅄㄴㅡㄴ	-631
ㄱㅕ	-632
ㅅㅣㅍ	-633
ㄱㅜㄴㅏ	-634
▁ㅁㅕㅊ	-635
▁ㄴㅡ	-636
▁ㅅㅣㅍ	-637
ㅈㅓㄱㅇㅣㄴ	-638
.....	-639
▁ㅇㅣㄹㅂㅗㄴ	-640
ㅊㅕ	-641
ㅇㅣㅆㄴㅡㄴ	-642
^^	-643
▁ㅇㅜㄹㅣ	-644
ㅇㅔㄴ	-645
ㅐㅁㅜㄴㅇㅔ	-646
~~~	-647
▁ㅈㅜㄹ	-648
ㅇㅏㄶ	-649
ㅁㅏㄴㅇㅝㄴ	-650
▁ㅍㅣ	-651
ㅇㅡㄴㅣ	-652
ㄱㅜㄹ	-653
ㄴㅗㅁ	-654
ㅈㅣㄷㅗ	-655
ㅅㄱㅡㄹ	-656
ㅇㅏㄱ	-657
ㅈㅡㅇ	-658
▁ㅇㅓㅉ	-659
▁ㅁㅐ	-660
▁ㅁㅣㄴ	-661
ㅆㄷㅏㄱㅗ	-662
▁ㅇㅏㄱ	-663
ㄷㅓㄴㄷㅔ	-664
▁ㄱㅔ	-665
ㅇㅝㄹ	-666
ㅈㅏㄱㅏ	-667
ㅐㅇㅜ	-668
ㅈㅚ	-669
ㅍㅕㄴ	-670
ㅇㅜ	-671
▁ㅎㅚ	-672
▁ㅇㅣㄴㄱㅏㄴ	-673
ㅏㄱㅗ	-674
ㅆㄴㅡㄴㄷㅔ	-675
▁ㄱㅗㅅ	-676
!!!!	-677
▁ㅅㅜㄴ	-678
▁4	-679
▁ㄲㅡㅌ	-680
ㅈㅜㄱ	-681
▁ㅇㅑㅇ	-682
ㅎㅢ	-683
???	-684
▁10	-685
ㄹㅐ	-686
▁ㅅㅐ	-687
▁ㅂㅏㄱㄱㅡㄴㅎㅖ	-688
▁ㅎㅏㅇ	-689
▁ㅅㅏㄴ	-690
ㅎㅐㄷㅗ	-691
▁ㅍㅗㄱ	-692
▁ㅂㅗㄱㅗ	-693
ㅗㅂ	-694
ㅗㄴㅡㄴ	-695
▁ㄷㅡㅇ	-696
ㅈㅏㄴ	-697
ㅜㄴㅡㄴ	-698
ㅁㅏㄹㄱㅗ	-699
ㄷㅡㄹㅇㅏ	-700
▁ㄱㅏㄹ	-701
ㅍㅛ	-702
▁ㅇㅏㄴㅣㄹㅏ	-703
ㅡㅡ	-704
ㄴㅏㅇ	-705
ㅂㅗㄱㅗ	-706
▁ㄷㅐㅎㅏㄴㅁㅣㄴㄱㅜㄱ	-707
▁ㅌㅗㅇ	-708
ㅈㅐㅇ	-709
ㅍㅏ	-710
▁ㅈㅣㄱ	-711
ㅇㅓㅄㄴㅡㄴ	-712
ㅋㅋㅋㅋㅋㅋㅋㅋ	-713
▁ㅈㅐㅁㅣ	-714
ㅓㄹㅣ	-715
▁ㅍㅕㅇ	-716
ㅏㅇㅔ	-717
ㅈㅏㄶ	-718
ㄷㅡㄹㄷㅗ	-719
ㅊㅐㄱ	-720
ㅂㅕㅇ	-721
ㅂㄷㅏ	-722
ㅇㅓㄷㅗ	-723
▁ㅁㅣㄱㅜㄱ	-724
ㅎㅏㄴㅔ	-725
ㅁㅜ	-726
ㅌㅏㄴ	-727
ㅇㅣㄹㅏㅇ	-728
▁ㄱㅛ	-729
ㅁㅐ	-730
ㄷㅏㄱㅏ	-731
▁ㅁㅏㄱ	-732
ㅇㅑㅇ	-733
ㅈㅓㅇㄷㅗ	-734
ㅇㅣㄹㅏㄱㅗ	-735
▁ㅎㅏㄱ	-736
▁ㅊㅣㄴ	-737
▁ㄱㅣㄹ	-738
▁ㅈㅏㅂ	-739
ㄴㅣㅁ	-740
▁ㄷㅐㅅㄱㅡㄹ	-741
ㅔㄱㅣ	-742
▁ㅁㅕㅇ	-743
▁ㄴㅜㄱ	-744
▁ㅁㅣㄹ	-745
ㅂㅓ	-746
▁ㅍㅣㄹ	-747
▁ㄴㅗㅁ	-748
▁ㅇㅣㅆㄷㅏ	-749
ㅇㅓㅆㄷㅏ	-750
▁ㅇㅓㅄㄷㅏ	-751
ㅅㅏㅁ	-752
▁ㄷㅚㄴ	-753
▁ㅇㅣㅁ	-754
ㅁㅕㄴㅅㅓ	-755
▁ㅇㅣㅅㅏㅇ	-756
▁ㄱㅣㅇㅓㅂ	-757
ㅈㅜㅅ	-758
ㅈㅡㅁ	-759
▁ㄱㅡㄴㄷㅔ	-760
ㄹㅣㄴㅡㄴ	-761
ㅂㅅㅣ	-762
ㅃㅏ	-763
▁ㅊㅜㄹ	-764
▁ㄱㅡㄹㅣㄱㅗ	-765
ㄱㅔㅆㅈㅣ	-766
▁ㅇㅏㅈㅣㄱ	-767
ㅇㅣㄴㅔ	-768
▁ㄸㅐ	-769
ㅇㅣㄴㄱㅏ	-770
ㅔㄴ	-771
▁ㅂㅗㅇ	-772
,,	-773
ㄱㅓㄷㅏ	-774
ㄹㅓ	-775
▁ㄷㅟ	-776
ㅅㅐ	-777
ㅗㅎㄱㅗ	-778
ㅁㅏㄴㅏ	-779
▁ㅎㅏㅈㅣ	-780
▁ㄱㅣㅅㅏ	-781
▁ㅅㅓㅁ	-782
▁ㅈㅓㅇㅂㅜ	-783
▁ㅍㅏㄴ	-784
ㅎㅜ	-785
ㅈㅏㅂ	-786
ㅕㅇㅑ	-787
ㅈㅜㄴㅡㄴ	-788
▁ㅎㅏㄴㅏ	-789
ㅇㅣㅇㅑ	-790
▁ㅇㅜㄴ	-791
▁ㄱㅘㅇ	-792
ㅏㄹㅣ	-793
ㅇㅔㄴㅡㄴ	-794
ㅓㄹㅇㅓ	-795
▁ㅈㅗㅎㅇㅏ	-796
▁ㅎㅘㄱ	-797
ㅇㅣㄴㅑ	-798
▁ㅇㅣㅁㅣ	-799
▁ㄱㅡㄹㅓㅁ	-800
▁ㅇㅡㅁ	-801
ㅌㅔㄴ	-802
ㅂㅗㅇ	-803
▁ㅇㅘㄴ	-804
▁ㅇㅣㄹㅓㅎㄱㅔ	-805
ㅎㅏㄴㅡㄴㄷㅔ	-806
▁ㄱㅜㄴ	-807
▁ㅎㅏㅁㅕㄴ	-808
ㅅㅓㄹ	-809
ㄷㅚㄴㅡㄴ	-810
OO	-811
▁ㄷㅏㅅㅣ	-812
ㅁㅗ	-813
ㅇㅣㄱㅏ	-814
▁ㅅㅗㄱ	-815
ㄷㅡㄱ	-816
ㅌㅡㄹ	-817
▁ㅂㅕㄹ	-818
ㄷㅏㅁ	-819
▁ㅊㅜㅇ	-820
▁ㅈㅓㄹㅓㄴ	-821
ㅕㅁ	-822
▁ㅍㅏㄹ	-823
▁ㅎㅐㅇㅑ	-824
▁ㄱㅕㄹㅎㅗㄴ	-825
▁ㄴㅐㄱㅏ	-826
OOO	-827
ㅅㅜㄴㅅㅣㄹ	-828
▁ㅇㅕㄴㅇㅖ	-829
ㄱㅡ	-830
▁ㄱㅡㄹㅓㅎㄱㅔ	-831
▁ㅍㅡㄹ	-832
▁ㅇㅣㅂㅓㄴ	-833
▁ㅇㅓㄹㅁㅏㄴㅏ	-834
ㅇㅣㅁㅕㄴ	-835
ㅔㅇㅣ	-836
▁ㅂㅗㅁㅕㄴ	-837
ㄱㅕㄹ	-838
▁ㄱㅡㅁㅏㄴ	-839
ㅇㅑㄱ	-840
▁ㅎㅏㄴㄷㅏ	-841
▁ㅂㅗㄹ	-842
ㄷㅓㄴㅣ	-843
▁ㄱㅓㅁ	-844
ㄹㅏㅇ	-845
▁ㅇㅡㅇ	-846
▁ㄷㅜ	-847
ㅌㅣㅇ	-848
ㅇㅣㄴㅡㄴ	-849
ㅊㅏㅇ	-850
ㄹㅕㄴ	-851
▁ㅈㅓㅇㅅㅣㄴ	-852
ㅎㅏㄴㅏ	-853
ㄷㅚㄴㄷㅏ	-854
ㅇㅏㅇㅑ	-855
ㅂㅗㅁㅕㄴ	-856
▁ㅇㅒ	-857
ㅌㅐㄱ	-858
▁ㅇㅓㄸㅓㅎㄱㅔ	-859
ㅈㅏㄴㅡㄴ	-860
▁20	-861
▁ㅂㅗㄱ	-862
ㅇㅏㄹ	-863
ㄱㅣㄴㅡㄴ	-864
▁ㅈㅏㄹㅁㅗㅅ	-865
ㅡㄷ	-866
ㅈㅜㄱㅗ	-867
▁ㅅㅟ	-868
▁ㄱㅖㅅㅗㄱ	-869
ㅍㅏㄹ	-870
▁ㅍㅕㄴ	-871
▁ㅊㅓㄴ	-872
ㅅㅡㅇ	-873
ㅇㅏㅁ	-874
ㅂㅗㄹ	-875
ㄷㅡㄹㅇㅢ	-876
▁ㅈㅚ	-877
▁ㅅㅓㅁㅣㄴ	-878
ㅅㅣㄱㅏㄴ	-879
ㅎㅐㅆㄷㅏ	-880
ㅣㄹㅗ	-881
ㅇㅔㄷㅗ	-882
▁ㄷㅚㄹ	-883
▁ㄴㅣ	-884
ㅜㅜ	-885
ㅎㅘㄹ	-886
;;	-887
ㄴㅗ	-888
▁ㅇㅝㄹ	-889
ㄷㅡㄹㅇㅡㄹ	-890
▁ㄴㅏㅇㅘ	-891
▁ㅁㅏㄶㅇㅡㄴ	-892
▁ㄴㅡㄲ	-893
▁ㅇㅏㄴㅣㄱㅗ	-894
ㅁㅓㄴ	-895
▁ㅇㅣㄱㅔ	-896
ㅃㅡㄴ	-897
ㅊㅜㅇ	-898
ㅓㅇㅜㄴ	-899
ㅌㅔㄴㄷㅔ	-900
▁ㅈㅔㅂㅏㄹ	-901
ㅇㅣㄴㅇㅣ	-902
▁ㅎㅏㅁ	-903
ㅎㅏㄴㅑ	-904
ㄱㅕㄱ	-905
▁ㄴㅜㄱㅏ	-906
▁ㄴㅜㅈㅣㄴ	-907
ㅕㄱㅗ	-908
ㅎㅘㅇ	-909
▁ㅅㅣㅀ	-910
ㅋㅡㅁ	-911
ㅇㅓㅆㄴㅡㄴㄷㅔ	-912
▁ㄷㅜㄹ	-913
ㅎㅘㄴ	-914
▁ㅂㅕㄴ	-915
▁ㅇㅛㅈㅡㅁ	-916
ㅊㅏㅁ	-917
▁ㅇㅜㄹㅣㄴㅏㄹㅏ	-918
▁ㅂㅜㄱ	-919
▁ㅁㅣㄷ	-920
▁ㄸㅗㄱ	-921
ㅇㅣㄱ	-922
ㄹㅣㄱㅗ	-923
ㅋㅔ	-924
▁ㅍㅣㄹㅇㅛ	-925
ㅎㅐㄱ	-926
ㅂㅏㄲ	-927
▁ㅎㅘㄴ	-928
▁ㅎㅜ	-929
ㅇㅔㅅㅓㄴ	-930
▁ㅌㅏㄴ	-931
▁ㅈㅓㅇㅊㅣ	-932
▁ㅇㅕㅈㅏ	-933
▁ㄱㅕㅇㅈㅔ	-934
▁ㅈㅗㄴ	-935
▁ㅈㅗㅅ	-936
▁ㅁㅗㄱ	-937
ㄴㅡㄴㄷㅏ	-938
▁ㅈㅣㄹ	-939
ㅎㅎ	-940
ㄱㅏㅈㅣ	-941
ㅂㅓㅁ	-942
▁ㅌㅏ	-943
▁ㅈㅓㄴㄱㅣ	-944
ㅇㅗ	-945
▁ㅅㅗㄹㅈㅣㄱ	-946
▁ㅊㅜ	-947
▁ㅇㅓㄴㅈㅔ	-948
ㅇㅣㄹㅏㄴ	-949
▁ㅋㅡㄴ	-950
▁ㅇㅗㄴㅡㄹ	-951
▁ㅂㅐㄱ	-952
ㅂㅅㅣㄷㅏ	-953
ㅣㄲ	-954
ㅈㅏㄶㅇㅏ	-955
ㅂㅜㄱ	-956
ㅂㅐㄱ	-957
▁ㅂㅏㅇㅅㅗㅇ	-958
▁ㅁㅔ	-959
▁ㅇㅣㅇㅠ	-960
ㅇㅏㅇㅛ	-961
▁ㅌㅡㄹ	-962
▁ㅅㅣㅋ	-963
▁ㅇㅓㄷㅣ	-964
ㄱㅓㅇㅑ	-965
▁ㅠㅠ	-966
▁7	-967
▁ㄷㅗㄱ	-968
▁ㄲㅗㄱ	-969
ㄴㅓㅁ	-970
ㅇㅣㄴㅈㅣ	-971
▁ㅅㅗㅇ	-972
▁ㅈㅔㄷㅐㄹㅗ	-973
▁6	-974
ㅇㅜㄹ	-975
▁ㅊㅏㄹ	-976
▁ㅎㅏㄴㅂㅓㄴ	-977
▁ㅇㅣㄱㅓㄴ	-978
ㅅㅏㄴㅡㄴ	-979
ㅇㅓㅄㅇㅣ	-980
▁ㅊㅚㅅㅜㄴㅅㅣㄹ	-981
▁ㄷㅏㅁ	-982
ㄱㅠ	-983
▁ㅈㅏㄱㅣ	-984
▁ㅊㅓㄹ	-985
ㅅㅗㄹㅣ	-986
ㅜㅇㅝㄴ	-987
ㅎㅏㅂ	-988
▁ㅎㅣㅁㄷㅡㄹ	-989
▁ㅂㅣㅆ	-990
ㅍㅗㄱ	-991
▁ㄷㅏㄺ	-992
▁ㅅㅏㅅㅣㄹ	-993
ㄷㅗㄱ	-994
▁ㅇㅓㅁㅊㅓㅇ	-995
ㅅㅟ	-996
▁..	-997
▁ㅊㅜㄱ	-998
▁OOO	-999
▁ㄷㅡㄹㅏㅁㅏ	-1000
ㅃㅏㄹ	-1001
▁ㅅㅏㄹㅏㅁㄷㅡㄹ	-1002
ㄹㅏㄷㅗ	-1003
ㅈㅣㅇㅏㄶ	-1004
ㄱㅜㄱㅁㅣㄴ	-1005
▁ㄷㅚㄴㅡㄴ	-1006
▁ㅊㅕ	-1007
▁ㅁㅗㄷㅡㄴ	-1008
ㄹㅕㄱㅗ	-1009
ㅎㅠ	-1010
ㄱㅐㅇ	-1011
▁ㅁㅏㄴㄷㅡㄴ	-1012
▁ㅎㅎ	-1013
ㅇㅓㄱㅏ	-1014
▁ㅍㅖ	-1015
▁ㅇㅕㄱㅣ	-1016
▁ㅅㅗㄹㅈㅣㄱㅎㅣ	-1017
▁ㄷㅙ	-1018
▁ㅊㅐㄱ	-1019
▁ㄱㅡㄹㅓㅎ	-1020
▁ㅎㅗㄴ	-1021
ㄹㅠㄹ	-1022
▁ㅊㅏㅇ	-1023
ㅈㅜㅇㅢ	-1024
▁ㄱㅣㄷㅐ	-1025
▁ㅁㅓㅅ	-1026
ㄹㅣㄹ	-1027
ㅓㅇㅝ	-1028
▁ㄱㅟ	-1029
▁...	-1030
ㅇㅣㅅㅏㅇ	-1031
ㅇㅕㄹ	-1032
ㅓㄴㅏ	-1033
ㄷㅓ	-1034
▁ㄲㅗㄹ	-1035
▁ㅁㅝㄹ	-1036
▁ㅅㅡㅌ	-1037
▁ㅎㅐㄱ	-1038
ㅌㅣ	-1039
▁ㅈㅗㄱ	-1040
ㅇㅜㄴ	-1041
ㅅㅐㄱ	-1042
ㅇㅗㄹ	-1043
▁ㅈㅡㅇ	-1044
ㄷㅗㅇㅇㅏㄴ	-1045
ㅈㅗㅅㅓㄴ	-1046
▁ㄱㅜㄹ	-1047
ㅏㄹㅡㄹ	-1048
ㄱㅔㅆㄴㅔ	-1049
▁ㅍㅐㄴ	-1050
▁ㅅㅏㄴㅡㄴ	-1051
ㅈㅕㅆ	-1052
ㅎㅏㅁㅕㄴㅅㅓ	-1053
▁ㅇㅕㅇㅎㅘ	-1054
ㅎㅏㄱㅣ	-1055
▁ㄷㅏㅇㅇㅕㄴ	-1056
▁ㅇㅏㅈㅜ	-1057
ㅈㅣㅇ	-1058
▁ㅅㅏㄹㅏㅁㅇㅣ	-1059
ㄲㅔ	-1060
ㅇㅡㄹㄲㅏ	-1061
ㅈㅓㄴㅇㅔ	-1062
ㄱㅣㄱㅏ	-1063
▁ㄴㅡㄹ	-1064
ㅇㅣㄹㅏㄷㅗ	-1065
ㄴㅡㅇ	-1066
▁ㅂㅗㅅ	-1067
▁ㅁㅗㄹㅡ	-1068
ㄹㅛ	-1069
▁100	-1070
▁ㄸㅏㄹ	-1071
▁ㅇㅓㄹㄱㅜㄹ	-1072
ㄹㅏㄱ	-1073
ㅇㅣㄹㅏㄴㅡㄴ	-1074
~~~~	-1075
ㄸㅐㅁㅜㄴㅇㅔ	-1076
ㄷㅐㅇ	-1077
ㅏㄹㅏㄱㅗ	-1078
ㅙㄴ	-1079
▁ㄷㅓㄹ	-1080
ㄱㅜㅁㅏㄴ	-1081
▁ㄴㅗㅇ	-1082
ㅃㅜㄴ	-1083
▁ㅃㅏ	-1084
ㅁㅏㄶ	-1085
ㅅㅗㄴ	-1086
ㅈㅜㅅㅔㅇㅛ	-1087
ㄷㅓㄱ	-1088
▁ㅌㅜ	-1089
▁ㅅㅏㄹㅏㅇ	-1090
ㅣㄹㅣ	-1091
ㄷㅚㄹ	-1092
▁ㅊㅟ	-1093
▁ㅇㅡㄴ	-1094
▁ㅅㅣㄱ	-1095
▁ㅇㅜ	-1096
▁ㅂㅕㅇ	-1097
ㅆㅣㄱ	-1098
▁ㅅㅣㄱㅏㄴ	-1099
ㅈㅐㅁ	-1100
ㅇㅣㄴㄷㅡㄹ	-1101
▁ㄴㅏㅇㅗㄴ	-1102
ㅓㅈㅣ	-1103
ㄷㅣㅇ	-1104
▁ㅇㅑㄱ	-1105
ㅅㅏㄱ	-1106
ㄷㅏㄴㅣ	-1107
ㄲㅐ	-1108
ㅂㅕㄹ	-1109
▁ㅇㅕㄱㅅㅣ	-1110
ㅍㅗ	-1111
ㄱㅣㅁ	-1112
ㄹㅑㅇ	-1113
▁ㅇㅘㄴㅈㅓㄴ	-1114
▁ㅃㅏㄹㄹㅣ	-1115
ㅁㅗㄱ	-1116
ㅈㅜㅇㅇㅔ	-1117
ㅂㅕㄴ	-1118
▁ㅆㅡㄹㅔㄱㅣ	-1119
▁ㄱㅕㄹㄱㅜㄱ	-1120
ㅋㅡ	-1121
▁ㅉㅣㄱ	-1122
ㅍㅐ	-1123
▁ㅇㅓㄴㄹㅗㄴ	-1124
ㄱㅏㅇㅛ	-1125
▁ㄸㅓㄹㅇㅓ	-1126
▁ㅇㅣㅎㅐ	-1127
ㅊㅣㄴㅡㄴ	-1128
......	-1129
▁ㅁㅏㄹㄱㅗ	-1130
ㅇㅡ	-1131
ㅁㅜㅇㅝㄴ	-1132
ㅅㅜㄱ	-1133
ㅇㅓㅄㄷㅏ	-1134
▁ㄱㅡㄹㅐㄷㅗ	-1135
ㄲㅣ	-1136
ㄹㅣㅁ	-1137
ㅋㅓㄴ	-1138
▁ㅈㅓㅇㄷㅗ	-1139
▁ㄸㅐㅁㅜㄴㅇㅔ	-1140
ㅁㅗㄹ	-1141
ㅊㅜ	-1142
▁ㄷㅐㄱㅣㅇㅓㅂ	-1143
▁"	-1144
ㅅㅣㄴㅡㄴ	-1145
▁ㅅㅣㅊㅓㅇ	-1146
ㅊㅗ	-1147
▁ㅁㅗㄷㅜ	-1148
ㅣㅂ	-1149
ㄱㅘㅇ	-1150
▁ㅁㅓㄴ	-1151
ㅆㄴㅔ	-1152
ㄱㅏㅅㅓ	-1153
▁ㄱㅗㄹ	-1154
▁ㅇㅚㄱㅜㄱ	-1155
ㅎㅓㅁ	-1156
ㅇㅓㄹㅏ	-1157
▁ㅈㅜㄴ	-1158
▁ㅎㅗㄱ	-1159
ㄱㅏㅌㅇㅣ	-1160
ㅆㅓ	-1161
ㅎㅐㅆㄴㅡㄴㄷㅔ	-1162
▁ㄴㅏㅇㅗ	-1163
▁ㅆㅡ	-1164
▁ㅎㅔㄹ	-1165
ㅎㅏㅇㅕ	-1166
ㅉㅗㄱ	-1167
ㄱㅗㅅ	-1168
▁ㅅㅡ	-1169
ㅇㅣㅆㄷㅏ	-1170
ㅆㅇㅡㅁㅕㄴ	-1171
ㄱㅓㄴㄷㅔ	-1172
ㅈㅣㄱㅏ	-1173
ㅡㅁㅕㄴ	-1174
▁ㅇㅓㅄㅇㅓ	-1175
▁ㄴㅔ	-1176
ㅊㅏㄴ	-1177
▁ㄱㅏㄱㅕㄱ	-1178
▁ㅅㅓ	-1179
▁ㅈㅓㅁ	-1180
ㅂㄱㅔ	-1181
ㅎㅏㄴㅡㄴㄱㅔ	-1182
▁ㅋㅋㅋㅋㅋㅋㅋㅋ	-1183
▁ㅊㅗ	-1184
▁ㄴㅐㅇ	-1185
▁ㅈㅏㅁ	-1186
▁ㅅㅔㅅㅏㅇ	-1187
▁ㄴㅓㅎ	-1188
▁ㅍㅗ	-1189
ㅇㅡㄹㄸㅐ	-1190
▁ㅊㅚㄱㅗ	-1191
▁ㄱㅣㅅㅏㅇ	-1192
▁ㅅㅓㅇㅜㄹ	-1193
▁ㄷㅏㅂ	-1194
????	-1195
▁ㄴㅐㄴ	-1196
▁ㄴㅗㄹㅐ	-1197
ㅣㄴㅔ	-1198
ㅕㅅㅓ	-1199
▁ㄷㅏㅇㅡㅁ	-1200
ㅎㅏㄴㅡㄴㄱㅓ	-1201
ㅌㅏㄹ	-1202
▁ㅈㅣㅋ	-1203
ㅎㅏㄴㄱㅓ	-1204
ㅊㅜㄱ	-1205
▁ㅍㅛ	-1206
▁ㅌㅏㄴㅎㅐㄱ	-1207
ㅍㅡ	-1208
▁8	-1209
▁ㅅㅏㅎㅚ	-1210
▁ㅉㅏㅇ	-1211
▁9	-1212
▁ㅂㅐㅇㅜ	-1213
ㅍㅕㅇ	-1214
▁ㅂㅣㅇ	-1215
▁ㄱㅙㄴ	-1216
ㄹㅔ	-1217
▁ㅇㅏㄹㄱㅗ	-1218
ㄱㅣㄷㅗ	-1219
▁ㅁㅜㄷㅗ	-1220
▁ㅉㅏ	-1221
▁ㅇㅏㅇ	-1222
▁ㄸㅗㅇ	-1223
▁ㄱㅏㅌㅇㅣ	-1224
ㅎㅏㄴㅣ	-1225
▁ㅉㅉ	-1226
ㅐㄱㅗ	-1227
ㅊㅣㅁ	-1228
ㅌㅏㄱ	-1229
▁ㅅㅜㅅ	-1230
ㄱㅣㅇㅔ	-1231
▁ㅊㅏㅈ	-1232
ㅂㅗㅅ	-1233
ㅊㅓㄱ	-1234
▁ㅌㅏㄹ	-1235
▁ㅅㅜㅈㅜㄴ	-1236
ㄱㅣㄹㅡㄹ	-1237
ㅈㅓㅂ	-1238
▁ㄴㅗㅍ	-1239
ㅅㅐㅇㄱㅏㄱ	-1240
ㅇㅓㄹ	-1241
ㅏㄴㄷㅏ	-1242
ㅎㅏㄴㄷㅔ	-1243
▁ㄹㅣ	-1244
ㄱㅏㄴㅡㄴ	-1245
▁ㄱㅓㅇ	-1246
ㅆㅈㅣ	-1247
ㄲㅡㄹ	-1248
▁ㄸㅏㄱ	-1249
ㅕㄹㅏ	-1250
ㅎㅛ	-1251
▁ㅁㅐㄴ	-1252
ㅋㅏ	-1253
▁ㅎㅏㅂ	-1254
▁ㅂㅐㅇ	-1255
▁ㅎㅕㅇ	-1256
▁ㅎㅗㅇ	-1257
▁ㄴㅏㅁㅈㅏ	-1258
ㅂㅘㄹㅏ	-1259
▁ㄱㅜㄱㅁㅣㄴㄷㅡㄹ	-1260
▁ㄴㅓ	-1261
ㅈㅣㄴㅉㅏ	-1262
ㅅㅣㄱㅗ	-1263
▁ㅅㅜㄹ	-1264
▁ㄷㅐㄷㅏㄴ	-1265
▁ㅅㅣㅈㅏㄱ	-1266
▁ㅇㅏㅍㅇㅡㄹㅗ	-1267
▁ㅇㅕㄴㅇㅖㅇㅣㄴ	-1268
▁ㅇㅏㄴㅣㄴㄱㅏ	-1269
▁ㄱㅡㄹㅐㅅㅓ	-1270
▁ㄱㅜㅅ	-1271
▁ㅅㅗㅅ	-1272
ㄷㅓㅁ	-1273
▁ㅊㅐㅇ	-1274
ㅇㅠㄱ	-1275
ㅈㅗㄴ	-1276
ㅇㅏㄹㅏ	-1277
ㄱㅓㄴㅑ	-1278
ㅓㄴㅡㄴ	-1279
ㅂㄴㅣㄲㅏ	-1280
▁ㄱㅡㄱㅔ	-1281
ㅇㅣㄴㅣ	-1282
ㅌㅡㄴ	-1283
ㅎㅏㄴㄷㅏㄱㅗ	-1284
▁ㅁㅓㄱㄱㅗ	-1285
▁ㄱㅓㄱ	-1286
▁ㅇㅓㄷ	-1287
ㅎㅑㅇ	-1288
ㅊㅔㄱㅏ	-1289
▁ㄱㅏㅂ	-1290
▁ㅁㅏㅇㅡㅁ	-1291
ㅁㅏㅈ	-1292
ㅗㅅㅂㅜㄹ	-1293
ㅅㅜㄱㅏ	-1294
ㅂㅗㄴㅡㄴ	-1295
ㄲㅓ	-1296
▁ㅃㅗㅂ	-1297
▁ㅇㅓㅄㄱㅗ	-1298
ㅈㅣㅁㅏㄹㅏ	-1299
▁ㅂㅡㄹ	-1300
▁ㅇㅣㅆㄴㅡㄴㄷㅔ	-1301
▁ㅈㅘ	-1302
▁ㅇㅔㅇㅓ	-1303
▁ㅌㅐ	-1304
ㅜㅇㅢ	-1305
ㅊㅣㄱㅗ	-1306
ㄴㅡㄴㅈㅣ	-1307
▁ㅂㅏㄹㅗ	-1308
▁ㅈㅗㅅㅓㄴ	-1309
▁ㅈㅓㄹㄷㅐ	-1310
▁ㄱㅜㅇ	-1311
▁ㅎㅠ	-1312
ㄹㅗㅇ	-1313
ㅇㅣㅌㅣㅇ	-1314
▁ㅁㅏㄹㅇㅣ	-1315
▁ㄴㅣㄷㅡㄹ	-1316
▁ㅆㅏ	-1317
▁ㅅㅏㄹㅏㅁㄷㅡㄹㅇㅣ	-1318
ㄷㅓㄹ	-1319
▁ㅁㅗㅁ	-1320
ㅇㅏㅁㅓㄱ	-1321
ㅎㅏㅈㅏ	-1322
▁ㄷㅔ	-1323
▁ㅎㅕㄴㅅㅣㄹ	-1324
▁ㅇㅏㅈㅣㄱㄷㅗ	-1325
▁ㅇㅓㄸㅓㄴ	-1326
▁ㅊㅏㄱ	-1327
▁ㅂㅗㄴㅡㄴ	-1328
ㅇㅚ	-1329
ㅡㄱㅔ	-1330
▁ㅇㅓㄱ	-1331
ㅓㄴㅔ	-1332
ㅅㅏㄱㅏ	-1333
▁ㅍㅣㅎㅐ	-1334
ㅈㅣㅁㅏㄹㄱㅗ	-1335
▁30	-1336
▁ㄴㅏㄱ	-1337
ㅎㅏㅅㅔㅇㅛ	-1338
ㄸㅏㅇ	-1339
▁ㅅㅏㄱㅗ	-1340
ㅜㅇㅛ	-1341
▁ㅈㅣㅇ	-1342
ㄱㅕㄴ	-1343
ㅂㅏㄲㅇㅔ	-1344
▁ㅎㅐㄹㅏ	-1345
ㅁㅓㄱㄱㅗ	-1346
▁ㅈㅣㅅ	-1347
▁ㄴㅏㄹㅏㄱㅏ	-1348
ㄲㅗㄹ	-1349
ㄸㅐㅁ	-1350
▁ㅅㅏㅇㅛㅇ	-1351
▁ㅂㅏㅂ	-1352
ㅆㅏㅇ	-1353
ㅜㅂ	-1354
ㄴㅏㄹㅏ	-1355
ㅊㅏㄶ	-1356
ㅎㅐㅇㅛ	-1357
ㅉㅉ	-1358
ㄱㅓㅅㅇㅣ	-1359
▁ㅇㅜㄹㅣㄴㅏㄹ	-1360
▁ㄴㅏㄷㅗ	-1361
▁ㄱㅗㅇㅁㅜㅇㅝㄴ	-1362
ㄱㅓㄴㅈㅣ	-1363
▁ㅇㅣㄱㅓ	-1364
▁ㅇㅓㅂ	-1365
ㅜㄴㅏ	-1366
▁ㅂㅓ	-1367
▁ㅇㅟㅎㅐ	-1368
▁ㄷㅣ	-1369
▁ㄱㅝㄴ	-1370
▁ㄱㅏㅈ	-1371
▁ㅅㅔㄱㅖ	-1372
▁ㅎㅐㅇㅂㅗㄱ	-1373
▁ㄱㅓㅂ	-1374
▁ㅁㅏㅅ	-1375
▁ㅇㅡㅇㅇㅝㄴ	-1376
▁ㅈㅐㅁㅣㅆ	-1377
▁ㄱㅜㄱㅎㅚ	-1378
▁ㄱㅏㅈㅏㅇ	-1379
▁ㅇㅏㄱㅍㅡㄹ	-1380
ㅊㅚ	-1381
▁ㅂㅗㅇㅕ	-1382
▁ㅁㅗㅇ	-1383
▁ㅇㅏㄴㅣㅁ	-1384
▁ㄱㅜㄱㄱㅏ	-1385
ㅕㅂ	-1386
▁ㅂㅣㄹ	-1387
▁ㅊㅐㄱㅇㅣㅁ	-1388
ㅅㅓㅇㅇㅣ	-1389
ㄷㅚㅁㅕㄴ	-1390
▁ㄱㅓㄱㅈㅓㅇ	-1391
ㅅㅏㄹㅡㄹ	-1392
▁ㅇㅣㅆㅇㅡㄹ	-1393
ㄱㅓㄴㄱㅏ	-1394
........	-1395
▁ㅌㅡㄱㄱㅓㅁ	-1396
▁ㅅㅡㅇ	-1397
ㅋㅣ	-1398
▁ㅁㅣㅊㅣㄴ	-1399
▁ㄱㅗㄱ	-1400
ㅡㄹㅗ	-1401
ㅅㅡㄹㅓㅂ	-1402
▁ㅁㅏㅁ	-1403
ㅇㅣㄷㅡㄹ	-1404
ㅐㅇㅑ	-1405
▁ㅁㅓㄹ	-1406
000	-1407
ㅇㅕㅆ	-1408
ㅅㄷㅏ	-1409
▁ㄱㅣㄷㅏㄹ	-1410
ㅆㅡㄹ	-1411
ㅅㅜㄷㅗ	-1412
▁ㅇㅣㅆㅇㅓㅆ	-1413
▁ㅈㅔㅇㅣㄹ	-1414
▁ㅈㅜㅇㅇㅛ	-1415
▁ㅍㅏ	-1416
ㄷㅚㄱㅗ	-1417
▁ㄱㅗㅁ	-1418
ㅎㅏㄹㅏ	-1419
▁ㅅㅗㄹㅣ	-1420
▁ㅊㅗㅅㅂㅜㄹ	-1421
ㅉㅐ	-1422
▁ㅊㅣ	-1423
▁ㅇㅣㄹㅂㅏㄴ	-1424
ㅔㅅㅓ	-1425
ㅁㅏㄴㅋㅡㅁ	-1426
ㄷㅏㅂ	-1427
▁ㅇㅛㅇ	-1428
ㄴㅡㄴㄱㅔ	-1429
▁ㅇㅔㅇㅓㅋㅓㄴ	-1430
ㅊㅣㄹ	-1431
▁ㅇㅏㄴㅣㄷㅏ	-1432
▁ㄲㅏ	-1433
▁ㅋㅐ	-1434
ㄱㅓㄴㅏ	-1435
ㅂㅜㅂㅜㄴ	-1436
ㅓㅄ	-1437
ㄲㅜ	-1438
▁ㅂㅜㅁ	-1439
ㄷㅙㅈㅣ	-1440
▁ㅎㅘㄹ	-1441
▁ㅂㅓㅁ	-1442
ㅅㅣㅁㅎㅣ	-1443
▁'	-1444
ㅅㅡㅁ	-1445
ㅏㅌㅡ	-1446
▁ㅈㅗㅎㄱㅔㅆㄷㅏ	-1447
ㅂㅏㅂ	-1448
▁ㄴㅗㄴ	-1449
▁ㅇㅓㅇ	-1450
▁ㅇㅏㄴㅡㄴ	-1451
ㅈㅓㅇㅂㅜ	-1452
▁ㅡㅡ	-1453
ㅅㅔㅁㅓㄴ	-1454
▁ㅂㅜㄱㅎㅏㄴ	-1455
▁ㅇㅣㄴㅈㅓㅇ	-1456
ㅊㅡㅇ	-1457
▁ㅎㅗ	-1458
ㅌㅜ	-1459
▁ㄱㅡㄱ	-1460
ㄷㅏㄱ	-1461
▁ㅈㅏㅅㅣㄴ	-1462
▁ㄲㅗ	-1463
▁ㅎㅐㅇㅚ	-1464
ㅈㅗㄱㅓㄴ	-1465
ㅅㅣㄱㅣㄹ	-1466
ㄱㅗㄱ	-1467
▁ㄱㅏㅌㄷㅏ	-1468
ㅊㅏㄱ	-1469
ㅏㄴㅡㄴㄷㅔ	-1470
▁ㅈㅗㄹ	-1471
▁ㄱㅡㅂ	-1472
ㅏㅁㅏㄴ	-1473
ㅍㅓ	-1474
▁ㄷㅐㅂㅏㄱ	-1475
ㄱㅏㄱㅗ	-1476
ㅊㅟ	-1477
▁ㄷㅡㅅ	-1478
ㅇㅗㄴ	-1479
ㅇㅠㄹ	-1480
▁ㅎㅏㄱㅔ	-1481
▁ㄱㅘㄴㅅㅣㅁ	-1482
▁ㅋㅋㅋㅋㅋ	-1483
▁ㅈㅗㄱㅡㅁ	-1484
▁ㅌㅓ	-1485
▁ㅎㅢ	-1486
ㅓㅂㅓㄹ	-1487
ㅊㅏㅍㅣ	-1488
ㄷㅐㅊㅔ	-1489
ㄴㅡㄴㄱㅓ	-1490
▁ㄱㅑㅇ	-1491
▁ㄱㅓㅈㅣㅅ	-1492
ㄷㅚㅁ	-1493
▁ㄷㅏㄷㅡㄹ	-1494
▁ㅎㅘㅇ	-1495
▁ㅎㅏㄴㅡㄴㄷㅔ	-1496
ㄱㅡㄹㅐ	-1497
ㅍㅣㄹ	-1498
▁ㄱㅔㅇㅣㅁ	-1499
▁ㅌㅐㄱ	-1500
▁ㅊㅗㅇ	-1501
▁ㄷㅏㅇㅅㅣㄴ	-1502
ㅅㅜㅇㅣㅆ	-1503
▁ㅊㅓㅇㅡㅁ	-1504
▁ㄸㅏㅇ	-1505
ㅂㅗㄴㅣ	-1506
ㅈㅗㄹ	-1507
ㅇㅣㅅ	-1508
▁ㅈㅓㄴㅂㅜ	-1509
▁ㅇㅣㄴㅅㅐㅇ	-1510
ㅜㅅㅏㄴ	-1511
▁ㄱㅜㄴㄷㅐ	-1512
ㅂㅐㅇ	-1513
▁ㅆㅡㄴㅡㄴ	-1514
▁ㅁㅏㄴㄷㅡㄹㅇㅓ	-1515
▁ㅍㅖㅈㅣ	-1516
ㅎㅏㄹㄸㅐ	-1517
▁ㅎㅏㄹㅜ	-1518
ㅅㅣㅍㄷㅏ	-1519
▁ㅋㅡㄹ	-1520
▁ㅅㅜㅁ	-1521
▁ㅂㅏㄺ	-1522
▁ㅇㅣㅈㅔㄴ	-1523
ㅐㄴㅜㄹㅣ	-1524
ㄱㅓㅅㄷㅡㄹ	-1525
▁ㅍㅜㄹ	-1526
▁ㅁㅕㄴ	-1527
▁ㄱㅏㄴㅡㅇ	-1528
ㅇㅣㅇㅓㅆ	-1529
▁ㄹㅗ	-1530
▁ㄴㅏㄴㅡㄴ	-1531
ㅉㅣㄱ	-1532
ㄴㅏㅇㅛ	-1533
ㅂㅜㄴㅡㄴ	-1534
▁ㄱㅏㅌㅇㅡㄴㄷㅔ	-1535
▁ㅇㅝㄹㄱㅡㅂ	-1536
ㅍㅜㅇ	-1537
▁ㅇㅏㄴㅣㄹ	-1538
▁ㅆㅏㅇ	-1539
ㅅㅣㅂ	-1540
▁ㄴㅜㅈㅣㄴㅅㅔ	-1541
ㄱㅟ	-1542
▁ㅎㅐㄷㅗ	-1543
ㅆㅇㅡㅁ	-1544
ㅡㅇㄹㅕㄱ	-1545
ㅇㅏㅆㄷㅏ	-1546
ㅇㅔㅅㅓㄴㅡㄴ	-1547
ㄷㅗㄹㅗㄱ	-1548
ㅌㅡㄱ	-1549
ㅂㅡㄹ	-1550
▁ㄸㅏ	-1551
▁~	-1552
ㅌㅚ	-1553
▁ㄷㅡㄷ	-1554
▁ㅋㅓ	-1555
▁ㅇㅏㅁㅜ	-1556
▁ㅂㅗㅎ	-1557
▁ㅇㅐㄷㅡㄹ	-1558
ㅍㅡㄹㅗ	-1559
▁ㅁㅜㄱ	-1560
▁ㅅㅗㅂㅣ	-1561
ㄷㅐㅎㅏㄴ	-1562
▁ㄴㅏㅇㅗㄴㅡㄴ	-1563
▁ㅇㅣㅃ	-1564
ㄱㅣㄱㅗ	-1565
▁ㅅㅡㄹ	-1566
ㅋㅡㄹ	-1567
▁ㅈㅏㅇㄴㅏㄴ	-1568
ㅊㅐ	-1569
▁ㅋㅏ	-1570
▁ㅁㅝㄱㅏ	-1571
ㅆㄴㅑ	-1572
▁ㄴㅗㅎ	-1573
ㅈㅣㄴㄷㅏ	-1574
ㄱㅏㅌㄷㅏ	-1575
ㅂㅗㄱㅓㅁ	-1576
ㅡㄴㄷㅏ	-1577
▁ㄷㅓㅇ	-1578
ㅈㅐㅅㅓㄱ	-1579
ㅏㅇㅔㅅㅓ	-1580
▁ㅆㅓㄱ	-1581
▁ㅈㅣㄴㅅㅣㅁ	-1582
▁ㅇㅓㅈㅔ	-1583
▁ㅎㅏㅇㅅㅏㅇ	-1584
▁ㅎㅏㅂㄴㅣㄷㅏ	-1585
ㅇㅣㄹㅓㄴ	-1586
▁ㄷㅚㄴㄷㅏ	-1587
▁s	-1588
ㅍㅖ	-1589
▁ㅇㅏㅁㅜㄹㅣ	-1590
ㅍㅣㅇ	-1591
ㅊㅓ	-1592
ㅇㅓㅅ	-1593
▁ㅁㅗㅅㅡㅂ	-1594
ㅎㅏㅁㅕ	-1595
▁ㅃㅐ	-1596
▁ㄱㅐㅇㅣㄴ	-1597
ㅎㅘㄱ	-1598
ㄷㅗㅇㅅㅏㄴ	-1599
▁ㄱㅡㄹㅓ	-1600
ㅇㅜㅅ	-1601
▁ㅁㅗㄹㅡㄴㅡㄴ	-1602
ㄷㅜㄹ	-1603
▁ㅉㅗㄱ	-1604
ㄷㅡㄹㅇㅔㄱㅔ	-1605
ㅆㅣㄴ	-1606
▁?	-1607
▁ㄱㅓㅇㅢ	-1608
ㄷㅓㄴㄱㅏ	-1609
ㅎㅏㄴㄱㅔ	-1610
ㄱㅔㅆㅈㅣㅁㅏㄴ	-1611
▁ㅈㅓㅂ	-1612
▁ㅁㅣㅅㅔㅁㅓㄴ	-1613
▁ㄷㅐㅅㅏㅇ	-1614
▁ㅇㅏㄴㅣㅁㅕㄴ	-1615
ㅏㅇㅑ	-1616
▁ㅇㅕㄹㅅㅣㅁㅎㅣ	-1617
▁ㄴㅠ	-1618
ㄲㅏㅇㅛ	-1619
▁ㅂㅓㄴ	-1620
▁ㅎㅐㅅㅓ	-1621
ㅅㅓㄴㅡㄴ	-1622
ㅇㅏㅆㄴㅡㄴㄷㅔ	-1623
▁ㅊㅣㅁ	-1624
ㄲㅏㅇ	-1625
▁ㅇㅓㅊㅏㅍㅣ	-1626
▁ㅁㅜㅈㅗㄱㅓㄴ	-1627
ㅏㄹㅗ	-1628
▁ㅇㅓㅄㅇㅐ	-1629
ㅂㅘㅇㅑ	-1630
10	-1631
ㄱㅏㅂ	-1632
ㅗㄱㅡㄹ	-1633
ㄸㅏㄴ	-1634
▁ㄴㅜㅈㅣㄴㅈㅔ	-1635
▁ㅈㅓㅇㄱㅝㄴ	-1636
ㄹㅏㄴㅡㄴ	-1637
ㅇㅢㅇㅝㄴ	-1638
ㄹㅣㅁㅕㄴ	-1639
▁ㅎㅘㅇㅣㅌㅣㅇ	-1640
ㅣㅈㅣ	-1641
ㅎㅏㅈㅣㅁㅏㄴ	-1642
▁ㄱㅏㅈㅣㄱㅗ	-1643
▁ㅈㅗㅅㅏ	-1644
ㅇㅡㄴㄷㅔ	-1645
ㄹㅣㄱ	-1646
ㅈㅏㄹㅡㄹ	-1647
▁ㅇㅏㅇㅣㅍㅗㄴ	-1648
▁ㄱㅡㄱㅓㄹ	-1649
ㅣㄴㅏ	-1650
▁ㅎㅗㄴㅈㅏ	-1651
▁ㅎㅔㄹㅈㅗㅅㅓㄴ	-1652
ㅋㅋㅋㅋㅋ	-1653
▁ㄸㅏㄹㅏ	-1654
ㅇㅙ	-1655
ㅈㅗㅅ	-1656
▁ㅊㅜㄱㅎㅏ	-1657
▁ㅁㅓㅇ	-1658
ㅇㅏㅍ	-1659
ㅉㅏㄱ	-1660
ㅕㄴㅡㄴ	-1661
ㅇㅡㅁㅕㄴㅅㅓ	-1662
▁ㅅㅏㅇㅎㅘㅇ	-1663
▁ㅇㅗㄹㅐ	-1664
▁ㅇㅣㅆㄱㅗ	-1665
▁ㅇㅣㄹㅡㅁ	-1666
ㅋㅋㅋㅋㅋㅋㅋㅋㅋㅋㅋㅋㅋㅋㅋㅋ	-1667
ㅇㅛㄱ	-1668
ㅇㅜㄱ	-1669
▁ㅎㅓㄹ	-1670
▁ㄲㅐ	-1671
ㅂㅏㄷㄱㅗ	-1672
▁ㄴㅏㅈ	-1673
▁ㅈㅏㄴ	-1674
▁ㄷㅏㅁㅂㅐ	-1675
▁ㄴㅜㄱㅜ	-1676
▁ㅇㅓㅄㅇㅣ	-1677
▁ㄱㅜㄱㄴㅐ	-1678
ㅏㄶ	-1679
ㅅㅣㄷㅐ	-1680
▁ㅁㅓㄹㅣ	-1681
ㅆㅡ	-1682
▁ㅃㅓㄴ	-1683
▁ㄷㅗㄴㅇㅣ	-1684
ㅈㅏㅇㅇㅣ	-1685
▁ㄴㅏㅇㅣ	-1686
ㅇㅣㄹㅇㅣ	-1687
ㅅㅕㅆ	-1688
ㄱㅕㅆ	-1689
▁ㅌㅣ	-1690
ㅏㄷㅏ	-1691
▁ㅋㅣㅇ	-1692
ㅎㅐㅇㅑㅈㅣ	-1693
▁ㅇㅗㄹㄹㅕ	-1694
ㅝㅇㅑ	-1695
▁ㅆㅓ	-1696
▁ㅎㅏㄴㅅㅣㅁ	-1697
▁ㅇㅠㅈㅐㅅㅓㄱ	-1698
▁ㅇㅏㅅㅟ	-1699
ㄷㅡㄹㅁㅏㄴ	-1700
ㄴㅏㄱ	-1701
▁ㄴㅚ	-1702
▁ㅂㅜㅌ	-1703
▁ㅅㅏㅈㅣㄴ	-1704
▁ㅎㅓㄴ	-1705
▁ㅍㅗㄴ	-1706
ㅌㅓㄹ	-1707
ㄹㅣㅂ	-1708
▁ㅇㅗㅎ	-1709
▁ㅌㅐㅇ	-1710
▁ㅅㅜㄴㅅㅣㄹ	-1711
ㅈㅣㅁㅏ	-1712
▁ㄱㅏㅈㅗㄱ	-1713
ㅈㅏㄷㅡㄹㅇㅣ	-1714
ㅇㅓㅁ	-1715
ㅅㅜㅇ	-1716
ㅇㅔㅅㅓㄷㅗ	-1717
▁ㅅㅣㅊㅓㅇㄹㅠㄹ	-1718
ㅣㄲㅏㄴ	-1719
▁ㄴㅡㄲㅣㅁ	-1720
ㅣㄹㅕ	-1721
ㅊㅜㄴ	-1722
ㄷㅓㅁㅏㄴ	-1723
ㄱㅓㅅㅇㅣㄷㅏ	-1724
ㄸㅐㄴ	-1725
▁ㅌㅚ	-1726
ㅈㅓㅇㅇㅣ	-1727
▁ㅂㅗㄱㅣ	-1728
▁ㅇㅝㄴㄹㅐ	-1729
▁ㅂㅏㄷㅇㅏ	-1730
ㅇㅓㅄㄱㅗ	-1731
▁ㄱㅜㅅㅗㄱ	-1732
▁ㅅㅔㅇㅝㄹ	-1733
▁ㅈㅓㄹㅓㅎㄱㅔ	-1734
▁ㄱㅙㄴㅊㅏㄶ	-1735
▁ㄷㅗㄷㅐㅊㅔ	-1736
▁ㅈㅏㅅㅣㄱ	-1737
▁ㅆㅡㄴ	-1738
ㄱㅔㅆㄴㅑ	-1739
ㅇㅏㄴㅣㄴ	-1740
▁19	-1741
▁ㅂㅜㄷㅗㅇㅅㅏㄴ	-1742
ㄷㅜㄱ	-1743
▁ㄱㅏㄴㅡㄴ	-1744
▁ㄱㅣㅂㅗㄴ	-1745
▁ㅅㅏㄹㅏㅁㅇㅡㄴ	-1746
ㅏㅇㅢ	-1747
▁ㅇㅒㄱㅣ	-1748
ㅏㅇㅣ	-1749
ㅈㅣㅁㅕㄴ	-1750
ㄱㅡㄴㅔ	-1751
ㅑㄱ	-1752
▁ㄴㅏㅇㅗㄹ	-1753
▁ㄲㅡㄹ	-1754
ㄷㅜㅇ	-1755
▁ㅊㅏㄹㅏㄹㅣ	-1756
ㄸㅗ	-1757
ㄴㅗㄹ	-1758
ㅂㅜㅌ	-1759
ㅁㅂㅓ	-1760
▁ㅂㅏㄴㄷㅐ	-1761
▁ㅂㅔ	-1762
ㅇㅡㄹㄷㅡㅅ	-1763
▁ㅇㅗㅅ	-1764
ㄴㅗㅁㄷㅡㄹ	-1765
▁ㄱㅣㅇㅓㄱ	-1766
ㅝㅅㅓ	-1767
▁(	-1768
ㅜㄹㅗ	-1769
▁ㅊㅓㅁ	-1770
ㅍㅐㄴ	-1771
ㄹㅕㄱㅇㅣ	-1772
ㄷㅡㄴㅡㄴ	-1773
ㅏㄴㅣ	-1774
ㅁㅐㄴ	-1775
ㄲㅣㄷㅡㄹ	-1776
ㅅㅡㅌㅡ	-1777
▁ㅃㅜㄴ	-1778
ㅎㅣㅁ	-1779
ㄱㅓㄹㅣ	-1780
▁ㄴㅡㅇㄹㅕㄱ	-1781
▁ㅎㅐㄱㅕㄹ	-1782
ㅋㅗ	-1783
ㄷㅐㅌㅗㅇㄹㅕㅇ	-1784
▁ㅎㅝㄹ	-1785
ㅅㅜㄹㅗㄱ	-1786
▁ㅂㅣㄴ	-1787
▁ㅎㅘㄱㅅㅣㄹ	-1788
▁ㅇㅣㄴㅌ	-1789
ㅂㅣㄴ	-1790
ㅎㅏㄴㄷㅏㄴㅡㄴ	-1791
ㄱㅣㅅㅏ	-1792
ㄷㅓㅇ	-1793
ㅈㅣㅁㅏㄱ	-1794
ㄻㅇㅡㄴ	-1795
▁ㄱㅠ	-1796
ㄷㅡㄹㅇㅓ	-1797
▁ㅎㅏㅈㅣㅁㅏㄴ	-1798
▁50	-1799
▁ㅈㅓㅇㅊㅐㄱ	-1800
ㅏㄱㅏ	-1801
▁ㅇㅓㄴㅡ	-1802
ㅇㅣㄴㅇㅡㄴ	-1803
▁ㅁㅗㄹㄹㅏ	-1804
ㄱㅡㄹㅓㄴ	-1805
▁ㄱㅡㄹㅣ	-1806
20	-1807
▁ㅇㅣㅇㅛㅇ	-1808
▁ㅁㅣㄴㅈㅜ	-1809
▁ㅊㅔ	-1810
▁ㅂㅏㄱㅂㅗㄱㅓㅁ	-1811
ㅅㅡㅂ	-1812
▁ㄱㅏㅈㅓㅇ	-1813
ㅘㅆ	-1814
▁ㄱㅓㄴㄱㅏㅇ	-1815
ㅎㅕㄱ	-1816
ㅓㅂㅜㄴ	-1817
▁ㅇㅏㄶㄴㅡㄴ	-1818
▁ㄱㅜㄱㅁㅣㄴㅇㅣ	-1819
ㅓㅇㅑ	-1820
▁ㅇㅘㅇ	-1821
▁-	-1822
ㅏㄷㅗ	-1823
▁ㅂㅓㅁㅈㅚ	-1824
▁ㄱㅓㅅㄷㅗ	-1825
▁ㄱㅐㄹ	-1826
ㅕㅆㄷㅏ	-1827
▁ㅇㅖㄴㅡㅇ	-1828
ㅈㅝㅇㅑ	-1829
▁,	-1830
▁ㄱㅓㅁㅊㅏㄹ	-1831
▁ㅁㅓ	-1832
▁ㅈㅣㅇㅝㄴ	-1833
ㅂㅘㅆ	-1834
ㅠㄹ	-1835
▁ㅇㅔㄹ	-1836
ㅇㅣㅈㅔ	-1837
ㄸㅏㄱ	-1838
ㅇㅏㄷㅗ	-1839
▁ㄴㅗㅌㅡ	-1840
▁ㅅㅜㅇㅣㅂ	-1841
ㅎㅗㄱ	-1842
ㅅㅣㅀ	-1843
▁ㅇㅜㅇ	-1844
▁ㅠ	-1845
▁ㅁㅐㄴㄴㅏㄹ	-1846
▁ㄷㅐㅂㅜㅂㅜㄴ	-1847
▁ㄱㅣㅅㅏㅇㅊㅓㅇ	-1848
ㄷㅐㄴㅡㄴ	-1849
▁ㅂㅣㅈ	-1850
ㅂㅜㅇ	-1851
ㅈㅜㅁㅕㄴ	-1852
▁ㅇㅣㅆㅇㅡㅁ	-1853
▁ㅇㅐㅍㅡㄹ	-1854
▁ㅁㅜㄴㅈㅔㄱㅏ	-1855
ㅇㅡㄹㅌㅔㄴㄷㅔ	-1856
▁S	-1857
▁ㄱㅜㅇㄱㅡㅁ	-1858
ㄷㅐㄱㅏㄹ	-1859
▁ㅇㅣㄹㅐ	-1860
▁ㅁㅣㅊ	-1861
ㅝㄹㅏ	-1862
ㅇㅏㄱㅏ	-1863
▁ㅅㅏㄱㅘ	-1864
▁ㅈㅣㄷㅡㄹ	-1865
ㄷㅐㄱㅏ	-1866
▁ㅎㅓ	-1867
ㅋㅣㅇ	-1868
ㅡㄷㅏ	-1869
ㅌㅏㅇ	-1870
ㅋㅓ	-1871
ㅎㅏㄴㄱㅓㄴ	-1872
▁ㅇㅏㄴㄷㅚㄴㅡㄴ	-1873
ㅊㅗㅇ	-1874
▁ㄷㅡㄹㅏㅁ	-1875
▁ㄷㅡㄹㅇㅓㅇ	-1876
ㅘㅇ	-1877
ㄱㅏㄱㅏ	-1878
ㄱㅓㄹㄹㅗ	-1879
ㄷㅡㄹㄱㅗ	-1880
▁ㅇㅠㄴ	-1881
ㅅㅜㅅ	-1882
▁ㅂㅜㄹㅆㅏㅇ	-1883
▁ㄱㅐㄷㅙㅈㅣ	-1884
▁ㄴㅣㄷㅡㄹㅇㅣ	-1885
ㅎㅏㄱㅔㅆ	-1886
▁ㄱㅜㄱㅁㅣㄴㅇㅡㄹ	-1887
▁ㄷㅗㄴㅇㅡㄹ	-1888
▁ㄱㅏㅁㅅㅏ	-1889
▁ㅂㅜㅅㅏㄴ	-1890
ㅘㅅㅓ	-1891
ㅅㅔㄱㅡㅁ	-1892
▁ㄱㅐㄴ	-1893
▁ㅇㅟㅎㅏㄴ	-1894
▁ㄱㅗㅅㅐㅇ	-1895
▁ㄷㅐㅊㅔ	-1896
▁ㅇㅏㄶㄱㅗ	-1897
ㄷㅟ	-1898
ㄴㅗㅎㄱㅗ	-1899
▁ㅇㅣㅇㅑ	-1900
ㄱㅗㄹ	-1901
▁ㅂㅏㄲㅇㅔ	-1902
ㅁㅝ	-1903
ㅈㅡ	-1904
▁ㄴㅏㅃㅡㄴ	-1905
ㅂㅔ	-1906
▁ㅅㅣㅍㄷㅏ	-1907
▁ㅂㅗㄴㅐ	-1908
▁ㅈㅗㅎㄱㅔㅆ	-1909
▁ㅇㅏㄴㅣㄴㅑ	-1910
,,,	-1911
▁ㅅㅏㄱㅓㄴ	-1912
ㅈㅗㅎㅇㅡㄴ	-1913
▁ㄱㅐㄱ	-1914
▁ㅅㅓㅂ	-1915
ㅇㅡㅇ	-1916
ㄱㅓㄱㅗ	-1917
▁ㅅㅏㄹㅏㅁㄷㅡㄹㅇㅡㄴ	-1918
▁ㄱㅣㅎㅚ	-1919
ㅈㅏㄹㅣ	-1920
▁ㄱㅓㅅㅇㅣ	-1921
ㅃㅓㄴ	-1922
ㅎㅏㄹㅅㅜ	-1923
▁ㄱㅣㅅㅜㄹ	-1924
▁ㄱㅓㅅㅇㅣㄷㅏ	-1925
ㄴㅕ	-1926
▁ㅂㅣㄱㅛ	-1927
▁ㅅㅏㄹㅏ	-1928
ㅈㅏㄱㅣ	-1929
▁ㄱㅜㄱㅁㅣㄴㄷㅡㄹㅇㅣ	-1930
▁ㄱㅣㄴ	-1931
ㅂㅜㄴㄷㅡㄹ	-1932
ㅓㅁㅕㄴ	-1933
ㅗㄱㅡㄹㅐㅁ	-1934
ㅌㅗ	-1935
ㅈㅣㄹㅡㄹ	-1936
▁ㄸㅐㅁㅜㄴ	-1937
ㄴㅏㄱㅔ	-1938
ㄷㅏㄴㅡㄴㄷㅔ	-1939
▁ㅊㅓㅂㅓㄹ	-1940
▁ㅇㅓㄹㅁㅏ	-1941
ㅂㅕㄱ	-1942
ㅈㅏㄴㅏ	-1943
▁ㅅㅓㄴㄷㅗㅇ	-1944
▁ㅇㅓㅄㅇㅡㅁ	-1945
ㅓㅂㄷㅏ	-1946
ㅠㅠㅠㅠ	-1947
ㄹㅓㄱ	-1948
▁ㅈㅐㅂㅓㄹ	-1949
ㄷㅗㅇㅏㄴ	-1950
//	-1951
▁ㅇㅜㄴㅈㅓㄴ	-1952
ㄴㅏㄴㅡㄴ	-1953
ㅣㄴㄷㅏ	-1954
▁ㅇㅓㅉㅓㄹ	-1955
▁ㅈㅏㄲㅜ	-1956
ㅈㅣㄱㅡㅁ	-1957
▁ㅂㅏㄲㅟ	-1958
▁ㅇㅓㅉㅣ	-1959
▁ㄴㅗㄹㅕㄱ	-1960
▁ㅊㅓㅇㅇㅘ	-1961
▁ㅁㅏㅈㅣㅁㅏㄱ	-1962
▁ㄹㅏ	-1963
▁ㄱㅓㄷ	-1964
ㅇㅓㅇㅑㅈㅣ	-1965
ㅎㅏㄴㅡㄴㄱㅓㄴ	-1966
ㅉㅏㅇ	-1967
▁ㅇㅕㅅㅓㅇ	-1968
▁ㅂㅗㄴㅇㅣㄴ	-1969
ㅌㅐㅇ	-1970
▁ㅎㅔ	-1971
▁ㅈㅓㅇㅅㅏㅇ	-1972
ㄱㅏㅌㅇㅡㄴㄷㅔ	-1973
ㅅㅐㅇㅎㅘㄹ	-1974
▁ㄱㅓㄱㅣ	-1975
ㅈㅔㄹㅗ	-1976
▁ㅎㅐㅁ	-1977
ㅕㅇㅛ	-1978
ㅍㅔ	-1979
ㅃㅏㅇ	-1980
▁ㄱㅕㅇㅊㅏㄹ	-1981
ㅇㅣㅆㄱㅗ	-1982
ㅎㅓㄴ	-1983
ㅇㅣㄴㄷㅡㅅ	-1984
ㅎㅜㄴ	-1985
ㅈㅣㄴㄱㅜㄱ	-1986
ㅁㅏㄴㅎㅏㄴ	-1987
ㅅㅕㄴ	-1988
▁ㄷㅡㄹㅇㅓ	-1989
▁ㅡ	-1990
ㅌㅏㅅ	-1991
▁ㅎㅕㄴㄷㅐ	-1992
▁ㄷㅟㅅ	-1993
▁ㅁㅝㄴㄱㅏ	-1994
ㄹㅕㅅㅓ	-1995
▁ㅈㅟ	-1996
ㄱㅏㅁㅕㄴ	-1997
▁ㄴㅐㅇㅛㅇ	-1998
ㄲㅏㄴ	-1999
ㅅㅏㅇㅔ	-2000
ㅎㅏㄷㅓㄴ	-2001
▁ㅇㅜㄹㅣㄱㅏ	-2002
ㄴㅏㅅㅓ	-2003
▁ㅅㅏㄱㅣ	-2004
ㅈㅡㄴ	-2005
ㄷㄷ	-2006
▁15	-2007
▁ㅂㅕㄹㄹㅗ	-2008
ㅗㄹㅡㄹ	-2009
▁ㄱㅓㅈㅣㅅㅁㅏㄹ	-2010
▁ㅈㅣㅂㄱㅏㅄ	-2011
ㅎㅕㅁ	-2012
ㅎㅐㅆㄷㅓㄴ	-2013
▁ㅁㅓㄴㅈㅓ	-2014
▁ㅅㅣㄴㄱㅕㅇ	-2015
▁ㅎㅣㅁㄷㅡㄴ	-2016
ㄱㅡㄱ	-2017
▁ㅇㅏㅇㅣㄷㅗㄹ	-2018
ㅍㅜㄹ	-2019
▁ㄷㅓㄱ	-2020
ㅁㅏㄴㅇㅔ	-2021
ㄱㅓㅅㅇㅡㄹ	-2022
▁ㅇㅣㄹㄷㅏㄴ	-2023
▁ㅇㅏㄴㅌㅏ	-2024
ㅊㅣㅇ	-2025
▁ㅇㅗㅎㅣㄹㅕ	-2026
ㄲㅣㄹㅣ	-2027
▁ㅎㅚㅅㅏ	-2028
▁ㅁㅣㅅㅔㅁㅓㄴㅈㅣ	-2029
▁200	-2030
ㅇㅡㄴㅣㄲㅏ	-2031
▁ㅊㅏㄴ	-2032
ㅎㅐㅆㅇㅡㅁㅕㄴ	-2033
▁ㅅㅏㄴㅇㅓㅂ	-2034
ㄹㅣㄱㅏ	-2035
ㄱㅓㅅㅇㅡㄴ	-2036
!!!!!	-2037
ㄱㅡㄴㅑㅇ	-2038
ㅅㅣㄱㅇㅡㄹㅗ	-2039
▁ㅅㅓㄹㅗ	-2040
ㅁㅏㅅ	-2041
▁ㅈㅓㅇㅂㅜㄱㅏ	-2042
▁ㄷㅏㅇㅇㅕㄴㅎㅣ	-2043
▁ㄱㅓㅈㅣ	-2044
▁ㅊㅓ	-2045
ㅎㅓ	-2046
ㅁㅕ	-2047
▁ㅇㅣㅆㅇㅡㅁㅕㄴ	-2048
.......	-2049
▁ㅇㅏㄴㄴㅏㅇ	-2050
ㅈㅣㅁㅏㄹ	-2051
▁ㅈㅏㄱㅍㅜㅁ	-2052
▁ㄴㅕㄴ	-2053
▁ㅅㅐㄴㅜㄹㅣ	-2054
▁ㅇㅗㄹㄹㅏ	-2055
ㅜㄱㅣ	-2056
▁ㅈㅓㄴㅅㅔ	-2057
ㄱㅏㅈㅣㄱㅗ	-2058
▁ㄴㅏㄹㅏㄹㅡㄹ	-2059
▁ㅅㅡㅁ	-2060
ㅂㅗㅁ	-2061
▁ㄱㅡㄷㅗㅇㅇㅏㄴ	-2062
▁ㅈㅓㅇㅈㅜㄴ	-2063
ㅅㅜㅈㅜㄴ	-2064
▁ㅎㅡㄹ	-2065
▁ㅎㅟ	-2066
▁ㅆㅏㄱ	-2067
▁ㅍㅕㅇㅅㅐㅇ	-2068
▁ㅎㅐㅇㄷㅗㅇ	-2069
▁ㅇㅏㅇㅣㅇㅠ	-2070
▁ㅇㅖㅅ	-2071
▁ㄱㅕㄹㄱㅘ	-2072
ㄷㅡㄹㅎㅏㄴㅌㅔ	-2073
ㅇㅣㄴㄷㅏ	-2074
▁ㄸㅓ	-2075
▁ㄱㅜㄱㅁㅣㄴㅇㅢ	-2076
▁ㄹㅔ	-2077
ㅎㅗㅇ	-2078
▁ㅌㅡㄱㅎㅣ	-2079
▁ㅇㅓㄹㅣㄴ	-2080
▁ㅎㅏㅁㅕㄴㅅㅓ	-2081
ㄲㅡㅁ	-2082
ㄷㅗㄱㅏ	-2083
▁ㅎㅡㅇ	-2084
▁ㄱㅡㄹㅓㄴㄷㅔ	-2085
ㅂㅏㅇㅅㅗㅇ	-2086
ㄱㅏㅈ	-2087
ㄱㅡㄹㅣㄱㅗ	-2088
ㄷㅡㅁ	-2089
▁ㅇㅏㄴㅣㄴㄷㅔ	-2090
ㅇㅣㅆㄴㅡㄴㄷㅔ	-2091
ㄱㅐㄱ	-2092
ㅈㅓㄱㅇㅣ	-2093
ㅏㅅㅓ	-2094
▁ㅎㅐㅆㄴㅡㄴㄷㅔ	-2095
▁ㅜㅜ	-2096
ㅂㅘㄷㅗ	-2097
▁ㅅㅓㅇㄱㅘ	-2098
ㅈㅕㅅㅓ	-2099
ㅂㅐㅇㅜ	-2100
▁ㅈㅐㅅㅏㄴ	-2101
ㄱㅓㅅㄷㅡㄹㅇㅣ	-2102
ㅂㅗㄴㅔ	-2103
▁ㅊㅣㅇ	-2104
▁ㅈㅗㅎㄷㅏ	-2105
▁ㅍㅐ	-2106
ㄴㅣㄲㅏ	-2107
▁ㅉㅏㅈㅡㅇ	-2108
▁ㅅㅏㅇㅣ	-2109
▁ㅁㅜㄹㄹㅗㄴ	-2110
▁ㅇㅓㄹㅕㅇ	-2111
▁ㅆㅣ	-2112
▁ㄴㅐㅁ	-2113
ㅇㅣㄴㅈㅜㄹ	-2114
ㅎㅟ	-2115
ㄷㅚㅇㅓ	-2116
▁ㅈㅡㄹ	-2117
ㅇㅕㄴㄱㅡㅁ	-2118
ㅇㅛㄱㅡㅁ	-2119
ㄲㅏㅂ	-2120
ㅅㅡㅅ	-2121
ㅎㅏㄷㅏㄱㅗ	-2122
ㅁㅜㄴㅈㅔ	-2123
ㅆㅡㄴㅡㄴ	-2124
▁ㄲㅡ	-2125
▁ㄷㅗㄲㅐ	-2126
▁ㅂㅏㄹㅏ	-2127
ㄷㅗㄹㅗ	-2128
▁ㅂㅜㄹㅂㅓㅂ	-2129
▁ㅍㅏㅇ	-2130
▁ㄴㅜㄱㅜㄴ	-2131
▁ㅇㅏㄹㅂㅏ	-2132
ㅜㅎㅕㄴ	-2133
ㅣㄴㅑ	-2134
ㅋㅔㅅ	-2135
▁ㄱㅡㄸㅐ	-2136
▁ㄱㅣㅈㅏ	-2137
▁ㅇㅓㅄㄴㅡㄴㄷㅔ	-2138
▁ㄷㅐㅇ	-2139
ㅗㅅㄷㅔ	-2140
▁ㅇㅣㄹㅇㅓㄴ	-2141
ㄱㅔㅅ	-2142
ㄱㅠㄴ	-2143
ㅉㅡㅁ	-2144
▁ㅁㅣㄹㅐ	-2145
▁ㅇㅠㄱ	-2146
ㄱㅓㅇㅏㄴ	-2147
▁ㄷㅓㅂ	-2148
ㅇㅏㄴㅣ	-2149
▁ㅂㅗㄷㅏ	-2150
ㅇㅘㄴ	-2151
▁ㅈㅗㅈㅏㄱ	-2152
▁ㅇㅣㅇㅠㄱㅏ	-2153
ㄹㅓㅂ	-2154
▁!	-2155
▁ㄱㅡㄹㅓㄹ	-2156
ㅇㅣㄴㄱㅏㄴ	-2157
▁ㅋㅋㅋㅋㅋㅋ	-2158
▁ㄱㅜㄱㅎㅚㅇㅢㅇㅝㄴ	-2159
▁ㅁㅗㅅㅎㅏㄴㅡㄴ	-2160
▁ㄷㅡㄹㅇㅓㄱㅏ	-2161
ㅅㅏㄱㅗ	-2162
ㅇㅣㅈㅣㅁㅏㄴ	-2163
▁ㅇㅣㅆㄴㅏ	-2164
ㅊㅓㅁ	-2165
▁ㅆㅡㄱㅗ	-2166
ㅅㅡㅌ	-2167
▁ㄴㅓㅎㅢ	-2168
▁ㄱㅣㅂㅜㄴ	-2169
▁ㅇㅏㄶㅇㅏㅆ	-2170
▁ㅇㅣㅅ	-2171
ㅈㅓㅇㅁㅏㄹ	-2172
ㄹㅣㄴㄷㅏ	-2173
ㄱㅣㄹㅗ	-2174
ㅊㅡㄱ	-2175
ㅇㅐㄱ	-2176
ㄱㅓㅇㅣㅁ	-2177
ㅋㅗㄴ	-2178
ㅁㅓㄱㄴㅡㄴ	-2179
▁ㅎㅘㄹㄷㅗㅇ	-2180
▁ㅎㅕㅂ	-2181
ㅇㅣㄹㅏㅁㅕㄴ	-2182
▁ㅂㅣㅆㅏㄴ	-2183
ㄸㅏ	-2184
ㄴㅏㄴㄷㅏ	-2185
▁ㄷㅐㅎㅏㄱ	-2186
ㄷㄱㅗ	-2187
ㅅㅣㅈㅏㅇ	-2188
ㅁㅏㄱ	-2189
▁ㅈㅣㄴㅈㅓㅇ	-2190
ㅡㄹㅏ	-2191
▁ㅅㅏㅇㅓㅂ	-2192
ㅇㅘㅇ	-2193
▁ㅅㅠ	-2194
▁ㅂㅏㄷㄱㅗ	-2195
▁ㅈㅓㄴㅎㅕ	-2196
▁ㄷㅏㅇㅈㅏㅇ	-2197
▁ㅁㅗㄹㅡㄴ	-2198
ㅎㅏㅅㅣ	-2199
ㅎㅗㅅ	-2200
▁ㄱㅜㄱㅈㅓㅇ	-2201
▁ㅈㅗㄴㅈㅐ	-2202
ㅁㅗㄴ	-2203
▁ㅁㅏㄴㄷㅡㄴㅡㄴ	-2204
▁ㅈㅣㄱㅇㅝㄴ	-2205
ㄴㅏㅁㅕㄴ	-2206
▁ㅇㅖㅈㅓㄴ	-2207
ㅎㅐㅅ	-2208
▁ㅎㅓㅅ	-2209
--	-2210
ㅇㅓㅆㅇㅡㅁ	-2211
▁ㅇㅏㄶㅇㅡㄴ	-2212
ㄷㅓㄹㅏㄷㅗ	-2213
ㄱㅓㄱㅏㅌ	-2214
ㅂㅗㅎ	-2215
▁ㅂㅡㄹㄹ	-2216
▁ㅈㅔㅈㅏㄱ	-2217
▁ㅇㅣㅆㅅㅡㅂㄴㅣㄷㅏ	-2218
▁ㄷㅐㅊㅜㄹ	-2219
▁ㄴㅏㅎ	-2220
ㄲㅗ	-2221
▁ㅎㅝㄹㅆㅣㄴ	-2222
▁ㄴㅏㄴㄹㅣ	-2223
▁ㅂㅗㅎㅓㅁ	-2224
ㅇㅝ	-2225
▁ㅅㅔㅇㅝㄹㅎㅗ	-2226
▁ㅈㅓㄻㅇㅡㄴ	-2227
▁ㅁㅜㄴㅎㅘ	-2228
ㅈㅣㄱㅔ	-2229
▁ㅈㅏㄷㅗㅇ	-2230
ㅎㅐㅆㄷㅏㄱㅗ	-2231
ㅕㅁㅕㄴ	-2232
▁ㅇㅏㄴㅎㅏㄱㅗ	-2233
▁ㅈㅏㅊㅔㄱㅏ	-2234
ㅇㅣㄷㅡㄴ	-2235
▁ㄴㅣㄴㅔ	-2236
ㅎㅏㄹㄷㅡㅅ	-2237
ㅂㅣㅇ	-2238
ㅇㅓㅆㅇㅡㅁㅕㄴ	-2239
ㅗㄴㄷㅏ	-2240
ㄱㅕㅇㅈㅔ	-2241
ㄲㅡㅌ	-2242
▁ㅅㅣㅈㅏㅇ	-2243
▁ㅊㅣㄹ	-2244
▁ㅃㅏㄹㄱㅐㅇ	-2245
▁ㅇㅖㅃ	-2246
ㅘㄹㅏ	-2247
ㄴㅕㄴㅇㅔ	-2248
ㅈㅏㄹㅗ	-2249
▁ㅊㅣㄴㅇㅣㄹ	-2250
ㅋㅋㅋㅋㅋㅋ	-2251
ㄱㅣㅁㅏㄴ	-2252
ㄴㅗㅇ	-2253
▁ㅇㅏㄵ	-2254
▁ㅇㅏㄴㅈㅓㄴ	-2255
▁ㅂㅏㄱㅅㅏㅁ	-2256
▁ㄴㅐㄹㅕ	-2257
ㅈㅓㅇㅇㅡㄴ	-2258
ㄹㅗㅇㅜㄴ	-2259
▁ㅂㅏㄹㅏㅁ	-2260
▁ㅇㅏㄹㅇㅏ	-2261
ㄷㅏㄴㅡㄴㄱㅔ	-2262
▁ㅇㅣㅆㅈㅣ	-2263
ㅋㅣㄴ	-2264
▁ㅈㅜㄴㅡㄴ	-2265
▁ㄴㅡㄺ	-2266
ㅓㄴㄴㅣ	-2267
▁ㅁㅓㅇㅊㅓㅇ	-2268
ㅣㄲㅜㄴ	-2269
▁ㅎㅏㄴㅈㅓㄴ	-2270
▁ㅇㅣㅆㅇㅓ	-2271
▁ㄲㅗㅊ	-2272
ㅅㅣㄱㅇㅣ	-2273
ㅈㅓㅇㅅㅣㄴ	-2274
▁ㅂㅏㄹㅈㅓㄴ	-2275
ㅇㅕㅇㅎㅘ	-2276
▁ㅇㅕㄹㅡㅁ	-2277
▁ㅁㅝㄴㅑ	-2278
ㅡㅇㅘ	-2279
▁ㅇㅣㅈ	-2280
ㅈㅗㅎㅇㅏ	-2281
▁....	-2282
▁ㅈㅜㅅ	-2283
ㅁㅕㅇㅇㅣ	-2284
▁ㅈㅣㅇㅕㄱ	-2285
ㅜㄱㅗ	-2286
▁ㄸㅟ	-2287
▁ㅎㅣㅁㄴㅐ	-2288
ㅐㅇㅛ	-2289
▁ㅂㅏㄷㅇㅡㄹ	-2290
ㄷㅡㄹㄱㅘ	-2291
ㅗㅅㅡ	-2292
ㅕㅆㄴㅡㄴㄷㅔ	-2293
▁ㅈㅗㅇㅛㅇ	-2294
▁ㅍㅡㄹㅗ	-2295
ㄷㅓㄴㅈㅣ	-2296
▁ㅁㅔㅁㅂㅓ	-2297
▁ㅎㅏㅁㄲㅔ	-2298
▁ㅇㅏㅍㅏㅌㅡ	-2299
▁ㅇㅣㄺ	-2300
▁ㅇㅏㄴㅂㅗ	-2301
ㅅㅜㅁ	-2302
▁ㄱㅕㅇㅇㅠ	-2303
▁ㄱㅗㅇㄱㅐ	-2304
▁ㅅㅜㄷㅗ	-2305
▁ㄱㅡㄱㅓ	-2306
ㅅㅔㄴ	-2307
▁ㅎㅐㅆㄷㅏ	-2308
ㄷㅏㅇㅎㅣ	-2309
▁ㅍㅡㄹㅗㄱㅡㄹㅐㅁ	-2310
▁ㅅㅓㅇㄱㅗㅇ	-2311
▁ㅈㅣㄴㅅㅣㄹ	-2312
ㅅㅏㅇㅇㅣ	-2313
ㄱㅓㄷㅡㄴ	-2314
ㅈㅕㅇㅑ	-2315
▁ㅅㅐㅇㄱㅏㄱㅇㅣ	-2316
▁ㄴㅗㄷㅗㅇ	-2317
▁ㅅㅏㅇㄱㅘㄴ	-2318
ㅓㄱㅗ	-2319
▁ㅂㅘㅆ	-2320
▁ㅇㅛㄱㅡㅁ	-2321
▁ㅂㅜㄴㅁㅕㅇ	-2322
ㄴㅏㄱㅗ	-2323
▁A	-2324
▁ㄱㅏㅅㅓ	-2325
ㅎㅏㄴㅂㅓㄴ	-2326
▁ㅁㅓㄱㅇㅡㄹ	-2327
▁ㄱㅓㅅㅇㅡㄴ	-2328
ㅈㅏㅇㅢ	-2329
ㄱㅡㄹㅜㅂ	-2330
ㅁㅜㅅ	-2331
▁ㄱㅗㅇㅂㅜ	-2332
ㅎㅏㅈㅣㅁㅏㄹㄱㅗ	-2333
ㅔㄱㅔ	-2334
▁ㅊㅓㅇㅇㅘㄷㅐ	-2335
ㅎㅏㅅㅣㄴ	-2336
ㄱㅓㅅㄱㅏㅌ	-2337
▁ㅁㅗㅅㅎㅏㄴ	-2338
ㄴㅐㄴ	-2339
ㅇㅣㄹㅡㄹ	-2340
▁ㅈㅓㅅ	-2341
▁ㅁㅗㅅㅎㅏㄱㅗ	-2342
▁ㅈㅜㅁ	-2343
▁ㅁㅏㄹㅏ	-2344
▁ㅊㅜㅇㅂㅜㄴ	-2345
ㄴㅡ	-2346
▁ㅇㅑㅇㅅㅣㅁ	-2347
▁ㅅㅣㅀㅇㅓ	-2348
▁ㅂㅣㅅㅡㅅ	-2349
▁ㅁㅜㅎㅏㄴ	-2350
▁ㅂㅜㄹㅍㅕㄴ	-2351
ㅋㅗㄹ	-2352
▁ㅇㅓㅄㄴㅔ	-2353
ㅆㅡㄱㅗ	-2354
ㄷㅡㅅㅇㅣ	-2355
▁ㅇㅏㄴㄷㅚㄴㄷㅏ	-2356
▁ㅂㅗㄴㅣ	-2357
▁ㅅㅓㄴㅌㅐㄱ	-2358
ㄱㅗㅇㅎㅏㅇ	-2359
▁ㄴㅏㅈㅜㅇㅇㅔ	-2360
▁ㄴㅗㅁㅜㅎㅕㄴ	-2361
ㅏㅈㅣ	-2362
ㅅㅓㅇㅇㅡㄹ	-2363
▁ㄴㅣㄱㅏ	-2364
▁ㄲㅏㄹ	-2365
▁12	-2366
ht	-2367
▁ㄴㅠㅅㅡ	-2368
▁ㅅㅡㅅ	-2369
▁ㅇㅗㅇ	-2370
▁ㅈㅔㅍㅜㅁ	-2371
▁40	-2372
ㅅㅏㄹㅏㅁㅇㅣ	-2373
▁ㄹㅗㅅㄷㅔ	-2374
▁ㄱㅗㄷ	-2375
▁ㅈㅏㅇㅕㄴ	-2376
▁ㅋㅓㅁ	-2377
!!!!!!!!	-2378
▁ㅇㅣㅁㅣㅈㅣ	-2379
ㅇㅏㅇㅣ	-2380
▁ㄱㅡㄹㅓㅁㅕㄴ	-2381
ㅇㅣㄴㅔㅇㅛ	-2382
▁ㅊㅚㅅㅗ	-2383
▁ㄷㅐㅌㅗㅇㄹㅕㅇㅇㅣ	-2384
ㅈㅏㄱㅗ	-2385
ㄲㅓㄹ	-2386
▁ㅎㅕㄴㅈㅐ	-2387
▁ㄷㅏㄱ	-2388
ㅌㅓㄹㅣ	-2389
ㅣㅅㅡ	-2390
ㅓㄴㅔㅅ	-2391
ㅈㅔㅍㅜㅁ	-2392
ㅅㅏㄹㅏㅁㄷㅡㄹ	-2393
ㅇㅣㄹㅏㄴㅣ	-2394
ㅇㅓㅄㅇㅓ	-2395
ㅁㅏㄷㅏ	-2396
▁ㅁㅓㄱㄴㅡㄴ	-2397
▁ㅇㅡㄴㅎㅐㅇ	-2398
▁ㅁㅜㅅㅣ	-2399
▁ㅂㅗㄴㄷㅏ	-2400
ㅊㅐㅇ	-2401
▁ㅇㅣㅁㅣㄴ	-2402
ㅇㅣㅆㅇㅡㅁ	-2403
ㅆㄱㅗ	-2404
▁ㅁㅏㅈㄴㅡㄴ	-2405
ㅂㅗㄷㅏㄴ	-2406
▁ㅎㅐㅇㅑㅈㅣ	-2407
ㅎㅏㄴㅔㅇㅛ	-2408
ㅇㅣㄴㅇㅢ	-2409
ㄷㅚㅈㅣ	-2410
ㄱㅜㅇ	-2411
▁ㄱㅡㄴㅏㅁㅏ	-2412
▁201	-2413
▁ㅎㅕㄹ	-2414
▁ㄱㅗㅅㅗ	-2415
▁ㅎㅏㄴㅡㄴㄱㅔ	-2416
ㅅㅡㄴ	-2417
▁ㅇㅗㄹㅎㅐ	-2418
▁ㄱㅕㄹㅈㅓㅇ	-2419
▁ㄱㅘㅇㄱㅗ	-2420
ㅉㅏㄹㅣ	-2421
▁ㅇㅖㅅㄴㅏㄹ	-2422
▁ㅅㅐㅇㄱㅏㄱㅎㅐ	-2423
▁ㄱㅜㅁ	-2424
▁ㅈㅓㄴㄱㅣㅅㅔ	-2425
ㄹㅓㄴ	-2426
ㅂㅣㄱㅏ	-2427
▁ㄱㅚ	-2428
ㅎㅏㄴㄱㅜㄱ	-2429
▁ㅇㅣㄱㅣ	-2430
ㅓㄴㄴㅣㅇ	-2431
ㅇㅕㅁ	-2432
▁ㅅㅏㄹㄱㅗ	-2433
▁ㄱㅏㅁㅏㄴ	-2434
ㅇㅕㄴㄱㅣ	-2435
▁ㅎㅏㄴㅡㄴㄱㅓ	-2436
▁ㅅㅗㅅㅗㄱ	-2437
▁ㄱㅐㅂㅏㄹ	-2438
ㅇㅓㄱㅏㄴㅡㄴ	-2439
▁ㄱㅗㅇㅇㅠ	-2440
ㅁㅏㄹㅏ	-2441
▁ㅂㅜㅇ	-2442
▁ㅅㅏㄹㅇㅏ	-2443
ㅇㅡㄴㄱㅓ	-2444
▁ㄱㅘㄴㄹㅕㄴ	-2445
▁ㅂㅏㅇㅂㅓㅂ	-2446
ㅈㅏㅁ	-2447
▁ㅇㅗㄱ	-2448
▁18	-2449
▁ㄱㅕㅇㅈㅐㅇ	-2450
▁ㅇㅣㅆㅇㅡㄴㅣ	-2451
▁ㅇㅏㅂ	-2452
▁ㄱㅡㄷㅐㄹㅗ	-2453
ㅎㅕㅂ	-2454
▁ㄷㅐㅈㅜㅇ	-2455
▁ㅇㅏㄹㅇㅏㅆ	-2456
▁ㅅㅗㄴㅎㅐ	-2457
ㄸㅗㄱ	-2458
▁ㅇㅓㅇㅣ	-2459
er	-2460
▁ㅊㅓㅅ	-2461
▁ㄸㅡㄷ	-2462
▁ㄷㅗㄹㅇㅏㅇ	-2463
▁ㄸㅏㄴ	-2464
ㅜㄱㅏ	-2465
▁ㄲㅏㅁ	-2466
▁ㅈㅓㅇㅇㅠ	-2467
ㅈㅘ	-2468
ㅆㄴㅏ	-2469
▁ㅅㅐㄱ	-2470
▁ㅁㅏㄶㄷㅏ	-2471
▁ㅁㅗㄹㅡㄱㅗ	-2472
▁ㅇㅏㄹㅇㅏㅅㅓ	-2473
ㄲㅏㅂㄷㅏ	-2474
▁ㅈㅓㅁㅈㅓㅁ	-2475
▁ㄷㅜㄹㄷㅏ	-2476
▁ㄱㅜㄱㄱㅏㅇ	-2477
>>	-2478
ㅈㅓㅇㄱㅝㄴ	-2479
ㅅㅣㅋㅕ	-2480
ㅂㄷㅏㅂ	-2481
▁ㅎㅏㄴㄱㅜㄱㅇㅡㄴ	-2482
ㅈㅐㅇㅛㅇ	-2483
▁ㅎㅖ	-2484
▁ㄱㅖㄹㅏㄴ	-2485
ㅓㄴㄴㅣㅇㅁㅐㄴ	-2486
▁ㅇㅙㄴ	-2487
▁ㅉㅣ	-2488
ㄱㅓㅁㅕㄴ	-2489
ㅈㅏㄷㅡㄹㅇㅡㄴ	-2490
▁ㅇㅓㄷㅣㅅㅓ	-2491
ㅆㅇㅓ	-2492
▁ㅎㅐㄴ	-2493
▁ㅊㅜㄹㅇㅕㄴ	-2494
ㅈㅜㅇㄱㅜㄱ	-2495
▁ㄱㅜㄷ	-2496
▁ㅈㅣㄱㅡㅁㅇㅡㄴ	-2497
▁ㅇㅣㄴㄱㅣ	-2498
▁ㅅㅣㅁㅣㄴ	-2499
ㅅㅜㄴㅡㄴ	-2500
ㅎㅐㅆㅇㅡㅁ	-2501
ㅓㄱㄱㅗ	-2502
▁ㄲㅡㅌㄲㅏㅈㅣ	-2503
▁ㅁㅣㅌ	-2504
ㅈㅜㅁ	-2505
▁ㅇㅕㅍ	-2506
▁ㅌㅓㄹ	-2507
▁ㅈㅏㅇㅠ	-2508
ㅇㅣㅇㅔ	-2509
▁ㅈㅜㅂㅕㄴ	-2510
▁ㅇㅣㅎㅗㄴ	-2511
ㅅㅏㅇㄷㅗ	-2512
ㅎㅏㄴㅡㄴㅈㅣ	-2513
▁ㅎㅘㄴㄱㅕㅇ	-2514
ㅗㅎㅏㅁ	-2515
▁ㅂㅜㄲㅡㄹ	-2516
▁ㅂㅘㄷㅗ	-2517
▁ㅂㅘㅇㅑ	-2518
30	-2519
ㅡㅈㅣ	-2520
▁ㅎㅛ	-2521
▁ㅇㅓㅄㅇㅓㅅㅓ	-2522
ㅂㄱㅗ	-2523
▁ㄴㅏㅅ	-2524
▁ㅂㅜㅈㅗㄱ	-2525
▁ㅇㅓㄴㅍㅡㄹ	-2526
▁ㅇㅕㅈㅏㄱㅏ	-2527
▁ㅇㅡㅁㅅㅣㄱ	-2528
ㅣㅁㅕㄴㅅㅓ	-2529
▁ㄱㅝㄴㄹㅕㄱ	-2530
ㄹㅕㅁㅕㄴ	-2531
▁ㅈㅓㅇㅂㅜㄴㅡㄴ	-2532
ㅇㅣㅆㄴㅔ	-2533
ㅆㅡㄴ	-2534
ㅗㄱㅗ	-2535
▁ㅂㅏㄴㅅㅓㅇ	-2536
▁ㅅㅣㅇㅝㄴ	-2537
▁t	-2538
▁ㅇㅔㄴ	-2539
ㅣㅇㅔ	-2540
ㅁㅏㄴㄷㅡㄹ	-2541
▁ㄱㅛㅇㅠㄱ	-2542
ㅁㅔ	-2543
ㅋㅐ	-2544
ㄱㅓㅂㄴㅣㄷㅏ	-2545
▁ㅇㅏㄴㄷㅙ	-2546
▁ㄴㅏㅇㅗㅁㅕㄴ	-2547
ㅇㅓㅂㅓㄹ	-2548
ㄹㅗㄱ	-2549
ㄸㅏㄹ	-2550
▁ㅈㅣㅈㅣ	-2551
ㅜㄹㅡㄹ	-2552
▁ㅈㅝ	-2553
▁ㅅㅛ	-2554
ㅆㅣㄱㅏ	-2555
ㅇㅝㄴㅇㅣ	-2556
ㄱㅏㄴㄷㅏ	-2557
▁ㄷㅚㄱㅗ	-2558
▁ㅁㅣㄷㄱㅗ	-2559
▁ㅍㅣㅇ	-2560
()	-2561
▁:	-2562
▁ㅊㅣㄴㄱㅜ	-2563
▁ㅌㅜㅈㅏ	-2564
▁ㅈㅜㄱㅗ	-2565
ㄱㅜㅁ	-2566
ㄹㅕㅇㅑ	-2567
ㅂㅏㄷㄴㅡㄴ	-2568
▁ㅈㅣㄱㅈㅓㅂ	-2569
ㄷㅡㄹㅏㅁㅏ	-2570
ㄸㅓㄹㅇㅓ	-2571
ㅆㄷㅓㄴ	-2572
▁a	-2573
▁ㅋㅓㄴ	-2574
▁ㅅㅣㄷㅐ	-2575
▁ㄲㅜㄹ	-2576
▁ㅃㅏㅇ	-2577
ㅉㅣ	-2578
▁ㅇㅡㅇㅇㅝㄴㅎㅏㅂㄴㅣㄷㅏ	-2579
ㅇㅐㄷㅡㄹ	-2580
▁ㅂㅓㅅ	-2581
▁ㅇㅕㅈㅏㄷㅡㄹ	-2582
▁ㅂㅗㅁ	-2583
ㅇㅘㅅㅓ	-2584
ㅁㅓㄱㅇㅡㄹ	-2585
ㄱㅐㅇㅝㄹ	-2586
▁^^	-2587
ㄱㅏㄹㅡㄹ	-2588
ㅐㅁㅐ	-2589
▁ㅇㅣㅆㄴㅔ	-2590
ㄲㅓㅅ	-2591
▁ㄴㅡㅈ	-2592
ㅇㅓㅄㅇㅡㅁ	-2593
▁ㅅㅏㄷㅡ	-2594
ㅎㅏㄴㅣㄲㅏ	-2595
▁ㅇㅣㅃㅡㄴ	-2596
ㄷㅡㄴㅈㅣ	-2597
ㅈㅝㄹㅏ	-2598
▁ㅇㅕㄴㅇㅐ	-2599
ㅂㅣㄹ	-2600
ㄸㅗㅇ	-2601
ㅇㅣㄴㄷㅡㄹㅇㅣ	-2602
▁ㄷㅗㄷㅜㄱ	-2603
ㄸㅐㄴㅡㄴ	-2604
▁ㄴㅓㄴ	-2605
▁ㅅㅏㅁㅅㅓㅇㅇㅣ	-2606
ㅘㄹ	-2607
▁ㄲㅜㅁ	-2608
▁ㄱㅐㅁ	-2609
▁ㅇㅣㄴㅌㅓㄴㅔㅅ	-2610
ㄱㅓㅅㅁㅏㄴ	-2611
▁ㅂㅏㅁ	-2612
ㄴㅐㄱㅗ	-2613
▁ㅈㅡㄱ	-2614
ㅊㅗㅇㅔ	-2615
▁ㅇㅜㅅㄱㅣㄴ	-2616
▁ㅈㅣㅁ	-2617
▁ㄷㅜㄹㅇㅣ	-2618
▁ㅁㅏㄶㅇㅏ	-2619
▁ㅅㅓㄹㅎㅕㄴ	-2620
ㅈㅣㅇㅛ	-2621
ㅣㄷㅗ	-2622
ㄹㅏㅁ	-2623
▁ㅇㅜㄴㄷㅗㅇ	-2624
ㅕㅇㅈㅔ	-2625
▁ㅇㅏㄴㅑ	-2626
ㅎㅏㄹㅏㄱㅗ	-2627
ㅁㅣㄹ	-2628
ㅊㅣㄹㅡㄹ	-2629
ㅂㅏㄹㅗ	-2630
ㅁㅏㄹㅇㅣ	-2631
▁ㄱㅘㄴㄹㅣ	-2632
ㅇㅗㅇ	-2633
▁ㄱㅕㅇㅇㅜ	-2634
▁ㄲㅏㅈㅣ	-2635
▁ㄴㅗㅁㄷㅡㄹ	-2636
▁ㄷㅏㅎㅐㅇ	-2637
▁ㅈㅏㄹㅅㅐㅇ	-2638
ㅂㅡㄹㄹㅣ	-2639
ㅇㅓㄴㅐ	-2640
ㄱㅏㄴㅡㅇ	-2641
ㄷㅡㅅㅣ	-2642
;;;	-2643
50	-2644
▁ㅁㅜㄴㅡㅇ	-2645
ㅁㅜㄹㅇㅣ	-2646
▁ㄲㅓ	-2647
▁ㄴㅏㄱㅏ	-2648
▁ㅇㅏㄹㄹㅕ	-2649
ㅎㅏㄱㅣㄹ	-2650
▁ㄷㅡ	-2651
▁ㅇㅑㄷㅏㅇ	-2652
ㅅㅡㅌㅏ	-2653
▁ㅅㅡㅅㅡㄹㅗ	-2654
▁ㄱㅏㅂㅈㅏㄱㅣ	-2655
▁ㄲㅡㄶ	-2656
ㅁㅗㅇ	-2657
▁ㅁㅣㄱㅐ	-2658
ㅓㅇㅝㅅㅓ	-2659
ㄴㅜㄴ	-2660
▁ㅇㅐㄱㅜㄱ	-2661
ㄱㅏㄱㅕㄱ	-2662
▁ㅇㅣㄹㅓㄹ	-2663
▁ㅇㅣㄴㄱㅏㄴㄷㅡㄹ	-2664
▁ㅎㅏㄴㄷㅏㄹ	-2665
ㅈㅏㅇㅇㅡㄹ	-2666
▁ㅇㅜㄹㅣㄴㅏㄹㅏㄴㅡㄴ	-2667
▁ㅋㅔ	-2668
▁ㅁㅏㄹㄷㅗ	-2669
▁ㅇㅣㄹㅇㅣ	-2670
▁ㅁㅐㄹㅕㄱ	-2671
▁ㅂㅡㄹㄹㅐㄱ	-2672
▁ㅂㅓㄹㅆㅓ	-2673
ㄱㅡㄴㄷㅔ	-2674
▁ㅎㅏㄴㅔ	-2675
ㅓㅂㄱㅔ	-2676
▁ㄱㅓㅅㅇㅡㄹ	-2677
ㅅㅣㅋㅣㄱㅗ	-2678
▁ㅂㅜㅁㅗ	-2679
ㅇㅣㄱㅔ	-2680
▁ㅈㅏㄹㅏㅇ	-2681
▁ㄱㅣㅁㅈㅗㅇ	-2682
ㄱㅜㅅ	-2683
▁ㅅㅓㅁㅣㄴㄷㅡㄹ	-2684
▁11	-2685
ㅇㅏㅂ	-2686
ㅅㅏㄹㅏㅇ	-2687
▁ㅂㅏㄷㄴㅡㄴ	-2688
ㅇㅗㄱ	-2689
▁ㅅㅐㅇㅎㅘㄹ	-2690
▁ㅍㅏㄴㄷㅏㄴ	-2691
▁ㄷㅓㄹㅓㅇㅜㄴ	-2692
▁m	-2693
ㅊㅓㄴㅇㅝㄴ	-2694
co	-2695
▁ㅇㅣㅆㄷㅏㄱㅗ	-2696
▁ㅍㅓ	-2697
▁ㅍㅗㄱㅌㅏㄴ	-2698
▁ㅇㅕㄴㅂㅗㅇ	-2699
▁ㅇㅣㅇㅣㄱ	-2700
ㅂㅣㅊ	-2701
ㅌㅔㄹ	-2702
ㅇㅣㄴㄱㅓ	-2703
▁ㄹㅓㄴㄴㅣㅇㅁㅐㄴ	-2704
▁ㅇㅏㅇㅖ	-2705
ㅂㅗㄱㅣ	-2706
▁ㄷㅚㅈㅣ	-2707
▁ㅇㅟㅎㅓㅁ	-2708
▁ㅂㅏㄺㅎㅕ	-2709
tp	-2710
▁ㅈㅓㄱㅓ	-2711
▁ㅈㅓㅇㅅㅣㄴㅊㅏㄹ	-2712
▁T	-2713
▁ㅇㅜㄱ	-2714
ㄱㅏㄴㅇㅔ	-2715
ㅗㄹㅗ	-2716
▁ㄷㅗㄴㅂㅓㄹ	-2717
▁ㅈㅔㄹ	-2718
ㅣㄹㅏㄱㅗ	-2719
▁ㅇㅓㅇㅜㄹ	-2720
▁ㅎㅏㅊㅏ	-2721
ㅎㅣㄴ	-2722
▁ㅈㅗㅅㅣㅁ	-2723
▁ㅍㅗㄱㅂㅏㄹ	-2724
▁ㅇㅕㅎㅐㅇ	-2725
▁ㅎㅏㄴㅡㄹ	-2726
▁ㅇㅣㅈㅜㄴ	-2727
ㅅㅡㄱㅏ	-2728
ㄸㅐㅁㅏㄷㅏ	-2729
▁ㅎㅏㄴㄷㅏㄱㅗ	-2730
ㅍㅡㄴ	-2731
▁L	-2732
ㅆㅇㅡㄹ	-2733
▁ㅍㅐㄱ	-2734
▁ㅅㅣㅇㅟ	-2735
▁ㅁㅏㄶㅇㅡㄴㄷㅔ	-2736
▁ㅇㅢㅁㅣ	-2737
▁ㄱㅡㄱㅓㅅㄷㅗ	-2738
ㅅㅓㅂ	-2739
▁ㅁㅜㄷ	-2740
http	-2741
▁ㅈㅗㅎㅇㅏㅆ	-2742
▁ㄱㅡㅇ	-2743
▁ㅈㅏㅇㅅㅏ	-2744
▁ㅇㅣㄴㅏㄹ	-2745
://	-2746
▁ㅅㅗㅁ	-2747
▁ㅌㅏㄱ	-2748
ㅣㅁㅇㅣ	-2749
ㅠㅠㅠ	-2750
▁ㄴㅗㄱ	-2751
▁ㅇㅣㅆㄷㅏㄴㅡㄴ	-2752
▁ㅇㅏㄶㅇㅡㄹ	-2753
▁ㄷㅚㅇㅓ	-2754
▁ㅂㅜㅌㅓ	-2755
▁ㄴㅚㅁㅜㄹ	-2756
▁ㄱㅘㄴㄱㅖ	-2757
▁ㅌㅜㅍㅛ	-2758
▁ㅎㅏㄷㅏ	-2759
ㅆㅏ	-2760
▁ㄴㅗㅇㅖ	-2761
ㄸㅐㅁㅇㅔ	-2762
▁ㅂㅜㄷㅏㅁ	-2763
ㅅㅜㄹㅡㄹ	-2764
▁ㅎㅡㄴ	-2765
▁ㅇㅣㅎㅐㄱㅏ	-2766
ㅎㅐㅈㅜㄴ	-2767
ㄹㅣㅈㅣ	-2768
▁ㄱㅡㄱㅓㄴ	-2769
▁ㅇㅕㄹㅓㅂㅜㄴ	-2770
ㅈㅣㅈㅣ	-2771
▁ㅅㅜㄱ	-2772
ㅈㅜㄱㅏ	-2773
▁ㅇㅣㄴㅅㅓㅇ	-2774
▁ㅁㅏㄹㅇㅡㄹ	-2775
ㄲㅏㄹ	-2776
ㅁㅏㄴㅇㅣ	-2777
ㅅㅏㅇㅇㅡㄹ	-2778
▁ㅆㅏㄴ	-2779
▁ㅇㅕㄱㅣㅅㅓ	-2780
▁ㅁㅜㅇ	-2781
ㅇㅜㅇ	-2782
▁ㄱㅜㄱㅁㅣㄴㅇㅕㄴㄱㅡㅁ	-2783
▁ㅊㅓㄹㅓㅁ	-2784
ㅋㅡㄴ	-2785
▁~~	-2786
ㅈㅣㄹㅗ	-2787
▁ㅇㅣㅈㅐㅇㅛㅇ	-2788
▁ㅁㅕㅊㄴㅕㄴ	-2789
▁ㄱㅜㄹㅡㅁ	-2790
▁I	-2791
ㄷㅏㄹㅡㄴ	-2792
ㅎㅏㅂㅅㅣㄷㅏ	-2793
▁M	-2794
▁ㄴㅜㄹ	-2795
▁ㅇㅣㅀ	-2796
in	-2797
▁ㅅㅐㅇㄱㅣㄴ	-2798
▁ㅁㅜㅇㅓㅅ	-2799
ㄱㅓㄹㅏ	-2800
▁ㅁㅜㅅㅣㄱ	-2801
▁ㅈㅗㅎㅇㅏㅎㅏㄴㅡㄴ	-2802
ㅇㅣㄹㅇㅡㄴ	-2803
ㄸㅐㅁㅜㄴ	-2804
▁ㄷㅚㅁㅕㄴ	-2805
▁ㅇㅣㅅㅏㅇㅎㅏㄴ	-2806
▁ㅇㅓㄱㅇㅜㄹ	-2807
▁ㅂㅘㄹㅏ	-2808
▁ㅎㅏㄴㅏㄷㅗ	-2809
▁ㄷㅗㅇㄴㅔ	-2810
ㄷㅐㅈㅜㅇ	-2811
▁ㅂㅏㄱㅅㅏㅁㅗ	-2812
ㅎㅏㄱㄱㅛ	-2813
▁ㄱㅜㄹㅏ	-2814
ㅇㅣㅁㅕ	-2815
ㅇㅣㄷㅗ	-2816
▁ㅇㅣㅆㄴㅑ	-2817
ㅈㅜㄷㅗ	-2818
▁ㅈㅣㅂㅇㅔ	-2819
▁ㅈㅚㄷㅏ	-2820
▁ㄷㅗㄹㅇㅏ	-2821
ㅎㅐㅂㅗ	-2822
ㅈㅓㅇㅎㅢ	-2823
▁ㅋㅐㄹㅣㄱ	-2824
▁ㅇㅣㅇㅑㄱㅣ	-2825
▁ㅇㅔㅎㅠ	-2826
▁ㄴㅏㅇㅘㅅㅓ	-2827
ㄹㅏㄹ	-2828
▁ㅇㅔㄱ	-2829
▁ㅅㅡㅌㅏ	-2830
▁ㅁㅏㅌ	-2831
ㅇㅏㅇㅑㅈㅣ	-2832
ㅍㅏㅇ	-2833
▁ㄱㅘㅇㅕㄴ	-2834
▁ㅁㅗㄹㅡㄱㅔㅆ	-2835
▁ㅈㅗㅇㅂㅜㄱ	-2836
ㅎㅐㅈㅣㄴ	-2837
▁ㄷㅐㅎㅐ	-2838
▁ㅅㅣㅂ	-2839
ㅇㅓㅂㅊㅔ	-2840
▁ㄷㄷ	-2841
ㅏㄴㅡㄴㄱㅔ	-2842
ㅅㅣㅁㅇㅣ	-2843
▁ㅇㅓㅄㅈㅣ	-2844
ㄷㅏㅇㅎㅏㄴ	-2845
ㅊㅣㄱㅏ	-2846
▁ㅉㅏㄹ	-2847
▁ㅌㅔ	-2848
▁ㅇㅞ	-2849
ㄷㅏㄺ	-2850
ㅇㅣㅂㅓ	-2851
▁ㅅㅏㄻ	-2852
ㅍㅗㄱㅎㅐㅇ	-2853
▁ㄷㅡㄹㄱㅗ	-2854
▁ㅈㅜㄱㅇㅡㄹ	-2855
▁ㄱㅕㄴ	-2856
ㅣㅂㄴㅣㄷㅏ	-2857
▁ㅈㅓㄴㅁㅜㄴ	-2858
▁ㄱㅡㄹㅓㄴㅣ	-2859
ㅎㅘㄱㅏ	-2860
▁ㅈㅓㅈㅣㄹ	-2861
▁ㄷㅐㄱㅏㄹ	-2862
ㅁㅕㅇㅂㅏㄱ	-2863
▁ㅈㅣㅋㅕ	-2864
▁ㅎㅏㅇㅑ	-2865
▁ㅅㅡㅁㅏㅌㅡ	-2866
▁ㅈㅓㅇㅇㅢ	-2867
ㅐㅇㅛㅇ	-2868
ㅃㅜㄹ	-2869
▁ㅂㅣㄱ	-2870
▁ㅇㅣㅂㅈㅏㅇ	-2871
ㅈㅓㅇㅇㅡㄹ	-2872
ㅜㅁㅕㄴ	-2873
▁ㅇㅣㄹㅓ	-2874
▁ㅌㅏㅅ	-2875
▁ㅈㅣㅂㅏㅇ	-2876
▁ㄱㅐㄴㅕㅁ	-2877
ㅂㅜㄴㅇㅣ	-2878
▁ㅍㅏㄴㅁㅐ	-2879
ㄱㅘㄴㄱㅖ	-2880
▁ㅇㅣㅈㅓㅇㄷㅗ	-2881
ㅎㅐㅆㄱㅗ	-2882
▁ㅎㅏㄴㅑ	-2883
▁ㅈㅡㅇㄱㅓ	-2884
ㅈㅏㅇㅣㄴ	-2885
▁ㅇㅠㅈㅣ	-2886
▁ㄷㅏㅂㄷㅏㅂ	-2887
▁ㄸㅗㄱㄱㅏㅌㅇㅡㄴ	-2888
▁ㅈㅣㄴㅎㅐㅇ	-2889
▁ㅅㅟㅂㄱㅔ	-2890
ㅇㅕㅎㅐㅇ	-2891
ㅆㄷㅏㄴㅡㄴ	-2892
▁ㅈㅏㅂㅇㅏ	-2893
▁ㄷㅐㅍㅛ	-2894
ㄱㅏㅁㅇㅣ	-2895
▁ㅂㅗㄱㄱㅟ	-2896
▁ㅇㅣㄱㅓㅅ	-2897
▁ㄴㅏㅁㅍㅕㄴ	-2898
▁ㄱㅡㄴㅔ	-2899
ㅎㅐㅆㄴㅔ	-2900
ㅏㄱㅣ	-2901
▁ㅂㅓㅌ	-2902
ㅂㅗㄴㄷㅏ	-2903
▁ㅈㅗㅎㅇㅡㄴㄷㅔ	-2904
▁ㅇㅕㄱㄷㅐ	-2905
ㅎㅐㅇㅑㅎㅏㄴㄷㅏ	-2906
ㅁㅕㅊ	-2907
ㅗㄹㅣ	-2908
ㄷㅜㄱㅗ	-2909
▁ㅅㅜㅅㅏ	-2910
▁ㅇㅣㄸㅏㄴ	-2911
ㅂㅗㄴㅐ	-2912
ㅂㅜㄹㅡㄹ	-2913
▁ㅌㅗㅇㅅㅣㄴ	-2914
ㄸㅡㅅ	-2915
▁ㄱㅙㄴㅎㅣ	-2916
ㅁㅐㅇ	-2917
▁ㅁㅏㄴㄷㅡㄹㄱㅗ	-2918
▁ㄴㅓㄴㅔ	-2919
ㅈㅓㅎ	-2920
▁ㅇㅣㅈㅔㄴㅡㄴ	-2921
▁ㄱㅜㅈㅗ	-2922
▁ㄱㅏㅅ	-2923
ㅅㅣㅇㅔ	-2924
ㅇㅣㄹㅗ	-2925
▁ㄴㅐㄴㅕㄴ	-2926
ㅇㅠㄴ	-2927
ㅇㅓㅆㄷㅓㄴ	-2928
▁ㄷㅗㄹㄹㅕ	-2929
▁ㅇㅏㄴㄷㅚㄴ	-2930
▁ㅈㅓㄴㅇㅔ	-2931
▁ㅎㅏㄴㅣ	-2932
ㄷㅚㅅㅓ	-2933
ㄴㅕㄴㅇㅣ	-2934
ㅂㅡㄹㄹㅣㅅ	-2935
▁ㅇㅓㅄㅇㅡㅁㅕㄴ	-2936
▁ㅋㅡㄱㅔ	-2937
▁ㅋㅗ	-2938
ㅋㅟ	-2939
▁ㅂㅗㅅㅏㅇ	-2940
▁ㅈㅣㄷㅡㄹㅇㅣ	-2941
▁ㅇㅓㅁㅁㅏ	-2942
▁ㅇㅣㄴㅅㅏㅇ	-2943
ㅇㅓㅇㅜㄹ	-2944
ㅓㄴㅣ	-2945
▁ㄷㅗㅇㅁㅜㄹ	-2946
ㅊㅏㄱㅏ	-2947
▁ㅇㅏㄶㄴㅡㄴㄷㅏ	-2948
▁ㅈㅓㄱㅇㅛㅇ	-2949
ㄸㅏㅇㅟ	-2950
▁ㄸㅡㅅ	-2951
ㅅㅛ	-2952
▁ㅈㅣㄱㅡㅁㄷㅗ	-2953
ㄱㅡㄹㅐㄷㅗ	-2954
?!	-2955
▁ㅇㅕㄱㅅㅏ	-2956
▁ㅈㅓㄴㅈㅐㅇ	-2957
▁ㅈㅏㄱㅣㄱㅏ	-2958
▁ㅎㅘㅈㅏㅇ	-2959
ㅍㅣㄹㅇㅛ	-2960
▁ㅁㅗㅅㅎㅏㄱㅔ	-2961
▁ㅇㅣㅆㅇㅓㅅㅓ	-2962
▁ㄱㅘㄴㄱㅘㅇ	-2963
▁ㅅㅓㄱ	-2964
ㅎㅗㄷㅗㅇ	-2965
▁ㅇㅣㄹㅓㄴㄱㅓ	-2966
ㄹㅣㄹㅡㄹ	-2967
▁ㄴㅏㅁㅇㅢ	-2968
▁ㄱㅜㄷㅇㅣ	-2969
ㅎㅏㄹㄲㅏ	-2970
▁ㅅㅏㄹㄱㅣ	-2971
▁ㅅㅏㄱㅟ	-2972
▁ㄱㅡㄹㅓㅎㅈㅣ	-2973
▁ㄱㅣㅁㅇㅕㅇ	-2974
▁ㄱㅐㅇ	-2975
▁ㄸㅓㄴ	-2976
▁ㅇㅣㅁㅕㅇㅂㅏㄱ	-2977
▁ㅇㅕㄹㅗㄴ	-2978
ㅌㅔㅁ	-2979
▁ㄸㅓㄹ	-2980
ㅈㅕㅆㄷㅏ	-2981
ㅈㅏㄷㅗ	-2982
▁ㄷㅓㄴ	-2983
▁ㄷㅗㄲㅐㅂㅣ	-2984
ㅇㅣㅆㅇㅓ	-2985
▁ㄱㅏㅈㅣㄴ	-2986
▁ㄱㅣㅈㅜㄴ	-2987
▁ㅎㅐㅊㅔ	-2988
ㅈㅣㅂㅎㅚ	-2989
▁ㅅㅣㅁㄱㅏㄱ	-2990
ㄹㅏㅇㅣ	-2991
▁ㅅㅐㅇㅅㅏㄴ	-2992
▁ㄷㅐㅅㅓㄴ	-2993
▁ㅈㅓㄴㄹㅏㄷㅗ	-2994
▁ㅇㅣㄹㅇㅡㄹ	-2995
▁ㅇㅏㅈㅜㅁ	-2996
▁ㅇㅣㅂㄴㅣㄷㅏ	-2997
▁ㅈㅏㅊㅔ	-2998
▁ㅎㅏㄱㄱㅛ	-2999
▁ㅅㅓㄴㅈㅣㄴㄱㅜㄱ	-3000
▁ㅈㅣㅂㅇㅔㅅㅓ	-3001
ㅎㅏㄱㅣㄴ	-3002
ㅊㅏㄴㅡㄴ	-3003
▁ㅂㅕㅇㅅㅣㄴ	-3004
ㅈㅔㅂㅏㄹ	-3005
ㄷㅐㅅㄱㅡㄹ	-3006
▁ㄱㅣㄹㅔㄱㅣ	-3007
▁ㄷㅓㅇㅣㅅㅏㅇ	-3008
▁ㅇㅓㅄㅇㅡㄹ	-3009
ㄷㅗㅈㅓㄴ	-3010
▁ㅇㅣㅂㅓㄴㅇㅔ	-3011
▁ㅋㅏㄹ	-3012
ㅇㅓㄸ	-3013
ㅕㄷㅗ	-3014
ㅕㅅ	-3015
▁ㅇㅏㄴㅣㄹㅏㄱㅗ	-3016
▁ㅇㅣㅇㅓ	-3017
ㄷㅗㄴㅡㄴ	-3018
ㅂㅏㄷㅇㅏ	-3019
▁ㅎㅘㄱㅅㅣㄹㅎㅣ	-3020
▁ㄱㅏㅁㅕㄴ	-3021
ㅌㅗㅇㅂㅓㅂ	-3022
▁ㅇㅐㄱ	-3023
▁ㅅㅓㅇㅣㄴ	-3024
▁ㄸㅗㄱㄱㅏㅌ	-3025
ㅎㅏㅈㅣㅇㅏㄶ	-3026
ㅈㅓㅇㅊㅐㄱ	-3027
▁ㅍㅏㄱ	-3028
▁ㄱㅣㅅㅏㄹㅡㄹ	-3029
▁ㅇㅣㄱㅓㄹ	-3030
ㅅㅗㄱㅣㅇㅓㅂ	-3031
ㅏㄴㅑ	-3032
▁ㅂㅗㅇㅣ	-3033
▁ㄱㅗㅇㅎㅏㅇ	-3034
▁ㅈㅓㅇㅎㅘㄱ	-3035
▁ㄱㅘㅇㅎㅢ	-3036
▁ㅇㅏㅁㅜㄱ	-3037
ㅅㅗㅅ	-3038
ㅈㅣㄴㅏ	-3039
▁ㅎㅓㅇ	-3040
▁ㅉㅏㅇㄲㅐ	-3041
▁ㅂㅏㄹㅏㅂㄴㅣㄷㅏ	-3042
ㅁㅜㄱ	-3043
ㅏㅇㅘ	-3044
▁ㄸㅔ	-3045
ㄷㅗㄹㅡㄹ	-3046
▁ㅈㅔㅁㅗㄱ	-3047
▁ㅁㅣㄴㅈㅜㅈㅜㅇㅢ	-3048
ㅇㅓㅆㄱㅗ	-3049
ㅈㅕㄹㅏ	-3050
ㅅㅏㄱㅓㄴ	-3051
ㄷㅏㅁㅕㄴ	-3052
▁ㅂㅜㅈㅓㅇ	-3053
▁ㅅㅏㅎㅕㅇ	-3054
ㅇㅣㄴㅇㅡㄹ	-3055
ㅇㅣㅆㄱㅔ	-3056
0%	-3057
▁ㅈㅣㄱㅡㅁㄲㅏㅈㅣ	-3058
ㅎㅚㄱ	-3059
▁ㅁㅐㄱ	-3060
ㅋㅋㅋㅋㅋㅋㅋ	-3061
▁ㄷㅗㄹㅇㅏㄱ	-3062
ㅊㅓㅂ	-3063
▁ㄷㅡㅇㄷㅡㅇ	-3064
▁ㅇㅣㅆㅇㅓㅇㅑ	-3065
ㅂㅔㄹ	-3066
ㅂㅏㄷㅇㅡㄹ	-3067
ㅇㅣㄹㅐ	-3068
▁ㄱㅏㅇㄴㅏㅁ	-3069
ㅅㅏㅇㅔㅅㅓ	-3070
ㅅㅏㄹㅏㅁㅇㅡㄴ	-3071
▁ㄷㅐㅊㅐㄱ	-3072
▁ㅅㅐㅇㄱㅏㄱㅎㅏㄴㅡㄴ	-3073
▁C	-3074
▁ㅇㅏㄲ	-3075
▁ㅅㅐㄹㅗㅇㅜㄴ	-3076
ㄷㅐㄱㅏㄹㅣ	-3077
▁ㅌㅣㅂㅣ	-3078
ㅅㅜㅇㅣㅆㄴㅡㄴ	-3079
ㅎㅏㅅㅕㅆ	-3080
ㅎㅏㄹㅕㄱㅗ	-3081
▁ㅂㅏㅂㅗ	-3082
ㅓㄹㅏㄱㅗ	-3083
ㅎㅏㅈㅣㅁㅏㄹㅏ	-3084
~^^	-3085
ㅇㅔㅁㅏㄴ	-3086
▁ㅂㅣㄹㅣ	-3087
ㄴㅓ	-3088
ㅅㅏㄹㅗ	-3089
▁ㅈㅏㅈㅓㄴ	-3090
▁ㅇㅕㅁ	-3091
ㄷㅐㅅㅏㅇ	-3092
▁ㄷㅗㅇㅜㅁ	-3093
ㅇㅣㅇㅕ	-3094
▁ㅎㅜㄹ	-3095
ㅐㄴㄷㅡ	-3096
▁ㅈㅜㄴㅂㅣ	-3097
▁ㅍㅗㄱㅣ	-3098
▁ㅇㅐㅊㅗㅇㅔ	-3099
▁ㅁㅐㅇ	-3100
ㄱㅜㄴㅇㅛ	-3101
ㅊㅝ	-3102
ㅃㅗㅂ	-3103
▁ㄴㅏㄹㅏㄴㅡㄴ	-3104
▁ㄷㅓㅁ	-3105
▁ㄷㅏㅇㅇㅕㄴㅎㅏㄴ	-3106
ㅇㅏㅊㅣ	-3107
▁ㅂㅏㄱㄱㅡㄴㅔ	-3108
▁ㅇㅐㄷㅡㄹㅇㅣ	-3109
ㅈㅟ	-3110
▁ㄱㅏㅅㅡㅁ	-3111
~!	-3112
▁ㅅㅡㅁㅏㅌㅡㅍㅗㄴ	-3113
ㅇㅣㄹㅇㅡㄹ	-3114
▁ㅅㅔㄱㅡㅁㅇㅡㄹㅗ	-3115
ㅕㅆㅇㅡㅁ	-3116
ㄱㅓㄴㅡㄴ	-3117
▁ㅈㅏㅅㅏㄹ	-3118
ㅊㅣㄱ	-3119
▁ㅍㅗㅋㅔㅅ	-3120
▁ㅇㅏㅊㅣㅁ	-3121
ㄴㅓㅁㅜ	-3122
ㄱㅓㄹㅏㄱㅗ	-3123
ㅈㅣㅇㅝㄴ	-3124
ㅇㅣㅇㅕㅆ	-3125
ㅎㅏㄹㅓ	-3126
ㅓㅅㄷㅗ	-3127
▁ㄱㅐㅍㅏㄴ	-3128
ㅂㅜㄹㅗ	-3129
▁ㄱㅕㅇㅜㄹ	-3130
ㅁㅏㄶㅇㅣ	-3131
ㅇㅣㄹㅇㅔ	-3132
ㅁㅣㄷ	-3133
▁ㅂㅗㅅㅜ	-3134
ㅇㅣㅇㅠ	-3135
▁ㅇㅏㄶㄴㅏ	-3136
▁ㅇㅔㅁ	-3137
▁ㅋㅋㅋㅋㅋㅋㅋ	-3138
▁ㅇㅣㄴㅏㄹㅏ	-3139
▁ㄱㅐㄹㄹㅓㄱ	-3140
ㅆㅡㅁ	-3141
ㄲㅓㄴ	-3142
▁ㄱㅕㅇㅇㅕㅇ	-3143
ㄱㅔㅆㅈㅛ	-3144
▁ㄷㅏㄹㄹㅏ	-3145
▁ㄴㅏㅅㅓ	-3146
▁ㄱㅡㅈㅓ	-3147
ㅅㅏㅎㅚ	-3148
▁ㄸㅗㄹ	-3149
▁ㅌㅗ	-3150
▁ㅌㅏㄱㅗ	-3151
ㄷㅗㄴㅇㅡㄹㅗ	-3152
ㄱㅡㄹㅓㅁ	-3153
ㅆㄷㅏㄱㅏ	-3154
▁ㅍㅜㅇ	-3155
▁ㄴㅓㄹ	-3156
ㅅㅣㅋㅕㄹㅏ	-3157
ㄸㅡㄹ	-3158
▁ㅂㅏㄴㄷㅡㅅㅣ	-3159
ㅈㅏㄹㅏㅇ	-3160
ㄱㅜㄱㅏ	-3161
▁ㅇㅕㅇㅇㅝㄴ	-3162
▁ㅁㅜㄴㅈㅐ	-3163
ㅈㅔㄹ	-3164
▁ㅈㅜㅇㅣㄴ	-3165
ㅈㅜㅈㅣ	-3166
▁ㅇㅓㅄㄷㅏㄱㅗ	-3167
▁ㅅㅏㄱㅣㄲㅜㄴ	-3168
ㅇㅓㅆㄴㅏ	-3169
ㅎㅐㅈㅝ	-3170
ㅂㅗㅈㅏ	-3171
▁ㅇㅏㄴㅣㅈㅣ	-3172
▁ㅅㅣㄴㄱㅗ	-3173
ㅇㅣㄴㄱㅏㅇㅛ	-3174
▁ㅇㅜㅁ	-3175
ㄸㅐㄷㅗ	-3176
▁ㄴㅐㅇㅣㄹ	-3177
ㅈㅏㅁㅏㄴ	-3178
▁ㅆㅏㄱㅔ	-3179
▁k	-3180
ㅎㅔ	-3181
▁ㄴㅏㅁㅈㅏㄱㅏ	-3182
ㅈㅣㄴㅔ	-3183
▁ㅅㅡㅌㅡㄹ	-3184
ㄷㅣㅇㅓ	-3185
▁ㄱㅡㄹㅓㅎㄱㅗ	-3186
▁G	-3187
▁ㅁㅜㄹㄱㅓㄴ	-3188
ㅇㅓㄷㅡㄹ	-3189
▁ㄴㅏㄹㅆㅣ	-3190
ㄹㅠㄴ	-3191
▁ㄴㅜㄴㅊㅣ	-3192
ㅎㅏㄷㅓㄹㅏ	-3193
ㅊㅗㄴ	-3194
▁ㅂㅗㄱㅗㅅㅣㅍ	-3195
▁ㅎㅏㅈㅣㅁㅏㄹㄱㅗ	-3196
ㅂㅗㄷㅏㄴㅡㄴ	-3197
ㅎㅏㄷㅏㄱㅏ	-3198
▁ㅈㅓㅇㅈㅜㄴㅇㅕㅇ	-3199
▁ㅅㅏㅇㄷㅐ	-3200
ㄷㅗㄴㅇㅣ	-3201
▁ㅎㅎㅎ	-3202
ㅍㅏㄱ	-3203
ㅍㅜㄴ	-3204
▁ㅎㅏㄴㅁㅏ	-3205
▁ㄴㅡㄹㅇㅓㄴ	-3206
▁ㅈㅣㅎㅏ	-3207
▁ㄴㅜㄴㅁㅜㄹ	-3208
▁ㅈㅔㅈㅏㄱㅈㅣㄴ	-3209
ㄲㅜㄴ	-3210
▁ㄱㅏㅅㅜ	-3211
▁ㅈㅣㄱㅏ	-3212
▁ㅅㅐㄴㅜㄹㅣㄷㅏㅇ	-3213
ㅇㅣㄴㄷㅡㄹㅇㅡㄴ	-3214
▁ㅎㅏㅈㅏ	-3215
ㅎㅏㅅㅣㄴㅡㄴ	-3216
ㅎㅚㅅㅏ	-3217
ㅠㄴ	-3218
▁ㄱㅏㅈㅣ	-3219
▁ㅅㅓㄹㅊㅣ	-3220
▁ㅅㅜㄴㅅㅣㄹㅇㅣ	-3221
▁ㅇㅡㅁㅇㅏㄱ	-3222
▁ㅂㅘㅆㄴㅡㄴㄷㅔ	-3223
ㅇㅕㅇㅅㅏㅇ	-3224
▁ㅎㅏㅅㅔㅇㅛ	-3225
▁ㅋㅣ	-3226
▁ㅊㅏㅈㅇㅏ	-3227
ㅇㅣㅌㅡ	-3228
▁ㅇㅣㅎㅜ	-3229
▁ㅇㅜㄹㅣㄴㅡㄴ	-3230
ㄲㅡㅅ	-3231
▁ㅅㅏㄹㅏㅁㄷㅗ	-3232
ㅇㅣㄱㅓㄴ	-3233
ㅇㅠㅇ	-3234
▁ㄱㅏㄱㅔ	-3235
ㅈㅜㄹㅇㅏㄹ	-3236
▁ㄷㅗㄴㅇㅡㄹㅗ	-3237
ㅎㅕㄹ	-3238
ㅏㄴㅔ	-3239
▁ㅁㅣㅇㅏㄴ	-3240
▁ㅇㅣㄹㅐㅅㅓ	-3241
ㅊㅡ	-3242
ㄴㅕㄴㅈㅓㄴ	-3243
▁ㅍㅏㅇㅓㅂ	-3244
ㄷㅡㄹㅇㅣㄷㅏ	-3245
ㅘㅇㅑ	-3246
ㅂㅓㅈㅣ	-3247
▁ㅎㅏㄱㅣ	-3248
▁ㅈㅗㅎㄱㅗ	-3249
ㅃㅐ	-3250
ㅓㅁㅜ	-3251
▁ㅎㅗㄱㅜ	-3252
ㅎㅎㅎㅎ	-3253
ㅇㅜㄹㅣ	-3254
ㄷㅐㅇㅢ	-3255
▁ㅈㅣㄴㅏㄴ	-3256
ㅕㅆㅇㅡㅁㅕㄴ	-3257
▁ㄴㅡㄲㅕ	-3258
ㅅㅣㅋㅣ	-3259
▁ㅁㅐㅇㅣㄹ	-3260
ㅁㅝㄴ	-3261
ㅂㅜㄴㅇㅔ	-3262
ㄹㅕㄱㅇㅡㄹ	-3263
ㅈㅗㅅㅏ	-3264
ㅇㅣㄴㄷㅗ	-3265
ㅂㅜㄹㅁㅐ	-3266
or	-3267
ㄴㅣㄷㅏ	-3268
ㅓㄹㅏㄷㅗ	-3269
ㅣㄴㅡㄴㄷㅔ	-3270
▁ㅇㅖㅅㅏㅇ	-3271
ㅎㅏㄹㄱㅔ	-3272
ㄷㅚㅂㄴㅣㄷㅏ	-3273
ㅂㅜㅇㅢ	-3274
▁ㅅㅣㅀㄷㅏ	-3275
ㅅㅔㅅㅏㅇ	-3276
ㅊㅕㅅㅓ	-3277
▁ㅇㅣㅁㄱㅡㅁ	-3278
ㅇㅏㄴㅐ	-3279
▁ㅇㅟㅎㅐㅅㅓ	-3280
▁ㅇㅏㄴㄷㅡㄹ	-3281
▁ㅃㅐㄱㅗ	-3282
ㄷㅚㄴㅡㄴㄷㅔ	-3283
ㅈㅏㄶㅇㅏㅇㅛ	-3284
ㅎㅐㅈㅜㅅㅔㅇㅛ	-3285
▁ㅇㅣㄴㄱㅏㄴㅇㅣ	-3286
ㅇㅣㄴㅣㄲㅏ	-3287
▁ㅂㅐㅌㅓㄹㅣ	-3288
▁ㄱㅏㅇㅎㅗㄷㅗㅇ	-3289
ㅇㅡㄴㅏ	-3290
ㄱㅜㄱㅇㅣ	-3291
ㅐㅂ	-3292
▁ㅈㅏㄱㅜㄱ	-3293
ㅕㅇㅇㅓㅂ	-3294
ㅈㅐㅁㅣ	-3295
~~~~~	-3296
▁ㅇㅠㅁㅕㅇ	-3297
ㅂㅗㄱㅇㅡㄹ	-3298
▁ㅇㅜㄴㅇㅕㅇ	-3299
ㅇㅣㅆㅇㅡㅁㅕㄴ	-3300
▁ㅅㅏㄹㅏㅁㅇㅡㄹ	-3301
..?	-3302
ㅆㅇㅓㅇㅛ	-3303
ㅅㅣㅁㅕㄴ	-3304
ㅎㅐㅈㅜㄴㅡㄴ	-3305
▁ㅂㅜㅌㅏㄱ	-3306
ㅏㅇㅓㅄ	-3307
ㅅㅗㅎ	-3308
▁ㅁㅏㅊㅏㄴ	-3309
▁ㅊㅚㅇㅏㄱ	-3310
▁ㅎㅠㅇ	-3311
▁ㅂㅕㄴㅎㅗㅅ	-3312
ㅇㅣㅇㅓ	-3313
ㄱㅓㅇㅔ	-3314
ㅛㄴ	-3315
▁ㅎㅏㄱㅅㅐㅇ	-3316
ㅗㅁㅣ	-3317
▁ㄱㅓㅂㄴㅏ	-3318
ㅈㅏㅇㅇㅔ	-3319
▁ㅅㅗㄷㅡㄱ	-3320
ㄴㅕㄴㄷㅐ	-3321
ㅇㅓㄱㅏㄹ	-3322
ㅎㅏㄷㅓㄴㄷㅔ	-3323
▁ㅈㅓㄱㄷㅏㅇㅎㅣ	-3324
▁ㅅㅓㅇㅍㅗㄱㅎㅐㅇ	-3325
,,,,	-3326
▁ㅃㅏㄹㄱㅐㅇㅇㅣ	-3327
ㅈㅓㅎㅣ	-3328
bs	-3329
▁ㄴㅏㄹㅏㅇㅔ	-3330
▁ㄴㅏㅃ	-3331
▁ㅅㅣㅈㅡㄴ	-3332
ㄷㅡㅍㅗㄴ	-3333
▁ㄱㅣㅅㅏㄴ	-3334
ㅔㅅㅡ	-3335
ㅁㅜㄴㅎㅚ	-3336
▁ㅆㅏㄹ	-3337
▁ㅊㅜㅇㅂㅜㄴㅎㅣ	-3338
▁ㄱㅏㅌㅇㅡㅁ	-3339
▁ㅁㅏㄴㄴㅏ	-3340
▁ㅈㅣㅂㄷㅏㄴ	-3341
▁ㄸㅓㄴㅏ	-3342
▁ㅇㅓㅉㅐ	-3343
ㅑㅈㅣ	-3344
ㅊㅕㅁㅓㄱ	-3345
▁ㅂㅗㄱㅓㅁ	-3346
ㅈㅏㅇㅇㅡㄴ	-3347
▁ㅍㅛㅎㅕㄴ	-3348
ㅇㅓㅆㅈㅣ	-3349
▁ㄱㅏㅂㅈㅣㄹ	-3350
▁ㄷㅐㅅㅣㄴ	-3351
▁ㄱㅣㅁㅊㅣㄴ	-3352
▁c	-3353
▁ㄸㅓㄱ	-3354
ㅎㅏㄴㄱㅓㅅ	-3355
ㄹㅚ	-3356
ㅕㄴㅏ	-3357
ㅈㅏㄱㅡㅁ	-3358
ㄱㅚ	-3359
▁ㅂㅜㄴㅇㅟ	-3360
▁ㅊㅐㅇㄱㅕ	-3361
▁ㅂㅏㄱㅈㅓㅇㅎㅢ	-3362
▁ㅈㅔㄱ	-3363
▁ㅃㅓㄴㅃㅓㄴ	-3364
▁ㄱㅡㄹㅜㅂ	-3365
▁ㄱㅏㅄ	-3366
ㅎㅏㄷㅏㄴㅡㄴ	-3367
▁ㅇㅣㄷㅗㅇ	-3368
▁ㅈㅏㄹㅣ	-3369
▁ㅁㅓㅅㅈㅣㄴ	-3370
▁ㅇㅏㅁㅜㄱㅓㅅㄷㅗ	-3371
▁ㅅㅜㅇ	-3372
▁ㄴㅐㄹㅕㅇ	-3373
ㅃㅏㄹㄹㅣ	-3374
ㅇㅣㄹㄲㅏ	-3375
▁ㅇㅏㄷㅡㄹ	-3376
ㅇㅣㅆㄴㅑ	-3377
▁ㄷㅙㅈㅣ	-3378
▁ㅎㅘㄱㅇㅣㄴ	-3379
ㅎㅏㄴㅡㄴㄱㅓㅅ	-3380
▁ㄷㅚㅁ	-3381
ㅣㄹㅏㅇ	-3382
▁ㅍㅗㅋㅔㅅㅁㅗㄴ	-3383
ㅇㅕㅅㅓ	-3384
ㅈㅏㄹㅁㅗㅅ	-3385
ㅇㅣㄱㅣ	-3386
▁ㄹㅏㄱㅗ	-3387
ㄹㅜ	-3388
ㅅㅡㅂㄴㅣㄲㅏ	-3389
▁ㅈㅗㅇㅛㅇㅎㅣ	-3390
▁ㅇㅟㅅ	-3391
▁ㅅㅗㅎ	-3392
ㅈㅓㅇㅊㅣ	-3393
▁ㄱㅜㄱㅅㅏㄴ	-3394
ㅜㄴㅈㅓㄴ	-3395
ㅎㅘㅁㅜㄴ	-3396
▁ㅌㅡㅇㅘ	-3397
ou	-3398
▁ㅅㅏㄹㅇㅣㄴ	-3399
▁ㄴㅏㄹㅏㅇㅔㅅㅓ	-3400
ㅎㅟㅈㅐ	-3401
ㅣㅇㅘ	-3402
ㅎㅐㅆㅈㅣ	-3403
▁ㅈㅜㅁㅏㄹ	-3404
▁ㅁㅜㄴㅈㅔㄴㅡㄴ	-3405
▁ㄲㅡㅌㄴㅏ	-3406
ㄲㅏㅇㅜㄴ	-3407
▁ㅇㅣㅆㅈㅣㅁㅏㄴ	-3408
ㄲㅜㄹ	-3409
ㄹㅏㅅㅓ	-3410
ㅇㅣㅆㄴㅏ	-3411
▁ㅅㅣㄹㅁㅏㅇ	-3412
▁ㅋㅗㄴ	-3413
▁ㅅㅓㅇㄱㅕㄱ	-3414
ㅈㅔㄱㅏ	-3415
▁ㅈㅜㅇㅅㅗㄱㅣㅇㅓㅂ	-3416
▁ㅎㅕㄱ	-3417
ㅅㅣㄴㅇㅣ	-3418
▁ㄱㅜㄱㅁㅣㄴㄷㅡㄹㅇㅡㄴ	-3419
ㄷㅔㄹ	-3420
ㄱㅗㅅㅣㅍ	-3421
▁ㅅㅜㅅㅣㅂ	-3422
▁ㅎㅏㄴㄱㅜㄱㅇㅔㅅㅓ	-3423
▁http	-3424
ㄸㅡㄷ	-3425
com	-3426
ㅎㅏㅇㅕㅆㄷㅏ	-3427
▁ㅂㅣㅈㅓㅇ	-3428
▁ㅈㅗㄴㄴㅏ	-3429
ㄱㅔㅆㄷㅏㄱㅗ	-3430
ㅓㅇㅢ	-3431
ㄷㅐㅎㅏㄴㅁㅣㄴㄱㅜㄱ	-3432
▁ㅇㅠㄹㅓㅂ	-3433
▁ㅅㅣㄹㄹㅕㄱ	-3434
ㄱㅜㄱㄱㅏ	-3435
ㅆㅣㄴㅡㄴ	-3436
▁ㄱㅣㅂㅜ	-3437
▁ㅇㅓㅄㅇㅡㄴㅣ	-3438
▁ㅂㅗㅌㅗㅇ	-3439
▁ㅅㅜㄴㄱㅏㄴ	-3440
▁ㅇㅠㅌㅗㅇ	-3441
▁ㅈㅜㅅㅣㄱ	-3442
ㅇㅣㄹㅂㅗㄴ	-3443
ㅎㅏㅎㅏ	-3444
▁ㅇㅓㅎㅠ	-3445
▁ㅅㅣㅍㅇㅡㄴ	-3446
▁ㅍㅜㅁ	-3447
ㅇㅓㅆㄴㅔ	-3448
▁ㅜ	-3449
▁ㅇㅣㄴㅊㅓㄴ	-3450
▁ㅂㅏㄷㅇㅏㅆ	-3451
ㅉㅡㅅ	-3452
▁ㅅㅔㄴ	-3453
▁i	-3454
ㄱㅖㄱㅏ	-3455
▁ㄸㅗㅎㅏㄴ	-3456
ㅋㅓㅁ	-3457
ㅅㅣㅁㅣㄴ	-3458
▁ㄷㅗㅇㅘ	-3459
▁ㅎㅗㄹ	-3460
ㅇㅟㅎㅐ	-3461
▁ㅇㅏㅁㅏ	-3462
▁ㅈㅐㄱ	-3463
▁ㅂㅣㅊ	-3464
ㅂㅣㄴㅡㄴ	-3465
▁ㅂㅜㅁㅗㄴ	-3466
▁ㅎㅏㄴㅈㅣㄴ	-3467
▁ㅈㅏㄱㅕㄱ	-3468
▁ㅅㅜㅊㅜㄹ	-3469
▁ㅈㅣㄱㅈㅏㅇ	-3470
ㅅㅏㅁㅅㅓㅇ	-3471
ㅇㅜㄴㅡㄴ	-3472
▁ㅂㅗㄴㅂㅏㅇ	-3473
▁ㅇㅣㄹㅣ	-3474
ㅇㅣㄹㅃㅜㄴ	-3475
ㅈㅏㅂㄱㅗ	-3476
▁ㅇㅝㄹㅅㅔ	-3477
▁ㄷㅐㄷㅏㄴㅎㅏㄴ	-3478
▁ㄱㅜㄱㅈㅔ	-3479
▁ㅇㅓㅁㅊㅓㅇㄴㅏㄴ	-3480
bc	-3481
▁ㄱㅓㅍㅜㅁ	-3482
ㄴㅏㅂ	-3483
▁ㅈㅜㅇㅇㅛㅎㅏㄴ	-3484
▁ㄴㅣㅁ	-3485
ㅇㅣㄹㅓㅎㄱㅔ	-3486
ㅇㅡㄹㅗㄴ	-3487
▁ㄸㅏㄹㅗ	-3488
ㅁㅓㄴㅣ	-3489
▁=	-3490
ㅅㅡㄹㅓㅂㄱㅔ	-3491
ㄴㅕㄴㄷㅗㅇㅇㅏㄴ	-3492
ㅇㅡㅁㅕ	-3493
▁ㅉㅗ	-3494
ㅋㅗㅇ	-3495
▁ㅁㅗㄴ	-3496
ㅓㄱㅇㅡㄹ	-3497
▁ㅈㅓㄴㅎㅘ	-3498
▁ㅂㅗㅁㅕㄴㅅㅓ	-3499
▁500	-3500
ㅅㅓㅁㅣㄴ	-3501
ㅇㅕㅈㅏ	-3502
▁ㄱㅏㅁㄷㅗㄱ	-3503
ㅍㅣㄱ	-3504
▁ㅂㅗㄴㅇㅣㄴㅇㅣ	-3505
ㅈㅗㅇㅝㄴ	-3506
▁ㅅㅜㄱㅗ	-3507
▁ㅂㅏㄹㅅㅐㅇ	-3508
▁ㅎㅣ	-3509
ㅕㅆㄴㅔ	-3510
ㄸㅐㅂㅜㅌㅓ	-3511
ㄱㅣㄹㄹㅐ	-3512
ㅂㅏㄱㄱㅡㄴㅎㅖ	-3513
▁ㄱㅣㄹㅡㅁ	-3514
▁ㅅㅏㄹㅇㅏㄴ	-3515
▁ㅊㅚㅈㅓ	-3516
▁ㅇㅏㄴㅁㅓㄱ	-3517
▁ㄱㅡㅁㅏㄴㅋㅡㅁ	-3518
ㄱㅜㄱㅇㅔ	-3519
ㄹㅏㅁㅕㄴ	-3520
ㅏㄴㅡㄴㄱㅓ	-3521
ㄷㅏㄴㅡㄴㄱㅓㄴ	-3522
ㅅㅣㄹㅣ	-3523
ㅈㅓㄴㄱㅣ	-3524
▁ㅂㅏㄲㅝ	-3525
▁ㅇㅏㅅㅟㅂ	-3526
▁ㅂㅓㄹㄱㅡㅁ	-3527
▁ㅎㅐㅈㅜㅅㅔㅇㅛ	-3528
▁ㅈㅏㄷㅗㅇㅊㅏ	-3529
ㅇㅣㅅㅡ	-3530
ㅎㅏㄱㅅㅐㅇ	-3531
▁ㅈㅣㄴㅏ	-3532
▁ㅈㅓㄴㅊㅔ	-3533
▁ㄷㅓㅇㅜㄱ	-3534
ㅁㅐㄱ	-3535
▁ㄸㅗㄱㄱㅏㅌㅇㅣ	-3536
▁ㅉㅗㅁ	-3537
▁ㄱㅐㅅㅗㄹㅣ	-3538
▁ㄱㅓㅅㄷㅡㄹ	-3539
▁ㅅㅐㅇㄱㅏㄱㅇㅡㄹ	-3540
ㅇㅒ	-3541
ㅁㅏㄴㅁㅕㅇ	-3542
▁ㅁㅣㄴㅈㅗㄱ	-3543
ㄷㅏㄴㅡㄴㄱㅓ	-3544
▁70	-3545
▁ㅇㅜㅅㅓㄴ	-3546
ㅇㅕㅂ	-3547
ㅣㄴㅣ	-3548
ㄷㅏㄴㄷㅏ	-3549
ㅅㅣㄷㅏ	-3550
▁ㅎㅏㅈㅣㅁㅏㄹㅏ	-3551
▁ㅇㅏㅁㅜㄹ	-3552
▁ㄴㅗㅈㅐㅁ	-3553
ㄴㅗㅁㄷㅡㄹㅇㅣ	-3554
ㅌㅣㅁ	-3555
▁ㄱㅣㅈㅏㅇ	-3556
▁ㅁㅗㄹㅡㄱㅔㅆㄷㅏ	-3557
ㅗㅈㅣ	-3558
▁ㅈㅓㄱㅣ	-3559
▁ㅈㅓㅇㅈㅏㄱ	-3560
ㅅㅐㄲㅣ	-3561
▁ㅅㅐㅇㄱㅕㅆ	-3562
▁ㅂㅏㄷㅇㅡㄴ	-3563
ㅂㅜㄱㅏ	-3564
ㅅㅏㅇㅅㅣㄱ	-3565
▁ㅅㅏㅁㅅㅓㅇㅇㅡㄴ	-3566
ㅓㅂㅠ	-3567
ㄱㅗㄱㅣ	-3568
ㄱㅏㄷㅗ	-3569
▁0	-3570
▁ㄴㅏㅁㅈㅏㄷㅡㄹ	-3571
ㅈㅗㅊㅏ	-3572
▁ㄷㅡㄹㅇㅣ	-3573
▁ㅎㅔㅇㅓ	-3574
▁ㅁㅏㄴㅋㅡㅁ	-3575
ㅏㄴㅏ	-3576
▁300	-3577
▁ㄱㅜㄱㅁㅣㄴㅇㅡㄴ	-3578
▁ㄱㅡㄹㅐㅇㅑ	-3579
ㄴㅡㄴㄱㅓㄴ	-3580
▁ㅇㅏㄴㅈㅗㅎ	-3581
ㅌㅡㄴㅡㄴ	-3582
▁ㅇㅕㅈㅏㄴㅡㄴ	-3583
▁ㅎㅐㅆㅇㅡㅁㅕㄴ	-3584
▁ㅈㅣㄱㅇㅓㅂ	-3585
▁ㄴㅜㄱㅜㄹ	-3586
▁ㅈㅒ	-3587
ㄹㅑㄱ	-3588
▁ㅌㅐㄱㅅㅣ	-3589
▁ㄷㅏㄴㅌㅗㅇㅂㅓㅂ	-3590
▁ㄴㅗㅍㅇㅡㄴ	-3591
▁ㅈㅏㅈㅜ	-3592
ㅊㅕㄴ	-3593
▁ㄸㅐㄹㅕ	-3594
▁ㅈㅣㄴㅈㅓㅇㅎㅏㄴ	-3595
ㅌㅏㄱㅗ	-3596
▁ㅎㅕㄴㄱㅡㅁ	-3597
ㅡㄹㅣ	-3598
▁ㄲㅐㄲㅡㅅ	-3599
▁ㅃㅏㄱ	-3600
▁ㅁㅜㅎㅏㄴㄷㅗㅈㅓㄴ	-3601
ㅅㅏㄴㅇㅓㅂ	-3602
▁ㅊㅚㄱㅗㅇㅢ	-3603
ㅇㅓㅄㄴㅔ	-3604
▁ㅎㅢㅁㅏㅇ	-3605
▁ㅍㅕㅇㄱㅠㄴ	-3606
?????	-3607
ㅈㅣㅋ	-3608
▁ㅈㅜㅈㅏㅇ	-3609
▁ㅇㅏㄴㅣㅇㅑ	-3610
▁ㅇㅜㅅㄱㅣ	-3611
▁ㅈㅏㅈㅓㄴㄱㅓ	-3612
▁ㅆㅡㄹㄷㅔ	-3613
ㅂㅗㅎㅓㅁ	-3614
ㅈㅣㄱㅇㅝㄴ	-3615
▁ㅋㅡ	-3616
▁ㄴㅐㄱㅗ	-3617
▁ㅆㅏㅎ	-3618
id	-3619
ㅌㅔㄴㅣ	-3620
ㅈㅏㄴㅣㅁ	-3621
▁ㄷㅚㄴㅡㄴㄷㅔ	-3622
ㅇㅡㄹㅗㄷㅗ	-3623
▁ㄴㅣㄷㅡㄹㅇㅡㄴ	-3624
▁ㄴㅏㅂ	-3625
▁ㅅㅣㄴㄱㅣ	-3626
ㅎㅐㅆㅇㅡㄹ	-3627
▁ㅈㅣㅂㅇㅏㄴ	-3628
ㅅㅣㄴㅏ	-3629
▁ㅎㅕㄴㄱㅣ	-3630
▁ㄱㅠㅈㅔ	-3631
ㄷㅏㄹㄹㅏㄱㅗ	-3632
ㄷㅏㅅㅣ	-3633
▁ㅍㅗㅎㅏㅁ	-3634
▁ㅈㅏㄹㅎㅏㄱㅗ	-3635
▁ㄲㅣ	-3636
ㄸㅐㄲㅏㅈㅣ	-3637
ㅂㅓㄴㅉㅐ	-3638
ㅁㅐㅁㅐ	-3639
ㅎㅐㅈㅜ	-3640
▁ㅂㅏㄱㄱㅡㄴㅎㅖㄱㅏ	-3641
▁ㅇㅕㄹㅓ	-3642
▁ㅎㅓㄱ	-3643
ㅇㅣㅁㄱㅡㅁ	-3644
ㅘㄹㅇㅕㅇ	-3645
ㅁㅓㄹㅣ	-3646
ㅏㄶㅇㅡㄴ	-3647
▁ㅇㅓㄹㅕㅇㅜㄴ	-3648
▁ㅈㅓㄱㅔ	-3649
ㅜㅁㅕㅇ	-3650
ㅈㅏㄹㅏ	-3651
▁ㅂㅜㄹㅇㅏㄴ	-3652
▁ㄱㅗㅇㅅㅏㄴ	-3653
ne	-3654
ㄷㅡㄷ	-3655
▁ㅇㅣㅎㅟㅈㅐ	-3656
ㅈㅓㅇㄷㅗㄹㅗ	-3657
ㅂㅟ	-3658
▁ㅇㅕㅇㅎㅑㅇ	-3659
▁ㅈㅓㅇㅇㅠㄹㅏ	-3660
▁ㅇㅔㄹㅈㅣ	-3661
▁ㅇㅣㅇㅠㄴㅡㄴ	-3662
ㄱㅠㅈㅣㄱ	-3663
▁ㅇㅏㅈㅜㅁㅁㅏ	-3664
▁ㅇㅣㄴㅗㅁ	-3665
▁ㄱㅗㅌㅗㅇ	-3666
ㅆㅅㅡㅂㄴㅣㄷㅏ	-3667
▁ㄱㅡㄹㅓㄴㅏ	-3668
▁ㅇㅗㄹㄹㅣㄴ	-3669
▁ㅂㅜㄹㄹㅓ	-3670
▁ㄴㅔㅇㅣㅂㅓ	-3671
▁ㄷㅐㅇㅜ	-3672
ㅊㅏㅈ	-3673
▁ㅁㅏㄹㅎㅏㄴㅡㄴ	-3674
ㄴㅕㄴㄱㅏㄴ	-3675
!!!!!!	-3676
▁ㄱㅡㄴㅎㅖ	-3677
▁ㅇㅖㅃㅡㄴ	-3678
ㄷㅜㄴ	-3679
ㅜㅁㅏㄴ	-3680
▁ㅈㅏㅇㅕㅇㅇㅓㅂ	-3681
▁ㅇㅗㄹㄹㅣ	-3682
ㅅㅡㄹㅓㅂㄷㅏ	-3683
▁ㄷㅜㄱㅗ	-3684
▁ㅅㅡㅂ	-3685
ㅎㅣㄴㅡㄴ	-3686
▁ㄴㅗㅈㅗ	-3687
▁ㅁㅗㅅㅎㅏㄹ	-3688
ㅅㅣㅋㅣㄴㅡㄴ	-3689
▁ㄷㅗㄴㅇㅡㄴ	-3690
ㅅㅣㅇㅟ	-3691
ㄴㅐㄱㅏ	-3692
▁ㅈㅣㅂㅎㅚ	-3693
ㅡㄴㅔ	-3694
ㅎㅏㄴㄷㅏㅁㅕㄴ	-3695
▁ㅊㅣㅋㅣㄴ	-3696
▁ㅇㅗㄴㄱㅏㅈ	-3697
ㄷㅏㅇㅜㄴ	-3698
ㄷㅡㄹㅣㅂㄴㅣㄷㅏ	-3699
▁!!	-3700
ㄱㅔㅇㅣㅁ	-3701
ㅅㅏㅇㅢ	-3702
▁ㅇㅏㄹㅡㅁ	-3703
ㅇㅜㄹㅣㄴ	-3704
▁ㅁㅏㄴㅇㅑㄱ	-3705
▁ㅎㅖㅌㅐㄱ	-3706
▁ㅂㅣㄱㅂㅐㅇ	-3707
ㅡㄴㄷㅔ	-3708
▁ㄸㅐㅁ	-3709
ㄷㅏㅇㅇㅣ	-3710
▁ㄱㅗㅁㅏ	-3711
▁ㅇㅑㅇㅇㅏㅊㅣ	-3712
ㅇㅏㄴㅣㄹㅏ	-3713
▁ㄴㅐㄹ	-3714
▁ㄴㅗㅇㅣㄴ	-3715
ㅂㅏㅇㅇㅔ	-3716
ㄱㅏㄹㅏㄱ	-3717
ㅏㅁㅕ	-3718
ㅅㅓㅇㅑ	-3719
ㅂㅘㅆㄴㅡㄴㄷㅔ	-3720
ㄴㅡㄲ	-3721
▁60	-3722
▁16	-3723
▁ㅁㅣㄷㅇㅡㄹ	-3724
ㅍㅠ	-3725
▁ㅅㅟㄹ	-3726
ㅇㅣㄴㅅㅏㅇ	-3727
▁ㅈㅜㅇㄱㅜㄱㅇㅣ	-3728
▁ㄱㅏㅈㄱㅗ	-3729
ㅉㅏㄹ	-3730
▁ㄱㅏㅁㅏㄴㅎㅣ	-3731
▁ㅉㅏㄱ	-3732
▁ㄱㅘㅇㅎㅘㅁㅜㄴ	-3733
ㅂㅣㄹㅡㄹ	-3734
▁ㅁㅝㄹㅏ	-3735
ㅈㅏㅇㅔㄱㅔ	-3736
▁ㅆㅡㅁㅕㄴ	-3737
▁ㅈㅏㄹㅁㅗㅅㄷㅚㄴ	-3738
ㄹㅂㅓㅁ	-3739
**	-3740
ㅈㅣㄴㅇㅜㄱ	-3741
ㅐㄴㅡㄴ	-3742
ㅈㅣㄹㅇㅣ	-3743
ㄸㅜㅇ	-3744
▁ㄷㅏㄴㅣㄴㅡㄴ	-3745
ㅏㅇㅜㄴ	-3746
▁ㄱㅗㄷㅡㅇ	-3747
ㅆㅈㅣㅁㅏㄴ	-3748
▁ㅅㅏㅈㅏㅇ	-3749
▁ㄷㅗㅇㅇㅏㄴ	-3750
ㅉㅏㄹㅗ	-3751
ㄷㅏㄴㅊㅔ	-3752
ㅇㅏㄴㅣㅁ	-3753
▁ㄴㅓㅁㅇㅓ	-3754
ㅗㅎㅇㅡㄴ	-3755
ㄱㅡㅁㅏㄴ	-3756
ㅊㅣㅁㅕㄴ	-3757
▁ㅈㅣㅎㅏㅊㅓㄹ	-3758
▁ㅍㅕㅇㅅㅗ	-3759
▁ㅇㅠㅇㅣㄹ	-3760
▁ㅊㅓㅇㅁㅜㄴㅎㅚ	-3761
▁ㄱㅗㄱㅐㄱ	-3762
ㅅㅏㄹㅏㅁㄷㅡㄹㅇㅣ	-3763
ㅎㅘㄹㄷㅗㅇ	-3764
ㅎㅐㅈㅜㄱㅗ	-3765
ㅎㅐㅈㅜㄹ	-3766
ㅕㄴㅇㅣ	-3767
ㅈㅣㅇㅕㄱ	-3768
ㅂㅜㄹㅓ	-3769
ㄱㅛㅇㅠㄱ	-3770
▁ㅎㅜㅅ	-3771
▁ㅁㅏㅊㅏㄴㄱㅏㅈㅣ	-3772
ㅋㅓㅍㅡㄹ	-3773
ㄱㅔㅆㄴㅏ	-3774
▁ㅎㅏㅂㅇㅢ	-3775
▁ㄷㅐㄱㅜ	-3776
▁ㄸㅐㅇ	-3777
▁ㄴㅗㅎㄱㅗ	-3778
▁ㅊㅓㄱ	-3779
ㅅㅏㄷㅗ	-3780
ㄸㅏㄹㅏ	-3781
▁ㅂㅓㅂㅇㅡㄹ	-3782
▁ㅈㅏㄱㅇㅡㄴ	-3783
ㄲㅏㅂㅘ	-3784
▁ㄷㅏㅇㅅㅣ	-3785
ㅈㅗㅈㅏㄱ	-3786
▁ㅇㅣㄱㅓㅅㄷㅗ	-3787
▁ㄷㅚㅂㄴㅣㄷㅏ	-3788
ㄹㅓㅇ	-3789
▁ㅈㅗㅎㅇㅏㅇㅛ	-3790
▁ㅁㅗㄱㅅㅜㅁ	-3791
ㅈㅏㅇㅇㅔㅅㅓ	-3792
▁ㄱㅕㄹㄹㅗㄴ	-3793
ㅇㅡㄹㅗㅅㅓ	-3794
▁ㄱㅡㄹㅣㅁ	-3795
▁ㄷㅗㄹㅗ	-3796
▁ㄷㅐㅎㅕㅇ	-3797
▁ㅂㅣㅆㅏ	-3798
▁ㅈㅗㅇㄱㅛ	-3799
▁ㅍㅣㄹㅇㅛㅎㅏㄴ	-3800
▁ㅂㅐㅂㅜㄹ	-3801
ㅇㅓㄹㄱㅜㄹ	-3802
▁ㅎㅏㄴㅁㅕㅇ	-3803
▁ㄱㅓㄴㅁㅜㄹ	-3804
▁ㅇㅏㄴㄴㅐ	-3805
▁ㅇㅚㅁㅗ	-3806
ㅁㅏㄶㅇㅡㄴ	-3807
▁ㅈㅣㄷㅗ	-3808
ㅎㅏㅈㅣㅁㅏ	-3809
ㅁㅗㅅㅡㅂ	-3810
▁ㅂㅏㄹㅍㅛ	-3811
▁ㅈㅓㄴㅅㅔㄱㅖ	-3812
ㅂㅘㅆㅈㅏ	-3813
ㄷㅚㅇㅓㅆㄷㅏ	-3814
ㄱㅏㅇㅓㅄ	-3815
ㅎㅏㅅㅣㄱㅣㄹ	-3816
▁ㄷㅗㄱㅇㅣㄹ	-3817
ㄱㅣㅁㅕㄴ	-3818
▁ㅅㅔㄱㅡㅁㅇㅡㄹ	-3819
ㅅㅡㅌㅔㅁ	-3820
▁/	-3821
ㅈㅗㅇㅅㅓㄱ	-3822
ㄹㅔㅇㅣ	-3823
▁ㄷㅓㅍ	-3824
ㅅㅓㅇㅇㅡㄴ	-3825
▁ㅂㅜㄴㄷㅡㄹ	-3826
ㅇㅣㅇ	-3827
▁ㄱㅣㅁㅌㅐ	-3828
ㄷㅐㄱㅗ	-3829
▁ㅈㅓㅇㅎㅕㅇ	-3830
▁ㅇㅕㅇㅅㅏㅇ	-3831
ar	-3832
▁p	-3833
▁ㄹㅜ	-3834
ㅏㅇㅗㄴ	-3835
▁ㄱㅕㄱ	-3836
ㅅㅣㅈㅓㄹ	-3837
ㅅㅏㅇㅓㅂ	-3838
▁ㄱㅏㅌㅇㅏㅇㅛ	-3839
ㅍㅓㅇ	-3840
▁ㅇㅏㄴㅣㅂㄴㅣㄷㅏ	-3841
▁ㄷㅏㄴㅅㅜㄴ	-3842
▁ㅁㅏㅇㅎㅏㄹ	-3843
ㅎㅘㄹㅡㄹ	-3844
▁ㄱㅛㅎㅘㄴ	-3845
ㅅㅏㅅㅣㄹ	-3846
▁ㅎㅐㄴㄷㅡㅍㅗㄴ	-3847
▁ㅁㅏㄹㅇㅏㅁㅓㄱ	-3848
▁ㅇㅣㄹㅂㅔ	-3849
▁ㅌㅏㅂ	-3850
ㄷㅏㅇㅡㅁ	-3851
18	-3852
ㅌㅓㅇ	-3853
ㅅㅏㅈㅣㄴ	-3854
▁ㅎㅕㄹㅅㅔ	-3855
▁ㄲㅗㅁ	-3856
▁ㅇㅏㅁㅜㄷㅗ	-3857
ㅈㅣㅇㅓ	-3858
ㅅㅜㄹㅗ	-3859
▁ㅎㅓㄴㅂㅓㅂ	-3860
▁ㄱㅖㅅㅏㄴ	-3861
▁g	-3862
ㅑㅇㅇㅣ	-3863
ㄱㅔㅆㄴㅔㅇㅛ	-3864
▁ㄱㅐㄹㄹㅓㄱㅅㅣ	-3865
ㅇㅣㅂㅓㄴ	-3866
ㅡㅁㅇㅣ	-3867
ㄹㅣㅇ	-3868
▁ㅁㅏㄶㄱㅗ	-3869
▁ㅂㅓㅅㅡ	-3870
▁ㅎㅏㄴㄱㅜㄱㅇㅣㄴ	-3871
▁ㅊㅐ	-3872
▁ㅎㅏㄴㅅㅣㅁㅎㅏㄴ	-3873
▁ㅂㅜㅂㅜㄴ	-3874
▁ㅇㅛㄱㅁㅓㄱ	-3875
ㄸㅔ	-3876
ㄷㅐㅍㅗㄴ	-3877
▁ㅎㅡㄱ	-3878
ㅁㅏㄹㄹㅗ	-3879
ㄴㅕㄴㄷㅗ	-3880
ㄷㅡㄴㄱㅏ	-3881
▁ㅇㅣㄴㅌㅓㅂㅠ	-3882
▁ㅇㅑㅇㅅㅔ	-3883
ㄱㅣㅊㅜㄴ	-3884
ㅎㅏㄱㅔㅆㅈㅣ	-3885
▁ㄱㅜㅁㅐ	-3886
▁ㄱㅏㅁㅅㅏㅎㅏㅂㄴㅣㄷㅏ	-3887
▁ㄴㅗㅁㄷㅡㄹㅇㅣ	-3888
▁ㅅㅓㅇㅈㅏㅇ	-3889
▁ㅋㅗㅇ	-3890
ㅎㅏㄷㅓㄴㅣ	-3891
▁ㅈㅓㅇㄷㅗㄹㅗ	-3892
▁ㅈㅗㅎㅇㅡㄹ	-3893
▁ㅍㅔ	-3894
ㅂㅜㅅ	-3895
ㅎㅡㅇ	-3896
ㅈㅕㄴ	-3897
▁ㅁㅓㅇㅊㅓㅇㅎㅏㄴ	-3898
ㅅㅡㄹㅓㅇㅜㄴ	-3899
▁ㅎㅏㄴㅡㄴㅈㅣ	-3900
▁ㅈㅏㅅㅣㄴㅇㅢ	-3901
ㅅㅣㄱㅇㅡㄹ	-3902
ㄷㅐㄹㅡㄹ	-3903
▁ㅎㅏㄹㅅㅜ	-3904
▁ㅁㅏㄶㅇㅏㅅㅓ	-3905
▁ㅇㅖㅈㅓㄴㅇㅔ	-3906
ㅎㅏㅅ	-3907
▁ㄷㅗㄱㄹㅣㅂ	-3908
▁ㅁㅕㅇㅈㅓㄹ	-3909
▁ㅈㅗㅈㅓㅇ	-3910
▁ㅎㅓㄴㅈㅐ	-3911
▁ㄴㅜㄴㅇㅔ	-3912
ㅇㅗㅅ	-3913
▁ㅎㅑㅇ	-3914
▁ㄱㅓㅅㄷㅡㄹㅇㅣ	-3915
▁ㅅㅣㄱㅏㄴㅇㅣ	-3916
ㅈㅔㅇㅔ	-3917
▁ㅈㅗㅎㄷㅏㄱㅗ	-3918
▁ㅎㅡㅂ	-3919
ㅂㅡ	-3920
▁ㅇㅡ	-3921
ㄱㅐㅇㅢ	-3922
▁ㅁㅣㄹㅇㅑㅇ	-3923
▁ㄱㅗㅇㄱㅏㅁ	-3924
▁ㅇㅕㄱㅎㅏㄹ	-3925
▁ㅂㅜㄹㄹㅠㄴ	-3926
ㅇㅣㄴㅅㅐㅇ	-3927
▁ㅌㅡㄹㅓㅁ	-3928
ㅎㅐㅆㄴㅏ	-3929
▁ㅃㅜㄹ	-3930
▁ㅅㅣㄱㄷㅏㅇ	-3931
▁ㅁㅏㄹㅇㅡㄴ	-3932
▁ㄹㅗㅂㅗㅅ	-3933
▁ㄴㅏㅇㅗㄴㄷㅏ	-3934
▁ㅂㅓㄹㅇㅓ	-3935
▁ㄷㅐㄷㅏㄴㅎㅏㄷㅏ	-3936
▁ㅉㅏㅇㄱㅐ	-3937
▁ㄱㅣㅇㅓㅂㅇㅣ	-3938
▁ㅇㅣㄹㅂㅜ	-3939
ㅎㅎㅎ	-3940
▁ㄷㅗㄴㄷㅗ	-3941
▁ㅁㅏㅇㅣㄴ	-3942
ㄱㅜㄴㅡㄴ	-3943
▁ㅇㅠㅊㅣ	-3944
ㅈㅜㅇㅜㄴㅈㅓㄴ	-3945
ㅊㅚㄱㅗ	-3946
ㅂㅏㄷㅇㅡㄴ	-3947
▁ㅈㅓㄴㄱㅣㅇㅛㄱㅡㅁ	-3948
ㅏㅅ	-3949
▁ㅂㅣㅎㅐㅇ	-3950
▁ㅇㅕㄴㄱㅣㄹㅕㄱ	-3951
▁ㅅㅏㄴㄷㅏ	-3952
▁ㄱㅏㅁㅇㅗㄱ	-3953
▁ㅁㅕㄹ	-3954
▁ㄴㅘ	-3955
▁ㄱㅛㅌㅗㅇ	-3956
ㅟㅇㅔ	-3957
▁ㅇㅗㄹㅡㄴ	-3958
▁ㅅㅏㅇㅌㅐ	-3959
ㄱㅕㅂㄷㅏ	-3960
▁ㅇㅏㄴㅣㅇ	-3961
▁ㅈㅏㄹㅎㅏㄴㅡㄴ	-3962
ㅂㅓㄹㅣㄱㅗ	-3963
▁ㅊㅏㅁㄱㅗ	-3964
▁ㅌㅐㄱㅡㄱ	-3965
▁ㄱㅜㄱㅡㄹ	-3966
▁ㅁㅏㅅㅔㅇㅛ	-3967
▁ㅁㅓㅅㅈㅣ	-3968
▁ㅇㅣㅆㅇㅡㄹㄲㅏ	-3969
▁ㅅㅐㅇㄱㅏㄱㅎㅏㄱㅗ	-3970
▁ㅇㅏㄴㅣㄴㄱㅏㅇㅛ	-3971
ㅊㅣㄴㄱㅜ	-3972
▁ㄱㅜㄹㅡㅁㅣ	-3973
▁ㅇㅣㅆㅇㅓㅇㅛ	-3974
▁ㅇㅕㄴㄱㅣㄷㅗ	-3975
ㅎㅣㄱㅗ	-3976
▁ㅎㅜㄴ	-3977
ㅓㄱㄴㅡㄴ	-3978
▁ㄷㅓㅇㅝ	-3979
ㄱㅣㄷㅡㄹ	-3980
ㅎㅏㄱㅔㅆㄷㅏ	-3981
▁ㄱㅕ	-3982
▁ㅍㅕㄴㅇㅢ	-3983
ㄷㅡㅁㅏㄴ	-3984
▁ㅊㅟㄱㅡㅂ	-3985
▁ㄱㅏㅁㄷㅗㅇ	-3986
▁ㅇㅗㄴㅡㄹㄷㅗ	-3987
ㅕㄱㅏㄴ	-3988
ㅈㅕㅆㄴㅔ	-3989
ㄴㅏㄷㅗ	-3990
▁ㅇㅣㄹㅓㄴㅣ	-3991
ㅈㅓㄱㅇㅣㄱㅗ	-3992
▁ㅋㅓㅍㅡㄹ	-3993
▁ㅅㅐㄲㅣㄷㅡㄹ	-3994
▁ㅁㅣㄹㅇㅓ	-3995
ㅇㅡㅅㅣㄴ	-3996
▁ㅆㅗ	-3997
▁ㄱㅟㅇㅕㅇ	-3998
ㅈㅜㄱㅣ	-3999
ㅅㅣㅋㅕㅇㅑ	-4000
▁ㅇㅣㅈㅜㄴㄱㅣ	-4001
ㄱㅗㅇㅡㄴ	-4002
ㅂㅗㄹㅡㄹ	-4003
ㅎㅣㄹ	-4004
ㅁㅜㅅㅡㄴ	-4005
▁ㄴㅗㄴㄹㅏㄴ	-4006
~!!	-4007
ㅂㅓㅁㅈㅚ	-4008
▁ㄷㅗㄹㅇㅏㄱㅏ	-4009
▁ㄱㅏㅇㅑ	-4010
ㅇㅓㄴㄹㅗㄴ	-4011
▁ㄱㅓㅁㅅㅐㄱ	-4012
▁ㅅㅜㅈㅣ	-4013
▁ㅁㅏㄴㄷㅡㄹㅇㅓㅅㅓ	-4014
▁ㄹㅣㅋㅗㄹ	-4015
ㄱㅔㅆㅇㅓ	-4016
▁ㅁㅗㄹㄹㅏㄷㅗ	-4017
▁ㄱㅓㄹㄱㅡㄹㅜㅂ	-4018
▁ㅅㅐㅇㅁㅕㅇ	-4019
ㅇㅏㄴㅎㅏㄱㅗ	-4020
ㄱㅏㅈㅗㄱ	-4021
ㅊㅏㄹㅡㄹ	-4022
▁13	-4023
▁ㅇㅓㅄㅅㅡㅂㄴㅣㄷㅏ	-4024
▁ㅅㅔㄱ	-4025
ㅓㅂㄱㅗ	-4026
▁ㅈㅏㄹㅅㅏㄹ	-4027
▁ㅅㅏㄴㅇㅓㅂㅇㅛㅇ	-4028
ㅜㅈㅣㄴ	-4029
▁ㅎㅏㄹㅇㅣㄴ	-4030
ㅈㅓㄹㅓㄴ	-4031
▁o	-4032
ㅈㅏㅊㅔ	-4033
ㅈㅣㅇㅔ	-4034
▁ㅈㅜㅇㄱㅏㄴ	-4035
▁ㅃㅓㅇ	-4036
▁ㅁㅜㄹㄱㅏ	-4037
▁ㅈㅣㅇㅗㄱ	-4038
ㅃㅐㄱㅗ	-4039
ㅅㅡㄴㅡㄴ	-4040
▁ㅁㅏㄹㄹㅗ	-4041
ㅅㅏㄷㅡㄹ	-4042
ㅈㅣㄴㅇㅣ	-4043
▁ㅎㅏㄴㄱㅜㄱㅇㅔ	-4044
ㅇㅓㄴㅗㅎㄱㅗ	-4045
ㄱㅜㄱㅁㅣㄴㅇㅣ	-4046
▁ㅇㅓㅄㄴㅏ	-4047
ㅉㅓㅇ	-4048
ㅅㅜㅈㅓ	-4049
▁ㅊㅜㅇㄱㅕㄱ	-4050
100	-4051
▁ㅇㅘㅅㅓ	-4052
▁ㅎㅕㅁ	-4053
ㅈㅓㅁㅇㅣ	-4054
▁ㅉㅉㅉ	-4055
▁ㄱㅘㅎㅏㄱ	-4056
▁ㄱㅏㅈㅓㅇㅇㅛㅇ	-4057
▁ㅁㅗㅅㅅㅐㅇ	-4058
▁ㄷㅗㅇㅇㅕㅇㅅㅏㅇ	-4059
▁ㅇㅏㄱㅍㅡㄹㄹㅓ	-4060
ㅈㅓㄴㅎㅣ	-4061
ㅈㅐㅇㅇㅣ	-4062
▁ㅂㅜㅁㅗㄴㅣㅁ	-4063
ㅎㅏㅅㅣㄱㅗ	-4064
ㅈㅏㅅㅣㄱ	-4065
ㅏㅁㅕㄴㅅㅓ	-4066
ㄱㅓㄱ	-4067
▁ㅁㅏㄶㄴㅔ	-4068
▁ㅈㅏㅃㅏ	-4069
▁ㅇㅗㄹㄹㅣㄱㅗ	-4070
▁ㅁㅜㄴㅈㅔㄷㅏ	-4071
▁ㅇㅜㅂㅕㅇ	-4072
▁ㄸㅗㄱㅂㅏㄹㅗ	-4073
▁ㄱㅡㄹㅓㄴㅣㄲㅏ	-4074
ㅎㅏㄴㅁㅣㄴㄱㅜㄱ	-4075
▁ㅂㅜㅈㅏ	-4076
▁ㅎㅐㅅ	-4077
ㅅㅠ	-4078
ㄴㅡㄴㄱㅏ	-4079
ㅜㅇㅓ	-4080
ㅣㅁㅕ	-4081
ㄱㅘㄴㄹㅣ	-4082
▁ㅂㅗㅇㅣㄴㅡㄴ	-4083
ㅌㅡㄹㅡㄹ	-4084
▁ㄷㅏㅂㅇㅣ	-4085
▁ㅊㅓㅇㄴㅕㄴ	-4086
ㄸㅐㅇ	-4087
ㅂㅓㄴㅡㄴ	-4088
▁ㅌㅜㄱ	-4089
ㅎㅐㅆㄷㅏㄴㅡㄴ	-4090
▁ㅆㅓㄱㅇㅡㄴ	-4091
▁ㅈㅓㄴㄱㅜㄱ	-4092
▁ㅅㅐㄹㅗ	-4093
▁ㅇㅕㅈㅏㅇ	-4094
ㅈㅗㄱㅕㅇㅈㅔ	-4095
▁ㄱㅏㄱㅗ	-4096
▁ㄱㅣㅅㅏㄱㅏ	-4097
ㅈㅓㄴㅈㅏ	-4098
▁ㄱㅣㅈㅗㄴ	-4099
ㄲㅔㅇㅛ	-4100
▁ㅇㅐㄷㅡㄹㅇㅡㄴ	-4101
ㅅㅐㄲㅣㄷㅡㄹ	-4102
ㄷㅐㅇㅔ	-4103
▁ㅂㅣㄴㅏㄴ	-4104
▁ㅇㅛㅈㅡㅁㅇㅡㄴ	-4105
▁ㅇㅇ	-4106
ㅆㅇㅡㄴㅣ	-4107
▁ㅊㅟㅇㅓㅂ	-4108
▁ㅃㅐㅇ	-4109
▁ㅇㅕㅇㅇㅓㅂ	-4110
ㅐㄷㅗ	-4111
ㅅㅣㅁㅇㅡㄹ	-4112
▁ㅊㅣㄴㅂㅏㄱ	-4113
at	-4114
▁ㄷㅡㄴ	-4115
▁ㅇㅕㄴㄱㅜ	-4116
ㅇㅝㄴㄷㅗ	-4117
▁ㅇㅓㄹㅕㅂ	-4118
ㄴㅐㅁ	-4119
ㅅㅏㄴㄷㅏ	-4120
▁ㅅㅜㄱㅏ	-4121
▁17	-4122
▁ㄱㅣㅁㄷㅐㅈㅜㅇ	-4123
▁ㅍㅏㄹㅇㅏㅁㅓㄱ	-4124
ㅇㅓㅆㅇㅡㄹ	-4125
▁ㅎㅣㅁㄴㅐㅅㅔㅇㅛ	-4126
▁ㅈㅘㅍㅏ	-4127
ㅁㅓㄹ	-4128
▁ㅎㅏㄴㅌㅔ	-4129
ㅇㅓㅄㄴㅡㄴㄷㅔ	-4130
...?	-4131
500	-4132
▁ㅇㅏㅍㅇㅡㄹㅗㄷㅗ	-4133
ㄱㅏㅁㅕ	-4134
▁ㅇㅗㄹㄹㅏㅇ	-4135
ㅈㅔㄹㅡㄹ	-4136
ㄹㅕㄴㅡㄴ	-4137
▁ㅇㅣㅈㅣㄴㅇㅜㄱ	-4138
▁ㅇㅗㄹㄹㅏㄱ	-4139
▁ㅋㅏㅁ	-4140
▁ㅈㅣㄱㅜ	-4141
▁ㄱㅏㅇㄹㅕㄱ	-4142
▁ㅅㅓㅇㅁㅐㅁㅐ	-4143
▁ㅅㅐㅇㄱㅏㄱㅎㅏㅁㅕㄴ	-4144
▁ㄴㅏㅁㅇㅏ	-4145
ㄱㅗㅅㅐㅇ	-4146
▁ㄷㅏㄴㅅㅗㄱ	-4147
BC	-4148
▁ㄸㅗㄱㄸㅗㄱ	-4149
ㅍㅗㄱㅌㅏㄴ	-4150
ㅉㅓㄱ	-4151
▁ㅇㅓㄴㅈㅔㄴ	-4152
▁ㅉㅗㄱㅍㅏㄹ	-4153
▁ㄹㅠ	-4154
ㅎㅐㅆㅇㅓ	-4155
ㄷㅚㄴㅑ	-4156
ㅎㅔㄹ	-4157
▁ㅊㅜㄹㅅㅣ	-4158
▁ㄴㅏㅌㅏㄴ	-4159
ㅇㅕㄴㅇㅖ	-4160
▁ㅅㅣㄴㄹㅚ	-4161
▁ㅇㅏㄴㄷㅚㄹ	-4162
ㅇㅇ	-4163
▁ㄱㅛㅊㅔ	-4164
ㅅㅏㅇㅌㅐ	-4165
▁ㄷㅐㅊㅜㅇ	-4166
▁ㅆㅣㅂ	-4167
▁ㅈㅣㅂㅈㅜㅇ	-4168
▁ㅁㅜㅅㅓㅇㅜㄴ	-4169
▁ㅂㅗㄷㅗ	-4170
ㅇㅣㄹㄷㅗ	-4171
ㄱㅡㄹㅐㅅㅓ	-4172
▁ㅌㅣㅍㅏㄴ	-4173
ㄹㅣㄴㅔ	-4174
ㅇㅣㄹㄷㅡㅅ	-4175
▁ㅅㅜㅈㅜㄴㅇㅣ	-4176
ㄹㅏㄴㅂㅓㅂ	-4177
▁ㅌㅓㅈㅣ	-4178
▁ㅊㅓㄹㅣ	-4179
ㅎㅏㄱㅓㄴㅏ	-4180
▁ㅇㅣㄷㅡㄱ	-4181
▁ㅈㅜㅇㄱㅜㄱㅇㅔ	-4182
ㄲㅗㄱ	-4183
▁ㄱㅓㄴㅅㅓㄹ	-4184
▁ㅅㅟㅂ	-4185
ㅏㄱㅜㅇㅛ	-4186
ㄱㅓㅅㄱㅏㅌㄷㅏ	-4187
▁ㅇㅕㄴㄱㅡㅁ	-4188
▁ㄷㅔㅂㅟ	-4189
▁ㄴㅏㅁㅇㅡㄴ	-4190
▁ㅁㅣㅊㅕ	-4191
▁ㄷㅓㅇㅜㄴ	-4192
▁ㅈㅘㅃㅏㄹ	-4193
ㄷㅡㄱㄱㅝㄴ	-4194
ㄲㅓㄷㅏ	-4195
ㄷㅡㄹㅏ	-4196
▁ㅅㅣㅈㅓㄹ	-4197
▁ㄲㅗㅇ	-4198
▁ㅌㅟ	-4199
▁ㅍㅣㅇㄱㅖ	-4200
▁ㄸㅐㅁㅜㄴㅇㅣㄷㅏ	-4201
▁ㄲㅜ	-4202
▁ㅇㅏㄴㅌㅏㄲㅏㅂ	-4203
▁ㅇㅣㅈㅗㅇㅅㅓㄱ	-4204
ㄱㅕㅅㅓ	-4205
ㅎㅐㅆㄴㅑ	-4206
▁ㅇㅏㅅㅣ	-4207
▁ㄴㅏㅁㅏㄴ	-4208
▁ㅁㅜㄴㅓ	-4209
▁ㅎㅘㄴㅂㅜㄹ	-4210
ㄱㅔㅆㄷㅏㄴㅡㄴ	-4211
ㅏㄹㅏㅁ	-4212
st	-4213
ㅓㅇㅇㅣ	-4214
ㄷㅗㅇㄴㅔ	-4215
ㅇㅡㄹㅗㄴㅡㄴ	-4216
▁ㅈㅓㅇㅅㅣㄴㅂㅕㅇ	-4217
▁ㅌㅡㄱㅂㅕㄹ	-4218
▁ㅈㅗㅎㅇㅡㅁ	-4219
▁ㅇㅟㅇㅏㄴ	-4220
▁ㅂㅣㅆㅏㄱㅔ	-4221
▁ㅇㅓㅉㅓㄹㅅㅜ	-4222
▁ㄷㅏㅁㅂㅐㄱㅏㅄ	-4223
ㅂㅗㄱㅏ	-4224
ㅊㅏㅁㅇㅔ	-4225
▁ㄱㅗㅁㅣㄴ	-4226
ㅇㅣㅆㅈㅣ	-4227
ㅎㅐㅂㅘㄹㅏ	-4228
ㄹㅡㄴ	-4229
▁ㅉㅏㄼ	-4230
▁ㅂㅗㅇㅣㄴㄷㅏ	-4231
ㅌㅡㄱㅏ	-4232
▁ㅊㅣㄱㅗ	-4233
ㄱㅣㅁㅜㄴ	-4234
ㅂㅏㄷㅏㄱ	-4235
ㅋㅣㄹ	-4236
▁ㅅㅔㅅㅏㅇㅇㅔ	-4237
ㄱㅓㄹㅏㅇ	-4238
ㅜㄹㅏ	-4239
40	-4240
▁ㅇㅜㄹㅣㄷㅗ	-4241
▁ㅇㅚㄱㅜㄱㅇㅣㄴ	-4242
▁ㅋㅗㄹ	-4243
▁ㄱㅡㅁㄹㅣ	-4244
▁ㅇㅔㄱㅅㅗ	-4245
ㅊㅐㄱㅇㅣㅁ	-4246
▁ㄱㅏㅌㅇㅏ	-4247
▁ㄸㅡㄴ	-4248
ㅅㅏㄹㅏㅁㄷㅡㄹㅇㅡㄴ	-4249
▁ㄱㅗㅇㄱㅣㅇㅓㅂ	-4250
▁ㅊㅚㅅㅜㄴㅅㅣㄹㅇㅣ	-4251
an	-4252
ㅈㅣㅎㅕㄴ	-4253
ㅊㅓㄴㅇㅓㄱ	-4254
ㄱㅔㅆㅅㅡㅂㄴㅣㄷㅏ	-4255
▁ㅇㅓㄴㅈㅔㄲㅏㅈㅣ	-4256
▁ㅈㅓㄴㅡㄴ	-4257
▁ㅇㅏㄴㄷㅚㅁ	-4258
▁ㅅㅓㅂㅣㅅㅡ	-4259
ㄷㅡㄹㅕㅇㅛ	-4260
▁ㄴㅓㄷㅗ	-4261
ㅎㅐㅆㅈㅣㅁㅏㄴ	-4262
ㅈㅜㄱㅔ	-4263
▁ㅊㅜㅁ	-4264
▁ㅁㅏㅇㅡㅁㅇㅣ	-4265
▁ㅈㅜㅇㅕㄴ	-4266
ㄴㅏㄴㅔ	-4267
ㅅㅣㅇ	-4268
▁ㅇㅏㄴㅎㅏㄴㅡㄴ	-4269
▁ㅈㅏㅂㅗㄴ	-4270
▁LG	-4271
▁ㅁㅗㄱㅅㅗㄹㅣ	-4272
ㅇㅡㅅ	-4273
▁ㅇㅡㅁㅈㅜㅇㅜㄴㅈㅓㄴ	-4274
▁ㅂㅓㅂㅇㅣ	-4275
ㅕㅆㄴㅏ	-4276
▁ㅈㅔㄱㅏ	-4277
▁ㅈㅓㅇㄹㅣ	-4278
▁ㄷㅡㄷㄱㅗ	-4279
▁ㅎㅏㄷㅓㄴ	-4280
ㅂㄷ	-4281
▁ㄴㅐㄴㅡㄴ	-4282
ㄹㅣㄴㅡㄴㄷㅔ	-4283
ㅡㄺ	-4284
▁ㅅㅣㄹㅈㅔ	-4285
ㅎㅐㅆㅇㅓㅇㅛ	-4286
▁1000	-4287
▁ㅇㅗㄹㄹㅣㄹ	-4288
▁l	-4289
ㄸㅓㄹ	-4290
ㅜㄴㄷㅔ	-4291
▁ㄱㅣㅈㅏㄱㅏ	-4292
ㅇㅝㄴㅇㅔ	-4293
▁ㅁㅗㄹㅡㄹ	-4294
ㅅㅡㄹㅡㄹ	-4295
▁ㅠㅠㅠㅠ	-4296
ㅈㅣㅅㅇㅡㄹ	-4297
▁ㅁㅝㅇㅑ	-4298
▁ㅇㅜㅁㅈㅣㄱ	-4299
▁ㅈㅏㄱㅣㄷㅡㄹ	-4300
▁P	-4301
▁ㅃㅣㅇ	-4302
ㅃㅏㅈㅣㄴ	-4303
▁ㅁㅐㄱㅜㄱ	-4304
ㅐㄴㅓㄹ	-4305
▁ㅊㅏㄱㄱㅏㄱ	-4306
▁ㅅㅏㄹㄹㅕ	-4307
▁ㄱㅗㅇㅈㅏㅇ	-4308
▁ㄱㅏㅍ	-4309
▁b	-4310
▁ㅈㅜㅊㅏ	-4311
▁ㅊㅣㄴㅇㅣㄹㅍㅏ	-4312
ㅅㅏㅇㅎㅘㅇ	-4313
▁ㄱㅡㄹㅓㄴㄱㅓ	-4314
▁ㅉㅜㄱ	-4315
ㄴㅏㅇㅗㄴ	-4316
▁ㄱㅐㅅㅓㄴ	-4317
ㄴㅏㅎ	-4318
▁ㅅㅓㄹㅁㅕㅇ	-4319
ㅈㅣㄴㅣ	-4320
ㄹㅖ	-4321
ㄴㅣㅁㅇㅣ	-4322
ㅇㅣㅂㄱㅗ	-4323
ㅅㅇㅣ	-4324
▁ㅋㅏㄷㅡ	-4325
ㅇㅣㄹㅏㅅㅓ	-4326
▁ㅊㅘㄹㅇㅕㅇ	-4327
▁ㄱㅏㄹㅇㅏ	-4328
▁ㅎㅏㅂㅅㅣㄷㅏ	-4329
ㅂㅐㅁ	-4330
▁ㄱㅖㅇㅑㄱ	-4331
▁ㅋㅔㅇㅣ	-4332
▁ㄱㅗㅇㄱㅗㅇ	-4333
▁ㄴㅏㅁㅈㅏㄴㅡㄴ	-4334
▁ㅎㅏㄴㄱㅜㄱㅇㅣ	-4335
▁ㅎㅏㄴㄷㅏㄴㅡㄴ	-4336
ㅅㅣㅋㅣㄴ	-4337
ㅅㅗㄱㅇㅔ	-4338
ㅎㅗㄱㅏㅁ	-4339
▁ㅍㅏㄹㅇㅏ	-4340
▁w	-4341
ㅈㅔㄷㅗ	-4342
ㅎㅡㄹ	-4343
▁ㅎㅏㄴㄱㅜㄱㅇㅢ	-4344
▁ㅇㅢㅅㅣㅁ	-4345
▁ㄱㅏㅁㅈㅓㅇ	-4346
ㅇㅛㅇㅣㄹ	-4347
ㅊㅚㅅㅜㄴㅅㅣㄹ	-4348
▁ㅈㅔㅈㅜㄷㅗ	-4349
▁ㅊㅏㄴㅅㅓㅇ	-4350
▁ㅅㅐㄲㅣ	-4351
ㅇㅓㄹㅣ	-4352
▁ㄱㅣㅅㅏㅇㅔ	-4353
▁ㅎㅢㅅㅐㅇ	-4354
▁ㅅㅓㅇㅎㅕㅇ	-4355
▁ㅂㅗㅎㅗ	-4356
▁ㅌㅐㅂㅡㄹㄹㅣㅅ	-4357
▁ㅈㅓㄷㅗ	-4358
▁ㅁㅣㄱㅐㅎㅏㄴ	-4359
▁ㅎㅣㅁㄷㅡㄹㅇㅓ	-4360
▁ㄴㅗㄷㅏㅂ	-4361
ㅈㅗㅎㄷㅏ	-4362
ㅅㅏㅇㅛㅇ	-4363
▁ㄸㅓㅇ	-4364
▁ㅁㅜㄹㅣ	-4365
ㄷㅏㄴㅣㄴㅡㄴ	-4366
▁ㅅㅜㅅㅏㅇ	-4367
▁ㅁㅔㄴ	-4368
▁ㅂㅏㄱㄱㅡㄴㅎㅖㄴㅡㄴ	-4369
ㅂㅏㄱㅇㅣ	-4370
▁ㄱㅕㅇㄱㅣ	-4371
ㅈㅜㄹㅗ	-4372
ㅇㅣㅆㅇㅡㄹ	-4373
▁ㅂㅜㅍㅐ	-4374
▁ㅈㅓㅇㅊㅣㅇㅣㄴ	-4375
ㅐㄱㅏ	-4376
ㅎㅏㄴㅡㄹ	-4377
▁ㅇㅑㅇㅅㅔㅎㅕㅇ	-4378
.........	-4379
▁ㅁㅜㄴㅈㅐㅇㅣㄴ	-4380
▁ㅇㅣㄴㄱㅏㄴㄷㅡㄹㅇㅣ	-4381
▁ㅅㅜㅇㅣㄱ	-4382
ㅇㅓㅉ	-4383
▁ㅁㅣㄹㅣ	-4384
▁ㅈㅗㄴㄱㅕㅇ	-4385
▁ㅍㅗㄱㅇㅕㅁ	-4386
ㅈㅝㅅㅓ	-4387
▁ㄷㅏㄹㅡㄹ	-4388
re	-4389
▁ㅊㅚㅅㅗㅎㅏㄴ	-4390
ㅎㅏㄴㄷㅡㅅ	-4391
▁1.	-4392
▁ㅁㅏㅊㅣ	-4393
ㄱㅓㄹㅣㄴㅡㄴ	-4394
▁ㅇㅓㄹㅡㄴ	-4395
▁ㅇㅜㅅㅇㅡㅁ	-4396
ㄱㅣㅅㅜㄹ	-4397
▁ㅅㅣㄹㅍㅐ	-4398
ㄱㅣㄹㅛ	-4399
▁ㅎㅏㅅㅣ	-4400
▁O	-4401
▁ㅅㅜㅅㅜㄹ	-4402
▁ㅅㅡㅌㅡㄹㅔㅅㅡ	-4403
ㅏㄴㅡㄴㄱㅓㄴ	-4404
12	-4405
ㄱㅣㅈㅓㄴㅇㅔ	-4406
▁ㄷㅐㅎㅏㄴㅁㅣㄴㄱㅜㄱㅇㅡㄴ	-4407
ㄱㅣㄷㅐ	-4408
▁ㅁㅝㄴㅈㅣ	-4409
▁ㅎㅐㅆㄷㅓㄴ	-4410
▁ㅍㅣㄴ	-4411
ㅈㅏㅊㅔㄱㅏ	-4412
▁ㅈㅣㅇㅈㅣㅇ	-4413
▁ㅇㅏㄴㅣㅈㅣㅁㅏㄴ	-4414
▁ㅈㅜㅇㅇㅔ	-4415
▁ㅇㅕㄴㄱㅣㄹㅡㄹ	-4416
ㄱㅗㅅㅇㅔ	-4417
▁ㅇㅗㄹㅐㄴ	-4418
ㅇㅓㅄㅇㅡㅁㅕㄴ	-4419
▁ㅇㅟㄴ	-4420
▁ㅇㅣㅂㄱㅗ	-4421
ㄱㅣㄱㅘㄴ	-4422
ㄱㅓㄱㅏㅌㅇㅡㄴㄷㅔ	-4423
;;;;	-4424
ㅅㅏㅅㅜ	-4425
▁ㅇㅏㄹㅐ	-4426
▁ㄷㅗㄴㅁㅏㄴ	-4427
ㅇㅏㅆㄴㅔ	-4428
ㅗㅇㅊㅓㄹ	-4429
ㅇㅔㅇㅛ	-4430
▁ㄱㅡㄱㅎㅕㅁ	-4431
▁ㅎㅏㄱㅣㄴ	-4432
▁ㅎㅠㄷㅐㅍㅗㄴ	-4433
▁ㅍㅏㄴㄱㅕㄹ	-4434
ㄱㅓㅅㅊㅓㄹㅓㅁ	-4435
~~~~~~~~	-4436
▁ㅅㅗㅇㅈㅜㅇ	-4437
ㄴㅕㄴㅇㅡㄴ	-4438
ㅈㅜㄴㄷㅏ	-4439
▁ㄹㅏㅁㅕㄴ	-4440
▁ㄱㅣㅁㄱㅗㅇㅡㄴ	-4441
ㅋㅏㄴ	-4442
▁80	-4443
ㅁㅗㅁ	-4444
ㅎㅏㄴㅈㅣ	-4445
▁ㅅㅐㅇㄱㅏㄱㅇㅡㄴ	-4446
▁ㄴㅗㄹㄹㅏ	-4447
▁ㅋㅐㄹㅣㄱㅌㅓ	-4448
▁ㅁㅔㄹ	-4449
ㅅㅔㅂ	-4450
▁ㅂㅣㅇㅛㅇ	-4451
ㅅㅣㅊㅓㅇ	-4452
ㄷㅏㅁㅕ	-4453
▁ㅅㅏㅇㅅㅣㄱ	-4454
ㄹㅕㄹ	-4455
ㅈㅐㅍㅏㄴ	-4456
ㅇㅛㅈㅡㅁ	-4457
▁ㅈㅜㅇㄱㅜㄱㅇㅡㄴ	-4458
ㄴㅜㄱ	-4459
▁ㅁㅐㄴㅕㄴ	-4460
▁ㅎㅜㅎㅚ	-4461
ㄴㅗㅈㅗ	-4462
▁24	-4463
▁ㄱㅡㄴㅗㅁ	-4464
ㅇㅜㄴㄷㅗㅇ	-4465
ㅍㅏㄹㅇㅣ	-4466
▁ㅎㅏㅈㅣㅁㅏ	-4467
▁ㅅㅏㅅㅓ	-4468
▁ㅂㅗㄱㅈㅣ	-4469
ㅇㅏㄴㅣㄴㄱㅏ	-4470
▁ㅂㅣㅂㄴㅣㄷㅏ	-4471
ㅘㅆㄴㅡㄴㄷㅔ	-4472
▁ㅊㅏㅇㅈㅗㄱㅕㅇㅈㅔ	-4473
▁ㅇㅛㅅㅐ	-4474
ㅅㄴㅡㄴㄷㅔ	-4475
ㅇㅣㅈㅏ	-4476
▁ㄴㅡㄺㅇㅡㄴ	-4477
▁ㅈㅓㅇㅂㅜㅇ	-4478
▁f	-4479
▁ㅇㅓㅄㄷㅏㄴㅡㄴ	-4480
▁ㅊㅡㄱ	-4481
ㄷㅚㄴㅏ	-4482
▁ㄱㅗㄹㅕ	-4483
ㅎㅏㅁㅇㅣ	-4484
▁ㄴㅜㄴㅇㅣ	-4485
ㄱㅗㅇㅁㅜㅇㅝㄴ	-4486
ㅌㅡㄹㅗ	-4487
ㅁㅏㅁ	-4488
▁ㄷㅡㄹㅓㄴ	-4489
ㅅㅓㄷㅗ	-4490
▁ㅈㅜㅇㄱㅗ	-4491
ㅈㅐㅅㅏㄴ	-4492
▁ㄷㅏㄴㅊㅔ	-4493
▁ㄷㅐㄴㅗㅎㄱㅗ	-4494
▁ㅁㅜㄱㅗ	-4495
ㄹㅏㅅㅡ	-4496
ㅎㅜㄹㅗ	-4497
▁ㄷㅐㅎㅏㄴㅁㅣㄴㄱㅜㄱㅇㅢ	-4498
▁ㄱㅣㄹㅗㄱ	-4499
ㄹㅣㅁㅍㅣㄱ	-4500
ㅑㄹ	-4501
ㅠㄱㅏ	-4502
▁ㅂㅏㄷㅏ	-4503
ㄱㅜㅇㅛ	-4504
ㅇㅏㅆㅇㅡㅁㅕㄴ	-4505
▁ㅅㅏㅌㅐ	-4506
▁ㅁㅐㅂㅓㄴ	-4507
ㅡㅡㅡㅡ	-4508
▁ㄴㅗㅅ	-4509
ㄱㅡㄹㅓㅎ	-4510
ㄷㅏㄴㄱㅖ	-4511
▁ㄱㅕㅇㅈㅔㄱㅏ	-4512
▁ㄱㅏㄱㅈㅗㅇ	-4513
ㅓㅎㅢ	-4514
ㅅㅔㅁ	-4515
▁ㅁㅝㅎㅏㄴㅡㄴ	-4516
ㅘㄱ	-4517
ㅊㅜㅇㄷㅡㄹ	-4518
ㄷㅡㄹㅇㅓㅇ	-4519
▁ㄱㅕㅇㅜ	-4520
ㄱㅣㄴㅏ	-4521
ㅂㅣㅆ	-4522
▁ㅇㅗㅀ	-4523
ㄱㅏㅇㅏㄴ	-4524
▁ㅊㅜㅇㅈㅓㄴ	-4525
▁ㅈㅓㅇㅎㅕㅇㄷㅗㄴ	-4526
ㅁㅓㅅ	-4527
ㅈㅏㅇㄴㅏㄴ	-4528
ㅃㅗㅇ	-4529
▁ㅆㅗㄷ	-4530
ㅇㅕㅇㅇㅣ	-4531
▁ㅂㅗㄴㅣㄲㅏ	-4532
ㅅㅡㅌㅣㅇ	-4533
▁ㄱㅗㅅㅗㄱ	-4534
▁ㄱㅏㅇㅈㅔ	-4535
ㅇㅏㅈㅣㄱ	-4536
ㄹㅣㄱㅣ	-4537
▁ㅇㅏㄲㅏㅂㄷㅏ	-4538
▁ㅌㅏㅁ	-4539
▁ㅇㅛㄱㅜ	-4540
▁ㅎㅏㅇㅕ	-4541
▁ㅁㅗㅅㅎㅐ	-4542
▁ㅎㅣㅁㄷㅡㄹㄷㅏ	-4543
▁ㅇㅕㄴㅇㅖㅇㅣㄴㄷㅡㄹ	-4544
ㅜㄴㄷㅗㅇ	-4545
▁ㅂㅣㅍㅏㄴ	-4546
▁ㅈㅐㅁㅣㅆㄱㅔ	-4547
ㅅㅣㅋㅣㄹ	-4548
ㅁㅜㄴㅎㅘ	-4549
ㅅㅜㄴㄱㅏㄴ	-4550
▁ㅅㅗㄹㅡㅁ	-4551
ㅂㅗㄷㅗ	-4552
▁ㄱㅏㄲㅡㅁ	-4553
ㅅㅔㄹㅡㄹ	-4554
ㄴㅐㅇ	-4555
▁!!!	-4556
▁ㅎㅡㅁ	-4557
ㅅㅈㅣ	-4558
▁ㄷㅏㄴㅣ	-4559
ㅇㅏㄴㅇㅔ	-4560
▁ㄱㅗㅇㅈㅓㅇ	-4561
ㅗㄹㅐ	-4562
▁ㅇㅣㅆㅇㅓㄷㅗ	-4563
▁ㅁㅜㅅㅓ	-4564
ㄴㅗㅁㅇㅣ	-4565
ㅅㅣㅈㅏㄱ	-4566
▁ㄱㅣㅍ	-4567
▁ㅂㅗㅂㄴㅣㄷㅏ	-4568
ㅕㅆㄱㅗ	-4569
▁ㅌㅔㄹ	-4570
ㄱㅔㅆㄴㅡㄴㄷㅔ	-4571
ㅇㅣㅃ	-4572
ㅓㅅㅡ	-4573
▁ㄷㅏㄻ	-4574
▁y	-4575
▁ㅇㅖㅅㅏㄴ	-4576
▁ㄱㅣㅁㄱㅣㅊㅜㄴ	-4577
????????	-4578
ㄴㅕㅇ	-4579
▁ㅅㅜㅂㅐㄱ	-4580
▁ㄷㅐㅅ	-4581
ㅇㅣㅇㅣㄱ	-4582
▁ㅇㅣㄹㅎㅏㄴㅡㄴ	-4583
ㄹㅕㄴㅏ	-4584
▁ㄱㅓㄷㅏ	-4585
▁ㅇㅡㄹ	-4586
▁ㄱㅕㅇㅅㅏㅇㄷㅗ	-4587
▁ㄱㅣㅎㅚㄱ	-4588
▁ㄱㅜㄹㅏㅊㅓㅇ	-4589
▁ㄱㅡㅈㅣ	-4590
▁ㅇㅚㅈㅔ	-4591
▁ㅇㅣㄹㅇㅡ	-4592
ㅇㅕㅇㅑ	-4593
▁ㄱㅜㅇㅣㅂ	-4594
▁ㅅㅏㄹㅇㅏㅇㅑ	-4595
ㅂㅗㅈㅣ	-4596
▁ㅁㅔㅇㅣㄴ	-4597
ㅎㅐㄴㅗㅎㄱㅗ	-4598
ㅣㄴㄱㅏ	-4599
▁ㅁㅕㅇㅂㅗㄱㅇㅡㄹ	-4600
▁ㅅㅣㅋㅕ	-4601
ㅇㅣㅆㅇㅓㅇㅛ	-4602
▁ㅎㅏㄴㅅㅣㅁㅎㅏㄷㅏ	-4603
ㄸㅓㄱ	-4604
~~^^	-4605
ㄷㅡㄹㅇㅣㄴㅏ	-4606
ㅇㅝㄴㅇㅡㄴ	-4607
▁ㅇㅣㅂㅓㄴㅇㅔㄴ	-4608
▁ㅇㅏㄴㅈㅓㅇ	-4609
▁ㄱㅏㅈㅕ	-4610
ㅜㄴㅇㅛ	-4611
▁ㄱㅏㄹㅅㅜㄹㅗㄱ	-4612
▁ㅅㅗㄴㅕ	-4613
▁ㅇㅛㄱㅎㅏㄴㅡㄴ	-4614
▁ㄴㅓㅁㅇㅓㄱㅏ	-4615
ㅂㅗㅅㅔㅇㅛ	-4616
on	-4617
▁ㅇㅏㄴㅏ	-4618
▁ㅅㅣㄹㅈㅔㄹㅗ	-4619
ㅅㅓㄱㅇㅣ	-4620
▁ㄱㅏㄴㄷㅏ	-4621
ㄱㅡㄹㅓㅎㄱㅔ	-4622
▁ㄱㅓㄱㅣㅇㅔ	-4623
▁ㅇㅚㄱㅛ	-4624
▁ㅈㅣㅈㅣㄴ	-4625
▁ㅌㅐㅍㅜㅇ	-4626
▁ㄷㅡㄷㅣㅇㅓ	-4627
ㄸㅐㄱㅏ	-4628
ㄴㅠ	-4629
▁ㄱㅣㅈㅏㄴㅣㅁ	-4630
▁ㅈㅏㅇㄱㅘㄴ	-4631
ㅁㅜㅇ	-4632
▁ㄷㅏㅂㅇㅣㄷㅏ	-4633
ㄴㅗㄴ	-4634
ㄱㅔㅆㅇㅓㅇㅛ	-4635
▁ㄱㅡㄹㅓㅎㄷㅏㄱㅗ	-4636
ㅁㅕㄹ	-4637
▁ㄱㅗㅇㅇㅣㄱ	-4638
ㅗㅇㅢ	-4639
▁ㅇㅘㄴㅂㅕㄱ	-4640
ㄹㅗㅂ	-4641
▁ㅎㅏㅈㅣㅁㅏㄹ	-4642
ㅈㅏㅇㅘ	-4643
▁ㄱㅏㅆㄷㅏ	-4644
ㅇㅕㄴㅂㅗㅇ	-4645
▁ㅇㅣㅆㄴㅡㄴㅈㅣ	-4646
▁ㄴㅏㅇㅗㄱㅗ	-4647
ㅇㅓㅆㅇㅓ	-4648
ㅎㅘㄱㅜㄱ	-4649
▁ㄱㅓㄱㅣㅅㅓ	-4650
▁ㅇㅣㅁㅅㅣㄴ	-4651
ㅆㅡㄹㅔㄱㅣ	-4652
ㅇㅡㄴㅎㅐㅇ	-4653
▁ㄲㅡㅌㄴㅐ	-4654
▁ㅇㅓㄷㅣㄱㅏ	-4655
11	-4656
▁ㅎㅣㅁㄷㅡㄹㄱㅔ	-4657
▁ㅂㅏㄷㅇㅏㅇㅑ	-4658
▁ㅇㅣㅈㅔㅇㅘㅅㅓ	-4659
▁ㅊㅣㅇㅊㅏㄴ	-4660
ㅂㅏㅁ	-4661
ㅖㅇㅛ	-4662
▁ㄱㅡㄹㅓㄱㅗ	-4663
ㅍㅏㄴㅇㅔ	-4664
ㅎㅐㅂㅘ	-4665
▁ㄱㅣㅁㅈㅓㅇㅇㅡㄴ	-4666
ㄱㅘㄴㅡㄴ	-4667
▁ㅈㅗㅎㄱㅔ	-4668
▁ㅇㅣㄴㄱㅗㅇ	-4669
▁ㅈㅜㄱㄴㅡㄴ	-4670
ㅊㅣㄴㄷㅏ	-4671
▁ㅁㅗㄹㅇㅣㅂ	-4672
ㅑㄱㅗ	-4673
▁ㅇㅣㅆㄱㅔ	-4674
ㄱㅔㅆㄱㅜㄴ	-4675
▁ㅇㅏㄶㅇㅡㅁㅕㄴ	-4676
ㅈㅗㄱㅡㅁ	-4677
ㅁㅏㄴㄷㅡㄴ	-4678
▁ㄱㅣㅁㅊㅣ	-4679
▁ㅂㅏㄹㅏㄴㄷㅏ	-4680
ㅅㅔㄱㅖ	-4681
▁ㄱㅜㄱㄱㅏㄱㅏ	-4682
ㅈㅣㅎㅛ	-4683
▁ㄱㅏㄹㅡ	-4684
ㅇㅣㄹㅣ	-4685
ㄱㅓㅂ	-4686
ㅋㅙ	-4687
ㅂㅏㄴㄷㅗ	-4688
▁ㄱㅡㅁㅇㅠㅇ	-4689
▁ㅇㅣㄱㅓㄴㅎㅢ	-4690
▁ㅃㅐㅅ	-4691
▁ㅅㅐㄴ	-4692
ㄱㅕㅆㄷㅏ	-4693
ㅃㅏㄱ	-4694
▁ㅂㅏㅇㅌㅏㄴ	-4695
ㅎㅏㄴㅌㅔㄴㅡㄴ	-4696
ㄱㅕㄹㅎㅗㄴ	-4697
ㄴㅏㄱㅏ	-4698
▁ㅇㅣㄹㅂㅜㄹㅓ	-4699
▁ㅇㅣㅆㅇㅓㅆㄴㅡㄴㄷㅔ	-4700
ㅈㅗㅈㅓㅇ	-4701
▁ㅅㅔㅅㅏㅇㅇㅣ	-4702
ㄱㅓㅅㄷㅡㄹㅇㅡㄴ	-4703
▁ㅁㅐㅇㅜ	-4704
▁ㄱㅣㄷㅡㄱㄱㅝㄴ	-4705
▁ㄴㅏㅇㅘㅆ	-4706
▁ㅁㅏㄴㅇㅝㄴ	-4707
ㅍㅣㄴ	-4708
ㄴㅗㅌㅡ	-4709
▁ㄱㅐㄴㅜㄹㅣ	-4710
▁ㅇㅗㄹㄹㅣㄴㅡㄴ	-4711
▁14	-4712
ㄷㅐㄹ	-4713
ㅇㅗㄴㅡㄹ	-4714
▁ㅌㅐㅇㅓㄴ	-4715
ㅎㅏㄹㅕ	-4716
▁ㄴㅜㄴㅂㅣㅊ	-4717
▁v	-4718
ㅇㅡㄹㅗㅆㅓ	-4719
▁ㅇㅢㅁㅜㄴ	-4720
▁ㄴㅗㅎㅗㅇㅊㅓㄹ	-4721
▁ㅅㅣㅎㅐㅇ	-4722
▁ㅁㅔㄱㅏㄹ	-4723
▁ㅈㅓㅂㅓㄴ	-4724
ㄱㅏㅄㅇㅣ	-4725
▁ㄷㅣㅈㅏㅇㅣㄴ	-4726
▁ㅅㅣㅎㅓㅁ	-4727
ㅅㅔㄱㅏ	-4728
▁ㅈㅏㅇㅁㅕㄴ	-4729
▁ㅇㅣㄹㅈㅏㄹㅣ	-4730
▁ㄱㅘㄱㅓ	-4731
▁ㅅㅣㄲㅡㄹ	-4732
ㅁㅏㄴㄱㅏㄴ	-4733
ㅇㅏㄴㅣㄱㅗ	-4734
▁ㅇㅜㄹㅣㄴㅏㄹㅏㅇㅔ	-4735
ㅎㅐㅈㅣ	-4736
ㅂㅣㄹㅣ	-4737
ㅂㅏㄹㅈㅓㄴ	-4738
▁ㅅㅏㅁㅓㄱ	-4739
▁ㅇㅢㅎㅗㄱ	-4740
▁ㅊㅕㅁㅓㄱ	-4741
ㅎㅕㄴㅅㅣㄹ	-4742
ㅏㅇㅗ	-4743
▁ㅇㅏㄹㄱㅔ	-4744
ㅅㅓㅇㄷㅗ	-4745
ㅇㅓㅄㅇㅓㅅㅓ	-4746
ㅣㅇㅝ	-4747
ㅓㅇㅜㅁ	-4748
▁ㅂㅣㅎㅐ	-4749
▁ㅇㅓㄹㅕ	-4750
ㄸㅟ	-4751
ㅋㅓㅅ	-4752
ㅏㄱㅏㄴㅡㄴ	-4753
▁ㄴㅏㄹㅏㅇㅢ	-4754
▁ㅇㅕㅇㅇㅝㄴㅎㅣ	-4755
ㅇㅏㅈㅣ	-4756
▁ㅁㅕㅇㅍㅜㅁ	-4757
▁ㅇㅏㅃㅏ	-4758
▁ㄷㅏㄹㄹㅕ	-4759
▁ㅇㅐㄹㅂㅓㅁ	-4760
▁ㅇㅣㅆㄷㅏㅁㅕㄴ	-4761
ㄱㅣㅈㅣ	-4762
▁ㄱㅣㅁㅁㅣㄴ	-4763
ㅂㅗㅇㅕ	-4764
▁ㄱㅣㅁㅈㅗㅇㅁㅣㄴ	-4765
▁ㅈㅓㅇㅂㅜㅇㅔㅅㅓ	-4766
ㅏㄹㄱㅗ	-4767
▁ㅈㅜㄹㅇㅓ	-4768
ㄹㅣㄴㅏ	-4769
▁90	-4770
ㅇㅡㅅㅔㅇㅛ	-4771
▁ㅊㅏㄹㅑㅇ	-4772
▁ㄷㅜㅂㅓㄴ	-4773
▁ㄱㅏㄱㅕㄱㅇㅣ	-4774
ㅅㅏㄴㅏ	-4775
▁ㅇㅛㅇㅅㅓ	-4776
▁ㅇㅖㅅㅜㄹ	-4777
ㅕㅇㅑㅈㅣ	-4778
▁ㅅㅏㄹㅇㅏㄹㅏ	-4779
▁ㅇㅛㄱㅅㅣㅁ	-4780
ㅅㅏㅁㅏㄴ	-4781
ㅊㅓㄴㅁㅏㄴㅇㅝㄴ	-4782
▁ㅈㅔㄱㅋㅣ	-4783
ㅅㅣㄱㅏㄴㅇㅔ	-4784
▁ㄷㅗㅇㅣㅂ	-4785
ㅂㅏㄴㄷㅐ	-4786
ㄹㅏㄹㅏ	-4787
▁ㅇㅓㄴㄱㅡㅂ	-4788
▁ㅇㅣㄹㅂㅗㄴㅇㅡㄴ	-4789
ㄹㅠㄱ	-4790
▁ㄱㅐㅃㅜㄹ	-4791
▁ㅈㅏㄱㄱㅏ	-4792
▁ㅇㅏㄶㄷㅏ	-4793
▁ㅅㅓㄹㄹㅔ	-4794
ㅈㅓㄱㅣ	-4795
▁ㄱㅓㄴㄷㅡㄹ	-4796
▁ㅇㅔㅇㅣ	-4797
ㅈㅜㅇㅣㄴ	-4798
▁ㅇㅔㄹㅏㅇㅣ	-4799
ㅂㅣㅇㅛㅇ	-4800
▁ㅎㅏㅊㅓㅇ	-4801
ㄷㅐㅂㅏㄱ	-4802
▁ㅌㅡㄹㅓㅁㅍㅡ	-4803
▁ㅍㅓㅇ	-4804
▁ㄱㅣㄴㅡㅇ	-4805
▁ㄴㅏㅁㅓㅈㅣ	-4806
ㄱㅏㅇㅔ	-4807
ㅊㅣㅈㅣ	-4808
▁ㅅㅜㄴㅅㅜ	-4809
▁ㅂㅕㅇㅇㅝㄴ	-4810
BS	-4811
ㅁㅓ	-4812
ㅇㅣㅈㅛ	-4813
ㅇㅡㄹㅅㅜ	-4814
▁ㅁㅏㅈㄷㅏ	-4815
▁ㅅㅡㅍㅗ	-4816
ㄱㅓㄱㅏㅌㄷㅏ	-4817
▁ㄱㅡㄹㅓㄴㅡㄴ	-4818
▁ㅂㅓㄴㅡㄴ	-4819
ㅅㅓㄴㅇㅡㄹ	-4820
▁ㄱㅣㅁㅇㅕㅇㄹㅏㄴㅂㅓㅂ	-4821
▁ㄹㅏㄴㅡㄴ	-4822
ㅎㅐㅆㅅㅡㅂㄴㅣㄷㅏ	-4823
▁ㅌㅡㅇㅘㅇㅣㅅㅡ	-4824
▁ㅇㅓㄴㅡㅈㅓㅇㄷㅗ	-4825
ㄴㅕㄴㅇㅡㄹ	-4826
▁ㅇㅣㅊㅏㅁㅇㅔ	-4827
▁ㅇㅣㅆㅇㅓㅆㄷㅏ	-4828
ㄷㅐㅊㅜㄹ	-4829
▁ㅇㅣㅆㄷㅓㄴ	-4830
▁ㄷㅟㅈㅣㅂ	-4831
▁ㅈㅝㅇㅑ	-4832
▁ㄸㅏㅁ	-4833
ㄱㅓㄴㄱㅏㅇㅛ	-4834
▁ㄸㅢ	-4835
▁ㄷㅔㅇㅣ	-4836
▁ㅎㅐㄷㅏㅇ	-4837
ㅇㅡㄹㅕㄱㅗ	-4838
▁ㅂㅣㄱㅏ	-4839
▁ㅎㅏㄴㄷㅜ	-4840
ㅕㅆㄷㅓㄴ	-4841
▁ㄱㅣㅁㄱㅜㄹ	-4842
▁ㄷㅡㅇㅅㅏㄴ	-4843
▁ㅅㅗㅅㅗㅇ	-4844
▁ㅇㅗㄱㅅㅣ	-4845
ㄱㅣㄱㅏㄴ	-4846
ㅋㅏㄹ	-4847
▁ㄷㅐㅌㅗㅇㄹㅕㅇㅇㅡㄴ	-4848
ㅎㅏㅈㅣㅁㅏㄹ	-4849
▁ㄸㅏㄸㅡㅅ	-4850
▁ㅈㅏㄹㅇㅓㅇㅜㄹ	-4851
ㅊㅏㅇㅣ	-4852
▁ㄱㅐㄴㅏ	-4853
▁ㅊㅜㄹㅅㅣㄴ	-4854
▁ㄷㅜㄴ	-4855
▁ㄴㅏㅅㄷㅏ	-4856
ㅇㅓㅆㅅㅡㅂㄴㅣㄷㅏ	-4857
ㅇㅏㄱㅏㄴㅡㄴ	-4858
ㅂㅜㅈㅣ	-4859
▁ㅈㅜㅌㅐㄱ	-4860
▁ㄱㅓㄹㄹㅕ	-4861
ㅎㅏㄷㅡㄴ	-4862
ㅅㅔㄹㅕㄱ	-4863
▁ㄴㅐㄴㅗㅎ	-4864
▁ㅂㅏㄴㅇㅡㅇ	-4865
ㅈㅏㅇㅔ	-4866
▁ㅇㅞㄴ	-4867
▁ㅂㅏㄱㅏㅈㅣ	-4868
▁ㅊㅗㄷㅣㅇ	-4869
▁ㅂㅏㄷㅏㄱ	-4870
ㅈㅜㅇㅔ	-4871
en	-4872
ㅏㅇㅝ	-4873
▁ㅍㅕㄴㅇㅢㅈㅓㅁ	-4874
▁ㅇㅓㄴㄴㅣ	-4875
ㄷㅡㄹㅏㅁ	-4876
▁ㅁㅜㅅㅣㄱㅎㅏㄴ	-4877
ㅠㄱ	-4878
▁ㅉㅣㄹ	-4879
ㅇㅕㄱㅅㅣ	-4880
ㅅㅙ	-4881
ㅎㅐㅇㅜㄴ	-4882
▁ㄱㅣㄱㅖ	-4883
ㅜㅅㅣ	-4884
ㄴㄷㅏ	-4885
▁ㅇㅣㄹㅇㅡㄴ	-4886
▁ㄱㅘㅇㅂㅗㄱ	-4887
ㅐㄴㅕㅁ	-4888
▁ㄸㅗㄴㅡㄴ	-4889
▁x	-4890
ㅊㅏㄹㅗ	-4891
ㄹㅣㄱㅔ	-4892
ㅈㅗㄹㅣ	-4893
▁ㅇㅣㅈㅓㄴ	-4894
▁ㅇㅜㅅㅡㅂ	-4895
▁ㅇㅗㄻ	-4896
▁ㄷㅏㅅㅣㄴㅡㄴ	-4897
▁ㅇㅗㄴㅡㄴ	-4898
ㅅㅏㅇㅇㅡㄴ	-4899
ㅇㅣㅇㅓㅆㄷㅏ	-4900
▁ㅇㅓㅄㄴㅑ	-4901
ㅅㅣㅀㄷㅏ	-4902
▁ㅇㅕㄴㅇㅖㄱㅖ	-4903
ㅎㅏㅈㅣㄷㅗ	-4904
▁ㄷㅣㅈㅔㄹ	-4905
ㅓㅁㅏ	-4906
▁ㄱㅗㅇㄱㅡㅂ	-4907
▁ㅈㅓㅅㅡㅇ	-4908
▁ㅎㅗㄱㅅㅣ	-4909
ㄱㅏㄴㅣㅁ	-4910
ㅎㅏㄹㄱㅓㅅ	-4911
▁ㅎㅗㅎ	-4912
ㅌㅡㄱㄱㅓㅁ	-4913
▁ㅅㅓㅇㄱㅘㄱㅡㅂ	-4914
ㅈㅣㅂㄷㅏㄴ	-4915
▁ㅂㅏㄴㄱㅣㅁㅜㄴ	-4916
ㄷㅣㄹㅗ	-4917
▁ㅇㅏㅂㅓㅈㅣ	-4918
▁ㄹㅗㅁ	-4919
ㅅㅔㄷㅐ	-4920
▁ㅈㅓㅇㅈㅜㄴㅎㅏ	-4921
ㅌㅏㄴㅎㅐㄱ	-4922
▁ㅅㅣㅅㅡㅌㅔㅁ	-4923
ㅓㄷㅏ	-4924
▁ㄱㅟㅈㅗㄱ	-4925
▁ㅅㅏㄴㅡㄴㄱㅔ	-4926
▁ㅇㅓㄹㄱㅜㄹㅇㅣ	-4927
▁ㅈㅣㄴㅅㅣㅁㅇㅡㄹㅗ	-4928
▁ㅂㅣㅁ	-4929
ㅅㅏㅇㅇㅔ	-4930
▁ㅈㄴ	-4931
na	-4932
ㅇㅣㄷㅡㄹㅇㅣ	-4933
▁ㅂㅜㄹㄱㅏㄴㅡㅇ	-4934
▁ㅌㅗㅇㅎㅐ	-4935
▁ㅁㅜㄴㅡㅇㅎㅏㄴ	-4936
▁ㅈㅓㄴㄱㅣㄹㅛ	-4937
▁ㅇㅜㅂㅕㅇㅇㅜ	-4938
▁ㅁㅓㅁ	-4939
ㄱㅕㅂ	-4940
ㄱㅓㄹㅗ	-4941
▁ㅈㅓㄹㅂㅏㄴ	-4942
▁ㅇㅕㅈㅏㄷㅡㄹㅇㅣ	-4943
▁ㅈㅏㅁㄲㅏㄴ	-4944
▁ㄴㅐㅁㅅㅐ	-4945
ㅏㄴㅣㅁ	-4946
ㅁㅏㄴㅎㅏㅁㅕㄴ	-4947
ㄱㅓㄹㅡㄹ	-4948
ㅈㅣㄷㅗㅇㅏㄶ	-4949
ver	-4950
ㄸㅡㄱ	-4951
▁ㅂㅏㄱㅅㅜ	-4952
▁ㄱㅏㄴㅏㄴ	-4953
▁ㄱㅏㅈㄷㅏ	-4954
▁ㅎㅐㅇㅚㅇㅕㅎㅐㅇ	-4955
▁ㅊㅗㅅㅂㅜㄹㅈㅣㅂㅎㅚ	-4956
ㅓㄱㅇㅡㄴ	-4957
ㅈㅕㄷㅗ	-4958
▁ㅌㅣㅁ	-4959
ㅇㅔㅁ	-4960
ㅂㅓㄹㅣ	-4961
▁ㅇㅕㅇㄱㅜㄱ	-4962
ㅅㅡㅋㅡ	-4963
ㅈㅔㄴㅡㄴ	-4964
ㅇㅣㅆㄷㅏㄱㅗ	-4965
ㅡㅁㅇㅡㄹ	-4966
ㅁㅣㄱㅜㄱ	-4967
▁ㅈㅜㄱㅇㅡㄴ	-4968
ㄱㅏㄹㅏ	-4969
ㅈㅏㅁㅏ	-4970
▁ㅇㅏㄴㄱㅏ	-4971
▁ㅇㅏㄹㅇㅏㅆㄴㅡㄴㄷㅔ	-4972
ㅅㅡㄹㅗ	-4973
▁ㅁㅝㅎㅏㄴㅑ	-4974
ㅈㅣㅂㅇㅔ	-4975
ㅆㅡㄴㄷㅏ	-4976
▁ㅇㅣㅁㅣㄴㅎㅗ	-4977
▁ㅇㅏㄶㅇㅡㅁ	-4978
ㅗㄴㄷㅐ	-4979
▁ㅁㅝㄹㅏㄱㅗ	-4980
60	-4981
▁ㅈㅓㄹㅣ	-4982
▁ㅍㅐㄱㅌㅡ	-4983
▁ㅎㅏㄴㅣㄲㅏ	-4984
▁ㄲㅏㄱ	-4985
ㅇㅏㄴㅡㄴ	-4986
▁ㅍㅕㄴㅎㅏㄱㅔ	-4987
▁ㅇㅕㄱㄷㅐㄱㅡㅂ	-4988
▁ㅅㅓㄹㅁㅏ	-4989
▁ㄱㅐㅎㅏㄴㅁㅣㄴㄱㅜㄱ	-4990
▁ㅅㅏㅁㅅㅓㅇㅂㅜㄹㅁㅐ	-4991
ㄷㅡㄹㅇㅔ	-4992
▁ㄷㅓㄱㅂㅜㄴㅇㅔ	-4993
ㅎㅣㅁㄷㅡㄹ	-4994
▁ㅇㅏㄴㅁㅏㅈ	-4995
▁ㅇㅣㅆㄴㅡㄴㄱㅓ	-4996
▁ㅊㅚㄱㅡㄴ	-4997
▁ㅁㅏㄹㅆㅡㅁ	-4998
▁ㅁㅕㅊㅂㅓㄴ	-4999
▁ㅈㅏㄹㄷㅚ	-5000
ㅁㅣㄴㅈㅜ	-5001
ㅋㅜㅇ	-5002
▁ㄲㅏㅇ	-5003
▁ㅇㅏㄶㅇㅏ	-5004
ㄷㅏㄷ	-5005
▁ㅈㅜㅅㅔㅇㅛ	-5006
ㅂㅘㅇㅛ	-5007
ㅅㅣㅍㅇㅡㄴ	-5008
ㄴㅏㅁㅈㅏ	-5009
▁ㅈㅣㄴㅐ	-5010
ㄱㅏㄴㅏ	-5011
▁ㅂㅣㅅㅡㅅㅎㅏㄴ	-5012
ㅘㄷㅗ	-5013
ㄹㅑㅇㅇㅣ	-5014
ㅌㅟ	-5015
▁ㅅㅣㅋㅣ	-5016
▁ㅇㅏㄴㄷㅚㄱㅗ	-5017
▁ㅇㅣㄴㅁㅜㄹ	-5018
),	-5019
▁ㄱㅡㄴㄹㅗ	-5020
▁ㄱㅗㅈㅏㄱ	-5021
▁ㅃㅏㄹㅇㅏ	-5022
ㅂㅓㅂㅇㅡㄹ	-5023
▁ㅊㅏㄱㅎㅏㄴ	-5024
▁ㅁㅐㅁ	-5025
▁ㅇㅠㅅㅡㅇ	-5026
▁ㄱㅣㄱㅏㄱ	-5027
▁ㅇㅣㄹㅈㅜ	-5028
▁ㅅㅐㅇㄱㅏㄱㅎㅏㄴㄷㅏ	-5029
ㅇㅣㄴㄱㅓㄴ	-5030
▁100%	-5031
ㄲㅏㅈㅣㄴ	-5032
ㅏㄱㅜ	-5033
▁ㄱㅖㅎㅚㄱ	-5034
▁ㄷㅓㅇㅟ	-5035
▁ㅎㅏㄴㅡㄴㄱㅓㄴ	-5036
▁ㄱㅐㅅㅗㄹ	-5037
▁ㅍㅏㄴㅡㄴ	-5038
▁ㄴㅗㄹㄱㅗ	-5039
ㅈㅣㅂㅇㅡㄴ	-5040
▁ㅈㅏㄱㄴㅕㄴ	-5041
ㅅㅡㅌㅓ	-5042
ㅆㅡㅁㅕㄴ	-5043
▁ㅁㅜㄴㅈㅔㅈㅣ	-5044
▁ㅁㅕㅊㅅㅣㅂ	-5045
ㅈㅐㄱ	-5046
▁ㅇㅣㅇㅕㅇ	-5047
▁ㄱㅜㄱㅁㅣㄴㅅㅔㄱㅡㅁ	-5048
▁ㅅㅣㄱㅡㅂ	-5049
ㅂㅗㅁㅕㄴㅅㅓ	-5050
▁ㅎㅏㅅ	-5051
ㅕㅇㅇㅣ	-5052
ㅇㅏㅍㅇㅔ	-5053
▁ㄱㅕㅇㅎㅓㅁ	-5054
▁ㅇㅢㅇㅝㄴ	-5055
ㄲㅓㅁㅕㄴ	-5056
ㄷㅐㅅ	-5057
▁ㅊㅜㄹㄱㅡㄴ	-5058
ㄴㅐㄴㅡㄴ	-5059
▁ㅊㅏㅁㅇㅕ	-5060
▁ㄷㅗㅁㅏㅇ	-5061
▁ㅁㅏㅇㅑㄱ	-5062
▁ㅂㅜㄴㅇㅑㅇ	-5063
ㅎㅐㄴ	-5064
▁ㅂㅐㅇㅜㄴ	-5065
▁ㅁㅓㄱㅇㅡㅁㅕㄴ	-5066
▁ㄱㅡㄴㅁㅜ	-5067
ㅅㅣㄱㅏ	-5068
ㄷㅐㄷㅗ	-5069
ㅗㄴㅣ	-5070
▁ㅇㅐㅇ	-5071
▁ㅇㅗㅈㅣ	-5072
▁ㅋㅗㅅㅡ	-5073
ㅇㅐㄷㅡㄹㅇㅣ	-5074
▁25	-5075
▁ㅈㅓㄹㅕㅁ	-5076
ㄸㅓㅅ	-5077
▁ㄱㅣㅁㅎㅐ	-5078
▁ㅇㅒㄴㅔ	-5079
ㅉㅉㅉㅉ	-5080
▁ㄱㅡㄱㅓㅅ	-5081
ㄴㅡㄴㄷㅏㄱㅗ	-5082
ㅈㅐㄱㅏ	-5083
▁ㄱㅗㅎ	-5084
▁ㄴㅏㄹㅡㅁ	-5085
ㅎㅏㄴㅡㄴㄱㅓㅈㅣ	-5086
▁ㄷㅚㄴㅑ	-5087
▁ㅎㅐㅇㅜㄴ	-5088
▁ㅈㅓㄱㅇㅓㄷㅗ	-5089
▁ㅇㅓㅇㅣㄱㅏ	-5090
ㅇㅣㅆㅇㅡㄴㅣ	-5091
ㄲㅏㅁ	-5092
▁ㅂㅗㄴㅂㅏㅇㅅㅏㅅㅜ	-5093
ㄱㅓㄴㄱㅏㅇ	-5094
▁ㅇㅗㅁ	-5095
▁ㅈㅜㅇㅣㄴㄱㅗㅇ	-5096
▁ㅈㅐㅍㅏㄴ	-5097
▁ㅇㅣㄱ	-5098
▁ㅇㅏㅇㅣㄱㅗ	-5099
▁ㅇㅐㅂ	-5100
ㅍㅡㄹㅣ	-5101
ㅊㅓㄹㅣ	-5102
ㅌㅓㄴ	-5103
▁ㅅㅓㄴㄱㅓ	-5104
▁ㄴㅓㅁㅜㄴㅏ	-5105
▁ㅇㅏㄴㅡㄴㄷㅔ	-5106
▁ㅇㅏㅇㅜㅅ	-5107
▁ㅇㅓㅄㅇㅐㄹㅏ	-5108
ㅈㅓㅆㅣ	-5109
ㅎㅕㅁㅇㅢ	-5110
▁ㄱㅗㅈㅓㅇ	-5111
ㄷㅏㅇㅇㅔ	-5112
▁ㅇㅏㄴㅎㅏㅁㅕㄴ	-5113
ㅍㅡㄹㅔ	-5114
▁ㅁㅗㄹㅡㄴㄷㅏ	-5115
▁ㅇㅣㄴㄱㅜ	-5116
▁ㅎㅛㄱㅘ	-5117
ㅌㅏㅂ	-5118
▁ㅂㅓㄹㅣㄱㅗ	-5119
▁ㄱㅐㅇㅣㄴㅈㅓㄱㅇㅡㄹㅗ	-5120
ㄴㅏㄱㅏㄴ	-5121
▁ㅁㅓㄹㅉㅓㅇ	-5122
ㅆㄴㅡㄴㅈㅣ	-5123
▁ㅎㅜㅈㅣㄴㄱㅜㄱ	-5124
ㅇㅓㄴㅈㅔ	-5125
he	-5126
▁ㅂㅏㄲㅜㄹ	-5127
ㅜㄴㅣ	-5128
▁ㅋㅓㅍㅣ	-5129
ㅌㅏㄹㅕㅇ	-5130
▁ㅁㅜㄱㅣ	-5131
ㅅㅓㄴㅇㅣ	-5132
ㄷㅡㅇㄷㅡㅇ	-5133
▁ㅅㅏㅇㅅㅡㅇ	-5134
▁ㅈㅏㅂㄱㅗ	-5135
▁ㅎㅗㅇㅂㅗ	-5136
ㅎㅗㄹ	-5137
▁ㄴㅓㄼ	-5138
ㅎㅏㄴㄱㅓㅈㅣ	-5139
▁ㅂㅣㄱㅗㅇ	-5140
▁ㅇㅕㄴㄱㅣㄱㅏ	-5141
▁ㅇㅗㅃㅏ	-5142
ㄴㅣㅁㄷㅡㄹ	-5143
▁ㅇㅣㄴㅎㅐ	-5144
ㄷㅏㄹㄹㅏ	-5145
ㅎㅐㅂㅘㅇㅑ	-5146
ㅎㅘㄴㅡㄴ	-5147
▁ㅈㅣㄴㅈㅏㄱ	-5148
ㄲㅏㅈㅣㄴㅡㄴ	-5149
ㅈㅜㅌㅐㄱ	-5150
▁ㅇㅏㅍㅏ	-5151
ㅅㅏㅇㅣ	-5152
ㅕㅆㅇㅓ	-5153
▁.....	-5154
▁ㄷㅏㅇㅑㅇ	-5155
▁ㅇㅕㄴㄱㅣㄴㅡㄴ	-5156
▁ㅅㅣㅁㅈㅣㅇㅓ	-5157
ㄹㅕㄹㅏ	-5158
ㅅㅗㄱㅏ	-5159
ㅂㅏㄹㅏ	-5160
ㄴㅓㅁㄷㅡㄹ	-5161
ㅆㄴㅔㅇㅛ	-5162
ㅎㅗㄴㅈㅏ	-5163
▁ㅅㅐㅂㅕㄱ	-5164
▁ㅇㅏㄴㅣㄹㄲㅏ	-5165
ㅂㅏㄹㅣ	-5166
▁ㅎㅚㅈㅏㅇ	-5167
ㅈㅏㄷㅡㄹㅇㅢ	-5168
▁ㅎㅏㄴㄷㅔ	-5169
▁ㄷㅏㅇㄷㅏㅇ	-5170
▁D	-5171
▁ㅇㅜㄴㅇㅜㄴ	-5172
ㅅㅜㅅㅏ	-5173
ㄹㅠㅇ	-5174
ㅇㅏㄹㅂㅏ	-5175
▁ㅎㅕㅂㅂㅏㄱ	-5176
▁ㄷㅐㅎㅏㄴㅁㅣㄴㄱㅜㄱㅇㅣ	-5177
▁ㅆㅓㅇㅑ	-5178
▁ㅇㅜㄹㅣㄴㅏㄹㅏㄱㅏ	-5179
▁ㅊㅓㄹㅈㅓㅎㅣ	-5180
▁ㅍㅡㄹㅏㅇ	-5181
▁ㅅㅟㄹㄷㅡ	-5182
tbc	-5183
▁ㅇㅕㄴㅊㅜㄹ	-5184
▁ㅎㅘㅇㄱㅛ	-5185
ㄷㅚㄴㄷㅏㄱㅗ	-5186
ㅆㅔ	-5187
▁ㅂㅐㅅㅣㄴ	-5188
ㅎㅏㅁㅇㅡㄹ	-5189
▁ㅈㅏㅇㄱㅣ	-5190
▁ㄲㅙ	-5191
70	-5192
▁ㄱㅣㅅㅏㄴㅡㄴ	-5193
ㄱㅔㅇㅛ	-5194
ㅇㅔㄴㄷㅣㅇ	-5195
ㅎㅜㅇㅔ	-5196
▁ㅊㅜㄱㅏ	-5197
ㅂㅏㄹㅏㅁ	-5198
▁ㄷㅚㄴㄷㅏㄱㅗ	-5199
▁ㅇㅣㄹㅂㅏㄴㅇㅣㄴ	-5200
ㅇㅓㅆㅇㅓㅇㅛ	-5201
ㅎㅏㄹㅕㄴㅡㄴ	-5202
▁ㅁㅗㅈㅏㄹ	-5203
▁ㄱㅡㄹㅓㅎㄷㅏ	-5204
ㅌㅗㄱ	-5205
▁ㄹㅐㅂ	-5206
▁ㄷㅡㄹㅏㅁㅏㄴㅡㄴ	-5207
▁ㅇㅣㅁㄷㅐ	-5208
▁ㄷㅡㄱ	-5209
▁ㄴㅏㅁㄴㅕ	-5210
▁ㅎㅏㄴㅁㅏㄷㅣ	-5211
▁ㅈㅏㅁㅅㅜ	-5212
▁ㅈㅘㅈㅗㅁ	-5213
ㅂㅗㅇㅣ	-5214
▁ㅈㅗㅁㅏㄴㄱㅏㄴ	-5215
▁ㅁㅜㅅㅓㅂ	-5216
ㄷㅡㄹㅇㅓㄱㅏ	-5217
ㅂㅗㄴㅣㄲㅏ	-5218
▁ㅅㅠㅍㅓ	-5219
▁ㅂㅜㄴㅇㅟㄱㅣ	-5220
▁ㅈㅜㅇㄱㅜㄱㅇㅣㄴ	-5221
ㅌㅗㄹ	-5222
▁ㄴㅏㅇㅗㅈㅣ	-5223
▁ㅇㅖㅇㅢ	-5224
▁ㅁㅏㅁㅇㅔ	-5225
▁ㅇㅕㅈㅓㄴㅎㅣ	-5226
ㅇㅏㅍㅏ	-5227
▁ㄸㅓㅅ	-5228
▁ㅁㅓㄱㄱㅗㅅㅏㄹ	-5229
▁ㅂㅕㄴㅎㅗㅅㅏ	-5230
ㅇㅠㅊㅓㄴ	-5231
▁ㅊㅜㅊㅓㄴ	-5232
▁B	-5233
!!!!!!!	-5234
ㄹㅏㄴㄷㅏ	-5235
▁ㄷㅗㅇㄴㅏㅁ	-5236
ㅜㄱㅔ	-5237
▁ㄷㅚㅇㅓㅆㄷㅏ	-5238
ㄹㅗㅁ	-5239
ㅊㅏㅂㅕㄹ	-5240
▁ㄱㅗㅇㅛㅇ	-5241
▁ㅈㅜㅇㄱㅜㄱㅇㅔㅅㅓ	-5242
▁ㅇㅏㅇㅣㅇㅗㅇ	-5243
▁ㅂㅜㅅ	-5244
▁ㅈㅚㄹㅡㄹ	-5245
ㅉㅗㄱㅇㅡㄹㅗ	-5246
ㄷㅓㄹㅏㄱㅜㅇㅛ	-5247
▁ㅎㅗㄱㅐㅇ	-5248
.1	-5249
ㄱㅕㅇㅇㅠ	-5250
▁ㅅㅑ	-5251
▁ㄱㅕㅇㅇㅠㅊㅏ	-5252
ㅏㅇㅏㄴ	-5253
ㅎㅏㅇㅔ	-5254
ㄱㅗㅅㅇㅣ	-5255
ㅍㅣㅎㅐ	-5256
▁ㄱㅓㅌ	-5257
ㅇㅓㅆㄴㅑ	-5258
ㅅㅣㄱㅣ	-5259
▁ㄴㅡㄱ	-5260
ㅈㅓㅇㄷㅗㅁㅕㄴ	-5261
▁ㅁㅏㅂㅅㅣㄷㅏ	-5262
▁ㅍㅣㄱㅗ	-5263
ㅗㅎㅏㄹ	-5264
ㅈㅜㄴㅇㅕㄹ	-5265
▁ㅅㅏㅅㅐㅇㅎㅘㄹ	-5266
▁ㄷㅐㄷㅏ	-5267
ㅇㅓㅄㄷㅏㄱㅗ	-5268
▁ㅇㅏㄶㅇㅡㄹㄲㅏ	-5269
ㄱㅓㄱㅈㅓㅇ	-5270
ㄴㅗㅁㄷㅡㄹㅇㅡㄴ	-5271
▁ㅂㅗㄱㅗㅅㅣㅍㄷㅏ	-5272
▁ㅎㅜㄱ	-5273
▁ㅇㅛㄱㅇㅡㄹ	-5274
▁ㅋㅓㅁㅍㅠ	-5275
▁ㄱㅜㄱㅂㅏㅇ	-5276
▁ㅋㅋㅋㅋㅋㅋㅋㅋㅋ	-5277
>>>>	-5278
ㄱㅗㄴ	-5279
ㅎㅏㄴㅡㄴㄱㅓㅅㄷㅗ	-5280
ㅏㄱㅏㄹ	-5281
ㄴㅏㅇㅗ	-5282
ㅇㅏㅆㅇㅡㅁ	-5283
ㅇㅔㄹ	-5284
ㅁㅓㅇ	-5285
▁ㅅㅏㅁㅏㅇ	-5286
▁ㅂㅣㅎㅗㄱㅏㅁ	-5287
▁ㄱㅏㅇㅣㅂ	-5288
ㅅㅔㄴㅡㄴ	-5289
▁ㅌㅐㄱㅂㅐ	-5290
ㅇㅓㄷㅣ	-5291
▁ㄱㅣㅁㅌㅐㅎㅢ	-5292
ㅅㅓㅌㅡ	-5293
ㅇㅟㅎㅏㄴ	-5294
▁ㅁㅏㄶㅇㅡㅁ	-5295
ㅘㅆㄷㅏ	-5296
ㅂㅓㅅ	-5297
----	-5298
▁ㅋㅓㅁㅂㅐㄱ	-5299
▁ㅇㅏㄴㅣㄴㄷㅡㅅ	-5300
ㄱㅓㅇㅔㅇㅛ	-5301
ㅇㅣㅁㅣ	-5302
ㅎㅕㅇㄴㅣㅁ	-5303
▁ㅃㅗㅂㅇㅏ	-5304
ㄷㅏㄹㅣ	-5305
▁ㅈㅗㅎㄱㅔㅆㄴㅔㅇㅛ	-5306
ㄹㅣㄴㅑ	-5307
▁ㅅㅡㅌㅗㄹ	-5308
▁ㅂㅐㅇㅜㄷㅡㄹ	-5309
ㅋㅣㄷㅡㄹ	-5310
ㅈㅗㄱㅏ	-5311
▁ㅇㅣㄹㅂㅗㄴㅇㅣ	-5312
▁ㅂㅏㄴㅂㅗㄱ	-5313
▁ㅊㅜㄹㅅㅏㄴ	-5314
▁ㄹㅓ	-5315
▁ㄱㅗㄱㅣ	-5316
ㅏㅇㅗㄹ	-5317
ㅔㄹㅏ	-5318
▁ㅎㅕㄱㅅㅣㄴ	-5319
▁ㄱㅓㅅㅇㅡㄹㅗ	-5320
▁ㅇㅣㅆㄴㅡㄴㄱㅔ	-5321
▁ㅈㅓㅇㄷㅏㅇ	-5322
▁ㅃㅏㅈㅕ	-5323
▁ㅇㅓㅂㅊㅔ	-5324
▁ㅇㅝ	-5325
▁ㅎㅏㄷㅓㄴㄷㅔ	-5326
▁ㅎㅏㅁㅂㅜㄹㅗ	-5327
▁ㅈㅗㄹㄹㅏ	-5328
▁ㄲㅜㄹㅈㅐㅁ	-5329
▁ㅇㅘㅇㅣ	-5330
▁ㅍㅕㅇㄱㅏ	-5331
▁ㅎㅓㅅㅅㅗㄹㅣ	-5332
ㄱㅓㅇㅓㅄ	-5333
▁ㅅㅓㄴㅁㅜㄹ	-5334
▁ㅇㅙㄴㅈㅣ	-5335
ㅇㅔㄷㅏ	-5336
ㅋㅠ	-5337
ㅗㄱㅏ	-5338
ㅈㅏㅁㅕㄴ	-5339
▁ㅇㅣㅅㅔ	-5340
▁ㅆㅏㅇㅜㅁ	-5341
ㅐㄴㅗㅎㄱㅗ	-5342
▁ㄱㅏㄷㅡㄱ	-5343
▁ㅁㅜㄹㅇㅓㅂ	-5344
▁ㅁㅜㅈㅚ	-5345
▁ㄷㅚㄱㅔ	-5346
ㅅㄴㅔ	-5347
▁ㅈㅓㄴㅈㅣㅎㅕㄴ	-5348
▁ㅈㅔㅇㅚ	-5349
▁ㄱㅓㅂㄴㅣㄷㅏ	-5350
le	-5351
▁ㅇㅓㄹㅣ	-5352
▁ㄷㅗㅇㅅㅐㅇ	-5353
▁ㅇㅘㄴㅈㅓㄴㅎㅣ	-5354
▁ㅈㅗㄱㅡㅁㅁㅏㄴ	-5355
ㅡㅁㅐㄴ	-5356
ㅈㅏㅇㅇㅐ	-5357
ㅈㅏㄱㅍㅜㅁ	-5358
▁ㄱㅘㅇㅂㅗㄱㅈㅓㄹ	-5359
▁ㅎㅏㄴㅂㅓㄴㄷㅗ	-5360
▁ㄱㅏㄹㅏ	-5361
ㄱㅜㄹㅡㄹ	-5362
▁ㅎㅏㄴㅡㄴㅈㅣㅅ	-5363
▁ㅠㅠㅠ	-5364
ㅅㅓㅇㄱㅘ	-5365
▁ㅁㅗㅇㅑㅇ	-5366
ㄷㅡㄱㅏ	-5367
▁ㅈㅣㄴㅔ	-5368
ㅍㅗㄹ	-5369
ㅊㅜㅎㅐㅇ	-5370
ㅇㅓㄹㅡㄹ	-5371
▁ㅂㅏㅇㅅㅗㅇㅇㅔㅅㅓ	-5372
ㅎㅘㄴㄱㅕㅇ	-5373
▁ㅁㅝㅈㅣ	-5374
▁ㄱㅓㅂㅜ	-5375
▁ㄱㅡㅁㅂㅏㅇ	-5376
▁ㅇㅏㄹㅁㅕㄴㅅㅓ	-5377
▁ㄲㅗㅊㅂㅐㅁ	-5378
ㅅㅣㄴㄷㅡㄹ	-5379
▁ㅇㅖㅂㅗ	-5380
▁ㄲㅡㄹㄱㅗ	-5381
ㄱㅜㅁㅓㄴ	-5382
▁ㅎㅐㅇㅂㅗㄱㅎㅏㄱㅔ	-5383
ㅁㅏㄹㅇㅡㄹ	-5384
▁ㅁㅜㅈㅣ	-5385
▁ㅋㅐㅅㅡㅌㅣㅇ	-5386
▁ㄷㅐㅇㅡㅇ	-5387
ㅊㅜㄱㅎㅏ	-5388
ㄷㅚㄴㅣ	-5389
▁ㅅㅜㅇㅛ	-5390
▁ㅅㅐㅇㄱㅏㄱㅎㅏㅂㄴㅣㄷㅏ	-5391
▁ㄷㅏㄺㄱㅡㄴㅔ	-5392
ㄱㅓㄷ	-5393
ㅎㅐㅇㅇㅟ	-5394
ㅍㅐㄱ	-5395
ㅊㅜㄴㅡㄴ	-5396
ㅈㅜㄱㅣㄹ	-5397
▁ㄱㅡㅁㅈㅣ	-5398
ㅇㅏㄴㅏ	-5399
ㅈㅣㄹㅇㅡㄹ	-5400
ㅅㅡㄹㅓㄴ	-5401
▁ㅇㅏㅍㅇㅔ	-5402
▁ㅅㅓㅇㅣㄴㅇㅕㅇ	-5403
▁ㄴㅏㅇㅂㅣ	-5404
80	-5405
▁ㄱㅜㅂㅜㄴ	-5406
▁ㅈㅣㄱㅕㅇ	-5407
▁ㅌㅐㅇㅓㄴㅏ	-5408
▁ㅎㅐㅈㅝ	-5409
▁ㅈㅚㅅㅗㅇ	-5410
ㅁㅏㄴㅇㅡㄴ	-5411
ㅁㅣㄴㅡㄴ	-5412
▁ㅁㅏㄴㅈㅗㄱ	-5413
▁??	-5414
ㅈㅓㅁㅇㅡㄹ	-5415
▁ㅂㅜㄹㅓㅂㄷㅏ	-5416
ㄷㅗㄴㅇㅡㄹ	-5417
ㅊㅜㄱㅗ	-5418
▁ㅇㅠㄹㅣ	-5419
▁ㅇㅏㄹㅈㅣ	-5420
ㅈㅏㅇㅁㅕㄴ	-5421
▁ㅅㅓㄴㅍㅜㅇ	-5422
ㄱㅖㄹㅡㄹ	-5423
ㄷㅙㅆㄷㅏ	-5424
▁ㅇㅏㅁㅌㅡㄴ	-5425
▁ㄱㅓㅁㅅㅏ	-5426
▁ㅇㅣㄴㅈㅡㅇ	-5427
▁ㅌㅐㄱㅡㄱㄱㅣ	-5428
▁sn	-5429
▁ㅅㅗㅂㅣㅈㅏ	-5430
ㅁㅏㄴㅇㅢ	-5431
▁ㅇㅣㄴㅏㄹㅏㄴㅡㄴ	-5432
▁ㅇㅟㅇㅏㄴㅂㅜ	-5433
▁ㄷㅗㄱㅈㅐ	-5434
▁ㅊㅏㅂㅕㄹ	-5435
▁ㄷㅜㅂㅜㄴ	-5436
▁ㅌㅐㅇㅑㅇ	-5437
ㅎㅐㅆㄴㅡㄴㅈㅣ	-5438
ㄱㅏㅌㅇㅡㅁ	-5439
▁ㅊㅐㄴㅓㄹ	-5440
▁ㅂㅜㅈㅓㅇㅂㅜ	-5441
▁ㅊㅗㅂㅏㄴ	-5442
▁ㅎㅟㅂㅏㄹ	-5443
▁ㅅㅣㅁㅍㅏㄴ	-5444
▁ㅇㅏㄵㅇㅏ	-5445
ㄴㅐㅅㅓ	-5446
ㄱㅝㄴㅇㅡㄹ	-5447
▁ㅂㅐㄹㅕ	-5448
▁d	-5449
▁ㅈㅗㅎㅇㅏㅅㅓ	-5450
▁ㄱㅣㅈㅏㅇㅑ	-5451
▁ㅊㅚㄷㅐ	-5452
▁ㅇㅣㅈㅜㅇ	-5453
ㅊㅜㅁ	-5454
▁ㄱㅏㄱㅖ	-5455
ㄱㅣㄴㅔ	-5456
ㅂㅅㅣㄱㅗ	-5457
ㅊㅣㄱㅣ	-5458
▁ㄱㅏㅌㄴㅔㅇㅛ	-5459
▁ㅈㅏㅅㅣㄴㅇㅣ	-5460
▁ㅅㅏㅁㅕㄴ	-5461
▁ㅌㅚㅊㅜㄹ	-5462
ㅂㅘㅆㄷㅏ	-5463
ㄱㅜㄱㅎㅚ	-5464
▁ㅇㅠㅎㅐㅇ	-5465
ㅎㅏㄱㅣㄷㅗ	-5466
ㄱㅏㅁㅇㅡㄹ	-5467
▁ㅈㅚㄱㅏ	-5468
ㅇㅓㅆㄷㅏㄱㅗ	-5469
▁ㄱㅗㅇㅈㅜㅇ	-5470
ㅅㅜㅂㅏㄲㅇㅔ	-5471
▁ㅇㅕㅊㅣㄴ	-5472
ㄱㅏㅇㅢ	-5473
▁ㅁㅏㅈㅈㅣ	-5474
ㅇㅓㅆㄷㅏㄴㅡㄴ	-5475
ㄷㅏㄴㅣㄲㅏ	-5476
ㅎㅘㅇㅣㅌㅣㅇ	-5477
▁ㅇㅣㄴㄱㅓㄴ	-5478
ㅈㅣㅇㅏㄶㄱㅗ	-5479
▁ㄴㅡㄴ	-5480
ㅇㅓㄴㅏ	-5481
ㅎㅏㄱㅗㄴㅡㄴ	-5482
▁ㅊㅐㄱㅇㅣㅁㅇㅡㄹ	-5483
ㅇㅣㄴㄱㅔ	-5484
ㄲㅏㅇㅝ	-5485
▁ㄱㅡㄴㅏㄹ	-5486
▁+	-5487
▁ㅈㅐㄴ	-5488
▁ㅂㅏㄱㅁㅕㅇ	-5489
▁ㅂㅕㄴㅁㅕㅇ	-5490
ㅁㅏㄴㅎㅐㄷㅗ	-5491
ㅅㅔㄹㅗ	-5492
ㅉㅉㅉ	-5493
▁ㅅㅗㅇㅈㅣㅎㅛ	-5494
ㅌㅜㅇ	-5495
ㅜㅅㅡ	-5496
ㅣㄴㅡㄴㄱㅔ	-5497
▁ㅈㅏㄱㅜㄱㅁㅣㄴ	-5498
▁ㅈㅓㅇㅂㅜㅇㅢ	-5499
ㄷㅜㅇㅇㅣ	-5500
▁ㅈㅜㅇㄱㅜㄱㅅㅏㄴ	-5501
▁ㅇㅡㄴㄱㅡㄴ	-5502
ㅅㅗㄷㅡㄱ	-5503
▁ㅇㅓㅄㅇㅓㅇㅛ	-5504
ㄷㅐㄱㅣㅇㅓㅂ	-5505
ㅅㅓㄴㄷㅗㅇ	-5506
▁ㅇㅝㄴㅎㅏㄴㅡㄴ	-5507
ㄴㅡㄴㅣㅁ	-5508
ㅈㅗㅇㅇㅣㄹ	-5509
▁ㅇㅏㄴㅇㅗㄹ	-5510
ㄱㅡㄱㅔ	-5511
▁ㅈㅗㅅㅔㄴ	-5512
ㄲㅡ	-5513
ㅍㅖㅈㅣ	-5514
ㄹㅗㄴㅡㄴ	-5515
▁ㅇㅓㅉㅓㄴ	-5516
ㄱㅕㄹㄱㅜㄱ	-5517
ㅇㅣㅆㅅㅡㅂㄴㅣㄷㅏ	-5518
▁ㅊㅓㅇㅡㅁㅂㅜㅌㅓ	-5519
▁ㄱㅗㄱㅡㅂ	-5520
▁ㄷㅐㄱㅏㄹㅣ	-5521
ㅇㅣㅇㅓㅆㄴㅡㄴㄷㅔ	-5522
ㅈㅓㄱㅇㅡㄹ	-5523
ㅂㅏㄱㅔㄴ	-5524
▁ㅂㅗㅂㅗㄱ	-5525
ㄹㅠㄹㅇㅣ	-5526
▁ㅇㅣㅈㅓㅇ	-5527
▁ㅎㅏㅇㅕㄱㅏㄴ	-5528
▁ㅅㅓㅁㅣㄴㄷㅡㄹㅇㅡㄴ	-5529
ㄱㅓㅈㅛ	-5530
▁ㅎㅏㅁㅕ	-5531
▁ㄱㅣㄱㅘㄴ	-5532
▁ㅊㅏㅇㅣ	-5533
▁ㅈㅏㄹㅁㅏㄴ	-5534
▁ㅈㅣㄱㅡㅁㅇㅢ	-5535
ㄱㅏㄱㅔ	-5536
▁ㅈㅓㄱㅓㄴ	-5537
ㅎㅘㅈㅓㅁ	-5538
ㅎㅏㄴㄱㅓㄹ	-5539
▁ㅎㅚㅇ	-5540
ㄱㅏㄹㅗ	-5541
▁ㄱㅏㅆ	-5542
▁ㅂㅕㄴㅎㅗ	-5543
▁ㅎㅏㄴㅊㅏㅁ	-5544
▁ㅅㅏㄹㅏㅁㄷㅡㄹㄷㅗ	-5545
▁ㄱㅡㄹㅓㄴㄱㅏ	-5546
▁ㅂㅗㄴㅡㄴㄷㅔ	-5547
▁ㄷㅐㅎㅏㄴㅁㅣㄴㄱㅜㄱㅇㅡㄹ	-5548
ㅈㅜㄹㅡㄹ	-5549
ㄷㅣㄱㅏ	-5550
▁ㅅㅗㅅㅓㄹ	-5551
▁ㅇㅏㄴㅎㅏㄹ	-5552
▁ㅎㅏㄴㅔㅇㅛ	-5553
ㄱㅜㅅㅗㄱ	-5554
▁ㄱㅡㄴㅂㅗㄴ	-5555
ㅇㅣㄴㅇㅡㄹㅗ	-5556
▁ㅇㅓㅋㅔ	-5557
▁ㅅㅣㅇ	-5558
ㅛㄱ	-5559
▁ㄱㅣㅈㅏㄷㅡㄹ	-5560
ㄱㅏㄷㅏ	-5561
▁ㅈㅓㄴㅕㄱ	-5562
ㅎㅏㄴㅅㅣㅁ	-5563
▁ㅇㅓㄹㄹㅡㄴ	-5564
ㅇㅓㅆㅈㅣㅁㅏㄴ	-5565
▁ㄷㅡㄹㅏㅁㅏㄱㅏ	-5566
▁ㅋㅡㄴㅇㅣㄹ	-5567
ㅎㅏㅈㅛ	-5568
▁ㄱㅜㄱㅁㅣㄴㄷㅡㄹㅇㅡㄹ	-5569
▁ㄷㅟㅇㅔ	-5570
ㅇㅡㄴㄱㅔ	-5571
ㄲㅓㅇ	-5572
▁ㅉㅡㅅ	-5573
ㅈㅣㅁㅏㅅㅔㅇㅛ	-5574
▁ㅊㅏㅇㅈㅗ	-5575
▁ㅇㅓㄴㅈㅔㄴㅏ	-5576
ㅈㅇㅓ	-5577
▁ㅇㅓㄹㅁㅏㄴ	-5578
▁ㄴㅐㅂㅜ	-5579
ㅇㅣㄹㅡㅁ	-5580
▁ㅇㅢㄱㅕㄴ	-5581
ㅅㅣㅂㅅㅣ	-5582
ㅁㅏㄴㄷㅗ	-5583
ㅇㅣㅌㅡㄹ	-5584
▁ㄲㅜㅈㅜㄴ	-5585
ㅌㅏㅁ	-5586
ㄹㅛㅇ	-5587
ㅇㅣㅆㅇㅓㅅㅓ	-5588
▁ㅇㅓㄸㅓㅎ	-5589
ㅎㅏㄹㅅㅜㅇㅣㅆ	-5590
ㄹㅏㄴㅣ	-5591
ㅌㅏㄱㅣ	-5592
▁ㅍㅛㅈㅓㅇ	-5593
ㅌㅣㅈㅡㄴ	-5594
▁ㄴㅏㅁㅅㅓㅇ	-5595
ㅇㅣㄹㄹㅗ	-5596
▁ㅇㅕㅅ	-5597
▁ㄱㅏㅇㅎㅘ	-5598
▁ㅁㅜㅅㅓㅇㅝ	-5599
▁ㅁㅣㄴㅈㅜㄷㅏㅇ	-5600
ㅡㅁㅏㄴ	-5601
▁ㄴㅏㅇㅏ	-5602
▁ㅎㅐㅍㅣ	-5603
▁ㄷㅏㅁㅏㄴ	-5604
▁ㅎㅏㄷㅓㄴㅣ	-5605
▁ㅁㅏㅌㅡ	-5606
ㅈㅗㄹㅡㄹ	-5607
▁ㄱㅜㄱㅁㅣㄴㄷㅡㄹㅇㅢ	-5608
▁ㅇㅏㄴㄷㅏ	-5609
▁ㅇㅐㄱㅣ	-5610
ㅈㅣㄱㅕㅇ	-5611
................	-5612
▁ㅁㅗㅅㅅㅏㄹ	-5613
ㅇㅣㅎㅐ	-5614
▁ㅇㅕㅍㅇㅔ	-5615
ㅇㅣㅂㅡㄹ	-5616
▁ㄴㅏㄴㄷㅏ	-5617
▁ㅈㅏㄹㅎㅐ	-5618
▁ㅇㅏㄴㅎㅐ	-5619
▁ㅋㅋㅋㅋㅋㅋㅋㅋㅋㅋ	-5620
ㅇㅜㄴㅈㅓㄴ	-5621
▁ㅌㅜㅇㅣㅂ	-5622
▁ㅁㅜㄹㅇㅓ	-5623
▁ㅇㅣㅅㅣ	-5624
ㅂㅓㅂㅇㅣ	-5625
▁ㅁㅝㄷㅡㄴ	-5626
▁ㅌㅏㄹㅕㅇ	-5627
ㄷㅣㅇㅗ	-5628
▁ㅇㅑㄱㄱㅏㄴ	-5629
▁ㅇㅑㅇㅂㅏㄴ	-5630
▁ㄱㅗㅇㅟ	-5631
ㄹㅣㄷㅗ	-5632
▁ㅁㅐㅊㅜㄹ	-5633
▁ㅁㅔㅁㅂㅓㄷㅡㄹ	-5634
▁ㅅㅣㅅㅏㅇㅅㅣㄱ	-5635
▁ㄴㅏㄴㅝ	-5636
▁ㅂㅓㅂㅇㅣㄴ	-5637
▁ㄸㅓㄹㅇㅓㅈㅣㄴㅡㄴ	-5638
ㄹㅣㄹㅗ	-5639
▁ㅎㅡㄴㄷㅡㄹ	-5640
ㄲㅡㄴ	-5641
ㅣㅁㅣ	-5642
ㅇㅣㅇㅔㅇㅛ	-5643
▁ㅂㅣㅈㅓㅇㄱㅠㅈㅣㄱ	-5644
ㅂㅣㄷㅗ	-5645
▁2.	-5646
▁ㅈㅗㅎㄱㅔㅆㅇㅓㅇㅛ	-5647
▁ㅅㅜㄹㅣ	-5648
▁ㅁㅗㅁㅁㅐ	-5649
▁ㅎㅜㄹㄹㅠㅇ	-5650
▁ㅎㅏㄹㅏㄱㅗ	-5651
ㅈㅏㅁㅏㅈㅏ	-5652
▁~~~	-5653
ㅎㅏㄴㅏㅇㅛ	-5654
ㅗㄷㅡㄱ	-5655
ㅗㅇㅑㅇ	-5656
ㄷㅏㅁㅂㅐ	-5657
▁ㅁㅣㄱㅜㄱㅇㅣ	-5658
▁ㄴㅣㄴ	-5659
▁ㅇㅣㄹㅓㄴㄷㅔ	-5660
▁ㅅㅐㅁ	-5661
▁ㅇㅣㄴㄹㅠ	-5662
ㅡㄴㅡㄴㄷㅔ	-5663
15	-5664
▁ㄱㅣㅁㅈㅗㅇㄱㅜㄱ	-5665
ㄴㅜㄱㅏ	-5666
▁ㅇㅏㄹㅇㅏㅆㄷㅏ	-5667
ㅊㅗㄱ	-5668
ㄱㅓㄴㅔ	-5669
▁ㅅㅏㄹㅁㅕㄴ	-5670
ㅕㄴㅇㅖ	-5671
▁ㅊㅗㄷㅡㅇ	-5672
ㅁㅏㄹㅣ	-5673
▁ㅈㅓㄴㅈㅏ	-5674
ㅏㄷ	-5675
▁ㅇㅣㄹㅜㅇㅓ	-5676
ㅇㅜㅁ	-5677
ㄱㅣㅅㅏㅇ	-5678
▁ㅍㅣㄹㅇㅛㄱㅏ	-5679
▁ㄷㅚㄴㅏ	-5680
▁ㄸㅓㄷㅡㄹ	-5681
▁ㅅㅗㅅㅗㄱㅅㅏ	-5682
ㅅㅏㄱㅣ	-5683
▁ㅁㅕㄴㅎㅓ	-5684
▁ㅇㅠㅈㅓㄴ	-5685
ㅅㅓㅇㅜㄹ	-5686
▁ㄱㅔㄷㅏㄱㅏ	-5687
▁ㅈㅗㅁㄷㅓ	-5688
▁ㅂㅣㅎㅐㅇㄱㅣ	-5689
ㄷㅏㄴㅡㄴㄱㅓㄹ	-5690
ㄱㅘㅇㅢ	-5691
▁ㅈㅏㅈㅗㄴ	-5692
ㅕㅆㅇㅓㅇㅛ	-5693
ㅊㅕㅇㅑ	-5694
ㄷㅐㄷㅏㄴ	-5695
▁ㅎㅚㅅㅏㄱㅏ	-5696
▁ㅅㅣㅍㅇㅓ	-5697
▁ㄴㅏㄹㅇㅣ	-5698
ㅌㅣㄴ	-5699
▁ㅈㅗㅇㅠㄴ	-5700
▁ㄴㅡㄲㅣㅁㅇㅣ	-5701
▁ㅂㅗㅈㅏ	-5702
▁ㅁㅏㅅㅣㄱㅗ	-5703
ㅇㅔㄱㅔㄴ	-5704
▁ㄷㅡㄹㅇㅓㄱㅏㄴ	-5705
▁ㄴㅓㅁㄱㅔ	-5706
ㅎㅏㄴㅡㄴㄱㅜㄴㅏ	-5707
ㄱㅐㅇㅢㅇㅝㄴ	-5708
▁ㅇㅏㄲㅏㅂ	-5709
▁ㅂㅏㅃ	-5710
ㅊㅣㄱㅔ	-5711
▁ㄲㅗㄹㅏㅈㅣ	-5712
▁ㅇㅣㄷㅗㅇㅇㅜㄱ	-5713
ㅇㅏㄴㅣㅁㅕㄴ	-5714
▁ㅁㅗㄷㅜㄱㅏ	-5715
ㅏㅇㅏ	-5716
▁ㅂㅗㄱㅔ	-5717
ㅈㅣㄴㅡㅇ	-5718
▁ㅎㅏㄴㄴㅏㅁ	-5719
ㅅㅗㅁ	-5720
ㅕㄱㅏ	-5721
▁ㄲㅡㅌㄴㅏㄴ	-5722
ㅇㅣㅈㅔㄴ	-5723
ㄷㅓㅂ	-5724
ㅆㅓㅂ	-5725
ㅅㅑ	-5726
ㅎㅓㄹ	-5727
▁ㅎㅣㅁㅇㅡㄹ	-5728
ㅋㅋㅋㅋㅋㅋㅋㅋㅋ	-5729
▁ㅇㅕㄹㅂㅏㄷ	-5730
ㅇㅓㄴㅡㄴ	-5731
▁ㅈㅗㅎㅏㅂ	-5732
25	-5733
▁ㅂㅏㄹㄱㅕㄴ	-5734
ㅐㅇㅢ	-5735
ㅈㅗㅎㄱㅗ	-5736
▁ㅈㅓㄹㄷㅐㄹㅗ	-5737
▁ㅂㅏㄱㅇㅝㄴ	-5738
▁ㅇㅓㄴㄹㅗㄴㅇㅣ	-5739
▁ㅇㅏㄴㅌㅏㄲㅏㅂㄷㅏ	-5740
ㅜㅜㅜㅜ	-5741
ㅈㅣㅇㅏㄶㄴㅏ	-5742
▁ㄱㅏㅌㅅㅡㅂㄴㅣㄷㅏ	-5743
▁ㅈㅣㄴㅅㅣㄹㅇㅡㄹ	-5744
▁ㄱㅏㄴㄷㅏㄴ	-5745
ㅊㅕㅁㅓㄱㄱㅗ	-5746
▁ㅆㅓㄹㅏ	-5747
▁ㄸㅓㄹㅇㅓㅈㅣㄴ	-5748
▁ㅁㅠ	-5749
▁ㅅㅏㄱㅡㄱ	-5750
▁ㅇㅕㄲ	-5751
▁ㄱㅏㅇㅇㅛ	-5752
▁ㄱㅒ	-5753
▁ㅁㅜㄷㅐ	-5754
▁ㅇㅗㄹㄹㅣㅁㅍㅣㄱ	-5755
▁ㅇㅓㄹㅣㄹ	-5756
▁ㄹㅠㅈㅜㄴㅇㅕㄹ	-5757
▁ㅇㅜㅅㄱㅣㄴㅡㄴ	-5758
ㅅㅡㅂㅏㄱㅔㄴ	-5759
▁ㄱㅕㄲ	-5760
▁ㅎㅐㅈㅜ	-5761
ㅂㅜㄴㄷㅡㄹㅇㅣ	-5762
▁ㅊㅓㅂ	-5763
ㄱㅐㅂㅏㄹ	-5764
▁ㅅㅔㄱㅡㅁㅇㅣ	-5765
ㅈㅏㅇㄷㅗ	-5766
ㅈㅓㄹㅣ	-5767
ㅅㅓㅇㅇㅔ	-5768
▁ㅈㅐㅇ	-5769
▁ㄴㅏㅇㅡㄹ	-5770
▁ㄴㅐㅅㅜ	-5771
ㅇㅡㅂ	-5772
▁ㅁㅏㄴㄷㅡㄹㅇㅓㄹㅏ	-5773
ㅆㄷㅡㄴ	-5774
▁ㄴㅏㅁㅇㅡㄹ	-5775
▁ㅎㅐㅂㅘㄹㅏ	-5776
▁ㄴㅜㄱㅜㄴㅏ	-5777
ㅊㅏㄷㅗ	-5778
ㄱㅣㄷㅏ	-5779
▁ㅎㅣㄹ	-5780
▁ㅁㅏㄹㅈㅏ	-5781
▁ㅇㅏㄴㅈㅗㅎㅇㅡㄴ	-5782
▁ㅇㅓㄸㅓㄹ	-5783
▁ㅉㅏㄴ	-5784
▁ㅈㅗㅈㅣㄱ	-5785
ㅊㅕㄹㅏ	-5786
ㄴㅜㅈㅣㄴ	-5787
▁ㅆㅡㄹㅔㄱㅣㄷㅡㄹ	-5788
▁ㅇㅕㅈㅏㄷㅡㄹㅇㅡㄴ	-5789
▁ㅎㅗㅁ	-5790
ㅎㅏㄱㅔㅆㄴㅔ	-5791
ㅇㅣㅁㅇㅡㄹ	-5792
▁ㅅㅣㄴㅇㅛㅇ	-5793
▁ㅇㅏㅅㅟㅂㄷㅏ	-5794
▁ㄴㅏㄹㅏㅇ	-5795
▁ㅅㅏㅂㅓㅂ	-5796
▁ㄸㅡㄷㅇㅓ	-5797
ㅜㄹㅇㅓ	-5798
▁ㄱㅣㄷㅐㄷㅚㄴㄷㅏ	-5799
▁ㅁㅗㄱㅅㅗㄹ	-5800
▁ㅁㅗㅅㅡㅂㅇㅣ	-5801
▁ㅎㅐㅇㅑㅎㅏㄴㄷㅏ	-5802
▁ㅈㅗㅅㅏㅇ	-5803
ㄴㅗㅇㄷㅏㄴ	-5804
ㅆㅏㄹ	-5805
ㅅㅡㄹㅓㅇㅝ	-5806
▁ㄱㅐㄱㅏ	-5807
▁ㅎㅏㄴㄱㅡㄹ	-5808
▁ㅎㅣㅁㅇㅣ	-5809
ㅅㅣㅇㅏ	-5810
▁ㅍㅗㄱㄹㅏㄱ	-5811
▁ㅇㅣㄹㅡㄹ	-5812
▁ㅊㅏㅈㅣ	-5813
▁ㅇㅕㄱㅣㅈㅓㄱㅣ	-5814
▁ㅇㅣㅇㅘㄴ	-5815
ㅈㅏㅂㅇㅏ	-5816
ㅜㄴㅁㅜㄹ	-5817
ㅈㅓㅁㅇㅡㄴ	-5818
▁ㄱㅣㄱㅏ	-5819
ㅎㅏㄴㄱㅏ	-5820
▁ㅁㅏㄹㅇㅣㄷㅏ	-5821
▁ㅈㅜㅁㅣㄴ	-5822
ㅌㅗㅇㅇㅣ	-5823
▁2000	-5824
ㅎㅛㄱㅘ	-5825
▁ㅇㅣㄹㅈㅏㄹ	-5826
ㅇㅐㄴ	-5827
ㅊㅕㅆ	-5828
▁ㅆㅓㄱㅇㅓ	-5829
ㅅㅌㅣㅇ	-5830
ㄱㅘㄴㄹㅕㄴ	-5831
▁ㅅㅏㄴㅡㄴㄷㅔ	-5832
▁ㄷㅐㅌㅗㅇㄹㅕㅇㅇㅡㄹ	-5833
ㅇㅜㄱㅗ	-5834
▁ㅇㅐㄱㅏ	-5835
▁ㅅㅜㅁㅏㄶㅇㅡㄴ	-5836
ㅅㅜㅈㅣ	-5837
ㅕㄱㅇㅣ	-5838
ㅇㅕㄹㅏ	-5839
▁ㅇㅣㄹㅈㅔ	-5840
▁ㅎㅡㅂㅇㅕㄴ	-5841
▁ㅎㅐㅁㅓㄱ	-5842
▁ㅈㅏㄱㅈㅏㄱ	-5843
ㅎㅏㄹㅕㅁㅕㄴ	-5844
▁ㅇㅑㄱㅅㅗㄱ	-5845
▁ㅂㅜㄹㅆㅏㅇㅎㅏㄴ	-5846
ㅅㅣㅂㄴㅣㄷㅏ	-5847
▁ㄷㅣㅅㅡ	-5848
ㅅㅗㄹㅈㅣㄱ	-5849
ㄱㅑㄹ	-5850
▁ㅎㅏㅂㄹㅣ	-5851
▁ㅁㅏㅈㄱㅔ	-5852
ㅎㅏㅇㄱㅗㅇ	-5853
▁ㅈㅜㅇㅅㅣㅁ	-5854
ㅈㅣㅁㅗㅅ	-5855
ㅎㅏㄷㅗㄹㅗㄱ	-5856
ㄱㅜㅅㅓㄱ	-5857
▁ㄴㅗㅁㄷㅡㄹㅇㅡㄴ	-5858
ㅏㄹㄲㅏ	-5859
~~~~~~	-5860
▁ㅁㅏㄹㅕㄴ	-5861
▁ㅅㅓㄴㅅㅐㅇ	-5862
▁ㄱㅣㅁㅁㅣㄴㅎㅢ	-5863
..........	-5864
▁ㄱㅗㅁㅏㅇㅝ	-5865
ㅁㅏㄴㅇㅡㄹ	-5866
ㄷㅏㅇㅎㅏㄱㅗ	-5867
ㅇㅡㄹㅗㅁㅏㄴ	-5868
ㅇㅣㄱㅓ	-5869
▁ㅅㅛㅍㅣㅇ	-5870
ㅅㅣㄱㅇㅡㄴ	-5871
ㅎㅏㄷㅏㄴㅣ	-5872
ㅐㄱㅣ	-5873
ㅎㅕㄴㅇㅣ	-5874
ㅍㅡㄷㅏ	-5875
▁ㅂㅠ	-5876
▁ㄷㅜㄱ	-5877
ㅈㅚㄹㅗ	-5878
▁ㅇㅓㅁㅏㅇ	-5879
ㅈㅓㅇㄷㅗㄴㅡㄴ	-5880
ㅎㅐㅆㅇㅡㄴㅣ	-5881
▁ㅉㅣㅈㅣㄹ	-5882
ㄹㅕㄱㅇㅡㄴ	-5883
▁ㅁㅜㅅㅓㅂㄷㅏ	-5884
ㅅㅓㄹㅏㄷㅗ	-5885
▁ㄷㅐㄹㅣ	-5886
▁ㅁㅝㄴㅣ	-5887
▁ㅁㅏㅈㅇㅏ	-5888
ㅅㅗㄴㅏ	-5889
▁ㄱㅗㅇㅕㅇ	-5890
▁ㅅㅐㅇㄱㅏㄱㄷㅗ	-5891
▁ㅁㅕㅇㅇㅖ	-5892
▁ㅈㅗㅁㅂㅣ	-5893
▁ㅇㅏㅍㅡ	-5894
ㄱㅏㅄㅇㅡㄹ	-5895
▁ㅈㅡㅇㅁㅕㅇ	-5896
▁ㅇㅣㅅㅡㅇ	-5897
▁ㅅㅏㄹㅇㅏㄴㅏㅁ	-5898
▁ㅅㅏㅅㅣㄹㅅㅏㅇ	-5899
▁ㅈㅣㄱㅕㅂㄷㅏ	-5900
▁ㅇㅗㅂ	-5901
ㅂㅗㄹㅗ	-5902
▁ㅅㅓㅇㅊㅜㅎㅐㅇ	-5903
▁ㅅㅗㄴㅅㅣㄹ	-5904
▁ㅇㅏㄶㄴㅑ	-5905
▁ㅅㅏㅇㄷㅐㄹㅗ	-5906
ㄴㅏㄹㅏㄱㅏ	-5907
▁ㅎㅘㅈㅏㅇㅅㅣㄹ	-5908
▁ㄷㅡㄹㅇㅓㄱㅏㄴㅡㄴ	-5909
ㅌㅜㅍㅛ	-5910
▁ㅎㅏㄹㅏㄱ	-5911
▁ㅇㅣㄹㅓㅁㅕㄴ	-5912
▁ㅁㅗㅅㅎㅏㄴㄷㅏ	-5913
ㅊㅓㅂㅓㄹ	-5914
▁ㅎㅡㄺ	-5915
ㅂㅗㅅㅗ	-5916
ㅈㅜㅎㅐㅇ	-5917
ㅇㅕㅆㄷㅏ	-5918
▁ㅇㅏㅇㅣㄷㅡㄹ	-5919
▁ㅍㅣㄹㅇㅛㅎㅏㄷㅏ	-5920
▁ㅆㅡㄹㄷㅔㅇㅓㅄㄴㅡㄴ	-5921
▁ㅂㅜㄹㅓㅂ	-5922
▁ㅎㅗㄱㅏㅁ	-5923
ㄷㅐㅇㅏㄴ	-5924
▁ㄱㅏㄷㅓㄱ	-5925
▁ㄲㅏㄴㅡㄴ	-5926
▁ㅎㅐㅈㅜㄴ	-5927
▁ㅃㅏㄹㅡㄴ	-5928
ㅡㄹㅡㄹ	-5929
▁ㅇㅓㄸㅓㅎㄱㅔㄷㅡㄴ	-5930
ㅇㅏㅈㅜ	-5931
▁ㅇㅜㄹㅣㅇㅢ	-5932
ㅅㅜㅇㅢ	-5933
ㅆㅇㅡㄹㄲㅏ	-5934
▁ㅅㅏㅇㅅㅏㅇ	-5935
▁ㅁㅜㄹㅛ	-5936
▁ㅅㅗㄹㄲㅏ	-5937
▁ㅇㅡㅁㅇㅝㄴ	-5938
▁ㄴㅏㅁㅈㅏㅇ	-5939
ㅌㅗㅇㅅㅜ	-5940
▁ㅂㅡㄹㄹㅐㄱㄹㅣ	-5941
▁ㅇㅓㅁㅏㅇㅓㅁㅏ	-5942
ㄷㅚㄴㅡㄴㄱㅓ	-5943
ㅈㅓㅇㅇㅢ	-5944
ㅈㅔㄱ	-5945
ㅈㅜㅇㅇㅣ	-5946
▁ㄲㅗㄴㄷㅐ	-5947
▁ㅁㅜㄹㄱㅗ	-5948
▁ㅇㅓㅉㅓㄱㅗ	-5949
ㅎㅕㅅㅓ	-5950
ㄷㅐㄱㅏㅇ	-5951
ㅅㅣㅈㅣ	-5952
ㅎㅏㄹㅌㅔㄴㄷㅔ	-5953
▁ㅇㅣㄴㄱㅏㄴㅇㅢ	-5954
▁ㄴㅏㄹㅏㄲㅗㄹ	-5955
ㅇㅓㅄㅈㅣ	-5956
▁ㅈㅜㄱㅇㅣㄹ	-5957
▁ㅍㅓㅇㅍㅓㅇ	-5958
ㄷㅣㄴ	-5959
ㄺㅇㅡㄴ	-5960
▁ㅎㅏㄹㄸㅐ	-5961
▁ㄹㅇ	-5962
▁ㅇㅢㅎㅐ	-5963
▁ㅁㅏㅈㄱㅗ	-5964
▁ㅁㅓㄹㅣㄱㅏ	-5965
ㅂㅣㄹㅗ	-5966
ㅎㅚㅇㅔ	-5967
▁ㅂㅣㅇㅠㄹ	-5968
▁ㅁㅣㄱㅜㄱㅇㅔㅅㅓ	-5969
▁ㅇㅕㄴㅅㅡㅂ	-5970
ㅌㅔㄱㅗ	-5971
ㄱㅣㅈㅜㄴ	-5972
ㅈㅇㅡㄴ	-5973
▁ㄱㅟㅇㅕ	-5974
ㅜㄹㅕ	-5975
▁ㅁㅗㄹㅅㅜ	-5976
▁ㅁㅏㄴㅕ	-5977
▁ㅈㅗㅎㅈㅣ	-5978
▁ㅌㅣㅍㅏㄴㅣ	-5979
▁ㄱㅗㅇㅇㅑㄱ	-5980
▁ㅇㅕㄴㅁㅏㄹ	-5981
ㅏㄹㅏㄷㅗ	-5982
▁ㅁㅏㄶㅇㅏㅆ	-5983
▁ㅆㅢ	-5984
ㅓㄱㅏ	-5985
▁ㅍㅐㄴㄷㅡㄹ	-5986
▁ㅅㅜㄴㅅㅣㄹㅣ	-5987
ㅇㅟㅇㅔ	-5988
ㅡㄱㅣ	-5989
▁ㅊㅣㄹㅛ	-5990
ㄱㅏㄴㅔ	-5991
▁ㄱㅗㄴ	-5992
▁ㅇㅢㅅㅏ	-5993
ㄱㅖㅅㅗㄱ	-5994
▁ㅅㅏㅇㅍㅜㅁ	-5995
▁ㄷㅓㄹㅓㅂㄱㅔ	-5996
▁ㅈㅓㄻ	-5997
ㅇㅓㅁㅁㅏ	-5998
▁ㅈㅓㄱㄱㅡㄱ	-5999
ㅈㅓㅅ	-6000
ㅂㅜㄷㅡㄹ	-6001
▁ㅇㅣㄹㄱㅣ	-6002
ㄷㅚㄱㅔ	-6003
▁ㄱㅣㅇㅓㅂㅇㅡㄴ	-6004
▁ㅇㅡㄹㅗ	-6005
▁ㄱㅡㄷㅏㄱ	-6006
ㅈㅓㅇㅎㅏㄴ	-6007
▁ㄱㅐㅎㅕㄱ	-6008
ㅇㅐㄷㅡㄹㅇㅡㄴ	-6009
▁ㅅㅐㄴㅜㄹ	-6010
ㅊㅗㅅㅂㅜㄹ	-6011
▁ㅇㅕㅁㅂㅕㅇ	-6012
▁ㅋㅔㅁㅣ	-6013
▁ㅅㅏㅌㅚ	-6014
▁ㅎㅘㅇㄱㅛㅇㅏㄴ	-6015
▁ㅅㅣㄴㅅㅓㄴ	-6016
ㅅㅗㄴㅕㄴ	-6017
ㅜㄴㅇㅣ	-6018
▁ㅊㅚㅈㅓㅇㅣㅁㄱㅡㅁ	-6019
ㅁㅏㄴㅎㅏㄱㅗ	-6020
▁ㅇㅏㅍㅇㅔㅅㅓ	-6021
▁ㅈㅓㅇㄷㅏㅂ	-6022
▁ㅊㅜㄱㅎㅏㅎㅐㅇㅛ	-6023
▁ㅈㅓㄱㅓㄹ	-6024
▁ㅈㅗㅂ	-6025
ㄷㅗㅇㅅㅐㅇ	-6026
▁ㅅㅡㅍㅔ	-6027
ㅁㅐㅇㅜㄴㄷㅗㅇ	-6028
▁ㅎㅏㄷㅏㄱㅏ	-6029
▁ㅊㅏㅇㅍㅣ	-6030
▁ㅎㅐㄴㅗㅎㄱㅗ	-6031
ㅇㅕㄴㅎㅏㅂ	-6032
ㅅㅏㄴㅣㅁ	-6033
▁ㅈㅣㄹㅁㅜㄴ	-6034
▁ㄷㅚㄴㅡㄴㄱㅓ	-6035
ㅜㅅㅔ	-6036
▁ㅈㅜㄱㅇㅡㅁ	-6037
▁ㄱㅏㄱㅈㅏ	-6038
▁ㅋㅡㄹㄹㅏㅅㅡ	-6039
ㅇㅓㄴㄴㅣ	-6040
ㅋㅕ	-6041
ㄱㅓㅁㅊㅏㄹ	-6042
▁ㄷㅐㅂㅣ	-6043
ㅣㅇㅗ	-6044
~!!!	-6045
▁ㅇㅓㄷㅣㄹ	-6046
ㅉㅏㅍㅣ	-6047
▁ㅇㅝㄴㅇㅣㄴ	-6048
ㅇㅗㅃㅏ	-6049
ㅁㅕㅇㅇㅢ	-6050
ㄷㅐㅍㅛ	-6051
ㅅㅣㄴㅇㅡㄴ	-6052
▁ㅋㅣㅇㅝ	-6053
▁ㅅㅏㅅㅣㄹㅇㅡㄹ	-6054
ㅂㅘㅅㅓ	-6055
▁ㄱㅗㅇㅣㄴㅇㅢ	-6056
ㅕㅆㅅㅡㅂㄴㅣㄷㅏ	-6057
ㅎㅐㅇㅂㅗㄱ	-6058
▁ㅈㅜㄱㅇㅓㄴ	-6059
ㄴㅡㄹ	-6060
▁ㅂㅜㄹㄱㅘ	-6061
▁ㄱㅗㅇㄱㅕㄱ	-6062
ㄲㅏㅇㅣ	-6063
ㄴㅗㄹㅐ	-6064
16	-6065
▁ㄴㅗㄴㄹㅣ	-6066
ㅁㅏㄹㅇㅡㄴ	-6067
▁ㅂㅏㄼ	-6068
ㅈㅏㅇㅇㅡㄹㅗ	-6069
ㅅㅓㄹㅡㄹ	-6070
▁ㅇㅗㄴㅡㄹㅇㅡㄴ	-6071
▁ㅇㅣㅅㅡㄹ	-6072
▁ㅂㅜㅅㅣㄹ	-6073
▁ㅊㅣㄴㅡㄴ	-6074
▁ㅈㅜㅁㅕㄴ	-6075
▁ㅇㅏㅍㅡㄴ	-6076
▁ㅉㅣㄱㅇㅓ	-6077
ㅎㅔㄹㅈㅗㅅㅓㄴ	-6078
▁ㅅㅗㅇㅈㅜㅇㄱㅣ	-6079
ㅏㄹㅏㅇ	-6080
ti	-6081
▁ㅇㅣㄹㅓㄴㄱㅔ	-6082
ㅌㅡㄱㅎㅣ	-6083
ㅌㅗㄴ	-6084
ㅈㅝㅇㅑㅈㅣ	-6085
▁ㅈㅣㅅㅣ	-6086
▁ㅃㅏㅇㅃㅏㅇ	-6087
▁ㄱㅣㅇㅓㅂㄷㅡㄹ	-6088
▁ㄱㅗㅇㅅㅣㄱ	-6089
▁ㄱㅐㅍㅕㄴ	-6090
▁ㅇㅣㄴㄱㅝㄴ	-6091
▁ㅇㅝㄴㅏㄱ	-6092
ㅇㅝㄹㅇㅔ	-6093
▁ㅂㅜㄷㅣ	-6094
ㅁㅕㅇㅇㅡㄹ	-6095
▁ㄱㅡㅁㅇㅐㄱ	-6096
▁ㅁㅝㅎㅏㄹㅓ	-6097
▁ㄷㅗㅅㅣ	-6098
ㅇㅏㄹㄱㅗ	-6099
ㅗㅁㄷㅡㄹ	-6100
ㅅㅓㄱㅇㅡㄴ	-6101
▁ㄱㅘㅇㅇㅜ	-6102
▁ㄱㅣㄷㅏㄹㅕ	-6103
▁ㅈㅣㄹㅈㅣㄹ	-6104
ㄱㅗㅇㄱㅐ	-6105
ㅃㅓㅇ	-6106
▁ㅎㅓㅇㅟ	-6107
ㅇㅓㅆㅇㅡㄴㅣ	-6108
ㄷㅓㄱㅜㄴㅇㅛ	-6109
▁ㅌㅜㄱㅣ	-6110
▁ㅁㅏㅁㄷㅐㄹㅗ	-6111
▁ㅉㅏㄱㅗ	-6112
▁ㄱㅏㅁㅂㅏㅇ	-6113
ㅎㅏㄱㅜ	-6114
▁ㅇㅣㅃㅡㄱㅗ	-6115
▁ㅅㅞ	-6116
ㅈㅓㅇㅇㅔ	-6117
▁ㅁㅣㄱㅜㄱㅇㅡㄴ	-6118
ㄷㅓㅇㅇㅓㄹㅣ	-6119
▁ㅎㅐㅆㄷㅏㄱㅗ	-6120
▁ㅇㅕㄴㅇㅖㅇㅣㄴㅇㅣ	-6121
ㅅㅣㅇㅗ	-6122
ㅇㅣㄱㅣㄴ	-6123
ㅇㅣㄱㅜㄴㅏ	-6124
ㄲㅔㅅㅓ	-6125
naver	-6126
ㄱㅓㄹㄲㅏ	-6127
▁ㅉㅓㄹ	-6128
ㄷㅗㄹㅇㅏ	-6129
ㅊㅣㄴㅔ	-6130
ㅊㅣㄷㅗ	-6131
▁ㅅㅟㅇㅜㄴ	-6132
ㅈㅏㄷㅗㅇ	-6133
▁ㅂㅜㅈㅓㅇㅂㅜㅍㅐ	-6134
ㄲㅓㅇㅑ	-6135
▁ㄱㅡㄹㄹㅗ	-6136
▁ㅈㅓㄹㅐ	-6137
ㄱㅗㄱㅏ	-6138
ㄸㅓ	-6139
ㅎㅏㄹㄱㅓ	-6140
▁ㅇㅓㅄㅇㅐㄱㅗ	-6141
ㅇㅣㄴㄷㅔㄷㅗ	-6142
▁ㅇㅕㅈㅜ	-6143
200	-6144
▁21	-6145
ㄷㅗㅇㅔ	-6146
~3	-6147
ㄴㅕㅁ	-6148
▁ㅋㅜ	-6149
ㅅㅏㅈㅣ	-6150
ㅂㅣㅇㅔ	-6151
▁ㄷㅗㄷㅓㄱ	-6152
ㅈㅣㄴㅡㄴㄱㅔ	-6153
▁ㅊㅏㅁㄴㅏ	-6154
▁ㅎㅜㅅㅗㄴ	-6155
▁ㄲㅏㄲ	-6156
▁ㅈㅓㅇㅊㅣㅇㅣㄴㄷㅡㄹ	-6157
ㅣㅁㅗ	-6158
▁ㅆㅓㅂ	-6159
▁ㅂㅏㄲㅜ	-6160
▁ㄷㅡㄹㅣㅂ	-6161
▁ㅃㅐㄱ	-6162
▁ㅅㅏㄹㅇㅏㅆ	-6163
ㄱㅓㅇㅕ	-6164
▁ㄱㅏㅇㅡㄹ	-6165
ㄷㅏㅂㄱㅔ	-6166
▁ㄱㅡㄹㅓㅈㅣ	-6167
▁ㄱㅡㅁㅏㄴㅎㅐㄹㅏ	-6168
ㅇㅟㄹㅡㄹ	-6169
ㅇㅓㄸㅓㅎㄱㅔ	-6170
▁ㄱㅗㅇㅁㅜㅇㅝㄴㄷㅡㄹ	-6171
ㅋㅔㅌㅣㅇ	-6172
▁ㄱㅗㅇㄱㅣ	-6173
▁ㅈㅣㄴㅉ	-6174
▁ㅁㅏㄴㅅㅔ	-6175
▁ㅇㅗㅇㅎㅗ	-6176
▁ㅎㅏㅇㄱㅗㅇ	-6177
▁ㅅㅔㄱㅡㅁㅇㅡㄴ	-6178
ㅊㅟㄱㅡㅂ	-6179
▁ㄱㅡㄱㅓㅅㅇㅣ	-6180
▁ㄷㅗㅈㅓㄴ	-6181
▁ㄴㅐㄱ	-6182
▁ㅎㅐㅈㅜㄹ	-6183
▁ㅅㅐㅇㄱㅏㄱㅎㅏㅁ	-6184
▁ㅇㅓㅄㅈㅣㅁㅏㄴ	-6185
ㅇㅕㄱㅅㅏ	-6186
▁ㅇㅏㄶㄱㅔ	-6187
ㄴㅑㅇ	-6188
ㅇㅓㄱㅇㅣ	-6189
▁ㄷㅐㅎㅐㅅㅓ	-6190
ㅌㅏㄴㅡㄴ	-6191
ㅂㅓㅅㅡ	-6192
ㅇㅓㄹㅗ	-6193
ㄷㅡㄹㅣㅂ	-6194
ㄱㅡㄹㅣ	-6195
ㅅㅏㄴㅑㅇ	-6196
▁ㅁㅝㅎㅏㄴㅏ	-6197
ㅗㄹㄹㅏ	-6198
▁ㅅㅑㅇ	-6199
ㅂㅗㄷㅏㄷㅗ	-6200
ㅋㅔㅇㅣ	-6201
▁ㅈㅓㄴㅎㅕㅇ	-6202
▁ㅊㅗㄴ	-6203
ㄷㅗㄴㅇㅡㄴ	-6204
▁ㅊㅕㄴ	-6205
ㅅㅏㄹㅏㅁㄷㅗ	-6206
ㅊㅓㅁㅓㄱ	-6207
?...	-6208
▁ㅆㅡㅈㅣ	-6209
▁ㅂㅏㄹㅇㅏㄱ	-6210
ㅏㄹㅏㄴㅡㄴ	-6211
▁ㅎㅏㄱㅔㅆㅈㅣ	-6212
▁ㄱㅓㄹㄹㅣㄴ	-6213
▁ㄱㅜㄱㅁㅣㄴㅇㅔㄱㅔ	-6214
ㅂㅓㄹㅕ	-6215
ㅈㅔㅎㅏㄴ	-6216
▁ㄴㅏㅇㅡㄴ	-6217
▁ㅃㅐㅁ	-6218
▁ㅅㅣㄴㄷㅗㅇ	-6219
▁ㅎㅏㄴㄱㅏㅇ	-6220
▁ㅇㅗㄹㄹㅣㅁㅕㄴ	-6221
▁ㅇㅣㄷㅏ	-6222
▁ㅇㅝㄴㄱㅏ	-6223
▁ㅁㅏㄴㄷㅡㄹㅁㅕㄴ	-6224
▁ㄱㅏㅌㄱㅗ	-6225
▁ㅂㅜㄷㅡㄹ	-6226
▁ㅇㅢㅁㅜ	-6227
▁ㅈㅔㅎㅏㄴ	-6228
ㄱㅣㅈㅏ	-6229
ㅅㅓㄱㅎㅢ	-6230
▁ㅍㅣㅎㅐㅈㅏ	-6231
▁ㅇㅝㄴㅅㅜㅇ	-6232
▁ㅂㅜㅊㅐ	-6233
ㄱㅓㄴㅣ	-6234
ㅗㅅㅔㅇㅛ	-6235
▁ㅇㅓㄴㅡㄴ	-6236
▁ㅎㅕㄴㅁㅕㅇ	-6237
ㄱㅓㅅㄷㅏ	-6238
ㅜㄴㅈㅔ	-6239
19	-6240
ㅇㅓㅆㄴㅡㄴㅈㅣ	-6241
▁ㅎㅏㅅㅣㄴㅡㄴ	-6242
ㅊㅏㅇㅔ	-6243
▁ㅈㅏㅂㅇㅡㄹ	-6244
▁ㄲㅏㄴ	-6245
ㄱㅔㅆㄴㅣ	-6246
ㄹㅣㄷㅏ	-6247
ㄷㅡㄷㄱㅗ	-6248
▁ㅇㅣㄹㄷㅗ	-6249
ㅋㅜ	-6250
▁ㅊㅏㄱㅣ	-6251
▁ㅁㅗㄹㅇㅏ	-6252
▁tv	-6253
▁ㅈㅣㅇㅇㅕㄱ	-6254
▁ㅈㅓㄱㄱㅔ	-6255
▁ㅈㅔㅈㅓㅇㅅㅣㄴ	-6256
▁ㅁㅗㄷㅔㄹ	-6257
▁ㅁㅣㄷㄴㅡㄴ	-6258
▁ㅊㅚㅇㅏㄱㅇㅢ	-6259
ㅎㅏㄹㅜ	-6260
▁ㄴㅏㅇㅣㄱㅏ	-6261
▁ㅍㅗㄱㅁㅏㅇ	-6262
ㅎㅏㄹㄱㅔㅇㅛ	-6263
ㅈㅣㅂㅇㅔㅅㅓ	-6264
▁ㅂㅜㄴㄷㅡㄹㅇㅣ	-6265
ㄱㅜㄱㅁㅣㄴㄷㅡㄹ	-6266
ㄷㅡㅇㅇㅣ	-6267
▁ㅇㅏㄴㅣㄴㅈㅣ	-6268
ㅅㅔㅇㅝㄹ	-6269
▁ㅇㅣㅇㅠㄹㅗ	-6270
▁ㅎㅐㅈㅜㄴㅡㄴ	-6271
▁ㅇㅗㄹㅡㄹ	-6272
▁ㅈㅏㄹㅎㅏㄴㄷㅏ	-6273
ㅏㅁㅏㅇ	-6274
▁ㅁㅕㅊㅂㅐㄱ	-6275
▁ㄱㅗㅇㅇㅣㄴ	-6276
▁ㅎㅟㅂㅏㄹㅇㅠ	-6277
▁ㅇㅓㅅㅐㄱ	-6278
▁ㅊㅜㄱㅎㅏㄷㅡㄹㅕㅇㅛ	-6279
▁ㅍㅗㅈㅏㅇ	-6280
▁ㅂㅐㅇㅝ	-6281
▁ㅂㅏㄱㄷㅐㅌㅗㅇㄹㅕㅇ	-6282
▁ㅇㅙㅋㅔ	-6283
▁ㅁㅏㄹㅇㅏ	-6284
▁ㅃㅜㄴㅇㅣㄷㅏ	-6285
ㄱㅡㄹㅓㄴㄷㅔ	-6286
ㅌㅡㅅ	-6287
▁ㅂㅜㄹㅆㅏㅇㅎㅏㄷㅏ	-6288
▁ㅎㅏㄴㅈㅣㄴㅎㅐㅇㅜㄴ	-6289
▁ㅌㅏㄴㅡㄴ	-6290
▁ㄱㅕㅁ	-6291
ㅈㅣㄱㅣ	-6292
▁ㅌㅡㄱㅎㅖ	-6293
▁ㅅㅣㄴㅇㅢ	-6294
▁ㅅㅣㄹㅅㅜ	-6295
▁ㄱㅜㄻ	-6296
▁ㅁㅓㄱㅇㅕ	-6297
▁ㅎㅐㅁㅕㅇ	-6298
▁ㄱㅡㄸㅏㄴ	-6299
ㅓㅇㅜㄹ	-6300
▁ㄷㅗㅂㅏㄱ	-6301
ㅎㅏㄴㄱㅓㅅㄷㅗ	-6302
ㅈㅓㄱㅇㅡㄴ	-6303
▁ㅍㅕㅇㅎㅘ	-6304
ㄱㅡㅁㅈㅣ	-6305
ㅎㅏㄹㄹㅕㄱㅗ	-6306
▁ㅇㅖㅊㅡㄱ	-6307
▁ㅂㅏㄷㅇㅏㅅㅓ	-6308
ㅇㅟㄱㅏ	-6309
▁ㅎㅏㅅㅕㅆ	-6310
▁ㅍㅣㅎㅐㄹㅡㄹ	-6311
▁ㄸㅜ	-6312
ㅇㅝㄴㅇㅡㄹ	-6313
▁ㅇㅏㄴㄷㅏㄹ	-6314
ㄲㅣㄹ	-6315
ㅁㅔㅁㅂㅓ	-6316
ㅈㅣㅁㅏㄹㅈㅏ	-6317
ㅏㅇㅗㄴㅡㄴ	-6318
ㅎㅐㅈㅣㄹ	-6319
▁ㅇㅠㅌ	-6320
▁ㅌㅡㄱㅈㅣㅇ	-6321
▁ㄴㅓㅁㅜㄴ	-6322
▁ㄷㅚㄱㅔㅆㄴㅔ	-6323
▁ㅂㅏㄹㅇㅓㄴ	-6324
▁ㅍㅜㄹㅇㅓ	-6325
ㄷㅏㅇㅇㅡㄴ	-6326
ㅓㅇㅔ	-6327
▁ㅇㅓㄹㅕㅇㅝ	-6328
▁ㅇㅜㅇㅘ	-6329
ㅈㅜㅇㅎㅏㄴ	-6330
▁ㅎㅗㄱㅜㄹㅗ	-6331
▁ㄱㅜㅈㅗㅈㅗㅈㅓㅇ	-6332
▁ㅌㅗㅇㄱㅘ	-6333
ㅊㅕㄷㅗ	-6334
▁ㄱㅡㅇㅢ	-6335
ㅇㅔㄱㅔㄴㅡㄴ	-6336
▁ㅇㅓㅄㅇㅓㄷㅗ	-6337
▁ㄷㅐㅅㄱㅡㄹㅇㅣ	-6338
▁ㅇㅣㄴㄱㅗㅇㅈㅣㄴㅡㅇ	-6339
▁ㅍㅏㄱㅍㅏㄱ	-6340
▁ㅇㅏㄹㅇㅏㅇㅑ	-6341
▁ㅇㅒㄴㅡㄴ	-6342
▁ㅇㅓㄱㅈㅣㄹㅗ	-6343
ㅅㅗㅂㅣ	-6344
▁ㅇㅙㄴㅑ	-6345
▁ㄷㅐㄱㅣ	-6346
ㅁㅗㄷㅡㄴ	-6347
▁ㅎㅏㄹㅕㄱㅗ	-6348
▁ㅇㅗㅁㅕㄴ	-6349
▁ㄸㅓㄴㅏㅅㅓ	-6350
ㄷㅡㄹㅡㄹ	-6351
ㅂㅓㄹㅣㄴ	-6352
▁ㅇㅣㅃㅓ	-6353
▁ㄷㅚㄹㄷㅡㅅ	-6354
▁ㅈㅣㄱㅇㅝㄴㄷㅡㄹ	-6355
▁ㅉㅗㄹ	-6356
▁ㅁㅏㅇㅎㅏㄱㅔ	-6357
ㅎㅗㄱㅏ	-6358
▁ㅇㅣㄲㅡㄹ	-6359
▁ㅁㅗㄹㅡㄱㅔㅆㅈㅣㅁㅏㄴ	-6360
ㅅㅓㅅ	-6361
▁ㄴㅐㄹㅣ	-6362
▁ㅇㅣㅁㅅㅣ	-6363
ㄱㅐㄱㅏ	-6364
ㄱㅕㅇㅇㅜ	-6365
ㅂㅗㅂㄴㅣㄷㅏ	-6366
▁ㄷㅔㄹㅣㄱㅗ	-6367
ㅂㅓㄱ	-6368
▁ㅇㅡㄴㅌㅏㄱ	-6369
▁ㅇㅗㄹㄹㅕㄹㅏ	-6370
▁ㅂㅗㅇㅕㅈㅜㄴㅡㄴ	-6371
ㄱㅛㅊㅔ	-6372
▁ㅍㅏㄹㄱㅗ	-6373
▁ㄷㅏㄹㅡ	-6374
▁ㅇㅕㄴㄹㅏㄱ	-6375
▁ㅇㅣㄹㅓㄴㅅㅣㄱㅇㅡㄹㅗ	-6376
ㄴㅐㄴㅐ	-6377
▁ㅁㅝㅅ	-6378
▁ㄱㅜㄱㄱㅐㅇㅢㅇㅝㄴ	-6379
▁ㅈㅐㅅㅜ	-6380
al	-6381
ㅎㅏㄹㅈㅣ	-6382
▁ㅂㅗㅇㅣㅈㅣ	-6383
▁ㄹㅜㅁ	-6384
ㅕㄴㅇㅡㄴ	-6385
▁ㄴㅏㄱㅏㄹ	-6386
▁ㅎㅏㅇㅕㅌㅡㄴ	-6387
ㅂㅜㄴㅇㅡㄴ	-6388
ㅗㄴㅏ	-6389
ㄷㅔㅇㅣ	-6390
ㅆㄱㅜㄴㅏ	-6391
▁ㅁㅣㅌㅇㅔ	-6392
ㅇㅜㄹㅣㄴㅏㄹㅏ	-6393
▁ㄴㅏㄹㅏㄱ	-6394
▁ㅂㅗㅇㅏ	-6395
▁ㅇㅣㄴㄱㅏㄴㅇㅡㄴ	-6396
▁ㅅㅏㅁㅜ	-6397
ㅈㅓㄴㅂㅜㅌㅓ	-6398
ㄱㅜㅎㅏㄱㅗ	-6399
ㅝㄴㅇㅣ	-6400
ㅂㅏㄲㅟ	-6401
ㄷㅚㄹㄷㅡㅅ	-6402
ㅂㅜㅈㅗㄱ	-6403
▁ㅅㅣㅍㅇㅡㅁㅕㄴ	-6404
▁ㅆㅏㅁ	-6405
▁2016	-6406
ㅈㅕㅆㄴㅡㄴㄷㅔ	-6407
ㄴㅏㅇㅘ	-6408
▁ㅇㅜㄹㅣㄴㅏㄹㅏㅇㅔㅅㅓ	-6409
▁ㅇㅟㅇㅔ	-6410
▁ㅅㅣㅋㅣㄱㅗ	-6411
ㅂㅜㄴㄷㅡㄹㅇㅡㄴ	-6412
▁ㅇㅠㄴㅡㄴㅣㅁ	-6413
ㅣㅇㅟ	-6414
▁ㄱㅣㅅ	-6415
▁ㅆㅐㅇ	-6416
▁ㅋㅓㄴㅅㅔㅂ	-6417
ㅆㄷㅓㄴㅣ	-6418
ㄱㅗㅇㅎㅘㄱㅜㄱ	-6419
▁ㅎㅏㄴㅎㅛ	-6420
▁ㅅㅗㅈㅜ	-6421
▁ㅋㅗㅁ	-6422
▁ㄴㅗㅎㅜ	-6423
▁ㅍㅖㅈㅣㅎㅐㄹㅏ	-6424
▁ㅇㅣㅃㅡ	-6425
▁ㅎㅏㅇㅣ	-6426
▁ㅂㅜㅇㅣㄴ	-6427
▁ㅅㅣㄹㅇㅓㅂ	-6428
ㄱㅏㅁㅕㄴㅅㅓ	-6429
▁ㅇㅏㄴㄷㅚㅁㅕㄴ	-6430
▁ㄸㅏㅇㅟ	-6431
▁ㄷㅚㄴㄷㅏㄴㅡㄴ	-6432
▁ㄴㅗㅍㅇㅏ	-6433
▁ㅍㅕㅇㅂㅓㅁ	-6434
▁ㄴㅡㅇ	-6435
ㅅㅗㄹㅡㄹ	-6436
▁ㅋㅣㅇㅜㄴㅡㄴ	-6437
▁ㅅㅗㄴㄱㅏㄹㅏㄱ	-6438
▁ㅁㅏㅈㅊㅝ	-6439
▁ㄷㅡㄴㅡㄴ	-6440
▁ㅇㅏㄴㄷㅚㄴㅏ	-6441
ㅈㅏㄷㅡㄹㅇㅡㄹ	-6442
▁ㅁㅐㄱㅜㄱㄴㅗ	-6443
ㅈㅓㅇㅂㅜㄴㅡㄴ	-6444
▁ㅇㅣㄹㅓㄴㄱㅓㄴ	-6445
ㄱㅘㄴㅇㅣ	-6446
▁ㅊㅜㅈㅣㄴ	-6447
▁ㄸㅟㅇㅓㄴ	-6448
▁ㅅㅜㄷㅗㄱㅝㄴ	-6449
▁ㅇㅏㅍㅡㄹㅣ	-6450
ㄱㅣㄹㅁㅏㄴ	-6451
ㅆㅣㄷㅗ	-6452
▁ㅈㅓㅇㄷㅗㅁㅕㄴ	-6453
TBC	-6454
ㅋㅗㅁ	-6455
ㅅㅏㅌㅐ	-6456
▁ㄷㅏㄹㄱㅗ	-6457
▁ㅈㅗㅈㅓㅇㅅㅓㄱ	-6458
▁ㄴㅏㅁㄷㅡㄹ	-6459
ㅅㅐㄴ	-6460
▁ㅁㅗㅈㅗㄹㅣ	-6461
ㅈㅏㄹㅏㄱㅗ	-6462
▁ㅍㅜ	-6463
ㄷㅚㄴㅔ	-6464
▁ㅂㅏㄱㅇㅠㅊㅓㄴ	-6465
ㅅㅗㄹㅈㅣㄱㅎㅣ	-6466
ㅁㅣㄴㅇㅣ	-6467
ㄱㅡㄹㅓㅁㅕㄴ	-6468
ㄱㅡㄹㅓ	-6469
ㄱㅓㅅㄱㅏㅌㅇㅡㄴㄷㅔ	-6470
ㄷㅗㅅㅣ	-6471
▁ㅁㅗㅁㅇㅔ	-6472
▁ㄱㅕㄹㄱㅜㄱㅇㅡㄴ	-6473
ㄷㅡㄹㅗ	-6474
▁ㅅㅡㅌㅗㄹㅣ	-6475
▁ㅈㅐㅇㅛㅇ	-6476
▁ㅂㅗㅅㅗ	-6477
▁ㅉㅣㄱㅇㅡㄴ	-6478
ㄷㅏㄴㅇㅣ	-6479
ㅁㅜㄹㄹㅗㄴ	-6480
▁ㅇㅣㄹㅉㅣㄱ	-6481
▁ㅍㅗㄱㅅㅡㅂㅏㄱㅔㄴ	-6482
▁ㅈㅏㄱㄱㅏㄴㅣㅁ	-6483
ㅍㅓㅁ	-6484
ㄷㅚㅇㅓㅇㅑ	-6485
▁ㄴㅓㄴㅡㄴ	-6486
▁ㅈㅓㄴㄹㅕㄱ	-6487
ㅍㅡㄹㅗㄱㅡㄹㅐㅁ	-6488
▁ㄴㅏㅇㅗㅁ	-6489
▁AI	-6490
▁ㅅㅓㅇㅣㄴㄱㅜㄱ	-6491
ㄴㅡㄲㅣㅁ	-6492
ㅅㅓㅇㅎㅘ	-6493
ㅇㅕㄹㅡㅁ	-6494
?..	-6495
ㅁㅏㄴㅇㅡㄹㅗ	-6496
▁ㄱㅣㅁㅇㅠ	-6497
ㅂㅏㄹㅡㄴ	-6498
ㅈㅓㄷㅗ	-6499
▁ㅅㅏㅇㅇㅟ	-6500
▁ㅈㅏㄹㅛ	-6501
▁ㅇㅗㄴㄷㅏ	-6502
ㅍㅡㄹㄹㅔㅇㅣ	-6503
ㄱㅡㄹㅡㅅ	-6504
▁ㄱㅜㅇㄱㅡㅁㅎㅏㄷㅏ	-6505
ㅅㅣㄴㅔ	-6506
ㅈㅣㄴㅡㄴㄷㅔ	-6507
▁ㅎㅏㄷㅗ	-6508
▁ㅇㅕㄹㅍㅗㄱ	-6509
ㅂㅏㄷㅏ	-6510
▁ㅎㅏㄴㄹㅠ	-6511
▁ㅂㅗㅎㅓㅁㄹㅛ	-6512
ㅇㅏㄴㅣㄴㅑ	-6513
ㄱㅏㅅㅜ	-6514
ㅎㅐㅇㅑㅎㅏㅁ	-6515
▁ㅈㅓㄸㅏㄴ	-6516
ㅁㅗㄷㅜ	-6517
▁ㅇㅣㄴㅅㅣㄱ	-6518
▁ㅁㅏㄹㅎㅏㄹ	-6519
▁ㄴㅏㅇㅗㄴㅡㄴㄷㅔ	-6520
▁ㅈㅗㄱㅓㄴ	-6521
ㄴㅛㄴ	-6522
▁400	-6523
ㅏㄴㅣㄲㅏ	-6524
ㅅㅣㅁㅇㅡㄴ	-6525
ㅎㅚㅈㅏㅇ	-6526
▁ㅁㅣㅇ	-6527
▁ㄱㅣㅁㅂㅏㅂ	-6528
▁ㅃㅏㅅㅜㄴ	-6529
▁h	-6530
ㅂㅏㄷㅇㅏㅆ	-6531
▁ㄱㅐㄱㅏㅌㅇㅡㄴ	-6532
▁ㅈㅓㅇㅊㅐㄱㅇㅡㄹ	-6533
ㅇㅠㄹㅇㅣ	-6534
ㅈㅗㅎㄱㅔㅆㄷㅏ	-6535
▁ㄱㅔㅅㅡㅌㅡ	-6536
▁ㅅㅏㄹㅁㅕㄴㅅㅓ	-6537
ㄱㅏㅆㄷㅏ	-6538
ㅅㅏㅁㅕㄴ	-6539
▁ㅎㅗㄴㄹㅏㄴ	-6540
ㄷㅜㅎㅘㄴ	-6541
▁ㄱㅏㄴㅡㅇㅎㅏㄴ	-6542
▁ㅅㅐㅇㄱㅏㄱㅂㅗㄷㅏ	-6543
▁ㅇㅜㅅㄱㅗ	-6544
ㅂㅜㅊㅐ	-6545
▁ㄷㅏㄴㅕㅇ	-6546
ㅈㅡㄱ	-6547
ㄲㅣㄴㅡㄴ	-6548
ㅅㅏㅈㅏㅇ	-6549
▁ㅅㅣㄱㅗㄹ	-6550
▁ㅁㅣㄴㅇㅕㅇㅎㅘ	-6551
▁ㅆㅗㄷㅇㅏ	-6552
▁ㅁㅏㅇㅣ	-6553
▁ㅇㅕㅌㅐ	-6554
▁ㄴㅓㅁㄴㅏ	-6555
▁ㅈㅜㅂㅓㅁ	-6556
ㅁㅣㄴㅈㅗㄱ	-6557
ㅇㅣㄹㅂㅏㄴ	-6558
▁ㄷㅏㅇㅅㅣㄴㅇㅣ	-6559
▁ㄱㅏㅈㅏ	-6560
▁ㅇㅓㄴㅈㅔㅂㅜㅌㅓ	-6561
ㄱㅔㅆㄱㅜㅁㅏㄴ	-6562
▁sns	-6563
▁ㅎㅏㄷㅓㄹㅏ	-6564
ㄷㅗㅇㅘ	-6565
ㄱㅏㅄㅇㅡㄴ	-6566
▁ㅁㅝㄴㄷㅔ	-6567
ㅇㅏㄷㅡㄹ	-6568
▁ㅇㅣㄴㄷㅔ	-6569
ㅉㅣㄴ	-6570
▁ㅇㅣㄴㄷㅗ	-6571
▁ㅎㅕㄴㅇㅕㄱ	-6572
▁ㅇㅟㅈㅡㅇ	-6573
▁ㅊㅟㅅㅗ	-6574
ㅇㅓㄹㅁㅏㄴㅏ	-6575
ㅈㅓㄱㅇㅣㄷㅏ	-6576
▁ㅈㅗㅎㅈㅣㅁㅏㄴ	-6577
ㅇㅣㄺ	-6578
▁ㅍㅜㄱ	-6579
▁ㅆㅡㄹㅔ	-6580
▁ㅍㅡㄹㅏㅇㅅㅡ	-6581
▁ㄲㅣㄹ	-6582
ㄷㅐㅅㅣㄴ	-6583
▁ㄴㅐㅇㅑ	-6584
ㅓㅎㄱㅗ	-6585
ww	-6586
▁ㄱㅏㄴㅅㅣㄴ	-6587
▁ㅍㅣㄱㅗㄴ	-6588
▁ㅎㅏㄴㄱㅓ	-6589
▁ㅇㅣㅃㅡㄷㅏ	-6590
▁ㅇㅓㅄㅇㅓㅆㄷㅏ	-6591
ㅕㅆㅈㅣ	-6592
▁ㅅㅏㅅㅔㅇㅛ	-6593
▁ㄴㅏㄹㅏㅅ	-6594
ㅅㅡㄹㅓㅂㄱㅗ	-6595
▁ㅇㅏㅇㅣㅇㅗㅇㅏㅇㅣ	-6596
▁ㅅㅗㅇㅠ	-6597
▁ㄷㅏㄹㅡㅁ	-6598
▁ㅈㅓㄴㅂㅓㅁ	-6599
ㅡㅅㅡ	-6600
ㄱㅗㅇㅈㅣㄱ	-6601
▁ㄴㅗㅁㅇㅣ	-6602
▁ㄱㅣㅁㅊㅣㄴㅕㄴ	-6603
ㅏㅍ	-6604
▁ㅇㅜㅇㅠ	-6605
▁ㅁㅏㄴㄷㅡㄹㅇㅓㅇㅑ	-6606
▁ㅁㅗㄷㅡㄴㄱㅔ	-6607
▁ㅅㅣㄱㅏㄴㅇㅔ	-6608
ㅈㅣㅂㅇㅣ	-6609
ㅁㅏㄴㅇㅝㄴㅆㅣㄱ	-6610
ㅈㅓㅇㅂㅜㄱㅏ	-6611
ㅂㅣㅈ	-6612
▁ㄴㅐㄴㅐ	-6613
ㅎㅏㄹㅏㄴㅡㄴ	-6614
ㅁㅗㅅㅎㅏㄴㅡㄴ	-6615
▁ㅇㅣㄱㅓㅅㅇㅣ	-6616
ㄹㅏㅇㅣㄴ	-6617
▁ㅅㅣㅋㅣㄴㅡㄴ	-6618
ㅍㅣㅇㅋㅡ	-6619
new	-6620
ㅅㅓㅇㄱㅗㅇ	-6621
▁ㅊㅜㄱㅎㅏㅎㅏㅂㄴㅣㄷㅏ	-6622
▁ㅎㅏㄹㅜㅈㅗㅇㅇㅣㄹ	-6623
ㅇㅏㅍㅇㅡㄹㅗ	-6624
▁ㅈㅗㅎㄱㅔㅆㅅㅡㅂㄴㅣㄷㅏ	-6625
▁ㅇㅓㄸㅓㄱ	-6626
▁ㅇㅣㅂㅕㅇ	-6627
ㅋㅏㄷㅡ	-6628
ㄱㅔㅆㅇㅡㅁ	-6629
▁ㄷㅐㅇㅜㅈㅗㅅㅓㄴ	-6630
out	-6631
ㅈㅣㅇㅇㅕㄱ	-6632
.5	-6633
ㅈㅕㅇㅛ	-6634
▁ㄴㅏㅅㅈㅣ	-6635
ㅇㅏㄴㅣㄷㅏ	-6636
ㅗㄹㅏ	-6637
▁ㅇㅏㄴㅎㅏㄴㄷㅏ	-6638
▁ㄷㅟㅇㅔㅅㅓ	-6639
▁ㅂㅜㄲㅡㄹㅓㅂ	-6640
▁ㅇㅓㄹㄱㅜㄹㅇㅔ	-6641
ing	-6642
ㅈㅓㄴㅇㅣ	-6643
▁ㅈㅣㅂㅇㅡㄹ	-6644
ㅁㅗㅅㅎㅏㄱㅗ	-6645
▁ㅇㅚㅈㅔㅊㅏ	-6646
▁ㅈㅣㅂㅐ	-6647
ㅎㅕㅇㅇㅣ	-6648
▁ㅈㅣㄲㅓㄹ	-6649
ㄴㅏㄹㅇㅣ	-6650
▁ㅈㅣㄴㅏㄱㅏ	-6651
▁ㅂㅜㄹㄹㅑㅇ	-6652
▁ㅂㅜㄹㅁㅏㄴ	-6653
▁ㅈㅜㅇㄱㅜㄱㅇㅢ	-6654
ㅆㅇㅡㄹㄸㅐ	-6655
ㄴㅏㅇㅂㅣ	-6656
▁ㄴㅏㄱㅏㅅㅓ	-6657
▁ㅁㅐㅈㅏㅇ	-6658
ㅇㅟㄹㅗ	-6659
▁ㄴㅏㄹㅏㄷㅗ	-6660
▁ㅎㅏㄴㅁㅏㄷㅣㄹㅗ	-6661
▁ㅊㅓㅁㅓㄱ	-6662
▁ㅂㅗㅅㅔㅇㅛ	-6663
▁ㅇㅐㅁ	-6664
ㅇㅣㄹㅌㅔㄴㄷㅔ	-6665
ㅇㅓㄷ	-6666
▁ㄷㅏㄴㅈㅣ	-6667
▁ㅂㅏㄲㅝㅇㅑ	-6668
ㄷㅏㄷㅡㄹ	-6669
▁ㅁㅜㄹㄹㅕ	-6670
ㅇㅏㅂㅓㅈㅣ	-6671
ㅇㅘㄴㅈㅓㄴ	-6672
ㅊㅏㄹㅏㄹㅣ	-6673
▁ㅁㅗㄹㅡㄴㅏ	-6674
▁ㅇㅕㄴㅎㅏㅂ	-6675
ㅈㅏㄴㅇㅏ	-6676
▁ㅁㅗㅅㅎㅏㅁㅕㄴ	-6677
ㄷㅡㅇㄱㅡㅂ	-6678
▁ㅁㅏㄴㅁㅏㄴ	-6679
ㅅㅓㄱㅏ	-6680
ㅇㅈㅏㅇ	-6681
▁ㅇㅛㄹㅣ	-6682
▁ㅊㅏㅇㅣㄱㅏ	-6683
ㅇㅏㅁㅓㄱㄴㅡㄴ	-6684
ㄷㅗㅇㅇㅣ	-6685
▁ㅈㅓㄱㅇㅡㄴ	-6686
ㅍㅏㄴㅡㄴ	-6687
▁ㅈㅏㅇㅇㅐ	-6688
▁ㅎㅘㅁㅕㄴ	-6689
▁ㅁㅓㅅㅈㅣㄷㅏ	-6690
▁ㅈㅣㅇㅡㄴ	-6691
ㄱㅣㄷㅏㄹ	-6692
ㅇㅢㅅㅣㄱ	-6693
ㄱㅕㅇㅊㅏㄹ	-6694
▁ㅁㅏㅇㅎㅏㄴㄷㅏ	-6695
▁ㅇㅙㅇㅣㄹㅣ	-6696
▁ㅈㅣㄱㅡㅂ	-6697
▁ㄷㅗㄴㅈㅜㄱㅗ	-6698
ㄱㅏㅁㄷㅗㄱ	-6699
▁ㅇㅢㅅㅣㄱ	-6700
ㅁㅜㄹㅇㅡㄹ	-6701
▁ㄷㅡㄴㄷㅏ	-6702
ㅂㅜㄷㅏㅁ	-6703
▁ㅁㅣㄴㄱㅏㄴ	-6704
▁ㅂㅣㄹㅗㅅ	-6705
ㅊㅜㄹㅅㅣㄴ	-6706
▁ㅊㅗㄱ	-6707
▁150	-6708
▁ㄴㅏㅁㅕㄴ	-6709
ㅅㅜㅇㅣㅆㄷㅏ	-6710
ㅎㅏㄴㅌㅔㄷㅗ	-6711
ㅂㅜㄹㄱㅏ	-6712
▁ㄴㅓㅁㄴㅡㄴ	-6713
▁ㅇㅣㄹㅓㄴㄱㅓㄹ	-6714
ㅣㄹㅏㄷㅗ	-6715
ㄴㅗㅍ	-6716
ㄷㅡㄹㅇㅣㄹㅏㅇ	-6717
ㅅㅏㅇㅅㅡㅇ	-6718
▁ㅈㅣㅈㅓㄱ	-6719
▁ㅈㅔㄷㅗ	-6720
▁ㅎㅏㄴㅏㅁㅏㄴ	-6721
ㄷㅡㄴㄷㅏ	-6722
ㅇㅡㅁㅇㅣ	-6723
▁ㅅㅏㄹㅏㅁㅇㅢ	-6724
ㄱㅓㅁㅅㅏ	-6725
▁ㅇㅣㄹㄷㅏㅇ	-6726
▁ㄱㅙㄴㅊㅏㄶㅇㅡㄴ	-6727
▁ㅅㅏㅇㅎㅘㅇㅇㅣ	-6728
▁ㅅㅏㄹㄷㅏ	-6729
ㅅㅓㅇㅢ	-6730
▁ㄱㅘㄴㄱㅘㅇㄱㅐㄱ	-6731
▁ㅇㅓㅉㅏㅍㅣ	-6732
▁ㄸㅐㄴㅡㄴ	-6733
▁ㅎㅚㅂㅗㄱ	-6734
ㅁㅏㅇㅡㅁ	-6735
▁ㅈㅐㅂㅏㅇ	-6736
ㄴㅐㄹ	-6737
▁ㅂㅗㅈㅏㅇ	-6738
ㄴㅏㅇㅗㄴㅡㄴ	-6739
ㅇㅗㅁㅕㄴ	-6740
ㅈㅣㄴㅇㅡㄴ	-6741
ㅈㅗㅁㅎㅐㄹㅏ	-6742
▁ㄱㅗㅈㅣ	-6743
▁ㅂㅜㄲㅡㄹㅓㅇㅜㄴ	-6744
ㅇㅓㅄㅇㅐ	-6745
▁ㄱㅟㅊㅏㄶ	-6746
▁ㅁㅗㅅㅡㅂㅇㅡㄹ	-6747
▁ㅇㅓㅇㅁㅏㅇ	-6748
▁ㅁㅜㄹㅌㅏㄱㅣ	-6749
▁ㄲㅜㅈㅜㄴㅎㅣ	-6750
ㅈㅏㄴㅊㅣ	-6751
▁ㅇㅛㄱㅎㅏㄱㅗ	-6752
▁ㅍㅣㄴㅜㄴㅁㅜㄹ	-6753
▁ㅇㅓㅁㅓㄴ	-6754
ㅇㅣㄹㅓㄴㅣ	-6755
ㅍㅏㄱㅗ	-6756
ㅑㅇㅂㅏㄴ	-6757
▁ㄴㅓㅁㅜㅁ	-6758
▁ㅇㅜㄹㅕ	-6759
▁ㄱㅗㅇㄷㅗㅇ	-6760
▁ㅁㅕㅊㅁㅕㅊ	-6761
ㄹㅗㅅ	-6762
▁ㅊㅐㅇㄱㅣ	-6763
▁ㅁㅏㅁㅜㄹㅣ	-6764
▁ㅁㅜㅅㅏㅇ	-6765
ㅇㅣㄹㅁㅏㄴ	-6766
ㅈㅗㅅㅣㅁ	-6767
ㅅㅣㅎㅓㅁ	-6768
ㅅㅜㅇㅣㅂ	-6769
▁ㅁㅣㅊㅣ	-6770
ㅁㅏㄴㅡㄴ	-6771
▁ㄸㅓㅅㄸㅓㅅ	-6772
ㄴㅏㅇㅣㅅ	-6773
▁ㅎㅏㄴㄱㅜㄱㅇㅡㄹ	-6774
ㅈㅏㄷㅡㄹㄷㅗ	-6775
▁ㅇㅣㄹㅓㄷㅏ	-6776
▁ㅈㅓㅎㅢ	-6777
▁ㄱㅡㄴㅡㄴ	-6778
ㅇㅡㄹㅏㄱㅗ	-6779
ㄲㅗㅂ	-6780
▁ㅁㅣㄴㅍㅖ	-6781
▁ㄷㅡㅇㅅㅏㄴㅂㅗㄱ	-6782
ㅂㅗㄴㅡㄴㄷㅔ	-6783
▁ㅇㅏㄶㅇㅏㅆㄷㅏ	-6784
▁ㅂㅓㅁㅈㅚㅈㅏ	-6785
ㅁㅣㅊ	-6786
▁ㅇㅣㅆㅇㅓㅆㄷㅓㄴ	-6787
▁ㅈㅓㄴㅇㅝㄴ	-6788
▁ㅅㅐㅇㄱㅣ	-6789
▁ㅃㅗㅂㅇㅡㄴ	-6790
▁ㅋㅏㅁㅔㄹㅏ	-6791
▁ㅇㅣㅉㅡㅁ	-6792
ㅁㅝㄹ	-6793
??????	-6794
▁ㅇㅣㅈㅓㅇㄷㅗㅁㅕㄴ	-6795
ㅅㅏㄴㅇㅣ	-6796
▁ㅅㅏㄹㅇㅏㄱ	-6797
ㅈㄱㅗ	-6798
▁ㅅㅡㄹㅅㅡㄹ	-6799
▁ㅁㅜㅎㅕㅁㅇㅢ	-6800
ㅈㅣㄴㅅㅣㅁ	-6801
▁ㅁㅓㄱㅇㅡㄴ	-6802
▁199	-6803
▁ㅅㅜㅊㅣ	-6804
ㅠㅠㅠㅠㅠ	-6805
▁ㄷㅚㅇㅓㅇㅑ	-6806
▁ㅇㅕㄴㄱㅕㄹ	-6807
▁ㅌㅡㄱㄱㅓㅁㅇㅣ	-6808
▁ㅇㅟㅊㅣ	-6809
ㄱㅗㄹㅗ	-6810
▁ㅋㅗㄴㅅㅓㅌㅡ	-6811
ㅈㅐㅇㅢ	-6812
▁ㄸㅐㅁㅇㅔ	-6813
▁ㅁㅏㅇㅎㅏㄴㅡㄴ	-6814
ㄷㅗㅇㅏㄴㅣㄱㅗ	-6815
ㅐㄴㄷㅏ	-6816
▁ㄱㅣㄹㄱㅓㄹㅣ	-6817
▁ㅈㅗㅅㅓㄴㅈㅗㄱ	-6818
▁ㅅㅣㅋㅕㄹㅏ	-6819
ㅇㅣㅁㅏㄶ	-6820
ㅅㅜㄱㅏㅇㅓㅄ	-6821
▁ㄴㅏㅁㅓ	-6822
▁ㅂㅜㄹㅁㅐㅇㅜㄴㄷㅗㅇ	-6823
ㅈㅣㄴㅑ	-6824
▁ㅅㅏㄹㄱㅔ	-6825
▁ㄴㅏㄲ	-6826
ㅂㅕㄹㄹㅗ	-6827
▁ㅁㅏㄴㄷㅡㄹㅇㅓㄴ	-6828
▁ㅇㅠㅈㅐㅅㅓㄱㅇㅣ	-6829
ㅓㅇㅛ	-6830
ㅊㅣㄹㅗ	-6831
ㅌㅚㄱㅡㄴ	-6832
▁ㅂㅣㅁㅣㄹ	-6833
▁ㅂㅏㄷㅇㅡㅁㅕㄴ	-6834
▁ㅈㅗㅇㅠㄴㅅㅓㄴ	-6835
▁ㅂㅔㄴ	-6836
ㄷㅗㄱㄱㅛ	-6837
▁ㅂㅜㄴㅁㅕㅇㅎㅣ	-6838
▁ㅁㅜㅅㅓㅇㅝㅅㅓ	-6839
ㅆㄷㅏㅁㅕㄴ	-6840
▁ㅊㅏㅁㅇㅡㄹㅗ	-6841
ㄱㅕㅇㅇㅠㅊㅏㄱ	-6842
▁ㅁㅏㄴㅣ	-6843
▁ㅁㅏㄶㅇㅡㄹ	-6844
ㅈㅓㄴㅁㅜㄴ	-6845
▁ㅎㅏㄴㅡㄴㄱㅓㅅ	-6846
ㄴㅠㅅㅡ	-6847
▁ㅇㅜㅅㅡㅂㄱㅔ	-6848
ㅐㄹ	-6849
▁ㅂㅣㅇㅗㄴ	-6850
ㅈㅣㅅㄱㅓㄹㅣ	-6851
▁ㅎㅐㅆㅇㅡㄹ	-6852
▁ㅋㅑ	-6853
ㅈㅜㄴㅣ	-6854
▁ㅎㅏㄴㅇㅜ	-6855
▁ㅎㅏㅎㅏ	-6856
▁ㅎㅏㄹㄲㅏ	-6857
▁ㅉㅡㅅㅉㅡㅅ	-6858
▁ㅇㅓㅄㄴㅡㄴㄱㅔ	-6859
ㅋㅓㄹ	-6860
▁ㄱㅜㄱㅈㅓㅇㄴㅗㅇㄷㅏㄴ	-6861
▁ㅈㅣㄴㅏㅁㅕㄴ	-6862
▁ㅇㅠㅅㅡㅇㅈㅜㄴ	-6863
▁ㅇㅏㄴㅆㅡㄹ	-6864
▁ㄱㅓㅇㅑ	-6865
▁ㅁㅏㄹㅁㅏㄴ	-6866
ㅈㅣㅇㅏㄶㄴㅡㄴ	-6867
ㅈㅝㄷㅗ	-6868
ㅈㅗㅅㅔㄴ	-6869
▁ㅂㅐㄱㅎㅘㅈㅓㅁ	-6870
ㅌㅐㅎㅕㄴ	-6871
▁ㅌㅏㄹㅅㅔ	-6872
▁ㄴㅏㅁㅈㅏㄷㅡㄹㅇㅣ	-6873
▁ㅇㅓㅂㅓ	-6874
ㅇㅣㄴㅈㅡㅇ	-6875
ㅈㅐㅂㅓㄹ	-6876
▁ㄷㅗㅇㅜㅁㅇㅣ	-6877
ㅊㅓㄴㅁㅏㄴ	-6878
▁ㄴㅗㄹㅐㄷㅗ	-6879
▁ㅁㅏㅇㅎㅐ	-6880
▁ㅁㅜㄹㄹㅓㄴ	-6881
ㅂㅏㄷㅇㅏㅅㅓ	-6882
▁ㅃㅜㄹㅣ	-6883
▁ㅇㅝㄴㅊㅣㄱ	-6884
ㅇㅣㄹㅏㄴㅡㄴㄱㅔ	-6885
▁ㅌㅣㅂ	-6886
ㅁㅕㅇㅇㅡㄴ	-6887
▁ㄱㅓㄱㅣㄷㅏ	-6888
▁ㄱㅣㅇㅓㄱㅇㅣ	-6889
ㅅㅏㅇㅘ	-6890
▁ㅇㅣㄴㅁㅣㄴ	-6891
ㄲㅗㅊ	-6892
▁ㅈㅡㅇㄱㅏ	-6893
▁ㅅㅣㄷㅐㄱㅏ	-6894
▁ㄱㅡㅁㅅㅜㅈㅓ	-6895
▁ㅆㅏㅇㅣ	-6896
ㄹㅐㅇ	-6897
▁ㄱㅚㄹㅗㅂ	-6898
▁ㅈㅏㅅㅜㄱ	-6899
▁ㅂㅜㅇㅕㄱ	-6900
▁ㅍㅐㄴㄷㅡㄹㅇㅣ	-6901
ㅅㅏㅅㅓ	-6902
▁ㄴㅐㅇㅛㅇㅇㅣ	-6903
▁ㅇㅜㅈㅜ	-6904
▁ㄷㅐㅅㄱㅡㄹㄷㅡㄹ	-6905
▁ㄲㅓㄴ	-6906
▁ㅇㅔㅅㅓ	-6907
▁ㅎㅐㅆㅇㅡㅁ	-6908
▁ㅇㅏㅁㅜㄹㅓㄴ	-6909
▁ㅇㅏㄴㅎㅐㄷㅗ	-6910
ㅅㅏㄹㅇㅣ	-6911
▁ㄷㅜㅇ	-6912
▁ㅍㅗㅁ	-6913
▁ㅇㅚㄱㅖ	-6914
▁ㅁㅗㄹㅡㄱㅔㅆㄴㅔ	-6915
ㅎㅖㄱㅛ	-6916
▁ㅅㅣㅀㅇㅡㄴ	-6917
ㅈㅣㅇㅏㄶㅇㅡㄴ	-6918
▁ㅎㅏㅂㅂㅓㅂ	-6919
▁ㄱㅏㅌㅇㅏㅅㅓ	-6920
ㅁㅗㅅㅎㅐ	-6921
▁ㄴㅡㅇㄹㅕㄱㅇㅣ	-6922
▁ㅈㅜㅈㅔㅇㅔ	-6923
ㅈㅜㄴㅏ	-6924
▁ㄸㅓㄹㅇㅓㅈㅣㄹ	-6925
ㅏㅇㅇㅣ	-6926
▁ㄱㅜㄱㅁㅣㄴㄷㅡㄹㅇㅔㄱㅔ	-6927
▁ㅎㅏㄴㄷㅜㅂㅓㄴ	-6928
ㄹㅣㄴㄷㅏㄱㅗ	-6929
▁ㅇㅓㄹㄱㅜㄹㄷㅗ	-6930
▁ㅊㅜㅇㅓㄱ	-6931
▁ㅌㅗㅇㅇㅣㄹ	-6932
▁ㅇㅜㄹㅣㅈㅣㅂ	-6933
ㅂㅜㄱㅎㅏㄴ	-6934
ㄷㅔㄹㅗ	-6935
▁ㅊㅚㅇㅜㅅ	-6936
ㅌㅗㅂ	-6937
ㅅㅣㅀㅇㅓ	-6938
▁ㅁㅣㄹㅐㄱㅏ	-6939
▁ㅇㅣㄴㄱㅏㄴㄷㅡㄹㅇㅡㄴ	-6940
▁ㅎㅢㄴ	-6941
ㅂㅗㄱㅔ	-6942
▁ㅂㅓㅅㅇㅓㄴ	-6943
▁ㅉㅣㄹㅏ	-6944
ㄱㅐㅎㅕㄱ	-6945
▁ㅈㅜㄹㅈㅜㄹ	-6946
▁ㅅㅡㅌㅏㅇㅣㄹ	-6947
▁ㅉㅗㅊ	-6948
▁ㅅㅗㄱㅇㅣ	-6949
▁ㅎㅠㅇㄱㅣ	-6950
▁ㅇㅏㄴㅍㅏㄹ	-6951
▁ㅂㅜㅍㅜㅁ	-6952
▁ㅈㅓㅊㅜㄱ	-6953
▁ㅈㅣㄴㅡㄴ	-6954
▁ㅎㅗㄱㅇㅡㄴ	-6955
▁--	-6956
▁ㅊㅏㄴㅇㅑㅇ	-6957
▁ㅇㅜㅅㄱㅣㄱㅗ	-6958
▁ㄷㅏㄴㅡㄴ	-6959
▁ㅇㅣㄹㅂㅗㄴㅇㅔ	-6960
▁ㅇㅔㄹㅣㄱ	-6961
▁ㅇㅏㄹㅡㅁㄷㅏㅇㅜㄴ	-6962
ㅁㅣㅊㅣㄴ	-6963
▁ㅌㅞ	-6964
ㅇㅏㄴㅑ	-6965
▁ㄱㅡㅇㅔ	-6966
ㅡㅁㅕㄴㅅㅓ	-6967
▁ㅇㅓㅉㅓㄹㅏㄱㅗ	-6968
ㄱㅗㅅㅇㅔㅅㅓ	-6969
ㅂㅗㅅㅜ	-6970
▁ㄴㅏㅈㅇㅡㄴ	-6971
▁ㅈㅏㄹㄴㅏㄱ	-6972
▁ㅎㅏㄴㅡㄴㄱㅜㄴㅏ	-6973
▁ㅈㅏㄱㅡㄱ	-6974
▁ㅇㅣㅅㅏㅇㅎㅏㄱㅔ	-6975
ㅇㅣㄴㄱㅓㄹ	-6976
▁ㅈㅣㅅㅇㅡㄹ	-6977
▁ㅈㅗㅅㅔㄴㅈㅣㅇ	-6978
▁ㅇㅏㅇㅣㄱㅏ	-6979
▁ㅅㅓㅇㅅㅣㄹ	-6980
ㅇㅣㅇㅓㅆㅇㅡㅁ	-6981
ㅎㅏㅈㅣㄴ	-6982
▁ㅇㅣㅅㅓㅇ	-6983
ㅊㅏㄹㅑㅇ	-6984
ㅅㅡㅌㅡㄹ	-6985
ㅈㅓㅇㅂㅗ	-6986
ㅅㅣㄱㅍㅜㅁ	-6987
▁ㅂㅏㄱㄱㅡㄴ	-6988
▁ㅂㅗㅈㅣ	-6989
▁ㅋㅗㅅㅡㅍㅡㄹㅔ	-6990
▁ㅈㅔㄱㅗㅇ	-6991
▁ㄴㅓㅁㄷㅡㄹ	-6992
▁ㅈㅓㅇㄷㅗㄴㅡㄴ	-6993
ㅈㅓㄱㄷㅗ	-6994
▁ㅂㅏㄴㄷㅐㄹㅗ	-6995
▁ㅁㅏㄴㅕㅅㅏㄴㅑㅇ	-6996
ㄱㅡㄹㅓㄴㅣ	-6997
▁ㄷㅏㅇㅎㅏㄱㅗ	-6998
▁ㅂㅏㅃㅡㄴ	-6999
▁ㄴㅐㄹㅣㄹ	-7000
▁ㅋㅓㄴㅕㅇ	-7001
▁ㅅㅣㅀㅇㅡㅁㅕㄴ	-7002
ad	-7003
▁ㅂㅏㄱㅇㅝㄴㅅㅜㄴ	-7004
ㅎㅏㄱㅔㅆㅅㅡㅂㄴㅣㄷㅏ	-7005
ㅉㅏㅈㅡㅇ	-7006
.,	-7007
se	-7008
▁ㅁㅕㅊㄱㅐ	-7009
ㄷㅐㅎㅏㄱ	-7010
ㅆㅏㅇㅜㅁ	-7011
▁ㄷㅡㄹㅇㅓㅂ	-7012
▁ㅂㅣㅈㅓㅇㅅㅏㅇ	-7013
▁ㅈㅏㅂㅗㄴㅈㅜㅇㅢ	-7014
ㅂㅗㅇㅣㅁ	-7015
▁ㄱㅓㄴㄷㅔ	-7016
▁ㅊㅣㅁㅁㅗㄹ	-7017
▁ㄷㅏㅇㅇㅕㄴㅎㅏㄴㄱㅓ	-7018
ㄱㅔㅅㅈㅣ	-7019
▁ㅇㅣㄹㅇㅓㄴㅏ	-7020
ㅂㅏㄺ	-7021
▁ㄱㅚㅇㅈㅏㅇ	-7022
▁ㄸㅡ	-7023
▁ㄴㅣㄷㅡㄹㄷㅗ	-7024
ㅋㅋㅋㅋㅋㅋㅋㅋㅋㅋ	-7025
ㅣㅁㄷㅡㄹ	-7026
▁ㅎㅘㄴㅈㅏㅇ	-7027
▁ㄱㅡㄹㅓㄱㅔ	-7028
ㅆㅏㄴ	-7029
▁ㄴㅏㅁㅇㅣ	-7030
ㅇㅖㄴㅡㅇ	-7031
ㄸㅣ	-7032
▁ㄱㅗㅇㅉㅏㄹㅗ	-7033
▁ㅁㅏㄴㄷㅡㄹㅈㅣ	-7034
ㅅㅣㅇㅝㄴ	-7035
▁ㅈㅓㄴㅌㅗㅇ	-7036
▁ㅇㅣㅅㅠ	-7037
▁ㅍㅏㅇㅏㄱ	-7038
▁ㅇㅣㄴㅅㅓㅇㅇㅣ	-7039
."	-7040
ㄷㅐㄱㅣ	-7041
▁ㄱㅡㄹㄹㅗㅂㅓㄹ	-7042
▁ㄲㅡㅌㅇㅣ	-7043
▁ㅃㅏㅈㅣㄴ	-7044
ㅎㅏㄴㅅㅏㄹㅏㅁ	-7045
▁ㄲㅡㅌㄴㅏㄹ	-7046
▁ㄱㅏㅁㅅㅓㅇ	-7047
ㅈㅓㄴㅏ	-7048
▁ㄷㅏㅇㅅㅓㄴ	-7049
▁ㅇㅏㄴㄷㅚㅂㄴㅣㄷㅏ	-7050
▁ㅍㅕㅇㄷㅡㅇ	-7051
▁ㄱㅘㄴㅅㅣㅁㅇㅣ	-7052
ㄱㅏㅌㅇㅏ	-7053
ㅈㅏㅅㅣㄴ	-7054
ㅇㅓㄱㅇㅝㄴ	-7055
ㅈㅜㄱㅇㅡㄹ	-7056
▁ㄴㅏㅁㅈㅜ	-7057
ㄲㅗㅇ	-7058
▁ㄷㅏㅇㅣㅇㅓ	-7059
▁ㄱㅐㄱㅡㅁㅐㄴ	-7060
▁ㅌㅡㄹㄸㅏㄱ	-7061
▁ㅇㅓㅄㄴㅔㅇㅛ	-7062
▁ㄲㅏㄹㄲㅡㅁ	-7063
ㅅㅣㅈㅛ	-7064
▁ㅆㅓㄴ	-7065
▁ㅍㅗㄱㄹㅕㄱ	-7066
▁ㅅㅣㅇㅝㄴㅎㅏㄱㅔ	-7067
▁ㅇㅏㄴㄷㅚㅈㅣ	-7068
▁ㅇㅏㄴㅂㅗㄱㅗ	-7069
ㅇㅡㅇㅇㅝㄴ	-7070
▁ㄷㅗㅇㅇㅢ	-7071
▁ㅇㅗㅈㅣㄱ	-7072
ㄷㅏㅇㅅㅣ	-7073
▁ㅎㅏㄴㄷㅏㄹㅇㅔ	-7074
▁ㅇㅣㅁㄱㅣ	-7075
▁ㅊㅚㄱㅕㅇ	-7076
▁ㄱㅕㄹㄹㅗㄴㅇㅡㄴ	-7077
▁ㄷㅚㅇㅑ	-7078
ㅈㅜㅇㅓㄹ	-7079
ㅂㅜㄷㅐ	-7080
ㅅㅓㅇㅛ	-7081
▁ㄱㅗㅅㅗㄱㄷㅗㄹㅗ	-7082
ㅈㅜㅁㅁㅏ	-7083
ㄱㅗㅅㅇㅡㄴ	-7084
ㅈㅣㄷㅡㄹ	-7085
▁ㅇㅣㄲㅗㄹ	-7086
▁ㅇㅕㄱㅅㅏㄹㅡㄹ	-7087
ㅂㅗㅇㅣㄴㄷㅏ	-7088
ㅂㅓㄹㅕㄹㅏ	-7089
ㅎㅏㄱㅗㅅㅣㅍ	-7090
▁ㅃㅣㅇㄸㅡㄷ	-7091
▁ㅅㅓㅁㅣㄴㄷㅡㄹㅇㅣ	-7092
▁ㅁㅏㄴㄴㅏㄹ	-7093
news	-7094
ㅔㄴㅌㅡ	-7095
▁ㅂㅏㄱㅅㅣㄴ	-7096
▁ㅎㅏㄹㄷㅡㅅ	-7097
ㄲㅣㄴ	-7098
ㄱㅔㅆㄱㅜㄴㅏ	-7099
ㅌㅓㄱ	-7100
▁ㅁㅔㅇㅣ	-7101
▁ㅁㅐㄷㅏㄹ	-7102
ㅁㅏㅌㅡ	-7103
▁ㅂㅏㅇㅎㅑㅇ	-7104
▁ㄱㅡㄹㅓㅁㅕㄴㅅㅓ	-7105
ㅎㅗㅎ	-7106
ㅜㅇㅏ	-7107
▁???	-7108
ㄲㅣㄱㅗ	-7109
▁ㅈㅣㅋㅣ	-7110
ㅎㅏㅅㅣㄹ	-7111
▁ㅍㅏㄴㅅㅏ	-7112
ㅆㅓㄱ	-7113
ㅕㄱㅇㅡㄹ	-7114
▁ㅇㅕㅇㅠ	-7115
▁ㅇㅣㅎㅜㄹㅗ	-7116
▁ㅇㅕㄴㄱㅣㅈㅏㄹ	-7117
99	-7118
▁ㅂㅜㄴㄴㅗ	-7119
▁ㄷㅡㄹㅓㅂㄱㅔ	-7120
▁ㅎㅐㅇㅈㅓㅇ	-7121
ㅐㅅㅓ	-7122
▁ㅅㅏㅇㅅㅗㄱ	-7123
ㅎㅐㅈㅣㄱㅗ	-7124
▁ㅎㅐㅇㅂㅗㄱㅎㅏㄴ	-7125
▁ㄷㅏㅅㅣㄴ	-7126
▁ㄸㅡㄴㄱㅡㅁ	-7127
▁ㅇㅏㅂㅓ	-7128
▁ㅇㅣㄹㅏㄱㅗ	-7129
▁ㅌㅗㄴ	-7130
▁ㄱㅏㅌㄴㅔ	-7131
ㅇㅕㄹㅓㅂㅜㄴ	-7132
ㄷㅝ	-7133
ㅜㅜㅜ	-7134
▁ㅇㅏㄴㅇㅔ	-7135
▁ㄱㅡㄹㅓㄴㅑ	-7136
▁ㅇㅣㅇㅓㅍㅗㄴ	-7137
ㄹㅗㅂㄱㅔ	-7138
▁ㄱㅣㄱㅏㄴ	-7139
ㄲㅣㄱㅏ	-7140
ㄴㅏㅇㅗㄴㄷㅏ	-7141
▁ㄱㅏㅈㅣㄱㅏㅈㅣ	-7142
▁ㄱㅓㅅㄷㅡㄹㅇㅡㄴ	-7143
ㅈㅓㄴㅇㅡㄹ	-7144
,000	-7145
▁ㅃㅓㄹ	-7146
▁ㅇㅟㅎㅕㅂ	-7147
ㄴㅕㄴㅉㅐ	-7148
▁ㄴㅡㄲㅣ	-7149
▁50%	-7150
ㅡㄴㅏ	-7151
ㅇㅔㅅㅓㅁㅏㄴ	-7152
▁ㄱㅗㅈㅏㅇ	-7153
▁ㅍㅕㄴㅈㅣㅂ	-7154
ㄸㅜㄱ	-7155
▁ㅇㅗㄹㅡ	-7156
ㅊㅓㄹㅇㅣ	-7157
▁ㅈㅐㅁㅣㅇㅣㅆ	-7158
ㅕㄴㅣ	-7159
▁ㅎㅐㅍㅣㅇㅔㄴㄷㅣㅇ	-7160
ㄴㅗㄷㅗㅇ	-7161
▁ㅅㅗㄴㅕㅅㅣㄷㅐ	-7162
ㅠㅇㅓㄹ	-7163
▁ㄱㅏㅊㅣ	-7164
ㅏㅇㅑㅈㅣ	-7165
▁ㅈㅜㄱㅇㅓㄹㅏ	-7166
▁ㅁㅜㄲ	-7167
▁ㅌㅗㅇㄱㅖ	-7168
ㅇㅓㅁㅊㅓㅇ	-7169
▁ㅎㅏㄴㄱㅔ	-7170
▁ㅈㅏㅃㅏㅈㅕㅆㄴㅔ	-7171
ㅅㅗㅇㅔ	-7172
ㅂㅜㅁㅗ	-7173
▁ㅈㅔㅈㅗ	-7174
▁ㅂㅐㅇㅜㄱㅏ	-7175
▁ㅇㅏㄵㅇㅏㅅㅓ	-7176
ㄴㅔㄷㅡㄹ	-7177
ㅈㅜㄴㅂㅣ	-7178
ㅇㅣㄴㄱㅓㅅ	-7179
ㅅㅔㄱㅣ	-7180
▁ㄷㅐㅌㅗㅇ	-7181
▁ㄷㅡㄹㅇㅡㄴ	-7182
▁ㅈㅏㄱㅇㅓㅂ	-7183
▁ㄸㅓㅇㅗㄹ	-7184
ㅎㅐㅈㅣㄴㅡㄴ	-7185
▁ㅍㅖㄱㅣ	-7186
ㅇㅏㅆㄴㅏ	-7187
ㅋㅣㄴㅡㄴ	-7188
▁ㅎㅐㅆㅈㅣㅁㅏㄴ	-7189
▁ㅅㅣㄴㅁㅜㄴ	-7190
▁ㅁㅏㄱㅈㅏㅇ	-7191
▁ㅇㅏㄴㄱㅡㄹㅐㄷㅗ	-7192
▁ㅇㅣㄹㅈㅜㅇㅣㄹ	-7193
ㄱㅏㅈㅏ	-7194
ㅆㅣㅁ	-7195
▁ㄱㅡㄹㅓㄷㅏ	-7196
▁ㅇㅣㄱㅕㅇ	-7197
▁ㅎㅏㄴㅡㄴㄱㅓㅈㅣ	-7198
▁ㅈㅣㄷㅡㄹㄲㅣㄹㅣ	-7199
▁10%	-7200
ㅈㅏㅇㄱㅘㄴ	-7201
▁ㅇㅜㄹㅅㅏㄴ	-7202
▁ㄱㅏㄲㅏㅇㅜㄴ	-7203
▁ㅁㅏㄹㄷㅗㅇㅏㄴ	-7204
▁ㅁㅏㄱㅅㅏㅇ	-7205
▁ㅂㅐㅇㅜㄹ	-7206
▁ㄷㅏㅇㅅㅣㄴㅇㅡㄴ	-7207
ㄷㅗㄹㄹㅕ	-7208
▁ㅅㅗㄴㄴㅣㅁ	-7209
▁ㄴㅔㅌㅣㅈㅡㄴ	-7210
▁ㅍㅛㅈㅓㄹ	-7211
ㅂㅜㄹㅆㅏㅇ	-7212
ㅇㅖㅂㅗ	-7213
ch	-7214
▁ㅂㅗㅇㅏㄴ	-7215
▁ㅈㅗㅎㅇㅏㅆㄴㅡㄴㄷㅔ	-7216
▁ㄴㅏㄱㅏㄴ	-7217
ㅉㅣㄹ	-7218
ㅅㅜㅇㅔ	-7219
ㅈㅑ	-7220
▁ㅅㅔㄷㅐ	-7221
ㄱㅗㅇㅛ	-7222
ㅎㅐㅇㅑㅎㅏㄹ	-7223
▁ㅇㅣㅆㄴㅏㅇㅛ	-7224
▁ㅅㅐㅇㄱㅣㄴㅡㄴ	-7225
ㅈㅕㅆㅇㅡㅁㅕㄴ	-7226
ㅓㄱㅜ	-7227
▁ㅅㅓㅇㄴㅡㅇ	-7228
ㄱㅏㅌㅇㅡㄴㄱㅓ	-7229
▁ㄱㅏㄴㅊㅓㅂ	-7230
ㅈㅣㅁㅗㄹ	-7231
▁ㅇㅜㅇㅜㄹ	-7232
▁ㅈㅡㄹㄱㅓㅇ	-7233
ㅇㅏㅁㅓㄱㄱㅗ	-7234
▁ㅎㅏㄴㅅㅏㄹㅏㅁ	-7235
ㅂㅐㄱㅏ	-7236
ㅂㅗㅇㅣㄴㅡㄴ	-7237
▁ㅇㅣㄹㅎㅏㄱㅗ	-7238
▁ㄷㅏㅇㅜㄴ	-7239
▁ㅈㅓㄴㄱㅜㄱㅁㅣㄴ	-7240
▁ㅈㅗㅅㅓㄴㅅㅣㄷㅐ	-7241
▁ㄷㅡㅇㅈㅏㅇ	-7242
ㅏㄱㅡㄹ	-7243
ㅇㅣㄹㅏㅁㅕ	-7244
▁ㄴㅗㅂㅔㄹ	-7245
ㅊㅜㄹㅇㅕㄴ	-7246
▁ㅇㅔㄴㅓㅈㅣ	-7247
▁ㄱㅕㅇㄱㅣㄷㅗ	-7248
▁ㅅㅣㄴㄱㅕㅇㅆㅡ	-7249
ㅁㅏㄴㄷㅡㄴㅡㄴ	-7250
▁ㅂㅏㄹㅏㄴㅡㄴ	-7251
ㅜㅅㅓㅇ	-7252
▁ㅍㅗㄹ	-7253
ㅊㅡㅇㅇㅣ	-7254
ㅇㅣㄴㅊㅓㄱ	-7255
▁ㅈㅜㅇㅇㅏㅇ	-7256
▁ㅅㅗㄴㅅㅓㄱㅎㅢ	-7257
▁ㅇㅏㄴㅎㅏㅁ	-7258
ㄱㅓㅅㅇㅣㄱㅗ	-7259
▁ㅇㅣㄴㅅㅏ	-7260
ㅈㅣㄱㅏㄴ	-7261
ㅁㅓㄱㅇㅡㄴ	-7262
?)	-7263
ㅇㅐㅇㅑ	-7264
ㄹㅕㄱㄷㅗ	-7265
▁ㅅㅓㅇㅇㅣㄴ	-7266
▁ㅈㅏㅈㅔ	-7267
ㄷㅐㅂㅣ	-7268
ㅅㅏㅇㄱㅘㄴ	-7269
▁ㄲㅓㅈㅕ	-7270
▁ㅈㅗㅇㅕㅇ	-7271
▁ㄱㅗㅇㅕㅇㅌㅐ	-7272
▁ㄱㅐㄷㅙ	-7273
~~!!	-7274
ㅂㅐㄹㅗ	-7275
ㄷㅡㄹㄹㅗ	-7276
▁ㅅㅣㅍㅇㅡㄴㄷㅔ	-7277
▁ㅇㅏㅈㅐ	-7278
ㅇㅣㄹㅏㄴㄱㅔ	-7279
▁ㄱㅓㄴㅈㅣ	-7280
▁ㅇㅕㄹㅇㅐ	-7281
▁ㅈㅜㄱㄱㅗ	-7282
▁ㄷㅏㄹㄹㅣ	-7283
▁ㅂㅏㄴㄷㅗ	-7284
ㄱㅡㅁㅇㅡㄹ	-7285
▁ㅇㅣㄴㅎㅏㄴ	-7286
ㅂㅏㅇㅇㅣ	-7287
ㅂㅜㅇㅔ	-7288
ㅕㅆㅇㅡㄹ	-7289
▁ㅎㅐㅇㅂㅗㄱㅎㅏㅅㅔㅇㅛ	-7290
ㅅㅜㅎㅏㄱㅗ	-7291
▁ㅈㅓㅇㅅㅣㄴㄴㅏㄱㅏㄴ	-7292
ㅌㅡㄴㅏㅁ	-7293
ㅂㅏㄷㅇㅏㅇㅑ	-7294
▁ㅅㅡㅇㄹㅣ	-7295
▁ㅇㅢㅁㅣㄱㅏ	-7296
ㅂㅓㄹㄹㅔ	-7297
ㄷㄷㄷㄷ	-7298
ㄸㅗㅎㅏㄴ	-7299
ㅅㅣㄱㅡㅂ	-7300
▁ㅁㅏㄹㅇㅣㅇㅑ	-7301
▁ㄷㅡㄹㅇㅓㄱㅏㄹ	-7302
ㅌㅇㅔ	-7303
▁ㅎㅣㅂ	-7304
ㅈㅏㄲㅜ	-7305
ㄱㅔㅅㄷㅏ	-7306
▁ㄴㅏㄹㄹㅕ	-7307
▁ㅎㅕㅁㅇㅢ	-7308
ㅁㅏㄴㅇㅝㄴㅉㅏㄹㅣ	-7309
▁ㅅㅏㅅㅏㅇ	-7310
▁ㅈㅜㅂㅕㄴㅇㅔ	-7311
▁ㅁㅏㄴㄴㅏㄴ	-7312
▁ㅈㅓㄴㄷㅜㅎㅘㄴ	-7313
ㄷㅗㅇㅇㅝㄴ	-7314
▁ㅎㅣㅁㄷㅡㄹㄱㅗ	-7315
▁ㄷㅓㄹㅓㅂ	-7316
▁ㄱㅏㅇㅈㅔㄹㅗ	-7317
ㄸㅏㅁ	-7318
▁ㅅㅗㄹㅣㄱㅏ	-7319
▁ㄸㅏㄱㅎㅣ	-7320
▁ㅇㅜㅅㅡㅇ	-7321
▁ㄴㅡㅈㄱㅔ	-7322
▁ㅍㅜㅁㅈㅣㄹ	-7323
ㄱㅕㄹㄱㅘ	-7324
▁99	-7325
▁ㅂㅏㄱㅌㅗㅇ	-7326
▁ㅅㅏㅎㅚㅈㅓㄱ	-7327
▁ㅂㅏㄹㅡㄴ	-7328
▁ㅁㅗㅅㄷㅚㄴ	-7329
▁ㅎㅏㄹㅜㅇㅔ	-7330
▁ㄱㅓㅅㅇㅣㅂㄴㅣㄷㅏ	-7331
▁ㅇㅓㄸㅐ	-7332
▁ㄱㅏㄱㅕㄱㅇㅡㄹ	-7333
~?	-7334
▁ㄱㅓㄹㄹㅗ	-7335
ㅂㅣㅁ	-7336
▁ㅇㅗㅈㅜㄱ	-7337
▁ㅇㅣㄱㅣㄹ	-7338
▁ㅂㅜㅎㅘㄹ	-7339
▁ㅎㅕㅇㄴㅣㅁ	-7340
▁ㅈㅜㄹㅇㅣㄱㅗ	-7341
▁ㅇㅣㄹㅂㅗㄴㅇㅢ	-7342
▁ㅈㅏㄹㅎㅏㄴ	-7343
ㄱㅗㄷㅗ	-7344
ㅌㅐㅇㅜㅇ	-7345
▁ㅁㅏㅇㅎㅏㄴ	-7346
▁ㅇㅗㄹㅡㄱㅗ	-7347
▁ㅇㅝㄴㄴㅏㅇㅣㅅ	-7348
▁ㅇㅏㄴㄷㅚㄴㅡㄴㄷㅔ	-7349
▁ㄷㅗㅇㅇㅝㄴ	-7350
▁ㄱㅕㄹㅎㅗㄴㅇㅡㄴ	-7351
▁ㅁㅔㅁ	-7352
ㅆㅏㄱ	-7353
ㅂㅏㅇㅣ	-7354
ㅅㅣㅅㅓㄹ	-7355
ㅅㅗㄱㅇㅔㅅㅓ	-7356
▁ㅇㅏㄶㅅㅡㅂㄴㅣㄷㅏ	-7357
▁ㄱㅐㄹㄴㅗㅌㅡ	-7358
ㄷㅟㅇㅔ	-7359
ㅋㅣㄹㅗ	-7360
▁ㅇㅣㅇㅠㄹㅡㄹ	-7361
▁ㅂㅏㄲㅜㄴ	-7362
ㅇㅕㄷㅗ	-7363
▁ㄴㅏㄹㅏㄴㅑ	-7364
▁ㅈㅜㄱㅇㅣㄱㅗ	-7365
▁ㅇㅗㄹㅡㄴㅡㄴ	-7366
ㅅㅡㅁㅏ	-7367
▁ㄱㅣㅁㅅㅜ	-7368
ㅇㅒㄱㅣ	-7369
▁ㅅㅣㄱㅇㅡㄹㅗ	-7370
▁ㄱㅓㅅㅊㅓㄹㅓㅁ	-7371
▁ㅌㅏㄹㅌㅚ	-7372
▁ㄱㅣㄷㅏㄹㅣㄱㅗ	-7373
▁ㄷㅐㄱㅣㅇㅓㅂㅇㅣ	-7374
▁ㅆㅡㅂ	-7375
ㅁㅏㄹㄷㅗ	-7376
ㅁㅏㄹㅡㄹ	-7377
▁ㅂㅡㄹㅐㄴㄷㅡ	-7378
ㄱㅣㄸㅐㅁㅜㄴㅇㅔ	-7379
ㅈㅔㅈㅏㄱ	-7380
ㄱㅏㅈㅣㄴ	-7381
▁ㅈㅗㅅㅓㄴㅇㅓㅂ	-7382
ㄱㅏㅅ	-7383
▁ㅈㅏㅁㅅㅣ	-7384
ㅂㅐㄴㅡㄴ	-7385
▁ㅁㅏㄸㅏㅇ	-7386
▁ㅂㅏㅇㅅㅏㄴ	-7387
▁ㅎㅕㄴㄷㅐㅊㅏ	-7388
▁ㄴㅐㄹㅕㄱ	-7389
▁ㅁㅗㅅㅎㅏㅁ	-7390
ㅎㅐㅈㅜㅁㅕㄴ	-7391
▁ㅁㅓㄱㅇㅓ	-7392
ㅃㅏㄹㄱㅐㅇ	-7393
ㅎㅣㅁㄷㅡㄴ	-7394
ㅇㅣㅂㅈㅏㅇ	-7395
▁ㅊㅏㄹㅣ	-7396
▁ㅈㅓㄹㅓㄴㄱㅓ	-7397
▁ㄴㅏㅇㅘㅇㅑ	-7398
▁ㅅㅣㅊㅓㅇㄹㅠㄹㅇㅣ	-7399
▁ㄷㅏㄱㅏㅌㅇㅣ	-7400
ㅓㄴㄷㅏ	-7401
▁ㅅㅔㄹㅕㄱ	-7402
▁ㄴㅏㅁㅈㅏㄷㅡㄹㅇㅡㄴ	-7403
ㅎㅏㅈㅏㄶㅇㅏ	-7404
▁ㅇㅔㅇㅓㅋㅗㄴ	-7405
▁ㅇㅓㄹㅡ	-7406
▁ㅋㅙ	-7407
▁ㄴㅡㄲㅣㄴㅡㄴ	-7408
▁ㅁㅏㅋㅔㅌㅣㅇ	-7409
▁ㄱㅡㄴㅗㅁㅇㅢ	-7410
▁ㅈㅓㅇㅂㅗ	-7411
▁ㅅㅓㅇㄱㅘㄴㄱㅖ	-7412
ㅁㅏㄴㅑㅇ	-7413
▁ㅅㅏㅁㄱㅏ	-7414
▁ㄱㅣㅃ	-7415
ㄴㅐㅇㅛㅇ	-7416
▁ㄱㅗㅇㅇㅕㄴ	-7417
ㄱㅘㄴㄱㅘㅇ	-7418
▁ㅅㅏㅇㅣㅂㅣ	-7419
▁ㅆㅡㄴㅡㄴㄷㅔ	-7420
ㅠㅂㅡ	-7421
▁ㄴㅏㅇㅢ	-7422
▁ㅇㅓㄱㅈㅣ	-7423
▁ㅅㅣㄷㅐㅇㅔ	-7424
▁ㅅㅓㅇㄱㅘㅇㅕㄴㅂㅗㅇ	-7425
▁ㄱㅓㄹㅐ	-7426
▁ㅁㅣㄱㅜㄱㅇㅢ	-7427
ㅈㅜㄴㅑ	-7428
▁ㅌㅓㅈㅣㄹ	-7429
▁ㄲㅡㄹㅇㅓㄴㅐ	-7430
▁ㅇㅓㄷㅇㅓ	-7431
▁ㅈㅏㄹㅅㅐㅇㄱㅣㄴ	-7432
ㄷㅗㄹㅇㅣ	-7433
▁ㅈㅣㄷㅡㄹㅇㅡㄴ	-7434
ㅅㅓㅇㅔ	-7435
▁ㄱㅏㄴㅡㅇㅅㅓㅇㅇㅣ	-7436
▁ㅅㅏㅅㅣㄹㅇㅣ	-7437
▁ㅅㅡㅋㅔ	-7438
ㅂㅜㄴㅏ	-7439
▁kbs	-7440
▁ㅊㅏㄹㅡㄹ	-7441
ㄹㅓㄹ	-7442
▁ㄸㅐㄱㅏ	-7443
ㅈㅓㄴㅇㅡㄴ	-7444
▁ㅎㅏㄹㅇㅣㄹ	-7445
ㄱㅓㅍㅜㅁ	-7446
ㄱㅏㄴㅑ	-7447
ㄷㅐㄱㅏㄹㅣㄷㅡㄹ	-7448
ㅂㅐㅊㅣ	-7449
ㅏㄱㅎㅏㄴ	-7450
ㄹㅐㄱ	-7451
▁ㅎㅕㄴㅅㅣㄹㅇㅡㄴ	-7452
▁ㄷㅟㄹㅗ	-7453
▁ㅁㅜㅅㅣㅎㅏㄱㅗ	-7454
▁ㄴㅜㄱㅜㄹㅡㄹ	-7455
▁ㅇㅖㅇㅑㄱ	-7456
▁ㄱㅗㄷㅡㅇㅇㅓ	-7457
ㅎㅐㅆㅇㅓㅆㄴㅡㄴㄷㅔ	-7458
▁ㅌㅗㅇㅛ	-7459
▁ㄷㅗㄴㅇㅔ	-7460
be	-7461
ㅂㅜㄴㅇㅢ	-7462
ㄴㅕㄴㄷㅡㄹ	-7463
▁ㅈㅣㄴㅎㅘ	-7464
ㄲㅏㅈㅣㄷㅗ	-7465
▁ㅊㅓㄹㅈㅓ	-7466
▁ㅈㅓㅇㅊㅣㄱㅝㄴ	-7467
ㄹㅣㄴㅡㄴㄱㅔ	-7468
▁ㅈㅐㅁㅣㅇㅓㅄ	-7469
ㅏㅁㅣ	-7470
ㄱㅜㅈㅗ	-7471
▁ㅎㅣㅌㅡ	-7472
▁ㅅㅗㅅㅣㄱ	-7473
▁IM	-7474
ㅇㅔㄱ	-7475
▁ㅇㅗㄹㅗㅈㅣ	-7476
▁ㅅㅏㅇㅊㅓ	-7477
8%	-7478
▁ㄴㅐㅂㅗㄴㅐ	-7479
▁ㄱㅡㅈㅓㅇㄷㅗ	-7480
▁ㅌㅜㅇ	-7481
▁ㄴㅓㅁㅊㅕㄴ	-7482
ㅁㅏㄴㅇㅝㄴㅇㅣ	-7483
▁ㄴㅏㄱㅏㄴㅡㄴ	-7484
▁ㅈㅓㅇㄱㅕㅇㅇㅠㅊㅏㄱ	-7485
ㅈㅓㅇㅎㅏㄱㅗ	-7486
▁ㅈㅓㅇㅅㅏㅇㅈㅓㄱㅇㅣㄴ	-7487
ㅇㅗㄴㅡㄴ	-7488
▁ㅈㅣㅅㅗㄱ	-7489
▁ㅇㅓㅄㅇㅓㅆ	-7490
ㅈㅜㅇㅅㅣㅁ	-7491
ㅔㄱ	-7492
▁ㅇㅗㄹㅐㄴㅁㅏㄴㅇㅔ	-7493
▁ㅅㅗㄹㅣㄹㅡㄹ	-7494
ㅈㅏㅇㅅㅏ	-7495
▁ㅇㅕㅂㅐㅇㅜ	-7496
▁ㅅㅔㅅ	-7497
▁ㅈㅏㄹㄴㅏㄴ	-7498
ㅅㅞ	-7499
▁ㄲㅗㅂ	-7500
▁ㄴㅏㅁㄴㅡㄴ	-7501
▁ㄱㅕㅇㅇㅜㄱㅏ	-7502
ㅋㅣㅁ	-7503
▁ㅅㅣㅋㅣㄴ	-7504
▁ㄲㅡㅌㄴㅏㄱㅗ	-7505
▁ㅋㅋㅋㅋㅋㅋㅋㅋㅋㅋㅋ	-7506
ㅏㅈㅓㄴㅏ	-7507
▁ㅇㅏㅈㅓㅆㅣ	-7508
▁ㄴㅏㅇㅗㄴㅔ	-7509
▁ㅎㅏㄱㅗㅅㅣㅍ	-7510
▁ㅈㅏㅁㅅㅜㅎㅏㅁ	-7511
▁ㅅㅔㅈㅗㅇ	-7512
ㅀㄱㅗ	-7513
▁ㅌㅡㄹㄹㅣㄴ	-7514
▁ㅇㅓㄷㅣㄹㅗ	-7515
ㅁㅏㄴㅇㅝㄴㅇㅔ	-7516
▁ㅅㅔㄱㅅㅣ	-7517
ㅛㅇㅠㄱ	-7518
ㄱㅏㅈㄱㅗ	-7519
ㅇㅣㄹㅂㅗ	-7520
ㅅㅏㄹㅏ	-7521
▁ㅁㅝㄱㅗ	-7522
▁ㄷㅐㅂㅗㄴ	-7523
▁ㄱㅗㅇㅈㅣㄱ	-7524
▁ㄱㅛㅅㅜ	-7525
ㅅㅡㅋㅡㄹ	-7526
▁ㅁㅓㄹㄹㅣ	-7527
▁ㅌㅚㄱㅡㄴ	-7528
▁ㅎㅕㄴㄱㅣㅊㅏ	-7529
ㅌㅞ	-7530
ㅂㅓㄹㅇㅣ	-7531
▁ㅈㅗㄹㅇㅓㅂ	-7532
▁ㅋㅓㅁㅍㅠㅌㅓ	-7533
ㅅㅣㅋㅕㅅㅓ	-7534
▁ㅇㅜㄴㅎㅐㅇ	-7535
▁ㅆㅏㄱㄷㅏ	-7536
▁ㄱㅜㄱㅈㅓㅇㅇㅝㄴ	-7537
ㅇㅓㄱㅆㅣㄱ	-7538
▁ㄲㅗㄹㅂㅗㄱㅣ	-7539
▁ㅇㅡㄴㅌㅚ	-7540
▁ㅈㅜㅇㅟ	-7541
▁ㅅㅏㅁㅅㅓㅇㅇㅢ	-7542
▁ㅇㅣㅁㅊㅏㅇ	-7543
ㅇㅣㄱㅜㅁㅏㄴ	-7544
▁ㅇㅣㄹㅓㄴㄱㅣㅅㅏ	-7545
ㄱㅏㅌㅇㅡㅁㅕㄴ	-7546
▁ㅅㅓㅅㅓ	-7547
ㄱㅜㄱㅇㅢ	-7548
▁ㅇㅣㄴㅎㅏ	-7549
▁ㄱㅏㅇㅎㅏㄴ	-7550
▁ㅁㅜㄱㅐㄴㅕㅁ	-7551
ㅍㅗㅁ	-7552
▁ㅈㅔㅅㅣ	-7553
▁ㄷㅜㄹㅕㅇ	-7554
▁ㅁㅣㄹㅐㄹㅡㄹ	-7555
ㄷㅗㄹㅇㅏㄱ	-7556
▁ㅇㅣㅆㄱㅔㅆㅈㅣ	-7557
▁ㅇㅏㄴㅅㅏ	-7558
ㅎㅏㄷㅓㅁㅏㄴ	-7559
▁ㅈㅣㄱㅡㅁㅇㅣ	-7560
▁ㅇㅏㄴㅌ	-7561
▁ㅂㅜㄴㅇㅑ	-7562
▁ㅇㅣㄴㅈㅣㄷㅗ	-7563
▁ㄴㅐㅁㅕㄴ	-7564
ㅂㅜㄷㅗ	-7565
▁ㅅㅗㄱㄷㅗ	-7566
▁ㄱㅣㅁㅎㅐㄱㅗㅇㅎㅏㅇ	-7567
ㄴㅏㄹㅏㅇㅔ	-7568
▁ㅇㅐㄹㅡㄹ	-7569
▁ㅈㅓㅇㅇㅡㄴ	-7570
▁ㄱㅜㄱㄱㅏㅇㅢ	-7571
▁ㄱㅗㅅㅇㅣ	-7572
ㄱㅓㅇㅏㄴㅑ	-7573
ㄷㅡㅅㅎㅏㄴ	-7574
▁ㅁㅜㄷㅗㄴㅡㄴ	-7575
▁ㅉㅣㄱㄱㅗ	-7576
ㅈㅓㅁㅇㅔㅅㅓ	-7577
ㄷㅡㄹㅇㅣㅇㅑ	-7578
ㄷㅠ	-7579
▁ㅎㅏㄴㄱㅜㄱㅇㅕ	-7580
ㅈㅓㄹㅐ	-7581
▁ㅂㅐㅊㅣ	-7582
ㄴㅐㅇㅛ	-7583
ㄱㅏㅇㅑ	-7584
ㅇㅡㄴㅅㅜㄱ	-7585
ㅆㅓㄹㅏ	-7586
ㅂㅕ	-7587
▁ㅊㅕㄷㅏ	-7588
▁ㄴㅗㅇㅁㅣㄴ	-7589
od	-7590
▁ㄱㅓㄴㄱㅏ	-7591
▁ㅎㅏㄹㅁㅓㄴㅣ	-7592
ㄸㅗㄹ	-7593
ㅇㅓㅂㅘㄹㅏ	-7594
▁ㅇㅔㄴㄷㅣㅇ	-7595
▁ㅎㅏㄴㄱㅕㄹ	-7596
▁ㄱㅕㅇㅈㅔㄹㅡㄹ	-7597
▁ㅁㅏㅇㅡㅁㅇㅔ	-7598
ㄷㅚㅇㅑ	-7599
▁ㄱㅕㄹㅎㅗㄴㅇㅡㄹ	-7600
ㅇㅣㄹㅅㅔ	-7601
▁ㅉㅏㅈㅡㅇㄴㅏㄴㄷㅏ	-7602
▁ㄷㅏㅇㅅㅏ	-7603
▁ㅆㅣㅂㅜㄹ	-7604
▁ㅇㅏㄴㅂㅘ	-7605
▁ㅇㅏㄴㄴㅕㅇ	-7606
ㄱㅖㄹㅏㄴ	-7607
▁ㅇㅓㅁㅊㅓㅇㄴㅏㄱㅔ	-7608
ㄷㅡㄹㅇㅕ	-7609
ㅊㅓㅂㅜㄴ	-7610
ㄱㅕㅇㅇㅕㅇ	-7611
ㄴㅗㅁㅇㅡㄴ	-7612
ㅎㅏㅂㄴㅣㄲㅏ	-7613
▁ㅅㅣㅍㄴㅔㅇㅛ	-7614
▁sm	-7615
▁ㅅㅣㄱㅣ	-7616
▁ㄱㅜㄱㄱㅏㄹㅡㄹ	-7617
▁ㄱㅣㄷㅗㄱㄱㅛ	-7618
ㄱㅣㄴㄷㅏ	-7619
ㅅㄷㅔ	-7620
▁ㅇㅣㄸㅐ	-7621
▁ㄷㅚㅇㅓㅆ	-7622
▁ㅇㅏㄴㅌㅣ	-7623
▁ㅅㅣㅍㅇㅓㅅㅓ	-7624
▁ㅅㅐㅇㄱㅏㄱㅎㅐㅆㄴㅡㄴㄷㅔ	-7625
▁ㅎㅜㅁ	-7626
ㄹㅡㅇ	-7627
▁ㄱㅜㄱㄱㅏㅇㅔㅅㅓ	-7628
▁ㅇㅓㅉㅓㅁ	-7629
▁ㅌㅚㅈㅣㄴ	-7630
▁ㅇㅏㅂㅂㅏㄱ	-7631
ㄱㅣㅎㅏㄴ	-7632
▁ㅂㅜㄴㄷㅡㄹㅇㅡㄴ	-7633
ㄱㅑㅇ	-7634
ㅁㅛ	-7635
ㅋㅓㅂ	-7636
▁ㅂㅡㄹㄹㅐㄱㄹㅣㅅㅡㅌㅡ	-7637
▁ㅊㅜㅅㅓㄱ	-7638
▁ㅂㅘㅇㅑㅈㅣ	-7639
▁ㄷㅏㄹㅇㅢ	-7640
ㅌㅜㅈㅏ	-7641
▁ㅃㅏㅈㅕㄴ	-7642
▁ㅌㅓㅈㅣㄴ	-7643
ㅡㅍ	-7644
▁ㅇㅛㄱㅎㅏㄹ	-7645
ㅇㅕㄱㅣ	-7646
ㄷㅗㅇㅓㅄㄱㅗ	-7647
ㅇㅗㄴㄷㅏ	-7648
▁ㅅㅏㅈㅓㄴ	-7649
▁ㅇㅠㅈㅓㅇ	-7650
ㅈㅣㅁㅝ	-7651
ㅇㅏㄴㅗㅎㄱㅗ	-7652
▁ㅇㅏㄴㅈㅗㅎㅇㅏ	-7653
ㅓㄷㅡㄴ	-7654
ㅅㅓㅇㅈㅏㅇ	-7655
▁ㄸㅏㄹㅏㅅㅓ	-7656
▁ㅇㅏㄴㄱㅏㄴㄷㅏ	-7657
▁ㄸㅜㅇ	-7658
▁ㅁㅕㅊㅁㅕㅇ	-7659
▁ㄴㅓㅎㅇㅓ	-7660
▁ㅇㅏㄴㅁㅣㄷ	-7661
ㄲㅓㅂ	-7662
ㄴㅏㅇㅗㄹ	-7663
▁ㅎㅘㄱㄹㅠㄹ	-7664
▁ㄱㅣㅁㄱㅜㄹㅏ	-7665
▁ㅇㅜㄱㅕㄹ	-7666
▁ㄷㅓㅂㅡㄹ	-7667
▁ㄷㅐㅊㅓ	-7668
ㅐㄴㅑ	-7669
▁ㄱㅣㅅㅏㄹㅗ	-7670
▁ㅈㅏㄱㅡㅁ	-7671
▁ㄱㅡㅁㅏㄴㅎㅏㄱㅗ	-7672
▁ㅇㅣㅁㅣㅈㅣㄱㅏ	-7673
▁ㅂㅐㄱㅏ	-7674
▁ㅂㅣㅇㅘ	-7675
▁ㅇㅝㄹㄱㅡㅂㅇㅡㄴ	-7676
▁ㄱㅣㄷㅗ	-7677
▁ㅇㅓㅂㅓㅇㅣ	-7678
▁ㅊㅚㄱㅗㅇ	-7679
ㅈㅓㅁㅇㅔ	-7680
▁ㄱㅏㅈㅕㅇ	-7681
▁ㅅㅣㄴㅅㅏㅇ	-7682
...........	-7683
ㅇㅣㅆㄴㅡㄴㄱㅓ	-7684
ㄷㅓㅇㅜㄱ	-7685
▁ㅈㅏㄹㅎㅐㅆㄷㅏ	-7686
▁ㄷㅟㅅㄷㅗㄴ	-7687
▁ㅈㅣㅋㅗ	-7688
ㅕㅇㅎㅘ	-7689
ㄱㅏㅌㄴㅔ	-7690
▁ㅇㅕㄱㅣㄴ	-7691
▁ㄱㅡㄹㅓㄴㅈㅣ	-7692
▁ㅂㅜㄹㅁㅐ	-7693
▁ㅅㅡㄹㅍㅡㄴ	-7694
ㄷㅚㄴㅔㅇㅛ	-7695
ㄷㅏㄴㅇㅡㄹ	-7696
ㅌㅡㅇ	-7697
▁ㅅㅏㅎㅚㄱㅏ	-7698
300	-7699
▁ㄴㅡㄱㅡ	-7700
▁ㄷㅓㅇㅝㅅㅓ	-7701
ㅁㅜㄷㅗ	-7702
▁ㅎㅡㅇㅎㅐㅇ	-7703
▁ㄱㅣㅅㅐㅇ	-7704
▁ㄷㅏㄹㄱㅑㄹ	-7705
ㅇㅕㄴㅎㅣ	-7706
▁ㅎㅘㅅㅌㅣㅇ	-7707
▁ㅇㅖㄱㅗ	-7708
▁ㅎㅗㅌㅔㄹ	-7709
ㅍㅗㄴㅇㅡㄴ	-7710
▁ㅅㅔㄹ	-7711
ㄴㅣㄷㅡㄹ	-7712
▁ㅇㅜㅅㄱㅕ	-7713
ㅂㅗㄱㅗㅅㅣㅍ	-7714
ㄷㅏㄹㅏㄱㅗ	-7715
▁ㅅㅓㅎ	-7716
▁ㄱㅜㅁㅓㅇ	-7717
ㅈㅜㄴㄷㅏㄱㅗ	-7718
▁ㄱㅓㄹㅣ	-7719
▁ㅅㅏㄻㅇㅡㄹ	-7720
ㅈㅐㄴㅡㄴ	-7721
▁ㅁㅏㅇㅅㅣㄴ	-7722
ㄹㅕㄴㅗㅎㄱㅗ	-7723
▁ㅅㅏㄹㅈㅣ	-7724
▁ㅎㅏㄴㅍㅕㄴ	-7725
ㄴㅏㅈ	-7726
ㅂㅜㅌㅓㄱㅏ	-7727
▁ㄱㅏㅁㄷㅏㅇ	-7728
ㅎㅏㅇㅅㅏㅇ	-7729
▁ㅇㅢㄹㅛ	-7730
~2	-7731
▁ㅂㅗㅇㅣㅁ	-7732
ㅈㅣㅂㄴㅣㄷㅏ	-7733
▁)	-7734
▁ㅊㅜㅂㅏㅇ	-7735
▁ㅁㅜㄱㅣㅈㅣㅇㅇㅕㄱ	-7736
▁35	-7737
▁ㅈㅏㄴㅊㅣ	-7738
▁ㅈㅜㄱㅇㅓ	-7739
▁ㅇㅗㄹㄹㅕㅅㅓ	-7740
▁ㄱㅚㅇㅈㅏㅇㅎㅣ	-7741
▁ㅎㅏㅅㅣㄴ	-7742
▁ㄱㅡㄷㅡㄹㅇㅢ	-7743
▁ㅍㅜㄴ	-7744
▁ㅅㅓㅇㅑㅇ	-7745
▁ㅂㅗㄴㅔ	-7746
ㄱㅓㅈㅣㅅ	-7747
▁ㅎㅐㅇㅚㄹㅗ	-7748
ㅇㅔㅇㅓ	-7749
ㅈㅐㄹㅡㄹ	-7750
▁ㄱㅡㄹㅐㅆ	-7751
▁ㅇㅣㅂㅇㅔ	-7752
▁ㅁㅗㄹㄹㅏㅅㅓ	-7753
▁ㅇㅏㄱㅈㅣㄹ	-7754
▁ㄷㅐㅅㅔ	-7755
ㅎㅏㄹㄲㅔㅇㅛ	-7756
▁ㄱㅜㄱㅕㅇ	-7757
▁ㅇㅖㅈㅓㅇ	-7758
▁ㅊㅚㄱㅗㄷㅏ	-7759
▁ㅈㅣㅈ	-7760
ㅃㅜㄴㅇㅣㄷㅏ	-7761
▁ㅎㅐㅇㅛ	-7762
▁ㄱㅣㄷㅏㄹㅣ	-7763
▁5000	-7764
▁ㄱㅐㄱㅡ	-7765
ㅇㅣㄷㅡㄹㅇㅏ	-7766
ㅈㅔㄷㅐㄹㅗ	-7767
ㅈㅜㄴㅔ	-7768
▁ㅇㅣㄹㅓㄱㅗ	-7769
▁ㅈㅣㄴㅉㅏㄹㅗ	-7770
▁ㅇㅏㄴㅣㅈㅏㄶㅇㅏ	-7771
▁ㄱㅓㅁㅈㅡㅇ	-7772
▁ㅅㅓㄹㄱㅖ	-7773
▁ㄷㅏㄷ	-7774
▁ㅈㅜㄹㅇㅓㄷㅡㄹ	-7775
▁ㅇㅕㅇㅎㅗㄴ	-7776
▁ㅌㅗㅇㅅㅣㄴㅅㅏ	-7777
ㅇㅔㅎㅠ	-7778
▁ㄱㅗㅁㅏㅂ	-7779
▁ㅇㅜㄹㅣㄴㅏㄹㅏㄷㅗ	-7780
▁ㄴㅗㄹㅇㅏㄴ	-7781
▁ㅇㅕㅈㅏㄷㅗ	-7782
ㄴㅗㅈㅐㅁ	-7783
ㄹㅕㅆㄷㅏ	-7784
ㄱㅓㄹㅣㄱㅗ	-7785
ㅎㅏㄷㅓㄴㄱㅏ	-7786
ㅜㅁㅏ	-7787
▁ㅈㅏㅅㅔ	-7788
ㄱㅓㅅㅇㅣㅁ	-7789
▁ㅎㅐㄱㅅㅣㅁ	-7790
▁ㅂㅐㅌㅓㄹ	-7791
▁ㅈㅓㅇㅎㅘㄱㅎㅣ	-7792
▁ㅇㅏㄴㄷㅚㄴㄷㅏㄱㅗ	-7793
▁ㄱㅟㅇㅕㅇㅝ	-7794
▁ㅅㅡㄴ	-7795
▁ㅌㅗㄹ	-7796
▁ㄱㅏㅅㅡ	-7797
▁ㅇㅏㄴㅁㅏ	-7798
ㅂㅏㅇㅂㅓㅂ	-7799
▁3.	-7800
▁ㅎㅐㅆㅈㅣ	-7801
▁ㄷㅗㄹㅇㅏㄱㅏㄴㅡㄴ	-7802
▁ㅁㅗㅅㅎㅐㅅㅓ	-7803
▁ㄷㅗㅇㄴㅏㅁㅇㅏ	-7804
▁ㅈㅏㅅ	-7805
▁ㅈㅓㄱㅈㅏ	-7806
▁ㅅㅏㄹㅏㅇㅎㅏㄴㅡㄴ	-7807
ㅇㅏㄴㅇㅣ	-7808
▁ㅂㅗㅇㅕㅈㅜ	-7809
▁ㅈㅜㅇㄱㅏㄴㅇㅔ	-7810
▁ㅂㅗㅇㅣㄹ	-7811
▁ㅁㅏㄴㄴㅏㅅㅓ	-7812
ㅇㅣㄴㄱㅓㅈㅣ	-7813
ㅇㅣㄴㄱㅏㄴㄷㅡㄹ	-7814
ㅣㅣ	-7815
ㅅㅣㄹㅏㄱ	-7816
▁ㅇㅕㄱㅣㅇㅔ	-7817
▁ㅈㅔㄷㅐㄹㅗㄷㅚㄴ	-7818
▁ㅋㅏㅍㅔ	-7819
▁ㄱㅐㅇㅣㅂ	-7820
▁ㅈㅣㄱㅡㅁㅇㅣㄹㅏㄷㅗ	-7821
ㅍㅓㅅㅔㄴ	-7822
▁ㄹㅔㅇㅣ	-7823
ㅇㅓㅊㅏㅍㅣ	-7824
▁ㅇㅣㅆㄷㅗㄹㅗㄱ	-7825
▁ㄴㅏㄹㅏㅁㅏㅇ	-7826
ㅁㅏㄴㄷㅡㄹㅇㅓ	-7827
▁ㅇㅙㅇㅣㄹㅓㅎㄱㅔ	-7828
ㅈㅜㅇㅇㅛ	-7829
▁ㅈㅣㅅㅏㅇ	-7830
ㅂㅜㅌㅓㄴ	-7831
▁ㅇㅣㄸㅏㅇㅟ	-7832
▁ㅎㅓㅅㅔ	-7833
▁ㅁㅏㄹㅎㅏㄴ	-7834
▁ㅁㅏㅇㅎㅏㅁㅕㄴ	-7835
ㅏㄴㅇㅣ	-7836
ㄷㅚㄴㅡㄴㄱㅔ	-7837
▁ㅂㅏㄱㄱㅡㄴㅎㅖㄹㅡㄹ	-7838
ㅌㅡㅂ	-7839
ㅋㅜㄱ	-7840
ㅊㅣㄴㅏ	-7841
▁ㅅㅣㄹㅣ	-7842
▁ㅇㅣㅂㄱㅜㄱ	-7843
▁ㅊㅏㅁㅅㅓㄱ	-7844
▁ㅌㅏㅇㅣㅁ	-7845
ㅎㅐㅇㄷㅗㅇ	-7846
▁ㅇㅣㅇ	-7847
▁ㅅㅗㅇㅛㅇ	-7848
▁ㅇㅣㅇㅣㄱㅇㅡㄹ	-7849
ㄹㅕㅁ	-7850
▁ㅅㅗㅇㅎㅖㄱㅛ	-7851
▁ㄷㅐㅂㅜㅂㅜㄴㅇㅣ	-7852
▁ㅂㅣㅈㅜㅇㅓㄹ	-7853
▁ㅈㅏㄹㅁㅗㅅㅇㅡㄹ	-7854
▁ㄷㅜㅅ	-7855
ㅇㅓㄹㅣㄴ	-7856
▁ㄷㅚㄴㅣ	-7857
▁ㅎㅜㅇㅔ	-7858
▁ㅅㅜㄴㅡㅇ	-7859
▁ㅇㅠㅇㅣㄹㅎㅏㄴ	-7860
▁ㅈㅏㄹㅅㅏㄴㅡㄴ	-7861
▁ㅈㅔㅅㅏ	-7862
ㄷㅙㅆ	-7863
▁ㅇㅕㄹㄷㅡㅇ	-7864
▁ㅇㅜㄹㅗㅇ	-7865
▁ㄷㅡㄷㄴㅡㄴ	-7866
▁ㄱㅡㄹㅇㅡㄹ	-7867
▁ㅈㅗㄱㅡㅁㅇㅣㄹㅏㄷㅗ	-7868
ㅈㅡㄹ	-7869
▁ㄴㅏㅈㅜㅇ	-7870
▁ㅌㅡㄱㄱㅓㅁㅇㅡㄴ	-7871
▁ㅂㅜㄴㅇㅣ	-7872
▁ㅅㅏㄹㅈㅏ	-7873
▁ㄱㅏㄱㅕㄱㅇㅡㄴ	-7874
ㄱㅓㅇㅏㄴㅣㄴㄱㅏ	-7875
▁ㄷㅐㅅㄱㅡㄹㅇㅔ	-7876
▁ㅇㅏㄴㅂㅗㄹ	-7877
▁ㅈㅗㅎㄱㅔㅆㄴㅔ	-7878
▁ㅈㅣㄴㅈㅣ	-7879
ㄹㅕㅇㅛ	-7880
ㅌㅓㄹㅡㄹ	-7881
▁ㅇㅝㄴㅈㅏㄱ	-7882
ㄱㅘㅇㄱㅗ	-7883
▁ㅈㅜㅈㅣ	-7884
▁ㄷㅡㄹㅏㅁㅏㄹㅡㄹ	-7885
▁ㅃㅕ	-7886
ㅋㅐㄴ	-7887
ㄱㅓㄱㅏㅌㅇㅡㅁ	-7888
ㄱㅜㅁㅓㅇ	-7889
▁ㅅㅏㄹㅉㅏㄱ	-7890
▁ㄷㅓㅂㅜㄹㅇㅓ	-7891
ㅎㅗㄴㅡㄴ	-7892
▁ㅈㅣㅂㅇㅣ	-7893
ㅌㅓㅅㅡ	-7894
ㅅㅣㄱㅏㄴㅇㅣ	-7895
ㅇㅝㄹㄱㅡㅂ	-7896
▁ㅇㅠㅇㅏ	-7897
▁ㅎㅡㅇㅎㅐㄹㅏ	-7898
▁ㅅㅏㄹㅏㅁㄷㅡㄹㅇㅡㄹ	-7899
▁ㅈㅗㅇㅕㄴ	-7900
▁ㅇㅕㅈㅏㄹㅡㄹ	-7901
▁ㅈㅣㅂㄱㅏㅄㅇㅣ	-7902
▁ㅅㅓㄴㄷㅗㅇㅈㅣㄹ	-7903
ㅈㅔㅁㅗㄱ	-7904
▁ㄷㅡㅇㄱㅗㄹ	-7905
ㅂㅜㄴㅇㅑㅇ	-7906
ㅗㅌㅡ	-7907
▁ㅎㅏㄴㄷㅏㅁㅕㄴ	-7908
▁ㅊㅓㅇㅅㅗ	-7909
▁ㄱㅣㄷㅏㄹㅣㄹ	-7910
▁ㅅㅐㅎㅐ	-7911
▁ㄷㅏㅇㅡㅁㅈㅜ	-7912
▁ㅅㅣㅁㄱㅏㄱㅎㅏㄴ	-7913
▁ㄷㅏㄺㄷㅐㄱㅏㄹㅣ	-7914
▁ㅌㅚㅈㅣㄱ	-7915
▁ㅌㅏㅇ	-7916
▁ㄹㅔㅈㅓㄴ	-7917
▁ㄷㅏㄹㅡㄴㄷㅔ	-7918
ㅅㅣㄱㅇㅢ	-7919
▁ㅈㅏㄹㅎㅐㅅㅓ	-7920
ㅈㅏㄷㅡㄹㅇㅔㄱㅔ	-7921
▁ㄷㅗㅈㅓㅎㅣ	-7922
it	-7923
ㅎㅗㅅㅓㄴ	-7924
ㅜㅌㅓ	-7925
▁ㄴㅐㄹㅕㄹㅏ	-7926
▁ㅅㅣㄴㅇㅣㄴ	-7927
▁ㅂㅓㄹㅣ	-7928
▁ㅊㅏㄱㅏ	-7929
▁ㅎㅏㄴㅏㄱㅏㅌㅇㅣ	-7930
▁ㅎㅓㄹㅣ	-7931
www	-7932
▁ㅇㅕㄴㅈㅏㅇ	-7933
▁ㅅㅏㄹㄹㅣㄹ	-7934
▁ㅇㅙㄱㅗㄱ	-7935
▁ㅇㅣㅆㄱㅣㄴ	-7936
ㅇㅛㅇㅇㅡㄹㅗ	-7937
▁ㅇㅓㅉㅓ	-7938
ㅃㅜㄴㅁㅏㄴ	-7939
▁ㄷㅐㅌㅗㅇㄹㅕㅇㄴㅣㅁ	-7940
▁ㅊㅚㅌㅐ	-7941
ㅎㅏㅈㅏㄴㅡㄴ	-7942
ㅂㅏㅂㅌㅗㅇ	-7943
ㄹㅜㅁ	-7944
ㄱㅔㅅㄴㅔ	-7945
ㅂㅏㄹㅇㅣ	-7946
▁ㅈㅣㄹㅌㅜ	-7947
▁ㅇㅣㅁㅗㅇㅑㅇ	-7948
▁ㄱㅗㅇㅅㅏㄴㅈㅜㅇㅢ	-7949
▁ㅂㅗㄷㅏㄱㅏ	-7950
ㅍㅡㅌ	-7951
▁ㅎㅏㄴㄷㅐ	-7952
ㅎㅏㄴㅡㄹㅏ	-7953
ㄹㅣㅇㅔ	-7954
▁ㄴㅏㅇㅣㅁ	-7955
ㅇㅓㅂㅓㄹㅣㄴ	-7956
▁ㄱㅡㄷㅡㄹㅇㅣ	-7957
▁ㄷㅡㅁ	-7958
ㄴㅏㄷㅏ	-7959
▁ㅁㅜㄴㅈㅔㄹㅡㄹ	-7960
▁ㄷㅏㄴㅣㄹ	-7961
▁ㅇㅓㅁㅁㅏㄱㅏ	-7962
ㅇㅏㅈㅣㄱㄷㅗ	-7963
▁ㅁㅏㄹㅇㅏㄹㅏ	-7964
▁ㅅㅔㅅㅏㅇㅇㅡㄹ	-7965
▁ㄱㅏㄴㅡㄴㄷㅔ	-7966
ㅡㄱㅣㄴ	-7967
▁ㄷㅗㅇㅇㅣㄹ	-7968
lo	-7969
ㄷㅚㄴㄱㅓ	-7970
ㅗㄹㄹㅏㅇ	-7971
ㅎㅐㅆㄷㅏㅁㅕㄴ	-7972
▁ㄱㅜㅅㅓㅇ	-7973
▁ㅂㅗㄱㅓㅁㅇㅣ	-7974
ㄹㅏㄴㅏ	-7975
▁ㅎㅕㅂㄹㅕㄱ	-7976
ㅅㅣㄴㄱㅗ	-7977
▁ㅇㅕㄹㅇㅣㄹ	-7978
ㅇㅛㅇㅇㅣ	-7979
▁ㅈㅡㅇㄱㅓㄱㅏ	-7980
ㄱㅏㅄㅇㅔ	-7981
ㅅㅜㄴㅣㅁ	-7982
▁ㄱㅣㅁㅎㅢ	-7983
▁ㄴㅏㄹㅏㄷㅏ	-7984
▁ㅁㅏㄹㅎㅏㄱㅗ	-7985
ㄷㅣㅇㅓㄴ	-7986
▁ㄱㅓㅁㅊㅏㄹㅇㅣ	-7987
▁ㅇㅢㅇㅚ	-7988
▁ㅁㅗㄹㄹㅐ	-7989
▁ㄷㅗㅅㅓ	-7990
▁ㅂㅜㄹㄹㅣ	-7991
▁ㅇㅓㅂㅁㅜ	-7992
ㄱㅓㄷㅡㄴㅇㅛ	-7993
ㅈㅏㄹㅛ	-7994
▁ㅈㅣㄴㅅㅏㅇ	-7995
▁ㄹㅓㅂ	-7996
▁ㄱㅐㄴㅏㅅㅗㄴㅏ	-7997
▁ㅂㅜㄹㄱㅜㅎㅏㄱㅗ	-7998
ㅁㅜㄹㅡㄹ	-7999
▁ㅇㅗㄱㅡㄹ	-8000
▁ㅈㅜㅇㄷㅏㄴ	-8001
▁ㄱㅏㄱㅘㄴ	-8002
ㅎㅏㄱㅔㅆㄴㅑ	-8003
ㄱㅕㅇㅜㄹ	-8004
▁ㅅㅔㅇㅝ	-8005
▁ㅇㅗㅂㅏ	-8006
ㄱㅔㅆㅅㅡㅂㄴㅣㄲㅏ	-8007
▁ㄴㅔㅇㅣㅂ	-8008
▁ㅇㅣㅂㅜㄴ	-8009
▁ㅁㅏㅇㅎㅐㄹㅏ	-8010
ㅂㅐㅇㅜㄴ	-8011
ㅈㅜㄴㅡㄴㄱㅔ	-8012
ㄷㅡㄹㄱㅏㅂ	-8013
▁ㅁㅏㄹㅇㅏㅇㅑ	-8014
▁ㄷㄷㄷ	-8015
▁ㅍㅏㅇㅣㅌㅣㅇ	-8016
ㅍㅏㄴㅁㅐ	-8017
▁ㅇㅣㄹㅅㅏㅇ	-8018
ㅅㅐㅇㅅㅏㄴ	-8019
ㅠㅜ	-8020
ㅁㅜㄹㄱㅗ	-8021
ve	-8022
▁ㅂㅏㄲㅝㄹㅏ	-8023
▁ㅋㅓㅂ	-8024
▁ㅈㅓㅅㅗㄷㅡㄱ	-8025
!!!!!!!!!!!!!!!!	-8026
▁ㅇㅏㄴㄴㅏ	-8027
▁ㅁㅕㅊㅣㄹ	-8028
ㅇㅏㅁㅜㄹㅣ	-8029
▁ㅈㅜㄱㅇㅡㄹㄸㅐ	-8030
ㅇㅓㅄㅇㅡㄴㅣ	-8031
ㄹㅗㄹ	-8032
▁26	-8033
▁ㄱㅡㄹㅣㄴ	-8034
▁ㅎㅘㄴㅇㅕㅇ	-8035
▁ㄴㅏㅇㅘㅆㅇㅡㅁㅕㄴ	-8036
ㅎㅗㄹㅡㄹ	-8037
▁ㅇㅘㅇㅣㅈㅣ	-8038
▁ㄱㅓㅅㅇㅣㄱㅗ	-8039
▁ㅅㅣㄱㅁㅣㄴ	-8040
▁ㅎㅏㅈㅣㅇㅏㄶ	-8041
▁ㅇㅣㄹㅇㅣㄷㅏ	-8042
▁ㅇㅏㄱㅁㅏ	-8043
ㅇㅡㄹㄹㅕㄱㅗ	-8044
▁ㅋㅐㅁ	-8045
▁ㄱㅡㅁㅏㄴㅈㅗㅁ	-8046
▁ㅇㅖㅃㅡㄱㅗ	-8047
ㅇㅓㄸㅓㄴ	-8048
▁ㅎㅟㄷㅜㄹ	-8049
ㅇㅏㅇㅗㄴ	-8050
ㅇㅝㅅㅓ	-8051
▁ㅅㅏㄱㅔ	-8052
▁ㅅㅏㄹㅏㅇㅎㅐ	-8053
ㅊㅜㄹㅅㅏㄴ	-8054
▁ㅌㅡㄱㅈㅓㅇ	-8055
▁ㅂㅓㅂㅇㅣㄴㅅㅔ	-8056
ㅅㄱㅗ	-8057
▁ㅅㅡㅌㅣㅂ	-8058
▁ㅇㅣㅁㅇㅝㄴ	-8059
▁ㄱㅗㅁㅜㄴ	-8060
ㄱㅕㄹㅏ	-8061
▁ㄱㅗㄹㅍㅡ	-8062
▁ㅎㅏㄹㅏ	-8063
▁ㅇㅕㅇㅇㅜㅇ	-8064
▁ㅇㅏㄴㅐ	-8065
ㄷㅗㄷㅐㅊㅔ	-8066
▁ㅈㅐㅁㅣㄱㅏ	-8067
ㅎㅐㅆㄷㅏㄱㅏ	-8068
ㄱㅣㄹㅏㅇ	-8069
ㄷㅗㅇㅁㅜㄹ	-8070
▁ㅇㅏㅅㅟㅇㅝ	-8071
▁ㄷㅔㄴ	-8072
ㅇㅐㄱㅏ	-8073
ㄴㅑㄱㅗ	-8074
ㅎㅏㄴㅊㅓㄱ	-8075
▁ㅅㅐㅇㄱㅣㄹ	-8076
▁ㅊㅓㅇㅅㅏㄴ	-8077
ㅅㅣㅋㅣㅁㅕㄴ	-8078
ㄱㅏㅈㅓㅇ	-8079
▁ㅅㅠㅍㅓㅋㅓㅁ	-8080
▁ㅂㅓㅂㅇㅡㄴ	-8081
▁ㅈㅜㅇㅢ	-8082
ㅜㅇㅕㄱ	-8083
ㅅㅓㅂㅣ	-8084
▁ㄷㅗㅇㅅㅣㅇㅔ	-8085
▁ㅁㅏㄴㅎㅘ	-8086
ㅅㅗㅇㅔㅅㅓ	-8087
▁ㅁㅏㄹㅎㅏㅁㅕㄴ	-8088
▁ㄷㅐㅍㅗㄱ	-8089
▁ㅁㅗㄷㅡㄴㄱㅓㄹ	-8090
▁ㅃㅗㅇ	-8091
ㅕㄷㅡㄹ	-8092
▁ㄴㅗㄹㅐㄱㅏ	-8093
ㄹㅐㅁ	-8094
▁ㅅㅣㅋㅕㅇㅑ	-8095
▁ㅍㅕㅇㅅㅗㅇㅔ	-8096
▁ㄷㅗㄹㅇㅏㅇㅘ	-8097
▁ㅁㅜㄴㅈㅚ	-8098
ㅇㅣㅂㄴㅣㄲㅏ	-8099
▁ㅂㅏㄱㅁㅕㅇㅅㅜ	-8100
▁ㅇㅣㅂㅕㅇㅎㅓㄴ	-8101
▁ㄴㅏㅇㅘㄷㅗ	-8102
▁ㅅㅣㄱㅏㄴㅇㅡㄹ	-8103
ㅅㅗㄴㅡㄴ	-8104
ㄷㅓㄴㅑ	-8105
▁ㅎㅎㅎㅎ	-8106
ㄱㅡㅅ	-8107
▁ㅇㅣㅎㅏ	-8108
▁ㅈㅜㅁㅓㄴㅣ	-8109
ㅁㅜㄴㅎㅏㄱ	-8110
▁ㄷㅐㅎㅏㄴㅁㅣㄴㄱㅜㄱㅇㅔ	-8111
ㅇㅏㅍㅏㅌㅡ	-8112
▁ㅎㅕㄴㅂㅣㄴ	-8113
▁ㅇㅕㄱㅅㅏㅇㅔ	-8114
▁ㄴㅐㅅㅔ	-8115
▁ㄱㅓㄴㅑ	-8116
▁ㅇㅏㄱㅍㅡㄹㄹㅓㄷㅡㄹ	-8117
▁ㄲㅗㄹㅏ	-8118
▁ㅇㅕㅇㅇㅓ	-8119
ㄱㅏㅁㅅㅏ	-8120
▁ㅊㅜㅇㅅㅓㅇ	-8121
ㄴㅗㅁㄷㅡㄹㅇㅏ	-8122
▁sbs	-8123
ㅈㅓㄴㅈㅐㅇ	-8124
▁ㅅㅐㅇㅅㅐㄱ	-8125
ㄱㅓㅅㅂㅗㄷㅏ	-8126
▁ㅂㅓㅂㅇㅡㄹㅗ	-8127
▁ㅇㅏㄴㅇㅓㅇㅜㄹ	-8128
▁ㄴㅏㄷㅐ	-8129
▁ㅈㅏㅇㅝㄴ	-8130
▁ㅂㅓㅂㅇㅝㄴ	-8131
ㅇㅕㅆㄴㅡㄴㄷㅔ	-8132
▁ㄴㅓㅎㄱㅗ	-8133
▁ㅇㅕㄴㅇㅖㅇㅣㄴㅇㅡㄴ	-8134
ㅡㅇㅞ	-8135
▁ㅂㅜㅁㅗㄱㅏ	-8136
▁ㅈㅓㅇㅂㅜㅇㅘ	-8137
▁ㅇㅓㅁㅌㅐㅇㅜㅇ	-8138
▁ㅈㅗㅍㅗㄱ	-8139
▁ㅂㅣㅆㅏㅅㅓ	-8140
▁ㄷㅏㅇㅑㅇㅎㅏㄴ	-8141
ㅎㅏㄴㄷㅏㄴ	-8142
ㅇㅢㄹㅡㄹ	-8143
ㅈㅏㅇㄱㅜ	-8144
▁ㄴㅏㄹㅆㅣㄱㅏ	-8145
ㄴㅜㄹ	-8146
ㅊㅏㅇㅝㄴ	-8147
▁ㅇㅔㅎㅛ	-8148
▁ㅅㅜㄴㅅㅣㄹㅇㅣㄱㅏ	-8149
ㅈㅜㄴㅡㄴㄷㅔ	-8150
▁ㅁㅏㅇㅡㅁㅇㅡㄹ	-8151
ㅇㅣㄴㅈㅓㅇ	-8152
▁mc	-8153
ㄷㅡㄹㅇㅣㅈㅣ	-8154
ㄱㅓㅅㅇㅣㅂㄴㅣㄷㅏ	-8155
▁22	-8156
▁ㅇㅓㅍ	-8157
ㅇㅚㄱㅜㄱ	-8158
ㅍㅣㄴㅡㄴ	-8159
▁ㅅㅐㅇㄱㅏㄱㄴㅏㄴㅔ	-8160
▁ㄴㅓㅇㅢ	-8161
ㅅㅓㄱㄱㅠ	-8162
▁ㄷㅡㄹㅇㅡㄹ	-8163
ㅅㅟㅂ	-8164
▁ㄴㅏㅃㅡ	-8165
▁ㅊㅚㄷㅐㅎㅏㄴ	-8166
ㅇㅣㅇㅛ	-8167
▁ㅎㅏㅍㅣㄹ	-8168
▁ㄴㅜㄱㅜㄴㅈㅣ	-8169
▁ㅇㅣㅂㅓㄴㅇㅔㄷㅗ	-8170
▁ㅇㅣㅈㅏ	-8171
ㅊㅔㄹㅡㄹ	-8172
▁ㅁㅏㄴㅑㅇ	-8173
▁ㄴㅓㄱ	-8174
▁ㅇㅏㄴㄴㅏㅁ	-8175
▁ㄷㅜㄹㅉㅐ	-8176
ㅇㅏㄴㅣㄹ	-8177
▁ㅅㅗㅁㅜㄴ	-8178
▁ㄱㅓㅁㅇㅡㄴ	-8179
▁ㅂㅏㄱㅇㅕㅇ	-8180
ㅞㅅㅗㄴ	-8181
ㄴㅕㄴㅁㅏㄴ	-8182
ㅈㅜㅇㅇㅔㄷㅗ	-8183
ㄱㅕㅇㅈㅐㅇ	-8184
ㅅㅣㄹㅗ	-8185
ㄱㄱ	-8186
▁ㅂㅗㄱㅈㅏㅂ	-8187
▁ㅈㅓㄹㅇㅑㄱ	-8188
▁ㅈㅏㅂㅇㅏㅅㅓ	-8189
ㅎㅏㄹㅗ	-8190
▁ㅂㅜㄹㅍㅕㅇ	-8191
17	-8192
ㅎㅏㄹㅈㅜㄹ	-8193
▁ㄱㅓㅅㅁㅏㄴ	-8194
ㅈㅓㅇㅇㅡㄹㅗ	-8195
ㅇㅓㅂㅘㅇㅑ	-8196
▁ㅈㅜㄱㅇㅓㄷㅗ	-8197
ㅜㅁㅓㄴ	-8198
▁ㄷㅐㅎㅏㄴㅁㅣㄴㄱㅜㄱㅇㅔㅅㅓ	-8199
ㄹㅕㄷㅗ	-8200
ㅅㅏㅁㅗ	-8201
▁ㄱㅏㅇㄱㅏㄴ	-8202
ㅎㅏㄴㄷㅐ	-8203
ㅎㅏㄴㅡㄴㄱㅓㄹ	-8204
ㄷㅏㄴㅣㄱㅗ	-8205
▁ㄴㅣㄴㅔㄱㅏ	-8206
▁ㅂㅗㄷㅏㄴㅡㄴ	-8207
ㅉㅗㄱㅇㅔ	-8208
▁ㅇㅜㅅㄱㅣㄴㅔ	-8209
ㅇㅕㄴㅇㅖㅇㅣㄴ	-8210
▁ㄱㅏㅇㅛ	-8211
▁ㅎㅐㅇㅅㅏ	-8212
▁ㄴㅏㅁㅊㅣㄴ	-8213
▁ㅈㅓㅇㅈㅣㄱ	-8214
▁ㅎㅣㅁㄷㅡㄴㄷㅔ	-8215
▁ㅎㅏㄷㅡㄴ	-8216
▁ㄱㅗㅈㅣㅂ	-8217
▁ㅣ	-8218
▁ㄴㅏㅅㅓㅅㅓ	-8219
▁ㅇㅣㅅㅡㄹㄹㅏㅁ	-8220
▁ㅁㅗㅅㅅㅐㅇㄱㅣㄴ	-8221
ㅈㅗㅎㅇㅡㄴㄷㅔ	-8222
▁ㅇㅏㄴㄱㅏㄴㅡㄴ	-8223
km	-8224
ㄷㅏㄹㄱㅗ	-8225
▁ㄱㅜㄴㅅㅏ	-8226
ㅇㅣㅁㅣㅈㅣ	-8227
▁ㅁㅏㄹㅇㅣㅈㅣ	-8228
ㄴㅕㄴㅁㅏㄴㅇㅔ	-8229
ㄷㅗㅁㅗㅅ	-8230
ㅇㅡㅁㅅㅣㄱ	-8231
ㅅㅐㅇㅇㅣ	-8232
ㅎㅠㅇ	-8233
▁ㄲㅡㄴ	-8234
ㄴㅕㄴㅈㅓㄴㅇㅔ	-8235
▁ㅁㅣㄱㅜㄱㅇㅔ	-8236
▁ㄱㅛㄷㅗ	-8237
▁ㅈㅏㅇㅁㅏ	-8238
▁ㅁㅏㅅㅡㅋㅡ	-8239
ㄹㅣㅁㅕㄴㅅㅓ	-8240
▁2017	-8241
ㅍㅏㅇㅣ	-8242
▁ㅎㅘㄱㅈㅏㅇ	-8243
ㄱㅙㄴ	-8244
ㅈㅓㄱㅇㅣㅈㅣ	-8245
▁ㅈㅗㅎㅇㅡㄹㄷㅡㅅ	-8246
ㅇㅓㅈㅣㄴ	-8247
▁ㄷㅏㅁㄷㅏㅇ	-8248
▁ㅍㅕㄹ	-8249
▁ㅁㅓㅅㅇㅣㅆㄷㅏ	-8250
ㅏㅈ	-8251
ㄹㅣㄴㅡㄴㄱㅓ	-8252
▁ㅇㅠㅇㅣㄴ	-8253
ㄱㅓㅇㅏㄴㅣㄴㅑ	-8254
▁ㅇㅠㄱㅅㅓㅇ	-8255
ㄷㅗㄷㅜㄱ	-8256
▁ㅅㅓㄴㅍㅜㅇㄱㅣ	-8257
▁20%	-8258
->	-8259
ㄴㅏㅇㅣ	-8260
ㅇㅓㅂㅘ	-8261
▁ㄸㅐㄴ	-8262
ㅍㅏㅂ	-8263
▁ㅅㅗㄱㅐ	-8264
▁ㅅㅣㅈㅣㅂ	-8265
ㄲㅏㅈㅣㅁㅏㄴ	-8266
ㅂㅜㄴㄱㅏㄴ	-8267
ㅎㅏㄴㅗ	-8268
▁ㅇㅜㅅㅏㄴ	-8269
▁ㅁㅓㅅㅇㅣㅆ	-8270
ㅇㅓㅇㅣ	-8271
▁ㅈㅏㄹㄷㅙ	-8272
▁ㅇㅣㅂㅁㅏㄴ	-8273
▁ㅌㅔㄴ	-8274
▁ㅂㅏㅁㅇㅔ	-8275
▁ㅈㅏㄹㅁㅓㄱㄱㅗ	-8276
ㅆㄴㅡㄴ	-8277
▁ㅅㅡㅌㅔ	-8278
ㅁㅏㅈㅓ	-8279
ㅎㅡㄴ	-8280
▁ㅂㅣㅎㅏㅁㅕㄴ	-8281
▁ㅇㅓㅄㅇㅓㅈㅕㅇㅑ	-8282
ㅜㅇㅘ	-8283
▁ㅁㅏㄶㅈㅣ	-8284
▁ㅌㅡ	-8285
▁ㅇㅗㅎㅜ	-8286
ㄴㅏㅂㅗㄴㅔ	-8287
ㄷㅡㅇㅇㅡㄹ	-8288
▁ㅂㅗㅇㅣㄴㅡㄴㄷㅔ	-8289
▁ㄱㅘㄴㅅㅣㅁㄷㅗ	-8290
no	-8291
ㅅㅗㅇㅕㄴ	-8292
▁ㄷㅡㄹㅇㅓㅅㅓ	-8293
ㅈㅚㄹㅡㄹ	-8294
▁ㅁㅣㅇㅛㅇ	-8295
ㅈㅏㅂㅗㄴ	-8296
▁ㅈㅡㅇㅅㅔ	-8297
▁ㅆㅏㄱㅗ	-8298
▁ㅇㅗㅈㅣㄹㅏ	-8299
▁ㅇㅓㄹㅕㅂㄱㅔ	-8300
▁ㅇㅓㅄㅇㅐㅇㅑ	-8301
▁ㅇㅣㅅㅔㅇㅕㅇ	-8302
ㅈㅜㄹㅏ	-8303
▁ㄴㅏㄹㅡㄹ	-8304
ㄴㅐㅁㅅㅐ	-8305
ㅈㅓㄹㄷㅐ	-8306
▁ㅆㅓㄱㅇㅡㄹ	-8307
ㅎㅘㄴㅇㅣ	-8308
ㅇㅟㄴㅡㄴ	-8309
ㅇㅓㄱㅏㄱㅗ	-8310
ㅅㅗㄱㅇㅡㄹㅗ	-8311
▁ㅇㅗㄱㅅㅣㅂㅜㄹㅁㅐ	-8312
ㅅㅏㅁㅓㄱ	-8313
▁ㅈㅐㄴㅡㅇ	-8314
ㅐㄷㅡㄹ	-8315
ㄱㅏㅄㄷㅗ	-8316
▁ㅂㅐㅌ	-8317
ㅏㅇㅕ	-8318
▁ㅇㅏㅊㅣㅁㅇㅔ	-8319
CD	-8320
ㅍㅐㅇ	-8321
▁ㅇㅕㅈㅏㅊㅣㄴㄱㅜ	-8322
ㄷㅗㄷ	-8323
▁ㅂㅜㄹㅡ	-8324
▁ㅅㅣㄹㅎㅓㅁ	-8325
▁ㄲㅗㄹㅌㅗㅇ	-8326
▁ㅌㅜㄱㅣㄲㅜㄴ	-8327
▁ㅂㅏㄴㄷㅐㅎㅏㄴㅡㄴ	-8328
ㅎㅡㄱ	-8329
▁ㄱㅐㄱㄱㅘㄴ	-8330
▁ㅂㅜㄱㅘ	-8331
▁ㅁㅏㄹㄹㅏ	-8332
▁ㅂㅓㅂㅈㅓㅇ	-8333
ㅇㅣㅎㅜ	-8334
ㅇㅣㄹㅇㅓㄴ	-8335
ㅂㅜㅌㅓㄴㅡㄴ	-8336
▁ㄹㅗㅁㅐㄴ	-8337
ㅅㅣㅅㅔ	-8338
ㅎㅠㅇㅣㄹ	-8339
ㅍㅐㄴㄷㅡㄹ	-8340
▁ㅅㅗㅂㅣㅈㅏㄱㅏ	-8341
▁ㅇㅣㄹㅂㅗㄴㅇㅔㅅㅓ	-8342
ㄲㅏㄱ	-8343
▁ㅃㅣ	-8344
▁ㄹㅣㅇㅓㄹ	-8345
ㅅㅡㄷㅗ	-8346
▁ㄱㅏㅉㅏ	-8347
ㅜㅅㅔㅇㅛ	-8348
▁ㅅㅏㄱㅘㅁㅜㄴ	-8349
ㅅㅣㅌㅣ	-8350
ㅠㅠㅠㅠㅠㅠㅠㅠ	-8351
▁ㄱㅕㄹㄱㅘㄱㅏ	-8352
▁ㅈㅏㄱㄱㅏㄱㅏ	-8353
▁ㅈㅗㅎㄴㅔ	-8354
▁ㄱㅣㅁㅅㅜㅎㅕㄴ	-8355
▁ㅇㅣㄷㅐㄹㅗ	-8356
ㄴㅏㅇㅗㅁㅕㄴ	-8357
un	-8358
▁ㅅㅣㄴㅈㅜㅇ	-8359
ㄴㅗㄹㅇㅣ	-8360
▁ㅆㅡㄴㄷㅏ	-8361
▁the	-8362
▁ㅇㅣㄴㅈㅣ	-8363
▁ㅈㅓㅇㅊㅣㅈㅓㄱ	-8364
▁ㅈㅜㅇㄷㅗㄱ	-8365
▁ㅋㅣㅅㅡ	-8366
▁ㅅㅚ	-8367
ㅂㅗㄴㅑ	-8368
ㄷㅏㅇㅅㅣㄴ	-8369
ㄲㅜㅁ	-8370
ㅇㅏㄹㅇㅏ	-8371
▁ㅈㅓㄴㅎㅕㅇㅈㅓㄱㅇㅣㄴ	-8372
ㄱㅔㅆㄱㅗ	-8373
ㄷㅜㄹㅇㅣ	-8374
▁ㄷㅏㄱㅏㅇ	-8375
ㅎㅏㅇㅢ	-8376
▁ㅈㅗㅇㅍㅕㄴ	-8377
ㅎㅏㅎㅏㅎㅏㅎㅏ	-8378
▁ㅍㅏㅅㅏㄴ	-8379
ㅎㅣㅁㅕㄴ	-8380
▁ㅅㅣㄴㄱㅗㅇㅎㅏㅇ	-8381
▁ㅇㅏㄹㅂㅏㄷㅡㄹ	-8382
ㅅㅏㄴㅑ	-8383
▁ㄷㅚㄹㄲㅏ	-8384
ㄱㅓㅇㅏㄴㅣㅁ	-8385
▁ㅇㅕㄱㅣㄴㅡㄴ	-8386
xx	-8387
ㅎㅘㄹㅗ	-8388
▁ㅇㅏㅇㅜ	-8389
▁ㅅㅜㅅㅜㄹㅛ	-8390
▁ㄱㅣㅂㅜㄴㅇㅣ	-8391
▁ㅇㅣㄴㄱㅓㄴㅂㅣ	-8392
ㅈㅜㅇㅣㄴㄱㅗㅇ	-8393
▁ㅈㅜㄱㅇㅣㄴㅡㄴ	-8394
ㄱㅛㅌㅗㅇ	-8395
ㅈㅜㅂㅕㄴ	-8396
ㅂㅜㄴㅇㅡㄹ	-8397
▁ㅎㅘㄱㅈㅓㅇ	-8398
▁ㅈㅣㅂㅇㅓ	-8399
ㅓㅁㅏㄴ	-8400
▁ㅊㅜㄱㅎㅏㄷㅡㄹㅣㅂㄴㅣㄷㅏ	-8401
▁ㅇㅏㅇㅗ	-8402
▁ㅎㅕㄴㅅㅏㅇ	-8403
▁ㅇㅣㄹㅂㅏㅇ	-8404
ㅎㅣㄴㄷㅏ	-8405
~~~~~~~	-8406
▁ㅈㅓㄴㄱㅣㄹㅡㄹ	-8407
▁ㅇㅟㄱㅣ	-8408
ㅅㅏㅇㅣㄹ	-8409
▁ㅇㅏㄴㅣㄴㄱㅓ	-8410
▁ㄱㅛㅎㅚ	-8411
ㅈㅣㄷㅏ	-8412
ㅇㅣㅆㄷㅓㄴ	-8413
ㄱㅓㄹㅐ	-8414
▁ㄱㅛㄱㅘ	-8415
ㅅㄴㅑ	-8416
ㄱㅔㅆㅈㅣㅇㅛ	-8417
▁ㅇㅏㄴㅣㄹㅏㄴㅡㄴ	-8418
▁ㅅㅏㅂ	-8419
▁ㅎㅐㅂㅘ	-8420
▁ㄲㅗㅁㅅㅜ	-8421
ㅁㅏㄴㄷㅡㄹㄱㅗ	-8422
▁ㄱㅕㄹㅎㅗㄴㅎㅏㄱㅗ	-8423
ㅉㅗㅁ	-8424
▁ㅂㅜㄴㅅㅓㄱ	-8425
▁ㅈㅗㄴㅈㅜㅇ	-8426
▁ㅇㅏㅁㅜㄴㅏ	-8427
▁ㅎㅜㅂㅗ	-8428
▁ㄲㅏㄱㅗ	-8429
▁ㅁㅣㅅㅔㅁㅓㄴㅈㅣㄱㅏ	-8430
▁ㅇㅗㄹㄹㅕㅇㅑ	-8431
▁ㅈㅣㄴㅈㅏㄱㅇㅔ	-8432
▁ㅇㅓㄷㅣㅇㅔ	-8433
▁ㅂㅔㅌㅡㄴㅏㅁ	-8434
▁ㅉㅏㅈㅡㅇㄴㅏ	-8435
ㅎㅐㅈㅝㅇㅑ	-8436
▁ㅎㅏㄹㅅㅜㅇㅣㅆ	-8437
▁ㅅㅣㄷㅗ	-8438
▁ㅊㅓㄴㅁㅏㄴ	-8439
ㅎㅡㅂ	-8440
▁ㄱㅓㅅㅡㄹ	-8441
▁ㅁㅏㄺ	-8442
▁ㅅㅏㅇㅑ	-8443
▁ㅇㅣㄹㅓㄴㅡㄴ	-8444
▁ㄴㅗㄹㄹㅓ	-8445
▁ㅇㅏㄱㅣ	-8446
ㅎㅜㄹ	-8447
ㅊㅓㅇㅡㅁ	-8448
▁ㄲㅏㅁㅉㅏㄱ	-8449
▁ㅍㅣㄷㅣ	-8450
▁ㄷㅐㄱㅜㄱ	-8451
▁ㅅㅜㅈㅏㄱ	-8452
ㄱㅜㄱㅁㅣㄴㄷㅡㄹㅇㅣ	-8453
ㄷㄷㄷ	-8454
▁ㄱㅣㅌㅏ	-8455
ㄱㅏㅍ	-8456
▁ㅅㅓㄲ	-8457
▁ㅇㅓㅅㅓ	-8458
ㄱㅜㄱㅁㅣㄴㅇㅡㄹ	-8459
ㅣㄴㄷㅏㄱㅗ	-8460
▁ㄴㅜㄱㅜㄴㅡㄴ	-8461
ㅉㅜㄱ	-8462
ㅜㅎㅏㄴ	-8463
▁ㅅㅏㄱㅈㅔ	-8464
▁ㅇㅕㅇㅎㅑㅇㅇㅡㄹ	-8465
▁ㄲㅐㅇ	-8466
ㄹㅣㅍㅣㄴ	-8467
ㅅㅡㅇㅔ	-8468
▁ㅊㅜㅇㅝ	-8469
▁ㅉㅣㄹㅏㅅㅣ	-8470
▁ㄴㅐㅂㄷ	-8471
▁ㄷㅚㅅㅓ	-8472
▁ㅈㅏㅊㅔㄹㅡㄹ	-8473
▁ㄴㅏㅁㅎㅏㄴ	-8474
ㅎㅏㄹㅅㅜㅇㅣㅆㄴㅡㄴ	-8475
▁ㅁㅗㄹㄱㅗ	-8476
ㅅㅇㅡㄹ	-8477
▁ㄱㅏㅁㅎㅣ	-8478
▁ㅁㅣㄷㅇㅓ	-8479
▁ㄱㅡㄷㅗㄴ	-8480
▁ㅈㅣㅁㅅㅡㅇ	-8481
▁ㅇㅖㅃㅓ	-8482
ㅆㅣㄹㅡㄹ	-8483
▁ㄴㅓㅁㅜㄴㅓㅁㅜ	-8484
▁ㅁㅗㅇㅏ	-8485
ㅕㅆㄱㅜㄴㅏ	-8486
▁ㅎㅣㄹㄹㅣㅇ	-8487
ㅊㅣㄴㅡㄴㄷㅔ	-8488
ㄷㅐㄴ	-8489
ㅇㅏㄴㄷㅚㄴㅡㄴ	-8490
▁ㅌㅡㄹㄱㅗ	-8491
▁ㅁㅓㄹㅣㅇㅔ	-8492
▁ㅎㅐㅈㅜㄱㅗ	-8493
▁ㅌㅣㅇ	-8494
▁ㄱㅡㄱㅓㄹㄹㅗ	-8495
ㅇㅏㄴㅣㄴㄷㅔ	-8496
▁ㅎㅏㄴㅂㅏㄴㄷㅗ	-8497
ㅅㅇㅡㅁ	-8498
▁ㅎㅠㄱㅏ	-8499
ㅂㅡㄴ	-8500
ㄹㅣㄴㅣ	-8501
ㄷㅚㅇㅓㅆ	-8502
▁ㅇㅓㅄㄷㅓㄴ	-8503
▁ㅈㅓㄴㅁㅜㄴㄱㅏ	-8504
ㅎㅏㅇㅑ	-8505
ㅎㅑㅇㅇㅣ	-8506
2.	-8507
ㅇㅓㄱㅇㅡㄹ	-8508
ㅏㅍㅏ	-8509
ㅎㅐㄱㅏ	-8510
▁ㄱㅐㅁㅏㅇ	-8511
▁ㅁㅕㄴㅈㅔ	-8512
▁ㅅㅓㅎㅕㄴ	-8513
ㅁㅏㄶㄱㅗ	-8514
ㄱㅣㅇㅟㅎㅐ	-8515
▁ㄸㅐㄷㅗ	-8516
▁ㄹㅜㅇㅣ	-8517
ㅇㅓㅄㄱㅔ	-8518
ㄲㅡㄶ	-8519
ㅜㄱㅁㅣㄴ	-8520
▁ㄴㅏㅂㅜㄹ	-8521
▁ㅊㅓㄴㅈㅐ	-8522
ㅅㅏㄱㅘ	-8523
ㅅㅓㅅㅓ	-8524
ㅎㅐㅇㅇㅡㄹ	-8525
▁ㄱㅕㄹㅂㅏㅇ	-8526
ㅎㅏㄹㅅㅜㄷㅗ	-8527
▁ㅁㅓㄱㅇㅓㅇㅑ	-8528
▁ㅅㅏㄹㅏㅁㅁㅏㄴ	-8529
ㅎㅏㄷㅏㄴ	-8530
ㄱㅗㅇㅂㅜ	-8531
▁ㅅㅣㅁㅎㅏㄴ	-8532
▁ㄸㅗㄹㅏㅇㅣ	-8533
▁ㅎㅏㄱㅔㅆ	-8534
▁ㄱㅐㄷㅙㅈㅣㄹㅗ	-8535
▁ㅇㅣㄱㅜㄱ	-8536
▁ㄷㅏㅇㅅㅣㄴㄷㅡㄹ	-8537
▁ㅇㅣㄹㅐㄷㅗ	-8538
ㅋㅋㅋㅋㅋㅋㅋㅋㅋㅋㅋ	-8539
ㄴㅡㅈ	-8540
▁ㄷㅏㅎㅐㅇㅇㅣㄷㅏ	-8541
▁ㅇㅓㄸㅓ	-8542
▁ㅇㅘㄹ	-8543
▁ㅇㅏㄴㅊㅓㄹ	-8544
▁ㄷㅚㄷㅗ	-8545
▁ㅂㅐㄷㅏㄹ	-8546
▁^	-8547
ㅂㅏㄷㅇㅡㅁㅕㄴ	-8548
ㄱㅣㅇㅓㅂㅇㅣ	-8549
▁ㅁㅗㅇㅕ	-8550
▁ㅁㅗㅅㅊㅏㄹ	-8551
ㅈㅝㅆㅇㅡㅁㅕㄴ	-8552
▁ㄱㅗㅅㅇㅔ	-8553
ㅉㅗㄱㅇㅡㄴ	-8554
▁ㅎㅓㅁ	-8555
▁ㅂㅏㅇㅂㅓㅂㅇㅣ	-8556
ㅅㅓㄹㅗ	-8557
▁ㅈㅔㅈㅜ	-8558
ㅅㅣㄹㅇㅣ	-8559
▁28	-8560
▁ㄱㅣㄹㅇㅣ	-8561
▁ㅁㅜㄹㅡㅍ	-8562
▁ㅈㅣㅅㄱㅓㄹㅣ	-8563
▁ㅇㅏㅍㅡㄹㅣㅋㅏ	-8564
▁ㅎㅔㄹㅈㅗㅅㅔㄴ	-8565
ㄴㅓㄴ	-8566
ㅌㅜㄱ	-8567
ㄷㅡㄹㅇㅣㄱㅗ	-8568
▁ㅁㅗㅈㅏㄹㅏ	-8569
▁ㄷㅟㅈㅣㅂㅇㅓ	-8570
▁ㄴㅜㅇ	-8571
ㄱㅓㄹㄱㅗ	-8572
ㅈㅏㄷㅏ	-8573
ㄱㅝㄴㅇㅣ	-8574
▁ㅂㅏㅂㅁㅓㄱ	-8575
▁ㅈㅗㅎㄴㅔㅇㅛ	-8576
▁ㅂㅕㄴㅎㅘ	-8577
ㅗㅇㅘ	-8578
ㄱㅏㄱㅜ	-8579
▁ㅊㅜㅇㅜㄴ	-8580
▁ㅂㅘㅆㄷㅏ	-8581
ㅇㅣㄴㅅㅓㅇ	-8582
ㅗㅎㅘ	-8583
ㅗㄴㅡㄴㄷㅔ	-8584
▁ㅁㅜㄹㄱㅏㄴㅡㄴ	-8585
ㄷㅚㄷㅗ	-8586
ㄱㅏㅁㅇㅡㄴ	-8587
▁ㅊㅟㅈㅣㄱ	-8588
ㄷㅚㄴㄷㅏㄴㅡㄴ	-8589
▁ㅎㅗㄷㅡㄹㄱㅏㅂ	-8590
▁ㅌㅓㄹㅇㅓ	-8591
▁......	-8592
▁ㅇㅣㅆㄴㅔㅇㅛ	-8593
ㅇㅏㄴㅎㅏㅁㅕㄴ	-8594
▁ㄲㅏㅂ	-8595
▁ㅅㅐㅇㄱㅕ	-8596
▁ㅅㅗㄴㅇㅔ	-8597
▁ㄲㅓㄹ	-8598
▁ㅋㅜㄹ	-8599
ㅌㅓㄴㅡㄴ	-8600
▁ㄷㅏㄺㄴㅕㄴ	-8601
▁ㄷㅚㄱㅣㄹ	-8602
▁ㅈㅏㄱㅣㄴㅔ	-8603
▁ㅇㅏㄱㅏ	-8604
▁ㄱㅗㅇㅁㅐ	-8605
▁ㅈㅓㅂㄱㅡㄴ	-8606
▁ㄱㅘㅇㅇㅜㅂㅕㅇ	-8607
ㅎㅣㅁㄴㅐ	-8608
ㅇㅟㄱㅣ	-8609
▁ㅈㅜㄱㅇㅕ	-8610
▁ㅇㅓㅇㄸㅜㅇ	-8611
▁ㄱㅣㄷㅐㅎㅏㅂㄴㅣㄷㅏ	-8612
▁ㅂㅗㄹㅅㅜ	-8613
▁ㅇㅏㄹㅍㅏㄱㅗ	-8614
ㅈㅏㅇㅑ	-8615
ㅈㅜㅇㅕㄴ	-8616
▁ㅈㅣㅇㄱㅡㄹ	-8617
▁ㅈㅓㄴㄱㅣㅊㅏ	-8618
▁ㄴㅜㄴㅁㅜㄹㅇㅣ	-8619
▁ㅂㅏㄲㅜㄱㅗ	-8620
▁ㅇㅠㅇㅣㄹㅎㅏㄱㅔ	-8621
ㅅㅏㄹㅇㅣㄴ	-8622
ㅅㅏㅇㅇㅢ	-8623
▁ㅂㅏㅇㅅㅗㅇㅇㅔ	-8624
▁ㅂㅏㅇㅅㅗㅇㄱㅜㄱ	-8625
ㅈㅣㄹㅇㅡㄴ	-8626
▁ㅎㅏㄴㅂㅏㅇㅇㅔ	-8627
ㅁㅏㅋㅡ	-8628
▁ㄷㅏㅎㅐ	-8629
▁ㅇㅏㄲㅏㅇㅜㄴ	-8630
▁ㅅㅏㄹㅏㅁㄷㅡㄹㅇㅢ	-8631
▁ㄷㅙㅆ	-8632
ㅂㅗㅅㅏㅇ	-8633
▁ㅂㅜㄹㅡㄴㅡㄴ	-8634
▁ㅇㅣㄴㄱㅣㄱㅏ	-8635
ㅇㅖㅇㅛ	-8636
▁ㄱㅗㅇㅉㅏ	-8637
▁ㅇㅢㅎㅏㄴ	-8638
▁ㅈㅓㄴㅂㅜㄷㅏ	-8639
ie	-8640
▁ㅇㅓㄴㄹㅗㄴㅇㅔ	-8641
ㄷㅚㅇㅛ	-8642
▁ㄱㅣㅁㅈㅓㅇ	-8643
▁ㅌㅣㄴ	-8644
▁ㅎㅏㄴㅏㄹㅗ	-8645
▁ㅋㅐㅂ	-8646
ㅏㄴㄷㅏㄱㅗ	-8647
ㅇㅣㅇㅓㅆㄷㅓㄴ	-8648
ㅃㅐㅁ	-8649
▁ㄱㅏㅂㄴㅣㄷㅏ	-8650
ㄷㅏㄴㅏ	-8651
▁ㄷㅏㄺㅇㅣ	-8652
▁ㅋㅔㅇㅣㅂㅡㄹ	-8653
▁ㅁㅏㄶㅇㅡㄴㅣ	-8654
ㅇㅣㄷㅡ	-8655
▁ㅈㅝㄹㅏ	-8656
▁ㅎㅏㄴㅂㅓㄴㅆㅣㄱ	-8657
ㄷㅣㄹ	-8658
▁ㅂㅗㄹㄸㅐㅁㅏㄷㅏ	-8659
▁ㅇㅣㅆㅇㅡㄴㅣㄲㅏ	-8660
ㅇㅐㅇ	-8661
▁ㅂㅜㅊㅜㄱ	-8662
▁ㅂㅓㅌㅣ	-8663
▁ㅂㅐㅇㅜㄴㅡㄴ	-8664
▁ㄹㅡㄹ	-8665
ㄱㅓㅅㄴㅔ	-8666
▁ㅈㅏㅇㅠㄹ	-8667
▁ㅈㅏㅅㅣㄱㄷㅡㄹ	-8668
▁ㅂㄷ	-8669
ㄴㅚ	-8670
▁ㅎㅏㄴㅂㅏㅇ	-8671
▁ㅈㅗㅎㅇㅡㄴㄱㅓ	-8672
▁ㅍㅣㄹㅇㅛㅇㅓㅄㄷㅏ	-8673
▁ㅎㅏㄴㄱㅖ	-8674
▁ㅍㅗㄱㄷㅗㅇ	-8675
▁ㅅㅣㅊㅓㅇㅈㅏ	-8676
▁ㄱㅗㅇㄱㅐㅎㅏㄹㅏ	-8677
ㅅㅜㅅㅜㄹ	-8678
****	-8679
ㄱㅕㅇㅑ	-8680
▁ㄸㅓㄹㅇㅓㅈㅣㄱㅗ	-8681
▁ㄴㅏㄱㅔ	-8682
▁ㅋㅝㄹ	-8683
▁ㅈㅓㄴㄹㅑㄱ	-8684
ㅇㅓㄴㅗㅎ	-8685
▁ㄱㅗㅁㅏㄴ	-8686
▁ㄴㅗㅊㅜㄹ	-8687
▁ㅇㅐㄴ	-8688
ㅁㅗㄱㅏ	-8689
▁ㄷㅡㄷㅂㅗ	-8690
▁ㅅㅏㅇㅅㅣㄱㅈㅓㄱㅇㅡㄹㅗ	-8691
ㄴㅓㅎ	-8692
▁ㄱㅗㅇㅍㅕㅇ	-8693
tv	-8694
▁ㅇㅓㅄㄴㅡㄴㄱㅓ	-8695
ㄴㅡㄴㄱㅜㄴㅏ	-8696
▁ㅁㅏㅇㅣㄴㄷㅡ	-8697
ㅈㅗㅁㅂㅣ	-8698
▁ㅎㅐㅆㄱㅗ	-8699
ㄱㅓㅅㄷㅡㄹㅇㅏ	-8700
▁ㄱㅏㄲㅏㅇㅣ	-8701
▁ㅁㅗㄹㅡㅁ	-8702
▁ㅈㅜㄷㅗ	-8703
▁ㅋㅡㄷㅏ	-8704
ㅁㅏㅈㄱㅗ	-8705
ㅅㅣㅁㄷㅗ	-8706
ㅈㅣㄴㅡㄴㄱㅓ	-8707
▁ㅎㅏㄴㄱㅏ	-8708
▁ㅅㅓㅇㅅㅜㄱ	-8709
▁ㄷㅐㅅㄱㅡㄹㅇㅡㄹ	-8710
ㅈㅏㄹㅣㅇㅔ	-8711
▁ㄷㅗㄴㅂㅓㄴㅡㄴ	-8712
▁ㅇㅣㅆㅇㅡㄹㄸㅐ	-8713
ㅇㅗㄱㅗ	-8714
▁ㅇㅠㅂㅜㄴ	-8715
ㅗㄹㄹㅏㄹㅏ	-8716
ㅏㅁㅏㄴㅏ	-8717
▁ㄸㅗㄱㄱㅏㅌㄷㅏ	-8718
▁ㄷㅡㅇㅇㅡㄹ	-8719
▁ㅆㅓㅁ	-8720
▁ㅁㅗㄹㄹㅕ	-8721
ㄱㅣㄹㅇㅣ	-8722
▁ㅇㅏㄴㅎㅏㄴㅑ	-8723
ㅇㅣㅇㅠㄱㅏ	-8724
ㅈㅐㄷㅏㄴ	-8725
▁ㅇㅣㄱㅣㅈㅓㄱㅇㅣㄴ	-8726
▁ㅊㅏㄹㅖ	-8727
ㅗㅍ	-8728
ㅍㅕㅇㅅㅐㅇ	-8729
ㅇㅓㅈㅔ	-8730
▁ㅇㅟㄹㅗ	-8731
▁ㄷㅏㄹㅡㄱㅔ	-8732
▁ㄲㅓㅈㅕㄹㅏ	-8733
ㅎㅐㅆㅇㅡㄹㄸㅐ	-8734
▁ㅈㅣㅂㄱㅝㄴ	-8735
▁ㅈㅓㅇㄱㅠㅈㅣㄱ	-8736
ㄷㅓㄱㅇㅔ	-8737
▁ㅌㅓㅈㅣㅁㅕㄴ	-8738
▁ㅇㅗㄹㅎㅐㄴㅡㄴ	-8739
▁ㅂㅏㄷㅈㅣ	-8740
ㅡㅇㅟ	-8741
▁ㄲㅡㅁ	-8742
▁ㅇㅚㅁㅕㄴ	-8743
▁ㅇㅓㅄㄱㅜㄴㅏ	-8744
▁ㄴㅐㄹㅣㄱㅗ	-8745
▁ㄷㅡㅇㅅㅣㄴ	-8746
▁ㅁㅕㅊㄷㅏㄹ	-8747
▁ㅅㅗㄴㅇㅡㄹ	-8748
▁ㅂㅜㅌㅇㅓ	-8749
ㅅㅣㅊㅓㅇㄹㅠㄹ	-8750
▁ㅎㅓㅇㅛㅇ	-8751
▁ㅈㅔㄴ	-8752
ㅈㅏㅇㄱㅗ	-8753
ㅓㅂㅈㅏ	-8754
ㅇㅣㅇㅛㅇ	-8755
ㅇㅣㄴㄱㅘ	-8756
ㅌㅗㅇㅅㅣㄴ	-8757
▁ㅎㅏㄱㅇㅝㄴ	-8758
▁ㄲㅗㅊㄱㅣㄹㅁㅏㄴ	-8759
▁ㄴㅏㅁㅌㅏㅅ	-8760
▁ㄱㅔㄹ	-8761
ㅍㅔㅇㅣ	-8762
ㅅㅏㄹㄱㅗ	-8763
▁ㄱㅕㅁㅅㅗㄴ	-8764
ㅇㅏㄴㅎㅏㅁ	-8765
ㄱㅏㅁㄷㅗ	-8766
▁ㅂㅓㄹㄹㅔ	-8767
▁ㅅㅡㅍㅔㄱ	-8768
▁ㅎㅏㄴㅏㄴㅣㅁ	-8769
▁1%	-8770
ㅋㅣㄱㅗ	-8771
▁ㅈㅏㄹㄴㅏ	-8772
▁ㅈㅗㅈㅏㅇ	-8773
ㅎㅏㄹㄸㅐㄴ	-8774
▁ㅁㅏㅅㅇㅣ	-8775
▁ㅇㅕㄹㅡㅁㅇㅔ	-8776
▁ㅅㅏㅁㅅㅓㅇㅇㅡㄹ	-8777
▁ㅎㅏㄷㅓㄴㄱㅏ	-8778
ㄱㅡㄷㅐㄹㅗ	-8779
ㅕㅆㄴㅑ	-8780
▁ㅁㅏㄹㅇㅣㄴㄱㅏ	-8781
▁ㅇㅏㅇㅣㄷㅡㄹㅇㅣ	-8782
▁ㅇㅢㄹㅣ	-8783
▁ㄱㅜㄱㅁㅣㄴㅎㅕㄹ	-8784
▁ㄲㅘㄱ	-8785
▁ㄱㅏㅌㄴㅑ	-8786
▁ㅅㅣㄴㅏㄹ	-8787
ㅜㅇㅑ	-8788
▁ㄱㅓㄹㅇㅓ	-8789
▁ㅈㅏㅇㅕㄴㅅㅡㄹㅓㅂㄱㅔ	-8790
▁ㅈㅗㄱㅣ	-8791
▁ㅁㅏㄹㅎㅐ	-8792
▁ㅁㅜㅇㅓㅅㅇㅡㄹ	-8793
ㅇㅔㄷㅐㅎㅏㄴ	-8794
ㅜㅈㅣ	-8795
▁ㄱㅗㅂㅏㄹ	-8796
▁ㅈㅏㄹㅣㅇㅔ	-8797
▁ㅌㅔㅂㅡㄹㄹㅣㅅ	-8798
ㅇㅓㅂㅇㅣ	-8799
▁ㄲㅡㅌㄴㅏㅁㅕㄴ	-8800
▁ㅅㅗㅅㅣㄴ	-8801
▁ㅈㅣㅈㅓㅇ	-8802
▁ㅁㅏㄹㄹㅏㄱㅗ	-8803
▁ㄷㅚㄴㅈㅏㅇ	-8804
▁ㅎㅏㅁㅌㅡㅅ	-8805
▁ㅎㅏㅂㄱㅕㄱ	-8806
▁ㅇㅏㄴㅣㅂㄴㅣㄲㅏ	-8807
ㅋㅐㄹㅣㄱ	-8808
▁ㅂㅣㅇㅏㄴ	-8809
▁ㅈㅓㄱㅇㅣ	-8810
▁ㅃㅓㄴㅎㅏㄴ	-8811
ㅁㅗㄹㅡㄴㅡㄴ	-8812
▁ㅅㅓㅇㅂㅓㅁㅈㅚ	-8813
ㅐㅇㅜㄱㅗ	-8814
▁ㅇㅏㅈㅣㄱㄲㅏㅈㅣ	-8815
ㅌㅡㄹㄱㅗ	-8816
▁ㅅㅔㅇㅣㄹ	-8817
▁ㅈㅏㅅㅣㄴㅇㅡㄹ	-8818
▁ㅅㅏㅇㅛㅇㅎㅏㄴㅡㄴ	-8819
ㅌㅐㅇㅇㅣ	-8820
▁ㅎㅘㄱㅏ	-8821
▁ㅎㅏㄹㅁㅏㄹ	-8822
▁ㅁㅛ	-8823
ㅍㅐㅅㅡ	-8824
▁ㄷㅐㅈㅓㅂ	-8825
▁ㅁㅗㅅㅎㅏㅁㅕㄴㅅㅓ	-8826
▁ㄲㅗㅂㅏㄱ	-8827
▁ㄴㅡㄹㅇㅓ	-8828
▁ㅂㅗㄹㅁㅏㄴ	-8829
▁ㅇㅏㄴㅎㅏㄴ	-8830
▁ㅈㅏㅇㅇㅏㄱ	-8831
▁ㅅㅣㅀㅇㅓㅅㅓ	-8832
▁ㅇㅣㅆㄱㅔㅆㅈㅣㅁㅏㄴ	-8833
▁ㅃㅐㄷㅗㄹ	-8834
ㅏㄶㅇㅣ	-8835
▁ㄱㅡㄷㅐ	-8836
ㅇㅏㄱㅍㅡㄹ	-8837
▁ㅎㅐㅆㄷㅓㄴㅣ	-8838
▁ㅅㅏㅇㅎㅘㅇㅇㅔㅅㅓ	-8839
▁ㄱㅗㅇㅎㅘㅇ	-8840
▁ㅇㅣㄹㅓㅎㅏㄴ	-8841
▁ㄷㅡㄹㅏㅁㅏㅇㅔ	-8842
▁ㄷㅔㄹㅕ	-8843
▁ㅈㅜㅇㅅㅏㄴ	-8844
▁ㅇㅐㅍㅡㄹㅇㅣ	-8845
▁ㅎㅗㅅ	-8846
ㄴㅗㅎ	-8847
▁ㅁㅗㅁㅇㅣ	-8848
▁ㅎㅏㄴㅏㄱㅏ	-8849
▁ㄴㅓㅎㅢㄷㅡㄹ	-8850
▁ㅅㅣㄹㅅㅣㄱㅏㄴ	-8851
ㄹㅋㅔ	-8852
ㅊㅏㅅㅓㄴ	-8853
▁ㄱㅟㅇㅕㅂ	-8854
ㅎㅏㄱㅜㄴㅏ	-8855
▁ㅇㅓㄲㅐ	-8856
▁ㅇㅣㄹㅁㅏㄴ	-8857
ㅇㅣㄷㅓㄴㄷㅔ	-8858
▁ㅇㅏㅍㄷㅟ	-8859
14	-8860
ㅌㅜㄱㅣ	-8861
ㅁㅕㄴㅎㅓ	-8862
ㅈㅜㅇㅇㅣㄴ	-8863
▁ㄷㅙㅆㄷㅏ	-8864
▁ㅌㅓㅌㅡㄹ	-8865
▁ㅌㅓㄱ	-8866
ㅅㅜㄱㅡㄴ	-8867
▁ㅅㅐㅇㄱㅏㄱㅈㅗㅁ	-8868
▁ㅇㅣㅂㅈㅏㅇㅇㅔㅅㅓ	-8869
▁ㄱㅡㄷㅡㄹㅇㅡㄴ	-8870
▁ㅁㅜㄱㅘㄴ	-8871
ㅂㅕㅇㅇㅝㄴ	-8872
ㅅㅇㅡㅁㅕㄴ	-8873
▁ㅈㅓㅇㅅㅣㄴㅇㅣ	-8874
▁ㅇㅏㄱㅍㅡㄹㄷㅏㄴㅡㄴ	-8875
ㄱㅗㄹㅕ	-8876
ㄷㅝㄹㅏ	-8877
ㅅㅓㅁ	-8878
▁ㅇㅏㅁㅜㅌㅡㄴ	-8879
▁ㄴㅏㅇㅘㅆㄴㅡㄴㄷㅔ	-8880
ㅂㅜㅅㅏㄴ	-8881
▁ㅇㅜㅅㄱㅣㄴㄷㅏ	-8882
▁ㅇㅞㅂ	-8883
▁ㅎㅐㄱㅗ	-8884
ㅔㅁ	-8885
▁ㄱㅡㄹㅕ	-8886
ㄲㅓㄴㄷㅔ	-8887
▁ㅁㅏㅈㅊ	-8888
▁ㅎㅏㅂㅂㅕㅇ	-8889
ㅂㅏㅇㅇㅔㅅㅓ	-8890
ㅅㅡㅇㅈㅏㅇㄱㅜ	-8891
▁ㅁㅐㅇㅕㄴ	-8892
ㅜㄷㅗ	-8893
ㅋㅗㅅㅡ	-8894
▁ㅈㅔㅊㅜㄹ	-8895
▁ㅇㅜㄹㄴㅏㄹㅏ	-8896
▁ㅇㅗㄹㄹㅏㄱㅏ	-8897
▁ㅅㅓㅂㅇㅚ	-8898
▁ㅇㅚㄱㅜㄱㅇㅔㅅㅓ	-8899
ㅈㅐㅁㅕㅇ	-8900
▁ㅂㅓㅂㅈㅓㄱ	-8901
▁ㅅㅐㅅㅏㅁ	-8902
▁ㅈㅓㅈㅓㅇㄷㅗ	-8903
ㅇㅗㅎ	-8904
ㄷㅚㄱㅣㄹ	-8905
ㄱㅏㄹㅣㄱㅗ	-8906
ㅕㄴㅗㅎㄱㅗ	-8907
ㅆㅓㅅㅓ	-8908
▁ㅈㅓㅇㅂㅜㅇㅔ	-8909
▁ㄱㅣㅁㅇㅠㅈㅓㅇ	-8910
ㄹㅏㅇㅑ	-8911
ㄴㅏㄴㅡㄴㄷㅔ	-8912
▁ㅎㅕㄴㅅㅣㄹㅇㅣ	-8913
ㅐㅇㄱㅏㄱ	-8914
▁ㅂㅏㄱㅅㅣㄴㅎㅖ	-8915
ㅈㅓㄱㅓㅅ	-8916
▁ㅇㅣㄹㅓㅎ	-8917
▁ㅇㅏㄴㅂㅗㄴ	-8918
▁ㄱㅕㅇㅈㅔㄴㅡㄴ	-8919
▁38	-8920
▁ㅇㅗㄱㅗ	-8921
▁ㅂㅜㄹㄱㅏ	-8922
▁ㅁㅗㅅㅁㅣㄷ	-8923
▁ㅁㅜㄹㄱㅏㄱㅏ	-8924
▁ㄱㅐㄷㅙㅈㅣㄷㅡㄹ	-8925
ㅢㅇㅕㄴ	-8926
▁ㅇㅓㄹㅁㅏㅈㅓㄴ	-8927
ㅎㅢㄹㅗㅇ	-8928
ㅅㅓㅇㅇㅡㄹㅗ	-8929
ㅐㅇㅗㄹㅐ	-8930
outu	-8931
▁ㅂㅏㄴㅂㅏㄱ	-8932
▁ㅈㅗㄱㅡㅁㅆㅣㄱ	-8933
▁ㅈㅓㅇㅎㅘㄱㅎㅏㄴ	-8934
▁ㅊㅜㄹㅏㄱ	-8935
▁ㅎㅏㄴㄱㅓㄴ	-8936
▁ㄷㅏㄹㄹㅏㄱㅗ	-8937
▁ㄱㅡㄷㅗㄴㅇㅡㄹㅗ	-8938
ㅗㅁㅏㄱ	-8939
ㅌㅜㄴ	-8940
▁ㅌㅜㅁㅕㅇ	-8941
▁ㄱㅏㅅㅣㄱ	-8942
ㅇㅣㄹㄸㅐ	-8943
▁ㄱㅏㅊㅣㄱㅏ	-8944
▁ㄱㅓㅅㅇㅣㅁ	-8945
▁ㅈㅓㄱㅇㅡㅇ	-8946
▁ㅅㅏㄹㅖ	-8947
ㅡㅅㅚ	-8948
▁2~3	-8949
▁ㅇㅣㄴㅡㄴ	-8950
▁ㅎㅏㄴㅍㅛ	-8951
▁ㄸㅓㄹㅇㅓㅈㅣ	-8952
ㄷㅐㅎㅐ	-8953
▁ㅈㅣㅋㅣㄹ	-8954
ㄴㅡㄴㄱㅓㅅㄷㅗ	-8955
ㅆㅣㅇ	-8956
~4	-8957
▁ㅅㅏㅇㄷㅏㅇㅎㅣ	-8958
ㅇㅜㅅㅓㅇ	-8959
▁yg	-8960
ㅗㄴㅔ	-8961
▁ㄷㅓㅅ	-8962
▁ㄴㅡㄲㅣㄴ	-8963
▁ㅉㅗㄱㅂㅏㄹㅣ	-8964
▁ㄹㅗㄹ	-8965
13	-8966
▁ㅇㅠㅁㅕㅇㅎㅏㄴ	-8967
▁ㅇㅏㄴㅕ	-8968
▁23	-8969
▁ㅂㅔㄹ	-8970
ㄹㅔㄱㅣ	-8971
▁ㄷㅗㄱㅈㅓㅁ	-8972
▁ㅇㅣㅆㄱㅜㄴㅏ	-8973
▁ㅂㅣㄹㄹㅕ	-8974
ㅇㅟㅇㅝㄴ	-8975
▁ㅅㅠㄷㅗㄹ	-8976
▁ㅈㅗㅈ	-8977
▁ㅇㅠㄷㅗ	-8978
▁ㅎㅏㄴㅍㅜㄴ	-8979
ㅋㅜㄹ	-8980
ㅇㅏㅆㄷㅓㄴ	-8981
ㄱㅓㄷㅗ	-8982
▁ㄱㅣㅎㅚㅇㅔ	-8983
▁ㅁㅜㄴㅈㅔㅈㅣㅁㅏㄴ	-8984
ㅓㄹㅗ	-8985
▁ㅁㅗㄹㅡㅈㅣㅁㅏㄴ	-8986
▁ㅁㅜㄷㅗㄱㅏ	-8987
▁ㅈㅓㅇㅂㅜㅇㅑ	-8988
▁ㄷㅏㅇㅡㅁㅇㅔ	-8989
▁ㅎㅜㅇ	-8990
me	-8991
ㅋㅏㅁ	-8992
▁ㅂㅜㄹㅡㄹ	-8993
ㄹㅣㅇㅏ	-8994
▁ㅈㅏㄹㅅㅐㅇㄱㅕㅆ	-8995
ㅌㅓㄱㅏ	-8996
ㄱㅜㄴㅇㅣ	-8997
ㅇㅗㄹㄹㅕ	-8998
▁ㅂㅕㄱ	-8999
▁ㅅㅡㅌㅡㄹㅔ	-9000
ㅈㅓㄹㅎㅏㄴ	-9001
▁ㅅㅏㄹㅅㅜ	-9002
▁ㅁㅏㅈㄴㅡㄴㄷㅔ	-9003
ㄷㅏㄷㄱㅗ	-9004
ㅊㅓㅁㅓㄱㄱㅗ	-9005
ㅁㅣㄴㅈㅜㅈㅜㅇㅢ	-9006
youtu	-9007
ㅎㅏㅅㅏㄴ	-9008
ㄱㅏㅇㅔㅅㅓ	-9009
ㅣㅁㅣㅇㅓㅁ	-9010
▁ㅅㅣㅁㅎㅏㄱㅔ	-9011
▁ㅇㅣㄴㅗㅁㅇㅢ	-9012
▁ㅅㅣㅂㅏㄹ	-9013
▁ㅂㄷㅂㄷ	-9014
ㅁㅣㄹㅡㄹ	-9015
▁ㅇㅢㄷㅗ	-9016
▁ㅇㅓㄹㅁㅏㅇ	-9017
▁ㅁㅏㄶㅇㅏㅇㅛ	-9018
▁ㄱㅡㄴㅏㅈㅓㄴㅏ	-9019
▁ㅎㅏㄱㅣㄹ	-9020
ㅇㅔㄷㅏㄱㅏ	-9021
▁ㅅㅗㄹㅣㅎㅏㄱㅗ	-9022
▁ㅇㅣㅂㅇㅡㄹ	-9023
ㅎㅏㄷㅓㄴㅈㅣ	-9024
▁ㄱㅟㅇㅕㅂㄱㅗ	-9025
▁ㄱㅘㄴㅅㅣㅁㅇㅡㄹ	-9026
ㅃㅏㄴㅡㄴ	-9027
▁ㅊㅓㄴㄱㅜㄱ	-9028
ㅇㅣㄷㅓㄴ	-9029
▁ㅈㅓㅇㅁㅏㄹㄹㅗ	-9030
▁ㅅㅐㅇㄱㅏㄱㅎㅐㅅㅓ	-9031
▁ㅎㅐㅆㄴㅔ	-9032
▁ㄷㅡㅇㄹㅗㄱ	-9033
ㅇㅣㄹㅏㄴㄷㅏ	-9034
▁ㄱㅟㅈㅗㄱㄴㅗㅈㅗ	-9035
▁ㅎㅕㄴㅅㅣㄹㅇㅡㄹ	-9036
▁ㅈㅜㅇㅛ	-9037
▁ㅂㅏㄹㅇㅕㄴㄱㅣ	-9038
ㅎㅘㅁㅜㄹ	-9039
ㄷㅏㄹㅏㄴㅡㄴ	-9040
▁ㄱㅣㄴㅈㅏㅇ	-9041
▁ㅅㅓㅇㅜㄹㄷㅐ	-9042
▁ㄴㅜㄴㅇㅡㄹ	-9043
▁ㄷㅏㄴㅣㄱㅗ	-9044
▁ㄱㅏㄴㅁㅏㄴㅇㅔ	-9045
▁ㅅㅏㅁㅅㅓㅇㅍㅗㄴ	-9046
▁ㄴㅏㅃㅏ	-9047
ㄷㅜㄹㅜㄱ	-9048
▁ㅇㅑㄱㅜ	-9049
▁ㅈㅣㄱㅏㅂ	-9050
ㄷㅐㅊㅐㄱ	-9051
▁ㅎㅚㅅㅏㅇㅔㅅㅓ	-9052
ㄱㅣㄴㅡㅇ	-9053
ㅎㅏㄱㅔㅆㅈㅣㅁㅏㄴ	-9054
▁ㅎㅏㄴㅅㅓㄱㄱㅠ	-9055
▁e	-9056
ㅏㅇㅘㅅㅓ	-9057
▁ㅇㅏㄶㄴㅏㅇㅛ	-9058
▁ㅇㅕㄹㅓㄱㅏㅈㅣ	-9059
▁ㄱㅡㄴㅣㄲㅏ	-9060
ㅈㅜㅊㅏ	-9061
ㅁㅏㅅㅇㅔ	-9062
ㅇㅣㄴㅅㅣㄱ	-9063
ㅑㄴ	-9064
▁ㅂㅜㄷㅗ	-9065
▁ㄱㅡㄹㅆㅔ	-9066
▁ㅎㅏㄴㅅㅜㅁ	-9067
▁ㄷㅏㄹㅡㄴㄴㅏㄹㅏ	-9068
▁ㅋㅡㄹㅣ	-9069
ㅅㅏㄴㅡㄴㄷㅔ	-9070
▁ㅇㅖㅅㄴㅏㄹㅇㅔ	-9071
▁ㅈㅗㅎㅇㅡㅁㅕㄴ	-9072
ㅁㅗㄹㅡ	-9073
▁ㅂㅣㅆㅏㄷㅏ	-9074
▁ㅅㅗㅎㅘ	-9075
▁ㅇㅓㅉㅓㄱㅜ	-9076
ㅇㅏㅍㅇㅔㅅㅓ	-9077
▁ㄸㅏㅈㅣㅁㅕㄴ	-9078
▁mbc	-9079
▁ㅇㅑㄱㅡㄴ	-9080
▁ㅁㅏㅇㅎㅏㄱㅗ	-9081
▁ㄱㅣㅁㅎㅕㄴ	-9082
ㄷㅏㄴㅔ	-9083
ㄷㅐㄱㅜㄱ	-9084
▁ㅈㅐㅁㅣㄷㅗ	-9085
▁ㅇㅣㅎㅐㅇㅏㄴ	-9086
ㅁㅏㄹㅇㅔ	-9087
▁ㄹㅏㅇㅣㅂ	-9088
ㄷㅏㄴㅣㄹ	-9089
ㅅㅜㄴㅇㅟ	-9090
▁ㅈㅣㅂㅎㅐㅇ	-9091
▁ㄷㅗㄴㅁㅏㄶㅇㅡㄴ	-9092
▁ㅌㅗㅂ	-9093
ㅈㅕㅆㅇㅡㅁ	-9094
▁ㅁㅜㄴㄷㅏㄷ	-9095
▁ㅊㅏㅇㅇㅓㅂ	-9096
▁ㅇㅕㄹㅓㅅ	-9097
ㅕㄹㅡㄹ	-9098
▁ㅇㅣㅆㄱㅣ	-9099
▁->	-9100
▁ㄷㅐㅌㅗㅇㄹㅕㅇㅇㅡㄹㅗ	-9101
▁ㅎㅏㄴㅏㄴㅡㄴ	-9102
▁ㅂㅏㅇㅎㅐ	-9103
▁ㅎㅏㄹㅁㅓㄴ	-9104
ㅎㅐㅆㄷㅓㄴㅣ	-9105
ㅉㅏㄴ	-9106
▁ㅂㅏㄹㅐ	-9107
▁ㅇㅣㅇㅘ	-9108
▁ㄱㅣㅇㅝㄴ	-9109
▁ㄱㅏㅇㅇㅏㅈㅣ	-9110
ㄴㅏㅇㅘㅅㅓ	-9111
▁ㅊㅜㄹㅂㅏㄹ	-9112
▁ㄱㅏㅅㅡㅁㅇㅣ	-9113
ㅏㄹㅇㅣ	-9114
▁ㅈㅓㅇㅇㅠㄹ	-9115
kw	-9116
▁ㅈㅏㄹㅁㅗㅅㅇㅣ	-9117
ㅎㅐㅈㅕ	-9118
▁ㅇㅓㅈㅣㄱㅏㄴ	-9119
▁ㄷㅐㅂㅜㅂㅜㄴㅇㅢ	-9120
ㄱㅓㅇㅢ	-9121
!"	-9122
▁ㅂㅏㅂㄱㅡㄹㅡㅅ	-9123
ㄷㅐㅇㅔㅅㅓ	-9124
▁ㅅㅏㅁㅜㅅㅣㄹ	-9125
ㄷㅐㅇㅑ	-9126
▁ㄱㅝㄴㄹㅣ	-9127
ㄱㅖㄴㅡㄴ	-9128
ㅅㅓㄴㅅㅐㅇ	-9129
▁ㄴㅐㄴㅕㄴㅇㅔ	-9130
▁ㅂㅣㅈㄴㅐㅅㅓ	-9131
!?	-9132
▁ㅃㅐㅇㅏㅅ	-9133
▁ㅌㅐㅇㅓㄴㅏㄴ	-9134
ㅂㅗㅁㅕ	-9135
▁ㄴㅏㅎㅏㄴㅌㅔ	-9136
▁ㅊㅗㅅㅂㅜㄹㅅㅣㅇㅟ	-9137
▁ㅇㅏㄱㅇㅢ	-9138
▁ㅋㅗㅁㅣ	-9139
ㅅㅇㅓ	-9140
▁ㄷㅏㅇㅣ	-9141
▁ㅍㅏㄱㅚ	-9142
ㅇㅏㅇㅣㄷㅗㄹ	-9143
▁ㅇㅐㅍㅡㄹㅇㅡㄴ	-9144
ㅓㅂㅈㅏㄷㅡㄱ	-9145
ㅈㅜㅈㅏ	-9146
▁ㄷㅡㄹㅇㅓㄱㅏㅅㅓ	-9147
ㅎㅐㅈㅜㅅ	-9148
▁ㅎㅜㅂㅏㄴ	-9149
ㄷㅏㅇㅈㅏㅇ	-9150
ㅅㅣㄴㄷㅗ	-9151
▁ㄴㅐㄷㅗㄴ	-9152
▁ㄸㅓㄹㅇㅓㅈㅕ	-9153
▁ㅂㅜㄷㅡㄹㅂㅜㄷㅡㄹ	-9154
▁ㄱㅜㄱㄱㅏㅇㅔ	-9155
ㄱㅡㅁㄹㅣ	-9156
ㅈㅜㅇㅇㅣㄴㄷㅔ	-9157
ㅈㅣㅂㅏㅇ	-9158
▁ㅂㅏㄷㅇㅏㄹㅏ	-9159
▁ㅅㅗㄹㄹㅗ	-9160
ㅅㅡㅋㅣ	-9161
ㅅㅣㅂㅅㅣㅇㅗ	-9162
▁ㅇㅏㄹㅇㅏㄹㅏ	-9163
▁ㅁㅗㄹㅡㄹㄲㅏ	-9164
90	-9165
ㄷㅔㅊㅔ	-9166
ㅁㅣㄷㄱㅗ	-9167
▁ㅁㅗㄹㅋㅏ	-9168
ㄱㅣㄴㅎㅏㄴㄷㅔ	-9169
ㅏㄴㅇㅔ	-9170
▁ㄸㅡㄱ	-9171
ㅎㅎㅎㅎㅎㅎㅎㅎ	-9172
ㅉㅗ	-9173
▁ㅇㅣㅈㅔㅇㅑ	-9174
▁ㄱㅣㅇㅓㅂㅇㅡㄹ	-9175
▁ㅇㅕㅇㅎㅘㄴㅡㄴ	-9176
▁you	-9177
▁ㄷㅡㅇㅇㅢ	-9178
▁ㅅㅏㄹㅏㅁㅇㅣㄴㄷㅔ	-9179
ㅣㄴㅡㄴㄱㅓ	-9180
ㅎㅐㅇㅚ	-9181
▁ㅅㅓㅁㅣㄴㅇㅡㄴ	-9182
▁ㅂㅐㄱㅅㅜ	-9183
ㅈㅣㄹㅏㅇ	-9184
▁ㅁㅜㄴㅚ	-9185
ㅇㅑㅇㅇㅣ	-9186
▁ㅅㅣㅀㅇㅓㅎㅏㄴㅡㄴ	-9187
ㄸㅐㅁㅐ	-9188
▁ㅈㅣㅅㄱㅓㄹ	-9189
▁ㅁㅜㅇㅕㄱ	-9190
▁ㅁㅏㄱㅇㅡㄹ	-9191
▁ㅅㅐㅇㄱㅣㅁㅕㄴ	-9192
▁ㅈㅏㄹㄷㅗ	-9193
ㅐㅇㅇㅣ	-9194
.?	-9195
▁ㄸㅡㄹ	-9196
▁ㅎㅗㅈㅜ	-9197
▁ㅊㅓㅇㅊㅜㄴ	-9198
▁ㅇㅣㄹㅡㅁㅇㅡㄹ	-9199
ㅈㅗㄱㅇㅡㄹ	-9200
ㅅㅔㅁㅓㄴㅈㅣ	-9201
▁ㅈㅗㅇㅕㅇㄴㅏㅁ	-9202
▁ㅉㅣㅁ	-9203
▁ㅎㅘㄴㅅㅐㅇ	-9204
ㅇㅏㅇㅜㅅ	-9205
▁ㄷㅏㄹㅇㅕㄴ	-9206
ㅆㅡㄴㅡㄴㄷㅔ	-9207
▁ㄱㅏㅇㄹㅕㄱㅎㅏㄴ	-9208
ㄹㅡ	-9209
▁ㅂㅏㄲㅟㄴ	-9210
ㅉㅣㄱㄱㅗ	-9211
ㅁㅏㅈㄴㅡㄴ	-9212
▁ㅇㅕㄱㅅㅣㄴㅏ	-9213
▁ㅈㅓㅇㅊㅣㄹㅡㄹ	-9214
▁ㄱㅣㅂㅗㄴㅈㅓㄱㅇㅣㄴ	-9215
ㅏㄴㅎㅣ	-9216
ㅎㅏㄱㅗㄷㅗ	-9217
▁ㅁㅏㄴㄴㅏㄴㅡㄴ	-9218
▁ㅊㅏㅁㄱㅗㄹㅗ	-9219
ㄱㅕㅂㅅㅏㄹ	-9220
ㅇㅣㅆㅇㅓㄷㅗ	-9221
▁ㅁㅗㄹㅡㄱㅔ	-9222
ㅡㄴㅣ	-9223
▁ㅇㅠㄷㅗㄱ	-9224
ㄹㅕㄱㅇㅡㄹㅗ	-9225
ㅂㅜㄴㄷㅗ	-9226
ㄷㅐㅇㅘ	-9227
▁ㄷㅐㅌㅗㅇㄹㅕㅇㅇㅢ	-9228
ㅎㅏㄴㅈㅜㄹ	-9229
▁ㅇㅣㅈㅓㅇㅎㅕㄴ	-9230
▁ㅇㅓㄴㅈㅔㄴㄱㅏ	-9231
▁ㅅㅏㄴㅑ	-9232
ㅆㅏㄱㅗ	-9233
▁ㅁㅐㄹㅕㄱㅇㅣ	-9234
▁ㅇㅣㅆㄴㅡㄴㄱㅓㅈㅣ	-9235
▁ㅆㅗㄱ	-9236
▁ㅇㅣㅆㅇㅡㅁㅕ	-9237
ㅅㅣㄴㅇㅡㄹ	-9238
▁ㅂㅜㄱㄱㅚ	-9239
▁ㅆㅏㅈㅣㄹ	-9240
▁ㅊㅓㄹㅂㅏㅂㅌㅗㅇ	-9241
ㅈㅣㄴㅇㅏㄶ	-9242
▁ㅁㅗㄹㅡㄴㅑ	-9243
ㅇㅞ	-9244
▁ㅎㅏㄹㄱㅓㅅ	-9245
ㅂㅗㄱㅈㅣ	-9246
▁ㄴㅏㅇㅣㅇㅔ	-9247
▁ㅎㅐㅆㄴㅡㄴㅈㅣ	-9248
▁ㅂㅣㄴㅡㄴ	-9249
ㄴㅕㄴㅎㅜ	-9250
▁ㅅㅣㄹㅈㅣㄹ	-9251
▁ㄷㅓㅂㅡㄹㅇㅠ	-9252
▁ㄷㅐㅎㅘ	-9253
ㅂㅣㅇㅠㄹ	-9254
ㅊㅕㅁㅓㄱㄴㅡㄴ	-9255
▁ㄷㅗㄷㅜㄱㄴㅗㅁ	-9256
▁ㅇㅈ	-9257
▁ㅈㅣㄴㅏㄱㅏㄴㅡㄴ	-9258
ㅇㅓㅄㄴㅏ	-9259
▁ㅁㅓㄴㅈㅣ	-9260
ㅇㅔㄱㅔㄷㅗ	-9261
ㅅㅗㅅㅗㄱ	-9262
▁ㄷㅏㄴㅇㅓ	-9263
▁ㅎㅘㄹㅇㅛㅇ	-9264
ㅁㅗㄹㅡㄹ	-9265
▁ㅁㅏㅈㄷㅏㄱㅗ	-9266
ㅍㅕㅇㄱㅏ	-9267
▁ㅂㅔㄷㅐㅅ	-9268
ㅅㅏㄴㅇㅡㄹ	-9269
ㅆㄱㅔㅆㅈㅣ	-9270
▁ㅂㅏㄱㅅㅏㄹ	-9271
▁ㅈㅜㄹㅗ	-9272
▁ㅇㅓㅁㅓㄴㅣ	-9273
ㅇㅣㄴㅏㄹ	-9274
▁ㅇㅕㄱㄱㅕㅇ	-9275
ㅇㅏㄴㅇㅡㄹ	-9276
▁ㄷㅏㄹㅡㄴㄱㅓㄴ	-9277
ㄹㅓㅁ	-9278
ㅎㅐㅇㅑㅎㅏㄴㅡㄴ	-9279
ㄱㅜㄹㅗ	-9280
ㅇㅣㄴㅎㅐ	-9281
▁ㅋㅡㄹㄹㅓㅂ	-9282
▁ㅊㅜㅈㅏㅂ	-9283
▁ㅂㅜㄴㄹㅣ	-9284
▁ㅎㅐㅈㅝㅇㅑ	-9285
▁ㅆㅏㄱㅏㅈㅣ	-9286
▁ㄷㅏㅇㅎㅏㄴ	-9287
▁ㅋㅋㅋㅋㅋㅋㅋㅋㅋㅋㅋㅋ	-9288
ㅈㅓㅇㅈㅣ	-9289
▁ㄴㅏㅂㄷㅡㄱ	-9290
▁ㄱㅣㅁㅇㅡㄴㅅㅜㄱ	-9291
▁ㄷㅏㅂㄷㅏㅂㅎㅏㄷㅏ	-9292
ㅂㅐㄴ	-9293
ㄹㅓㅅㅓ	-9294
▁ㅇㅗㅎㅐ	-9295
ㅇㅣㄱㅔㅆㅈㅣ	-9296
▁ㅂㅜㅅㅏㄴㅎㅐㅇ	-9297
▁ㅊㅏㅇㅁㅜㄴ	-9298
▁ㅇㅕㄱㄱㅕㅂㄷㅏ	-9299
▁ㅇㅣㅌㅐ	-9300
ㄱㅣㅍ	-9301
ㅇㅣㄴㅇㅔ	-9302
▁ㄱㅣㅁㄱㅜㄱ	-9303
==	-9304
▁ㄷㅐㅈㅓㄴ	-9305
▁ㄱㅗㅇㅂㅓㅁ	-9306
▁ㅇㅘㄴㅅㅓㅇ	-9307
ㅂㅜㄹㅍㅕㄴ	-9308
▁ㅅㅟㅂㅈㅣ	-9309
▁ㅊㅏㄴㅡㄴ	-9310
▁ㅇㅣㄴㅈㅓㅇㅎㅏㄱㅗ	-9311
▁ㅇㅣㅂㅓㄴㅇㅔㄴㅡㄴ	-9312
ㅉㅓㄹ	-9313
▁ㄷㅐㄷㅏㅂ	-9314
▁ㅁㅏㄷㅏㅇㅇㅔ	-9315
ㅣㄹㅏㄴ	-9316
▁ㄱㅏㄱㅣ	-9317
ㅈㅏㅅㅏㄹ	-9318
▁ㄷㅡㄷㄱㅣ	-9319
▁ㅎㅐㅆㄴㅑ	-9320
ㅓㅂㅗ	-9321
▁ㄴㅗㄹㅐㄴㅡㄴ	-9322
▁36	-9323
ㅇㅓㅄㅇㅡㄹ	-9324
▁ㅂㅏㄹㅐㅇㅛ	-9325
▁ㅇㅏㄴㅣㄴㅔ	-9326
ㅌㅓㅇㅔ	-9327
▁ㅁㅏㅈㅣㅁㅏㄱㅇㅔ	-9328
▁ㅇㅏㄹㅁㅕㄴ	-9329
ㄱㅡㄷㅗㅇㅇㅏㄴ	-9330
▁ㄴㅏㄱㅏㅁㅕㄴ	-9331
▁ㄴㅚㄱㅏ	-9332
ㅋㅘㅇ	-9333
ㅁㅣㄱㅏ	-9334
▁ㄷㅐㅅㅏ	-9335
ㄱㅏㅁㅏㄱ	-9336
▁ㅂㅕㅇㅇㅕㄱ	-9337
▁ㅉㅏㄼㅇㅡㄴ	-9338
ㅎㅐㅆㄱㅔㅆㅈㅣ	-9339
▁ㅈㅣㄷㅣ	-9340
▁ㅇㅖㄹㅡㄹ	-9341
▁ㅇㅗㄹㅂㅏㄹㅡㄴ	-9342
▁ㅃㅓㄴㅎㅣ	-9343
ㅎㅐㅇㅑㅎㅏㅂㄴㅣㄷㅏ	-9344
▁ㄱㅏㅈㅕㄱ	-9345
ㄱㅣㅅㅏㅇㅊㅓㅇ	-9346
▁ㅅㅣㄱㅡㄴ	-9347
▁ㄴㅏㅁㅇㅏㅆ	-9348
▁ㅇㅣㅆㄷㅓㄴㄷㅔ	-9349
▁ㄷㅏㄹㅣ	-9350
▁ㅎㅚㅅㅜ	-9351
▁ㅌㅏㄴㅅㅐㅇ	-9352
5%	-9353
▁ㄱㅡㄹㄱㅗ	-9354
▁ㅅㅣㄱㅅㅏㅇ	-9355
▁ㅈㅜㅁㅏㄹㅇㅔ	-9356
ㄱㅡㅇ	-9357
▁ㄴㅜㄴㅏ	-9358
▁ㄱㅕㄹㅎㅗㄴㅎㅐㅅㅓ	-9359
ㄹㅗㅁㅏㄴ	-9360
▁ㅎㅏㅅㅣㄱㅣㄹ	-9361
ㅉㅡ	-9362
▁ㅍㅔㄴ	-9363
ㅇㅣㅁㅕㄴㅅㅓ	-9364
▁ㅇㅣㄴㅅㅐㅇㅇㅡㄹ	-9365
▁ㄹㅗㄸㅗ	-9366
ㄱㅣㅈㅓㄴ	-9367
▁ㅎㅏㄴㅏㅇㅢ	-9368
▁ㅎㅏㅇㅇㅢ	-9369
▁ㄱㅡㄹㅓㄴㄱㅔ	-9370
▁ㅎㅐㅊㅕㅁㅓㄱ	-9371
ㅃㅓㄹ	-9372
▁ㅂㅗㅈㅡㅇ	-9373
ㅇㅣㄴㄷㅏㅇ	-9374
ㅂㅗㄱㅗㅅㅣㅍㄷㅏ	-9375
▁ㄴㅏㅇㅘㄹㅏ	-9376
▁ㅍㅣㄹㄹㅣㅍㅣㄴ	-9377
▁ㄴㅏㅁㅗㄹㄹㅏㄹㅏ	-9378
▁ㄴㅢ	-9379
▁ㄷㅗㄷ	-9380
▁ㅈㅣㄴㅉㅏㅇ	-9381
▁ㅇㅠㅎㅐㅈㅣㄴ	-9382
ㅠㅇ	-9383
▁ㄱㅐㅂㅗㅇ	-9384
▁ㄱㅓㅇㅣㅁ	-9385
▁ㅁㅏㄶㅇㅡㅁㅕㄴ	-9386
▁ㄱㅖㅅㅣㄴ	-9387
ㄱㅡㄹㅓㄹ	-9388
▁ㅈㅏㄱㄴㅕㄴㅇㅔ	-9389
▁ㄷㅣㄹ	-9390
▁ㅎㅜㄴㄹㅕㄴ	-9391
ㅅㅏㅇㅝㄴ	-9392
▁ㄴㅏㅂㅏㄹ	-9393
▁ㅎㅏㄹㅈㅜㄹ	-9394
▁ㅅㅜㄷㅜㄹㅜㄱ	-9395
▁ㅂㅜㄴㄹㅑㅇ	-9396
▁ㅇㅏㅊㅣㅁㅂㅜㅌㅓ	-9397
ㅂㅏㄼ	-9398
ㄱㅜㄱㅇㅡㄴ	-9399
▁ㅎㅏㄱㅔㅆㄷㅏ	-9400
▁ㅂㅓㄱ	-9401
ㅅㅜㄴㅏ	-9402
▁ㅈㅓㅇㅊㅔ	-9403
▁ㅅㅏㅇㅇㅓㅂ	-9404
▁ㅅㅏㅎㅚㅇㅔ	-9405
ㄱㅓㅇㅖㅇㅛ	-9406
▁ㅇㅣㄹㄱㅘㄴ	-9407
ㅆㄱㅜㅁㅏㄴ	-9408
▁ㅇㅣㄴㅏㄹㅏㄱㅏ	-9409
▁ㅇㅣㅆㅇㅓㅇㅑㅈㅣ	-9410
▁ㄷㅐㅌㅗㅇㄹㅕㅇㄷㅗ	-9411
▁ㅇㅠㅊㅜㄹ	-9412
▁ㄱㅗㅇㅑㅇㅇㅣ	-9413
▁ㅅㅣㅋㅣㄹ	-9414
▁ㅍㅗㄱㅎㅐㅇ	-9415
ㄱㅋ	-9416
ㅁㅐㅁ	-9417
ㅈㅗㅎㄱㅔ	-9418
▁ㄷㅚㄴㅣㄲㅏ	-9419
ㅎㅐㅈㅣㄴㄷㅏ	-9420
ㅇㅗㅇㅕㅁ	-9421
ㅅㅓㄴㅌㅐㄱ	-9422
ㄱㅗㅇㅟ	-9423
ec	-9424
▁ㄷㅐㄱㅜㄱㅁㅣㄴ	-9425
▁ㅅㅏㄱㅗㄱㅏ	-9426
▁ㅅㅏㅇㅣㅇㅔ	-9427
▁ㄱㅏㄴㅡㄴㄱㅔ	-9428
▁ㅈㅟㅇㅓ	-9429
▁ㅌㅗㅇㅎㅘ	-9430
▁ㅇㅣㄴㄱㅜㄱㅏ	-9431
▁ㅁㅏㄶㅅㅡㅂㄴㅣㄷㅏ	-9432
▁ㅎㅐㅆㄴㅏ	-9433
▁ㅅㅗㄱㅅㅏㅇ	-9434
▁27	-9435
▁ㄱㅏㄴㅏㄴㅎㅏㄴ	-9436
▁ㅇㅝㄴㅈㅓㄴ	-9437
ㅈㅣㅇㅏㄶㅇㅏ	-9438
ㄱㅜㄱㅎㅚㅇㅢㅇㅝㄴ	-9439
▁ㅅㅟㄴㅡㄴ	-9440
ㄱㅗㅇㅈㅏㅇ	-9441
▁ㄲㅗㅈ	-9442
ㅇㅜㅂㅣㄴ	-9443
ㅂㅜㄷㅗㅇㅅㅏㄴ	-9444
▁ㅎㅏㄴㅁㅗ	-9445
▁ㅂㅓㄹㅣㄴ	-9446
ㅂㅏㄱㅎㅏㄴ	-9447
ㄷㅣㅅㅕㄴ	-9448
▁ㅍㅣㄹㅅㅜ	-9449
▁ㅎㅘㄹㅅㅓㅇㅎㅘ	-9450
ㅊㅓㄹㅡㄹ	-9451
▁ㅂㅏㄴㄴㅏㅂ	-9452
ㅣㄷㅡㄹㅇㅏ	-9453
▁ㄷㅡㄹㅇㅓㄱ	-9454
▁ㅇㅐㄷㅡㄹㄷㅗ	-9455
ㄴㅓㅁㄱㅔ	-9456
▁ㅇㅠㄱㅈㅣ	-9457
ㅇㅣㄴㅎㅏㄴ	-9458
▁ㅎㅐㅇㄷㅗㅇㅇㅡㄹ	-9459
▁ㅁㅕㄹㅁㅏㅇ	-9460
ㅎㅐㄱㅕㄹ	-9461
▁ㄷㅏㄱㅊㅣㄱㅗ	-9462
ㅅㄴㅏ	-9463
▁ㅇㅖㅈㅓㄴㅂㅜㅌㅓ	-9464
▁ㅅㅐㅇㄱㅏㄱㅎㅏㅈㅣ	-9465
▁ㅎㅘㄱㅅㅣㄹㅎㅏㄴ	-9466
ㄱㅏㅌㄱㅗ	-9467
ㅇㅗㅂ	-9468
▁ㄱㅣㅇㅓㅂㅇㅔ	-9469
▁ㅇㅣㅇㅛㅇㅎㅐ	-9470
▁ㅁㅏㅈㄴㅡㄴㄱㅓ	-9471
▁ㅅㅏㅁㅅㅓㅇㅈㅓㄴㅈㅏ	-9472
ㅇㅟㄴ	-9473
ㅉㅐㅇ	-9474
ㅎㅏㅊㅏ	-9475
ㅈㅏㄶㅇㅓ	-9476
▁ㄱㅓㅈㅣㄱㅏㅌㅇㅡㄴ	-9477
ㅇㅣㅆㅇㅓㅆㄴㅡㄴㄷㅔ	-9478
ㅏㄹㄸㅐ	-9479
ㅣㄴㄷㅔ	-9480
▁ㅎㅘㄴㅅㅜ	-9481
▁ㄱㅡㅇㅈㅓㅇ	-9482
▁ㄷㅓㄷㅓㅇㅜㄱ	-9483
▁0.	-9484
▁ㅊㅚㅅㅓㄴㅇㅡㄹ	-9485
ㅏㅂ	-9486
ㅌㅓㄹㅗ	-9487
▁ㅅㅓㅇㅎㅢㄹㅗㅇ	-9488
ㄱㅡㅁㅇㅣ	-9489
ㅅㅓㅇㅇㅢ	-9490
▁1,	-9491
▁ㅂㅜㅂㅜ	-9492
▁ㅇㅏㄴㅡㄴㅎㅕㅇㄴㅣㅁ	-9493
24	-9494
▁ㅁㅓㄱㅏ	-9495
ㅅㅜㅈㅜㄴㅇㅣ	-9496
▁ㅊㅚㅌㅐㅁㅣㄴ	-9497
,.	-9498
▁ㅆㅓㅅㅓ	-9499
▁ㅇㅣㄷㅐ	-9500
▁ㄸㅜㄱ	-9501
▁ㅊㅜㅂ	-9502
▁ㅁㅏㄷㅏ	-9503
▁ㅁㅜㄴㅡㅇㄹㅕㄱ	-9504
ㅍㅣㅅㅡ	-9505
ㅅㅜㅈㅏㄱ	-9506
▁ㅇㅑㅇㅅㅣㅁㅇㅣ	-9507
▁ㅈㅏㄹㅁㅗㅅㅎㅏㄴ	-9508
▁ㄱㅘㅈㅏ	-9509
ㅅㅔㅇㅝㄹㅎㅗ	-9510
▁ㅅㅐㅇㄱㅕㅆㄴㅔ	-9511
▁ㅇㅜㄱㅇㅣㄹ	-9512
▁ㅁㅓㄹㅉㅓㅇㅎㅏㄴ	-9513
▁90%	-9514
▁600	-9515
▁ㅌㅓㄴ	-9516
ㄴㅡㅇㄹㅕㄱ	-9517
▁ㅈㅓㅅㅡㅇㅅㅏ	-9518
▁ㅍㅕㄴㅎㅣ	-9519
▁ㄷㅏㄹㅡㄷㅏ	-9520
▁ㅅㅣㄹㄱㅓㅁ	-9521
▁ㅎㅏㄴㅏㅆㅣㄱ	-9522
ㅅㅣㄷㅐㅇㅔ	-9523
▁30%	-9524
ㄱㅡㅁㅇㅠㅇ	-9525
▁ㄱㅣㅇㅓㅂㄷㅡㄹㅇㅣ	-9526
▁ㅈㅓㅇㄷㅗㅇㅢ	-9527
▁ㅇㅓㅉㅐㅆㄷㅡㄴ	-9528
▁ㄱㅜㅊㅣ	-9529
▁ㄱㅗㅇㄱㅏㄴ	-9530
ㄴㅏㄹㅏㄴㅡㄴ	-9531
ㄱㅗㅇㅈㅣㄱㅈㅏ	-9532
▁ㅇㅏㅂㄷㅗ	-9533
▁ㄷㅏㄹㅡㄹㄱㅔ	-9534
▁ㅍㅕㅇㅂㅓㅁㅎㅏㄴ	-9535
▁ㅊㅜㄹㅌㅚㄱㅡㄴ	-9536
ㅂㅓㄱㅓ	-9537
▁ㅎㅚㅅㅏㄴㅡㄴ	-9538
ll	-9539
▁ㅅㅏㄹㄹㅣㅁ	-9540
▁ㄲㅡㄹㅇㅓ	-9541
▁ㅁㅏㄱㅜ	-9542
▁ㅎㅘㅇㄱㅡㅁ	-9543
▁ㅇㅕㅇㅎㅘㄹㅡㄹ	-9544
▁ㄱㅣㅈㅏㅇㅑㅇㅂㅏㄴ	-9545
▁ㄴㅜㄴㅁㅓㄴ	-9546
ㅇㅣㄷㅡㄹㅇㅡㄴ	-9547
▁ㅇㅗㄹㅣ	-9548
ㅈㅗㅎㅇㅡㅁ	-9549
ㅁㅏㄴㅋㅡㅁㅇㅡㄴ	-9550
▁ㅈㅗㅇㅂㅜㄱㅈㅘ	-9551
▁ㅅㅐㅇㅈㅗㄴ	-9552
▁ㅅㅣㄴㄷㅗㅇㅇㅕㅂ	-9553
▁ㅌㅡㄹㅇㅓ	-9554
▁ㅅㅓㄹㅈㅓㅇ	-9555
▁ㅅㅣㄹㅋㅓㅅ	-9556
ㅎㅐㅆㅇㅡㄹㄲㅏ	-9557
▁ㅎㅐㅆㄷㅏㄴㅡㄴ	-9558
ㄴㅣㄱㅏ	-9559
▁ㅇㅣㅅㅜㄴ	-9560
▁ㄷㅏㄴㅅㅜㄴㅎㅣ	-9561
▁ㄴㅏㅁㅓㅈㅣㄴㅡㄴ	-9562
ㅎㅏㄹㄱㅓㄷㅏ	-9563
▁ㅂㅏㅅㄷㅔ	-9564
ㅂㅓㅂㅇㅡㄴ	-9565
▁ㅇㅗㅈㅣㄱㅔ	-9566
▁ㅎㅏㄴㅡㄹㅇㅡㄹ	-9567
ㅎㅏㅅㅕㅆㅅㅡㅂㄴㅣㄷㅏ	-9568
ㅂㅏㅌ	-9569
ㄷㅗㅇㅜ	-9570
ㅈㅜㅁㅣㄴ	-9571
▁ㅇㅢㅈㅗㄴ	-9572
▁ㄷㅏㄲ	-9573
▁!!!!	-9574
▁ㅁㅣㄴㅈㅜㅇ	-9575
▁ㅁㅜㄴㅈㅔㅇㅑ	-9576
▁ㅋㅏㅌㅗㄱ	-9577
▁ㅅㅔㄱㅡㅁㅁㅏㄴ	-9578
(?)	-9579
ㅇㅕㅍ	-9580
▁ㅂㅏㄴㅁㅕㄴ	-9581
▁ㅂㅣㅅㅏㅇ	-9582
▁ㄷㅗㅅㅣㄹㅏㄱ	-9583
ㅎㅏㄴㅡㄴㄱㅓㄷㅏ	-9584
▁ㄷㅏㄴㄷㅗㄱ	-9585
▁ㅇㅣㅉㅡㅁㄷㅚㅁㅕㄴ	-9586
ㅈㅗㄴㅡㄴ	-9587
ㄸㅐㅁㅜㄴㅇㅣㄷㅏ	-9588
▁ㅇㅏㄴㅂㅗㄴㄷㅏ	-9589
▁ㅍㅗㄱㄷㅡㅇ	-9590
▁ㅎㅏㄹㄹㅕㄱㅗ	-9591
ㅎㅏㄴㅡㄴㄱㅓㅇㅑ	-9592
ㅇㅣㄴㅌ	-9593
ㄷㅐㅇㅡㅇ	-9594
ㅇㅗㄹㄹㅏ	-9595
▁ㅂㅏㄱㅌㅏㄹ	-9596
ㅂㅓㄹㅣㄴㅡㄴ	-9597
ㄱㅜㄱㅁㅣㄴㅇㅢ	-9598
▁ㅂㅗㄴㅐㄱㅗ	-9599
ㅇㅔㅇㅓㅋㅓㄴ	-9600
▁ㅇㅠㅇㅕㄴ	-9601
ㅅㅏㅇㅍㅜㅁ	-9602
▁ㄱㅏㅇㅎㅏㄴㅡㄹ	-9603
▁ㅇㅏㄶㄴㅡㄴㄷㅔ	-9604
▁ㅋㅡㄱㅗ	-9605
ㅅㅔㅅ	-9606
▁ㅅㅣㅍㅈㅣ	-9607
▁ㅎㅗㅇㅅㅏㅇ	-9608
▁ㅅㅣㄱㅡㄴㅓㄹ	-9609
▁ㅎㅐㅇㅚㅇㅔㅅㅓ	-9610
▁ㅁㅗㄱㅍㅛ	-9611
▁ㅅㅜㅈㅓㅇ	-9612
▁ㄱㅜㄱㅁㅣㄴㅅㅔㄱㅡㅁㅇㅡㄹㅗ	-9613
▁ㅂㅗㅇㅣㄱㅗ	-9614
▁ㄱㅝㄴㄹㅕㄱㅇㅡㄹ	-9615
▁ㅈㅐㅁㅣㅇㅣㅆㄱㅔ	-9616
ㅅㅣㅈㅡㄴ	-9617
▁ㅇㅓㅄㅈㅏㄶㅇㅏ	-9618
ㅟㄴ	-9619
ㅗㅅㅏㅇ	-9620
▁ㄴㅗㄹㅐㄹㅡㄹ	-9621
▁ㅁㅣㄱㅜㄱㅅㅏㄴ	-9622
▁ㅂㅗㄱㅡㅂ	-9623
ㄷㅐㅌㅗㅇㄹㅕㅇㅇㅣ	-9624
▁ㅎㅜㄹㄹㅠㅇㅎㅏㄴ	-9625
ㄱㅔㅆㄴㅡㄴㄱㅏ	-9626
▁ㅇㅓㅂㅓㅇㅣㅇㅕㄴㅎㅏㅂ	-9627
▁ㄴㅐㄹㅣㄴ	-9628
▁ㅁㅗㄷ	-9629
▁ㅇㅘㅇㅣㅍㅡ	-9630
ㅌㅏㅇㅣㅁ	-9631
▁ㅅㅓㅇㅈㅓㄱ	-9632
ㄲㅗㅂㅏㄱ	-9633
ㅇㅣㅆㅇㅓㅇㅑ	-9634
▁ㅇㅣㄹㅓㄹㄸㅐ	-9635
▁ㅂㅏㄲㅜㄴㅡㄴ	-9636
▁ㄱㅗㄱㅐ	-9637
▁ㅎㅏㄴㅎㅛㅈㅜ	-9638
ㄴㅣㄷㅡㄹㅇㅣ	-9639
ㅈㅏㄴㅔ	-9640
ㅇㅣㄴㅡㄴㄷㅔ	-9641
▁ㅇㅓㄹㅕㅂㄷㅏ	-9642
▁ㅈㅓㅈㅣㄹㅡㄴ	-9643
...!	-9644
▁ㄱㅐㅈㅓㅇ	-9645
▁ㄱㅣㄹㅇㅡㄹ	-9646
▁ㅂㅗㅇㅠ	-9647
▁ㅅㅏㄹㅏㅁㅇㅔㄱㅔ	-9648
ㅈㅣㄹㄷㅡㅅ	-9649
ㅎㅕㅇㅇㅡㄴ	-9650
ㅈㅝㅇㅛ	-9651
ㅔㅁㅂㅓ	-9652
▁ㅈㅓㅇㄱㅝㄴㅇㅣ	-9653
▁ㅎㅏㄹㅌㅔㄴㄷㅔ	-9654
............	-9655
▁ㅊㅗㄱㅣ	-9656
▁ㅃㅏㄹㄱㅏㄴ	-9657
▁ㅍㅐㄴㄷㅓㅁ	-9658
▁ㅈㅓㄹㅓㄴㅡㄴ	-9659
ㅇㅣㅆㄴㅡㄴㅈㅣ	-9660
▁ㅇㅓㅊㅓㄱ	-9661
▁ㅇㅣㄹㅈㅓㅇ	-9662
ㅕㅈㅏ	-9663
ㄴㅣㅁㅇㅡㄴ	-9664
▁ㅁㅗㄹㅡㅅㅚ	-9665
▁ㅂㅗㅈㅗㄱㅡㅁ	-9666
▁ㅎㅐㅆㅇㅡㄴㅣ	-9667
▁ㄷㅗㄴㅂㅏㄷㄱㅗ	-9668
ㅍㅜ	-9669
▁ㅇㅕㄷㅏㅇ	-9670
▁ㅅㅡㅇㅅㅡㅇㅈㅏㅇㄱㅜ	-9671
▁ㅇㅣㄹㅡㅁㅇㅣ	-9672
▁ㅇㅐㄴㅏㅎ	-9673
ㅎㅖㅌㅐㄱ	-9674
▁ㅅㅓㄴㅅㅜ	-9675
▁ㅆㅏㄱㅜㄹㅕ	-9676
ㅅㅣㄹㅎㅣ	-9677
ㅈㅣㅇㅡㄴ	-9678
ㄱㅏㅁㅈㅓㅇ	-9679
▁ㅅㅏㄷㅡㅂㅐㅊㅣ	-9680
ㅍㅜㄹㅇㅣ	-9681
ㄷㅐㅁㅕㄴ	-9682
ㅡㄹㄹㅣㅁ	-9683
ㅗㄱㅡ	-9684
ㅏㅇㅗㄴㄷㅏ	-9685
▁ㅁㅗㄱㅈㅜㄹ	-9686
▁ㅇㅘㄴㅎㅘ	-9687
ㅈㅜㅇㄷㅗㄱ	-9688
▁ㄱㅓㄹㄹㅣ	-9689
ㄱㅡㄹㅐㅇㅑ	-9690
▁ㅍㅡㄹㅣㅁㅣㅇㅓㅁ	-9691
▁ㅂㅏㄱㅅㅜㅎㅗㅇ	-9692
▁ㅇㅜㅇㅕㄴ	-9693
▁ㅁㅏㅈㅇㅡㄹ	-9694
ㅔㅇㅣㅋㅡ	-9695
▁ㄷㅏㅇㅣㅇㅓㅌㅡ	-9696
ㅈㅗㅇㅇㅣ	-9697
ㅈㅏㅂㄴㅡㄴ	-9698
▁ㅂㅓㄹㅣㄴㅡㄴ	-9699
▁ㄱㅗㅇㅅㅏ	-9700
▁ㅁㅏㄴㄷㅡ	-9701
▁ㅇㅐㄴㅡㄴ	-9702
▁ㅇㅣㅂㅈㅡㅇ	-9703
▁ㅌㅡㄱㅈㅣㅂ	-9704
▁ㅅㅏㄹㅏㅁㄷㅡㄹㅇㅔㄱㅔ	-9705
ㅇㅏㄴㅎㅏㄴ	-9706
▁ㅇㅣㄴㄱㅏㄴㄷㅡㄹㅇㅏ	-9707
ay	-9708
ㅅㅣㅁㅇㅔ	-9709
ㅈㅏㄱㅇㅡㄴ	-9710
▁ㄴㅡㄲㅣㄹ	-9711
ㅈㅏㄹㅗㅅㅓ	-9712
ㄱㅐㄹ	-9713
ㅍㅏㅇㅏㄱ	-9714
▁ㄲㅓㅁ	-9715
▁ㅁㅜㄷㅏㅇ	-9716
▁ㅎㅘㅈㅔ	-9717
ㅂㅗㄷㅏㄱㅏ	-9718
ㅎㅏㅈㅏㄱㅗ	-9719
▁ㄷㅐㄷㅏㅅㅜ	-9720
ㅈㅣㄴㄷㅏㄱㅗ	-9721
▁ㅂㅜㅈㅏㄷㅡㄹ	-9722
22	-9723
ㅅㅓㄴㄱㅓ	-9724
▁ㅇㅓㅄㅇㅡㅁㅕㄴㅅㅓ	-9725
▁ㅐ	-9726
▁ㅎㅚㅅㅏㅇㅔ	-9727
ㅇㅣㅅㄴㅡㄴ	-9728
▁ㅊㅏㅇㅣㄴ	-9729
ㄱㅣㄱㅣ	-9730
▁ㅁㅐㅈㅜ	-9731
▁ㅁㅏㄹㅇㅣㄷㅚㄴㅑ	-9732
▁>	-9733
▁ㄷㅓㅇㅜㄴㄷㅔ	-9734
▁ㅁㅗㅅㅂㅏㄷ	-9735
▁ㄴㅜㄱㅜㄴㄱㅏ	-9736
▁ㅎㅘㄱㅅㅣㄹㅎㅏㄱㅔ	-9737
▁ㄹㅣㅁ	-9738
ㅈㅏㅂㅇㅡㄹ	-9739
▁ㅉㅗㅈ	-9740
▁ㅈㅏㄱㅣㄷㅡㄹㅇㅣ	-9741
ㅂㅓㄹㅣㄹ	-9742
▁ㄱㅐㅇㅣㄴㅇㅢ	-9743
▁ㅅㅓㅇㅜㄹㅇㅔ	-9744
ㄴㅏㄹㅏㅇㅔㅅㅓ	-9745
▁ㅁㅣㅁ	-9746
ㅂㅏㅇㅣㄹ	-9747
▁ㅂㅣㅆㅏㄱㅗ	-9748
▁ㅊㅚㅈㅓㅅㅣㄱㅡㅂ	-9749
▁ㄱㅜㅂ	-9750
ㄱㅛㄱㅘ	-9751
▁ㄷㅗㅂㅐ	-9752
ㅇㅓㅉㅣ	-9753
▁ㅈㅣㅅㅣㄱ	-9754
is	-9755
▁ㄱㅣㅎㅚㄹㅡㄹ	-9756
▁ㅇㅕㅇㅎㅘㄱㅏ	-9757
▁ㅅㅏㄹㄱㅣㄹ	-9758
▁MBC	-9759
▁ㅁㅓㄱㅈㅣ	-9760
ㅡㅡㅡㅡㅡㅡㅡㅡ	-9761
▁ㅈㅐㅁㅣㅆㄷㅏ	-9762
▁ㅂㅜㅌㅏㄱㄷㅡㄹㅣㅂㄴㅣㄷㅏ	-9763
▁5.	-9764
mf	-9765
ㄴㅗㅊㅗㅇ	-9766
▁ㄴㅏㅇㅣㄷㅡㄹ	-9767
ㅎㅓㅅ	-9768
▁ㅂㅓㅂㅈㅓㄱㅇㅡㄹㅗ	-9769
▁ㅅㅡㄹㅍ	-9770
▁ㅁㅏㄴㅜㄹ	-9771
ㄹㅓㅅ	-9772
ㄱㅐㄷㅙㅈㅣ	-9773
▁ㅅㅔㄱㅖㅇㅔㅅㅓ	-9774
ㅂㅏㅈㅣ	-9775
ㄴㅏㄹㅆㅣ	-9776
▁ㅇㅏㄴㅣㄹㅏㅁㅕㄴ	-9777
▁ㅈㅣㄱㅡㅁㅊㅓㄹㅓㅁ	-9778
ㅏㄱㅏㄴ	-9779
ㅎㅏㄴㅌㅔㄴ	-9780
▁ㅈㅓㄴㄱㅜㄱㅁㅣㄴㅇㅣ	-9781
ㅐㄴㅣ	-9782
▁ㄷㅐㅂㅕㄴ	-9783
▁ㄷㅏㅇㅎㅘㅇ	-9784
ㄱㅕㅇㄱㅣ	-9785
▁ㅅㅡㅍㅗㅊㅡ	-9786
▁ㄷㅓㄹㅓㅂㄱㅗ	-9787
▁ㄷㅚㄴㅡㄴㄱㅔ	-9788
ㅂㅗㅎㅗ	-9789
ㄱㅡㄴㅁㅜ	-9790
▁ㅈㅜㅁㅓㄴ	-9791
▁ㅂㅏㄴㄱㅏㅇ	-9792
▁ㅇㅓㄴㄹㅗㄴㅇㅡㄴ	-9793
ㄲㅗㅁ	-9794
▁ㅈㅏㄴㄸㅡㄱ	-9795
ㅈㅜㅁㅕㄴㅅㅓ	-9796
▁ㅎㅣㅂㅎㅏㅂ	-9797
▁ㅇㅗㄹㅡㅁㅕㄴ	-9798
▁ㅇㅣㄹㅏㄴㅡㄴ	-9799
▁ㄴㅏㄱㅎㅏㅅㅏㄴ	-9800
ㅈㅣㄱㅡㅁㅇㅡㄴ	-9801
▁ㅇㅜㅅㄱㅣㅁ	-9802
▁ㄸㅟㅇㅓ	-9803
ㄱㅣㄱㅏㄱ	-9804
▁ㅇㅐㄱㅅㅕㄴ	-9805
ㅜㄴㅑ	-9806
ㄷㅏㄹㄹㅏㄴㅡㄴ	-9807
ㅇㅣㅆㅈㅣㅁㅏㄴ	-9808
▁ㅂㅜㄱㅎㅏㄴㅇㅣ	-9809
▁ㅍㅐㅅㅕㄴ	-9810
ㅇㅔㅅㅓㄴㅏ	-9811
▁ㅅㅐㅇㄱㅏㄱㅁㅏㄴ	-9812
ac	-9813
ㄷㅜㅁㅕㄴ	-9814
▁ㄴㅗㄴㅡㄴ	-9815
ㅎㅕㄴㄷㅐ	-9816
▁ㅁㅏㅈㅇㅡㅁ	-9817
▁ㄱㅣㅈㅜㄴㅇㅡㄹㅗ	-9818
ㄸㅓㅇ	-9819
ㅊㅓㄴㅎㅣ	-9820
▁ㅇㅜㄹㄱㅗ	-9821
▁ㄴㅔㄱ	-9822
ㅡㄴㅑㅇ	-9823
ㄱㅗㅇㅅㅏ	-9824
ㅈㅏㅇㅕㄴ	-9825
▁ㄴㅐㅁㅂㅣ	-9826
▁ㄱㅕㄹㅎㅗㄴㅎㅏㅁㅕㄴ	-9827
▁ㅂㅘㅅㅓ	-9828
▁ㄱㅗㅇㅅㅏㄴㄷㅏㅇ	-9829
ㅗㄴㅑ	-9830
▁ㅌㅓㅁ	-9831
ㅇㅓㅆㄱㅜㄴㅏ	-9832
▁ㅊㅏㅁㄱㅏ	-9833
ㅎㅐㅇㅑㄷㅚㄴㄷㅏ	-9834
▁ㄸㅗㄱㄸㅗㄱㅎㅏㄴ	-9835
ㅇㅣㅇㅏㄴ	-9836
▁ㅇㅏㄴㄱㅏㄴ	-9837
▁ㅇㅣㄹㅇㅓㄴㅏㄹ	-9838
ㅂㅜㅇㅘ	-9839
ㅇㅣㅇㅘ	-9840
▁ㅅㅡㄹㅍㅓ	-9841
▁ㅇㅗㅇㅕㅁ	-9842
ㅆㅓㅂㅜㅌㅓ	-9843
ㅔㅇㅣㄹ	-9844
▁ㅇㅏㄴㅘ	-9845
▁ㅇㅣㄺㄱㅗ	-9846
▁ㄲㅡㅁㅉㅣㄱ	-9847
▁ㅊㅓㅁㅂㅜㅌㅓ	-9848
▁ㄱㅏㅁㅅㅣ	-9849
▁ㄷㅏㅇㄷㅏㅇㅎㅏㄱㅔ	-9850
▁ㅇㅏㄴㅣㄴㅣ	-9851
▁ㅂㅏㅋㅟ	-9852
▁ㅈㅣㅂㅇㅡㄴ	-9853
▁ㅅㅡㅋㅡㄹ	-9854
▁ㅇㅣㅁㅕㅇㅂㅏㄱㄱㅡㄴㅎㅖ	-9855
ㅇㅣㄷㅡㄱ	-9856
▁ㄱㅣㅅㅜㄹㅇㅣ	-9857
ㄱㅐㅁ	-9858
▁ㅍㅐㅇ	-9859
▁ㅈㅜㄷㅜㅇ	-9860
▁ㅂㅏㄷㄴㅡㄴㄷㅏ	-9861
3.	-9862
▁ㅆㅓㄱㅇㅓㅃㅏㅈㅣㄴ	-9863
ㅈㅔㄷㅗㅇ	-9864
▁ㅇㅏㄴㅂㅘㄷㅗ	-9865
▁ㅂㅏㄷㄱㅔ	-9866
ㅇㅓㄱㅇㅡㄴ	-9867
▁ㅅㅗㅇㅇㅠㄴ	-9868
▁ㄸㅏㄸㅡㅅㅎㅏㄴ	-9869
ㅇㅣㄴㄷㅔㅇㅛ	-9870
▁ㅇㅗㅈㅣㄹㅏㅍ	-9871
▁ㅇㅏㄶㅈㅣㅁㅏㄴ	-9872
ㄷㅡㄴㅏ	-9873
▁ㅈㅣㄹㅜ	-9874
▁ㅁㅔㄴㅌㅏㄹ	-9875
ㅁㅣㅇ	-9876
▁ㅁㅗㄹㅡㄱㅔㅆㄱㅗ	-9877
▁ㅈㅓㅇㅂㅜㄹㅡㄹ	-9878
ㅅㅓㄴㅇㅡㄴ	-9879
▁ㅎㅏㄹㅁㅏㄹㅇㅣ	-9880
▁ㅍㅗㅋㅔㅅㅁㅗㄴㄱㅗ	-9881
ㅇㅝㄴㅉㅏㄹㅣ	-9882
ㅁㅏㅇㅇㅣ	-9883
ㅈㅓㄴㅇㅛㅇ	-9884
▁ㅂㅕㄴㄱㅕㅇ	-9885
ㄹㅑㅇㅇㅡㄹ	-9886
▁ㅃㅜㄴㅁㅏㄴ	-9887
ㅎㅏㄱㅣㄴㅡㄴ	-9888
▁ㄲㅐㄲㅡㅅㅎㅏㄴ	-9889
▁3000	-9890
▁ㅅㅣㅅㅓㄹ	-9891
▁ㅇㅓㅄㄱㅔ	-9892
ㅈㅏㅇㅠ	-9893
▁ㅂㅜㄱㅎㅏㄴㅇㅔ	-9894
▁ㄱㅣㄹㅡㅁㄱㅏㅄ	-9895
ㅋㅋㅋㅋㅋㅋㅋㅋㅋㅋㅋㅋ	-9896
ㅇㅏㄹㅣ	-9897
ㅎㅚㄱㅏ	-9898
ㅘㅆㄴㅔ	-9899
▁ㅅㅟㄱㅗ	-9900
ㅎㅏㄴㅡㄴㄷㅡㅅ	-9901
ㄲㅐㅂㅣ	-9902
▁ㅇㅕㄹㅇㅐㅅㅓㄹ	-9903
▁lg	-9904
ㄷㅏㄹㄹㅓ	-9905
▁ㅇㅣㅆㄷㅏㄱㅏ	-9906
ㅆㅇㅓㅆㄴㅡㄴㄷㅔ	-9907
tx	-9908
▁ㅂㅓㄹㄱㅗ	-9909
▁ㅇㅓㅄㅇㅡㄹㄷㅡㅅ	-9910
ㅅㅓㄱㄱㅣ	-9911
▁ㄱㅜㄱㅃㅗㅇ	-9912
▁ㅈㅏㄱㅕㄱㅇㅣ	-9913
▁ㄱㅓㅈㅣㅅㅁㅏㄹㅇㅡㄹ	-9914
ㄷㅓㅇㅟ	-9915
ㅅㅜㅇㅓㅄㄴㅡㄴ	-9916
▁ㄱㅡㄺ	-9917
ㅈㅏㄴㅣ	-9918
▁ㅊㅚㅅㅣㄴ	-9919
ㅂㅕㄴㅎㅗㅅ	-9920
▁ㅆㅡㄹㅔㄱㅣㄱㅏㅌㅇㅡㄴ	-9921
ㅋㅡㄴㅡㄴ	-9922
▁ㅅㅣㄴㅎㅗㄴ	-9923
▁ㅁㅣㅅㅜㄹ	-9924
▁ㅊㅚㄱㅕㅇㅎㅘㄴ	-9925
▁ㅁㅓㄱㅇㅓㄷㅗ	-9926
▁ㄱㅔㅁ	-9927
▁ㅇㅣㄴㅕㄴ	-9928
▁ㅁㅏㄹㄷㅡㄴ	-9929
▁ㅂㅏㄱㅎㅐㅈㅣㄴ	-9930
ㅂㅐㅌ	-9931
ㅁㅣㄹㅗ	-9932
ㄷㅏㄴㅇㅔ	-9933
ㅇㅝㄴㅇㅡㄹㅗ	-9934
ㄹㅣㅁㅕ	-9935
▁ㄱㅐㄸㅗㅇ	-9936
▁ㅇㅕㅍㅇㅔㅅㅓ	-9937
▁ㅇㅣㄱㅓㅅㅈㅓㄱㅓㅅ	-9938
ㅊㅣㄴㅑ	-9939
▁ㄱㅟㅅㅣㄴ	-9940
ㅓㄹㅡㄹ	-9941
▁ㅇㅣㄹㅓㄴㄱㅣ	-9942
▁ㄷㅏㄺㄱㅡㄴㅎㅖ	-9943
▁ㄷㅏㅇㅅㅣㄴㅇㅢ	-9944
1.	-9945
..!	-9946
ㅈㅗㄹㅗ	-9947
▁ㄱㅐㄲㅜㄹ	-9948
▁ㅈㅡㄱㄱㅏㄱ	-9949
ㅅㅏㅇㅇㅡㄹㅗ	-9950
ㄲㅕ	-9951
ㅈㅚㄱㅏ	-9952
ㅌㅔㄴㅊㅡ	-9953
▁ㄴㅏㄴㄹㅣㄴ	-9954
ㅗㄱㅔ	-9955
▁ㄲㅏㅇㅍㅐ	-9956
▁ㅇㅔㅁㅂㅣ	-9957
▁ㄷㅡㄹㅇㅓㅇㅗㄹ	-9958
▁ㅇㅗㄹㅐㅇㅗㄹㅐ	-9959
▁ㅇㅕㄴㄱㅘㄴ	-9960
ㅇㅗㅁ	-9961
▁ㄹㅓㅅㅣㅇㅏ	-9962
▁ㅅㅣㄴㅂㅏㄹ	-9963
ㅔㅇㅣㄷㅡ	-9964
▁ㄱㅣㄹㄱㅔ	-9965
▁ㅍㅏㄹㅁㅕㄴ	-9966
ㅎㅏㄷㅓㄹㅏㄷㅗ	-9967
▁ㅇㅣㅁㅁㅕㅇ	-9968
▁ㅎㅕㅇㅍㅕㄴ	-9969
▁ㅎㅐㄷㅐ	-9970
ㅇㅣㅈㅣㅇㅛ	-9971
▁;;	-9972
▁ㅂㅣㅎㅏ	-9973
▁ㅈㅜㄱㅇㅡㅁㅕㄴ	-9974
▁for	-9975
▁ㅅㅓㄴㅂㅐ	-9976
▁ㅌㅐㅎㅜ	-9977
ㅈㅏㄱㅕㄱ	-9978
ㅈㅣㅇㅏㄶㄱㅔ	-9979
▁ㅈㅓㅈ	-9980
▁ㅅㅣㅀㄱㅗ	-9981
▁ㅇㅗㄹㅐㅅ	-9982
▁ㅇㅣㄴㄱㅕㄱ	-9983
▁ㅇㅣㅁㅊㅏㅇㅈㅓㅇ	-9984
▁ㅇㅓㄹㄱㅜㄹㅇㅡㄴ	-9985
ㅁㅓㄴㅈㅓ	-9986
ㅂㅘㅇㅑㅈㅣ	-9987
ㅑㅁ	-9988
▁ㄴㅓㅁㅇㅓㄱㅏㄹ	-9989
▁ㄷㅔㅁㅗ	-9990
▁ㄱㅣㄷㅐㄷㅚㅂㄴㅣㄷㅏ	-9991
▁ㅅㅏㄹㅏㅇㅎㅏㅂㄴㅣㄷㅏ	-9992
ㄱㅝㄴㅇㅡㄴ	-9993
▁ㄱㅓㄹㄹㅣㅁㅕㄴ	-9994
▁ㅇㅏㅁㅏㄷㅗ	-9995
▁ㅅㅜㄴㅡㄴ	-9996
▁ㅇㅟㅂㅏㄴ	-9997
▁ㅆㅡㄹㅓ	-9998
ㄱㅡㄱㅓㅅㄷㅗ	-9999
ㅂㅓㅂㅇㅡㄹㅗ	-10000
▁ㅊㅕㅁㅓㄱㄱㅗ	-10001
ㅎㅏㅂㄹㅣ	-10002
▁ㄷㅓㄹㅓㅇㅝ	-10003
ㅂㅗㄴㅡㄴㄱㅔ	-10004
ㅈㅣㄴㅡㄴㄱㅓㄴ	-10005
▁ㄱㅠㄴ	-10006
▁ㅇㅓㅄㅇㅡㄴㅣㄲㅏ	-10007
▁ㅅㅔㄴㅚ	-10008
ㅂㅣㅆㅏㄴ	-10009
▁ㄴㅏㅁㄱㅕ	-10010
▁ㅇㅏㄴㄷㅡㄹㅗ	-10011
▁ㅈㅐㅁㅣㅆㄴㅡㄴ	-10012
▁ㅁㅕㅊㅇㅣㄹ	-10013
ㅇㅣㄴㄷㅏㄱㅗ	-10014
▁ㅈㅏㅇㄴㅏㄴㅎㅏㄴㅑ	-10015
ㅈㅏㄹㅏㄴㅡㄴ	-10016
▁ㅁㅣㅊㅣㄴㄷㅡㅅㅇㅣ	-10017
▁ㄱㅏㅈㅗㄱㄷㅡㄹ	-10018
▁ㅇㅠㄴㅇㅏ	-10019
▁ㅎㅏㄹㄱㅓ	-10020
ㅅㄷㅏㄱㅗ	-10021
ㅂㅏㅇㅇㅡㄹ	-10022
▁ㅅㅗㅈㅜㅇ	-10023
ㅣㅇㅕ	-10024
▁ㄱㅓㄹㄱㅗ	-10025
▁ㅇㅣㄹㅏㄴ	-10026
▁ㅇㅕㅈㅏㄹㅏㅇ	-10027
ㅈㅗㅇㅢ	-10028
▁ㅁㅗㅅㅁㅓㄱ	-10029
ㄱㅏㄴㅡㄴㄷㅔ	-10030
ㅇㅣㄴㄱㅣ	-10031
ㅎㅣㄷㅡㄹ	-10032
▁ㅇㅏㄹㅁㅕㄴㅅㅓㄷㅗ	-10033
ㅅㅐㅇㄱㅣㄴ	-10034
▁ㅍㅐㄴㅇㅣ	-10035
ㅎㅐㅆㄴㅔㅇㅛ	-10036
▁ㄷㅓㅂㄷㅏ	-10037
▁ㅂㅓㄹㅣㄹ	-10038
▁ㅊㅐㅇㅛㅇ	-10039
▁ㄷㅏㅂㅂㅕㄴ	-10040
▁ㅅㅏㅁㅅㅣㅅㅔ	-10041
▁ㅇㅛㄱㅁㅓㄱㅇㅡㄹ	-10042
▁ㄹㅗㅂㅣ	-10043
???????	-10044
▁ㅂㅣㅇㅗㄴㄷㅏ	-10045
ㄷㅏㄴㅈㅣ	-10046
ㅈㅗㅇㅇㅢ	-10047
▁ㅇㅏㅍㅈㅏㅇ	-10048
ㅈㅓㄴㅡㄴ	-10049
▁ㅂㅏㄲㅇㅔㅅㅓ	-10050
▁ㅇㅏㅇㅣㅋㅗㄴ	-10051
▁ㅋㅗㅅ	-10052
ㅁㅗㄴㅡㄴ	-10053
ㅇㅣㅇㅑㄱㅣ	-10054
ㄷㅚㄴㅣㄲㅏ	-10055
▁ㅇㅏㄴㅌㅏㄲㅏㅂㄴㅔㅇㅛ	-10056
▁ㅋㅜㅇ	-10057
▁ㅇㅏㅇㅣㅇㅠㄱㅏ	-10058
op	-10059
▁ㄸㅜㅀ	-10060
▁https	-10061
▁ㅁㅣㄱㅜㄴ	-10062
▁ㅅㅓㄴㅈㅓㅇ	-10063
▁ㅈㅏㅇㅓㅂㅈㅏㄷㅡㄱ	-10064
▁ㄴㅟ	-10065
ㅈㅏㄷㅗㅇㅊㅏ	-10066
▁ㄷㅐㅍㅗ	-10067
▁ㄱㅗㅇㅢ	-10068
▁ㅌㅗㅇㅈㅔ	-10069
ㅅㅗㅎㅏㄴ	-10070
ㅇㅣㅎㅏ	-10071
▁ㅁㅏㄱㄱㅗ	-10072
.!	-10073
ㅍㅏㄹㄱㅗ	-10074
▁ㅂㅜㅇㄱㅚ	-10075
ㄱㅜㄹㅏ	-10076
▁ㅇㅣㄴㄱㅏ	-10077
ㄱㅝㄴㄹㅕㄱ	-10078
▁ㅎㅏㄴㅏㅎㅏㄴㅏ	-10079
▁vs	-10080
▁ㄱㅓㄱㅗ	-10081
▁ㄷㅐㄷㅐ	-10082
▁ㅂㅣㅅㅡㅌㅡ	-10083
▁ㄴㅜㅈㅣㄴㅈㅔㄹㅡㄹ	-10084
▁ㄷㅐㅁㅏㄴ	-10085
▁ㅅㅜㅊㅓㄴ	-10086
▁ㅎㅐㅅㅓㄱ	-10087
▁ㄷㅟㅌㅗㅇㅅㅜ	-10088
▁ㅇㅓㅇㅣㄱㅏㅇㅓㅄ	-10089
ic	-10090
▁ㅇㅢㅈㅣ	-10091
▁ㅇㅓㅂㄱㅡㄹ	-10092
ㅜㅅㅣㄴ	-10093
▁ㄸㅏㄹㅡㄴ	-10094
▁ㅈㅜㅇㅇㅛㅎㅏㄴㄱㅓㄴ	-10095
▁ㅉㅣㄱㄴㅡㄴ	-10096
ㅂㅏㄱㅂㅗㄱㅓㅁ	-10097
▁ㅌㅡㄴ	-10098
▁ㅎㅓㄱㅏ	-10099
▁ㅅㅜㅎㅏㄱ	-10100
ㅅㅐㄴㅜㄹㅣ	-10101
▁ㅆㅓㄹ	-10102
▁ㅇㅔㄴㅈㅣㄴ	-10103
▁ㄴㅜㄱㅜㄴㅑ	-10104
▁ㄴㅜㄱㅏㅂㅘㄷㅗ	-10105
▁ㄱㅏㄷㅗ	-10106
ㄴㅏㅃㅡㄴ	-10107
▁ㄱㅣㅇㅓㅂㅇㅢ	-10108
▁ㄴㅓㄱㅏ	-10109
▁ㅇㅖㅃㅡ	-10110
▁ㄴㅏㄹㄸㅟ	-10111
ㅌㅗㅇㅇㅣㄹ	-10112
▁ㄱㅐㄱㅗㅅㅐㅇ	-10113
ㅇㅣㄹㅏㄴㅡㄴㄷㅔ	-10114
ㅂㅏㄹㅍㅛ	-10115
▁ㅍㅣㅃㅏㄹ	-10116
ㄴㅏㅇㅑ	-10117
▁ㅈㅗㅎㄷㅓㄹㅏ	-10118
▁ㅈㅏㄹㅎㅏㅁㅕㄴ	-10119
▁ㄴㅓㄱㅓ	-10120
▁ㅊㅣㄴㅊㅓㄱ	-10121
ㅐㅅ	-10122
ㅈㅏㄱㄱㅏ	-10123
ㅊㅣㅇㅏㄶ	-10124
▁ㅇㅙㄹㅋㅔ	-10125
ㅇㅣㅆㄴㅡㄴㄱㅔ	-10126
▁ㅊㅟㅎㅑㅇ	-10127
ㅊㅣㅁㅕㄴㅅㅓ	-10128
ㅈㅜㅅㅗ	-10129
▁ㅁㅏㄷㅗㅇ	-10130
▁ㅅㅏㅁㅅㅓㅇㄷㅗ	-10131
▁ㅇㅟㄴㅓ	-10132
▁ㅎㅏㄴㄱㅐ	-10133
▁ㅅㅣㅍㄴㅔ	-10134
▁ㅇㅣㄴㅓㅁ	-10135
▁ㅈㅓㅇㅅㅣㄴㅇㅡㄹ	-10136
ㅈㅠ	-10137
ㅡㅁㅇㅔ	-10138
▁ㄱㅡㅂㅇㅕ	-10139
▁ㅊㅓㄴㅂㅓㄹ	-10140
ㅁㅗㄹㄹㅏ	-10141
▁ㅈㅗㅅㅓㅇ	-10142
▁ㄱㅜㄴㅇㅣㄴ	-10143
▁ㅁㅓㄱㅇㅕㅅㅏㄹ	-10144
ㅗㄹㅏㅇ	-10145
▁ㅇㅣㅅㅣㅇㅕㅇ	-10146
▁ㅅㅣㄴㅂㅜㄴ	-10147
ㅅㅅ	-10148
ㄸㅓㄴ	-10149
▁ㅈㅜㄱㅏ	-10150
▁ㅇㅣㄴㅁㅣㄴㅈㅐㅍㅏㄴ	-10151
▁ㅊㅚㅆㅣ	-10152
ㅁㅗㄹㅡㄱㅗ	-10153
▁ㅎㅏㄴㅇㅣㄹ	-10154
ㄷㅏㅇㅎㅏㄴㅡㄴ	-10155
▁ㅇㅚㅂㅜ	-10156
▁ㅈㅏㄹㅇㅏㄴ	-10157
ㅈㅓㅂㅜㄴ	-10158
▁ㄱㅗㅎㅑㅇ	-10159
▁ㄱㅣㅈㅏㄴㅡㄴ	-10160
ㄷㅗㅇㅓㅄㄴㅡㄴ	-10161
ㅈㅗㅇㄱㅛ	-10162
ㄷㅔㄴ	-10163
ㅇㅓㅄㄴㅑ	-10164
▁ㅈㅜㅇㄱㅜㄱㄱㅘ	-10165
ㅅㅓㄴㅏ	-10166
▁ㅇㅣㄴㄹㅕㄱ	-10167
▁ㅎㅔㅇㅣ	-10168
ㄱㅣㅂㅗㄴ	-10169
ㅊㅓㅇㅇㅘ	-10170
▁ㅇㅣㅈㅐㅁㅕㅇ	-10171
ㅎㅏㄱㅔㅆㄷㅏㄱㅗ	-10172
▁5%	-10173
ㅎㅏㄹㄹㅐ	-10174
▁ㄲㅗㄹㅣ	-10175
▁ㅈㅡㄹㄱㅓ	-10176
▁ㄱㅣㅅㅏㄷㅗ	-10177
▁ㄴㅐㄹㅏㄴ	-10178
ㅊㅣㄷㅏ	-10179
▁ㄱㅙㄴㅊㅏㄶㅇㅏ	-10180
▁ㄴㅐㅁㅅㅐㄱㅏ	-10181
ㅎㅐㄱㅏㄴㅡㄴ	-10182
▁ㅅㅔㄱㅡㅁㄷㅗ	-10183
▁ㅈㅓㅇㅅㅣㄴㅊㅏㄹㅕㄹㅏ	-10184
ㅜㅇㅕ	-10185
▁ㅋㅔㅇㅣㅅㅡ	-10186
ㅈㅗㅎㅇㅏㅇㅛ	-10187
▁ㅇㅏㄴㄷㅚㅅㅓ	-10188
▁ㅇㅣㄴㄱㅏㄴㅈㅓㄱㅇㅡㄹㅗ	-10189
ㄷㅗㄷㅗ	-10190
ㅕㄴㄱㅣ	-10191
▁ㄱㅓㅅㅇㅔ	-10192
ㄱㅐㅇㅣㄴ	-10193
▁ㄷㅓㅎㅏㄴ	-10194
▁ㄷㅡㅇㅇㅣ	-10195
ㄸㅡㄴ	-10196
ㄱㅓㅇㅏㄴㅣ	-10197
▁ㄷㅗㄴㅈㅗㅁ	-10198
▁ㅉㅏㄱㅌㅜㅇ	-10199
▁ㅇㅏㄶㅇㅏㅆㄴㅏ	-10200
ㅅㅏㄹㅇㅏ	-10201
▁ㅇㅓㅉㅓㄷㅏ	-10202
▁ㅂㅣㅈㅏㄱㅡㅁ	-10203
▁ㅇㅣㅆㅇㅓㅆㅇㅡㅁㅕㄴ	-10204
▁ㅊㅚㅇㅜㅅㅜ	-10205
▁ㅇㅙㄷㅡㄹ	-10206
▁ㄷㅏㅇㅂㅜㄴㄱㅏㄴ	-10207
▁ㅊㅚㅅㅜㄴㅅㅣㄹㅇㅡㄴ	-10208
ㄱㅏㅇㅘ	-10209
▁ㅇㅘㅇㅜ	-10210
ㅇㅣㅃㅡㄴ	-10211
▁ㅇㅣㅁㄷㅐㄹㅛ	-10212
ㅊㅣㄹㅛ	-10213
▁ㅁㅕㄴㅅㅔ	-10214
▁ㅇㅏㅅㅟㅇㅜㄴ	-10215
▁ㅌㅏㅇㅣㅌㅡㄹ	-10216
ㅈㅣㄴㅇㅜㅇ	-10217
▁ㅁㅕㅇㅅㅣㅁ	-10218
ㅎㅐㅂㅗㄹ	-10219
ㅅㅜㅇㅣㅆㄱㅔ	-10220
▁ㄱㅏㅇㅎㅏㄱㅔ	-10221
ㅍㅏㄴㄱㅕㄹ	-10222
▁ㅂㅗㅁㅕ	-10223
ㅇㅕㅅㅓㅇ	-10224
▁ㅈㅓㅇㅇㅜㅅㅓㅇ	-10225
▁ㅁㅗㄱㅈㅓㄱ	-10226
▁ㅎㅏㄹㅅㅜㅇㅣㅆㄴㅡㄴ	-10227
▁ㅁㅏㅁㅇㅣ	-10228
▁ㅂㅏㄱㄱㅡㄴㅎㅖㅇㅘ	-10229
▁ㄱㅏㄷ	-10230
▁ㄱㅐㅁㅣ	-10231
▁ㅁㅏㄱㅇㅏ	-10232
▁ㄱㅏㅌㅇㅡㅁㅕㄴ	-10233
▁ㄲㅡㅌㄴㅏㄴㅡㄴ	-10234
▁ㅇㅚㄴㅗ	-10235
ㅈㅣㄹㅇㅔ	-10236
▁ㅇㅣㅈㅎㅕ	-10237
▁ㄷㅏㄱㅌㅓㅅㅡ	-10238
▁ㅇㅏㅍㅇㅡㄹㅗㄴㅡㄴ	-10239
▁ㅈㅐㄹㅛ	-10240
▁ㄱㅡㅁㅅㅜ	-10241
▁ㅁㅗㄹㄹㅕㅇ	-10242
ㅏㅁㅜ	-10243
▁ㅅㅏㄻㅇㅢ	-10244
▁ㅅㅓㅇㄱㅕㅇ	-10245
▁ㄱㅜㄱㅁㅣㄴㅅㅓㅇ	-10246
▁ㄱㅐㄴㅜㄹㅣㄷㅏㅇ	-10247
▁ㄱㅏㅂㅅㅣㄷㅏ	-10248
ㄱㅕㅇㄹㅕㄴ	-10249
ㅁㅗㅅㅎㅏㄴ	-10250
▁ㅍㅡㄹㅗㅈㅔㄱ	-10251
ㄱㅗㅁㅏㄴ	-10252
▁ㅂㅐㅅ	-10253
▁ㅈㅓㅂㅓㄴㅇㅔ	-10254
▁ㄴㅏㅁㅍㅕㄴㅇㅣ	-10255
▁ㅇㅏㄶㅇㅡㄴㄷㅔ	-10256
▁ㅈㅐㅁㅣㅆㅇㅡㅁ	-10257
▁ㅁㅏㅇㄱㅏ	-10258
▁ㅊㅚㄱㅏㅇ	-10259
▁ㅇㅣㅃㅡㄱㅔ	-10260
ㅅㅣㅂㅅㅣㅇㅛ	-10261
▁ㅇㅠㄴㅣ	-10262
ㄹㅐㄴㄷㅡ	-10263
ㅇㅏㅆㅇㅓ	-10264
▁ㅇㅜㄴㅡㄴ	-10265
ㅎㅕㄴㅈㅐ	-10266
▁6.	-10267
ㄷㅗㄹㅇㅏㅇ	-10268
ㅁㅐㄱㅜㄱ	-10269
▁ㅁㅏㄹㅇㅔ	-10270
▁ㅂㅏㅇㅁㅜㄴ	-10271
▁ㄷㅓㄹㅓㅂㄷㅏ	-10272
▁ㄹㅔㅈㅓㄴㄷㅡ	-10273
ㅊㅠ	-10274
ㅡㄹㅓ	-10275
ㅇㅣㄴㅓㅁ	-10276
▁ㅎㅢㅁㅏㅇㅇㅣ	-10277
▁ㄱㅕㅇㅊㅏㄹㅇㅣ	-10278
▁ㄱㅘㄴㄹㅕㄴㄷㅚㄴ	-10279
▁ㄷㅏㅈㅜㄱ	-10280
▁ㅎㅓㅅㅅㅗㄹ	-10281
▁ㅂㅜㄹㅡㄴ	-10282
▁ㅎㅏㄹㅕㅁㅕㄴ	-10283
▁ㄴㅏㅇㅗㄴㅡㄴㄱㅓ	-10284
ㄹㅐㄴ	-10285
ㅔㄹㅏㅇ	-10286
▁ㄴㅗㄱㅇㅡㅁ	-10287
▁ㅇㅣㄹㅂㅗㄴㅇㅡㄹㅗ	-10288
▁ㅅㅏㅈㅐ	-10289
ㅂㅗㅂㅅㅣㄷㅏ	-10290
▁ㅇㅣㅆㄴㅡㄴㄱㅓㄴ	-10291
ㅍㅡㄹㄹㅔ	-10292
ㅇㅣㅁㅇㅣ	-10293
▁ㅂㅣㅂㅏㄱ	-10294
ㄷㅏㅂㅗㄴㅣ	-10295
▁ㅂㅏㅇㅊㅣ	-10296
▁ㄷㅗㄷㅔㅊㅔ	-10297
▁ㅈㅜㅇㄱㅜㄱㅇㅣㄴㄷㅡㄹ	-10298
ㅈㅓㄴㅂㅜ	-10299
ㅈㅓㅇㅅㅏㅇ	-10300
▁ㅎㅏㄴㄱㅜㄱㄴㅏㅁ	-10301
▁ㅈㅗㅎㅅㅡㅂㄴㅣㄷㅏ	-10302
▁ㅈㅓㅇㄱㅠ	-10303
▁ㄷㅗㅇㅊㅏㅁ	-10304
ㅇㅣㄹㅇㅣㄷㅏ	-10305
▁ㅇㅗㅍㅡㄴ	-10306
ㅁㅜㄴㅈㅔㄴㅡㄴ	-10307
▁ㅊㅚㅅㅗㅎㅏㄴㅇㅢ	-10308
▁ㅊㅚㅈㅗㅇ	-10309
ㄷㅡㄹㅇㅣㅁ	-10310
▁ㅇㅣㅅㅜㄱㅡㄴ	-10311
▁ㄱㅏㅌㅇㅡㄴㄱㅓ	-10312
▁ㅈㅓㄹㅓㄱㅗ	-10313
▁ㅇㅟㅎㅓㅁㅎㅏㄴ	-10314
▁ㅎㅏㄹㅇㅏㅂㅓㅈㅣ	-10315
▁ㅅㅓㅇㄱㅘㅇㅕㄴㅂㅗㅇㅈㅔ	-10316
▁ㅈㅓㄴㄷㅏㄹ	-10317
▁ㅇㅣㄱㅓㅅㄷㅡㄹㅇㅏ	-10318
▁ㅇㅓㅂㄷㅔ	-10319
ㅈㅣㄴㅅㅣㄹ	-10320
▁ㅁㅕㅇㅂㅐㄱ	-10321
▁ㅇㅣㅅㅏㄹㅏㅁ	-10322
▁ㅇㅛㄱㅁㅓㄱㄴㅡㄴ	-10323
▁ㄱㅏㅎㅐ	-10324
▁ㄱㅔㅇㅣㅁㅇㅡㄹ	-10325
▁ㅅㅏㅇㅎㅘㅇㅇㅔ	-10326
▁ㅇㅣㄴㅇㅝㄴ	-10327
ㅈㅜㅇㄱㅏㄴ	-10328
ㄴㅏㄴㅣ	-10329
▁ㅈㅜㄹㅈㅜㄹㅇㅣ	-10330
▁ㄱㅏㅌㅈㅣ	-10331
ㅕㅆㅇㅡㄴㅣ	-10332
▁ㅈㅗㅅㅏㅎㅐㄹㅏ	-10333
ㅆㄴㅣ	-10334
▁ㅂㅏㄹㄷㅏㄹ	-10335
ㅎㅣㅈㅣ	-10336
▁ㅁㅗㅅㅅㅏㄴㅡㄴ	-10337
▁ㅇㅏㄹㄱㅔㅆㄷㅏ	-10338
ㅜㅁㅇㅡㄹ	-10339
ㄱㅓㅅㄱㅏㅌㅇㅡㅁ	-10340
▁ㄷㅏㅅㅡㄹ	-10341
▁ㅉㅣㅈㅇㅓ	-10342
▁ㅅㅔㅅㅏㅇㅇㅔㅅㅓ	-10343
ㅊㅐㅇㄱㅕ	-10344
ㅣㄲㅏㅇㅛ	-10345
▁ㅅㅏㅇㅎㅘㅇㅇㅡㄹ	-10346
▁ㅎㅜㅂㅐ	-10347
ㅈㅓㄹㅎㅣ	-10348
▁ㄷㅡㄹㅇㅕ	-10349
ㅃㅏㅈㅣㄱㅔ	-10350
▁ㅁㅣㅂ	-10351
▁ㄱㅜㄱㅈㅓㄱ	-10352
▁ㅈㅓㅁㄹㅕㅇ	-10353
▁ㅎㅕㄴㅈㅏㅇ	-10354
ㅈㅜㄴㅇㅣ	-10355
ㅎㅏㅈㅣㅁㅏㅅㅔㅇㅛ	-10356
▁ㅇㅣㅇㅔ	-10357
▁ㅅㅏㄹㄹㅣ	-10358
▁ㅆㅏㄱㅡㄹㅣ	-10359
▁ㅋㅗㅇㅂㅏㅂ	-10360
ㅈㅏㄹㅎㅏㄱㅗ	-10361
▁ㅇㅣㄹㅏ	-10362
ㅅㅏㅇㅇㅔㅅㅓ	-10363
▁ㅎㅏㄹㄹㅏㄹ	-10364
▁ㅈㅗㅇㅢㅇㅕㄴ	-10365
▁ㅇㅏㄹㅐㅅ	-10366
▁ㅅㅏㄱㅓㄴㅇㅣ	-10367
▁ㅈㅏㅂㄴㅡㄴ	-10368
▁ㅂㅗㅇㅕㅈㅜㄴ	-10369
ㄷㅏㅂㄷㅏ	-10370
ㅣㄲㅣㄹㅣ	-10371
ㅎㅏㄱㅣㅈㅓㄴㅇㅔ	-10372
ㅇㅣㄴㅌㅡ	-10373
ㄴㅕㄴㅇㅣㅅㅏㅇ	-10374
▁ㅎㅐㅈㅜㅁㅕㄴ	-10375
nd	-10376
▁ㄱㅣㅁㅇㅕㄴ	-10377
▁ㅉㅏㄹㅣ	-10378
ㄱㅡㄱㅓㄹ	-10379
ㅈㅓㄴㅎㅏㄴ	-10380
▁ㄱㅣㅅㅏㅁㅏㄴ	-10381
▁ㅉㅣㄴ	-10382
ㅈㅏㅇㅎㅜㄴ	-10383
ㄱㅓㅅㅇㅡㄹㅗ	-10384
ㅇㅣㄴㅈㅣㄷㅗ	-10385
ㅍㅗㄱㅣ	-10386
▁ㅈㅣㄴㅂㅗ	-10387
ㄲㅜㄹㅗ	-10388
ㅇㅣㄴㅐ	-10389
▁ㅇㅣㅅㅏ	-10390
▁ㄱㅗㅇㅑㅇ	-10391
▁ㅁㅏㄶㄷㅏㄱㅗ	-10392
ㅈㅓㄱㅇㅡㄹㅗㄴ	-10393
ㅇㅣㅇㅕㅆㄴㅡㄴㄷㅔ	-10394
▁ㄱㅓㅈㅓㄹ	-10395
ㅗㄴㅇㅣ	-10396
ㅍㅗㄴㅇㅣ	-10397
▁ㅊㅓㄹㅅㅜ	-10398
ㅇㅓㅆㄷㅏㅁㅕㄴ	-10399
▁ㅇㅗㄴㅓ	-10400
ㅇㅏㄴㅌㅏ	-10401
▁ㅅㅔㅌㅏㄱ	-10402
ㄸㅏㄱㅜㄹㅗ	-10403
▁ㅅㅣㄴㅊㅓㅇ	-10404
ㅎㅘㄷㅚㄴ	-10405
▁ㅁㅏㅇㅣㄴㅓㅅㅡ	-10406
ㅠㄱㅣ	-10407
▁ㄹㅗㅇ	-10408
▁ㅆㅡㅂㅆㅡㄹ	-10409
▁ㅎㅏㄴㅡㄴㄱㅓㅅㄷㅗ	-10410
ㅎㅚㅇㅢ	-10411
▁ㅅㅏㄹㅏㅁㅎㅏㄴㅌㅔ	-10412
▁ㄱㅣㅂㅗㄴㅈㅓㄱㅇㅡㄹㅗ	-10413
ㄹㅓㅅㅡ	-10414
▁ㅅㅓㅁㅣㄴㅇㅣ	-10415
▁ㅎㅏㄹㅜㅃㅏㄹㄹㅣ	-10416
▁ㄲㅡㅀ	-10417
ㅌㅣㅂㅣ	-10418
▁ㄱㅗㅇㅎㅘㅇㅈㅏㅇㅇㅐ	-10419
ㄱㅔㅇㅣㅌㅡ	-10420
▁ㄱㅓㅁㅊㅏㄹㅇㅡㄴ	-10421
ㅎㅐㅆㄴㅡㄴ	-10422
▁ㅎㅏㄷㅏㄴㅣ	-10423
ㅂㅗㄱㄱㅟ	-10424
▁ㅈㅜㅇㄱㅜㄱㅇㅡㄹ	-10425
ㅐㅂㅏㄹ	-10426
▁ㄱㅜㄱㄴㅐㅇㅔㅅㅓ	-10427
ㅇㅜㅈㅣ	-10428
ㅝㅇㅑㅈㅣ	-10429
▁ㅁㅏㄹㄷㅗㅇㅏㄴㄷㅚㄴㅡㄴ	-10430
▁ㅋㅣㅇㅜㄴ	-10431
▁is	-10432
▁ㅌㅏㄹㅊㅜㄹ	-10433
ㄱㅓㄹㅏㄴㅡㄴ	-10434
▁ㅈㅜㄱㄴㅡㄴㄷㅏ	-10435
▁ㅉㅓㅂ	-10436
ㅅㅡㄹㅔ	-10437
▁ㄷㅏㄺㄷㅐㄱㅏㄹ	-10438
ㅂㅗㄴㅏ	-10439
ㅂㅜㅌㅏㄱ	-10440
ㄱㅗㅇㄱㅕㄱ	-10441
▁ㅊㅏㅇㅇㅢ	-10442
ㅁㅜㄹㅇㅡㄴ	-10443
ㅈㅣㄴㅇㅕㅇ	-10444
ㅇㅓㅄㅈㅣㅁㅏㄴ	-10445
▁ㅈㅜㅇㅇㅛㅎㅏㄴㄱㅔ	-10446
▁ㄷㅗㅇㄱㅡㅂ	-10447
▁ㅇㅣㅌㅡㄹ	-10448
▁ㄱㅣㄷㅏㄹㅣㄴㅡㄴ	-10449
▁ㅌㅔㄴㄷㅔ	-10450
!!!!!!!!!	-10451
▁ㅆㅡㄴㅑ	-10452
▁ㅎㅏㅂㄹㅠ	-10453
ㄴㅕㄴㅂㅜㅌㅓ	-10454
▁ㅇㅓㅇㅜㄹㄹㅣㄴㅡㄴ	-10455
▁ㄴㅏㅊ	-10456
▁ㅇㅛㅊㅓㅇ	-10457
▁ㅂㅜㄹㄱㅗㅇ	-10458
▁ㅇㅠㄱㅈㅣㄷㅏㅁ	-10459
!~	-10460
,,,,,	-10461
ㅕㅇㅇㅡㄹ	-10462
▁ㅇㅘㅆㄷㅏ	-10463
ㅂㅜㄲㅡㄹ	-10464
▁ㅊㅓㄴㅈㅣ	-10465
ㅍㅗㅎㅏㅁ	-10466
ㅌㅔㄴㅣㄲㅏ	-10467
ㅎㅏㄹㅇㅣㄴ	-10468
▁ㅊㅏㅈㄴㅡㄴ	-10469
▁ㅇㅏㅅㅟㅂㄴㅔㅇㅛ	-10470
ㅇㅏㅆㄱㅗ	-10471
ㅈㅣㄱㅡㅅ	-10472
▁ㄷㅡㅇㅇㅔ	-10473
▁ㄴㅏㅇㅣㄷㅗ	-10474
▁ㅈㅜㅇㄱㅜㄱㅂㅏㄹ	-10475
▁ㅅㅏㅇㅣㄷㅏ	-10476
▁ㅆㅡㄹㄷㅔㅇㅓㅄㅇㅣ	-10477
ㄱㅝ	-10478
ㅎㅚㄴㅡㄴ	-10479
ㄱㅜㅇㄱㅡㅁ	-10480
ㄹㅣㅇㅓ	-10481
ㄷㅗㄴㄷㅗ	-10482
▁ㅊㅜㅊㅡㄱ	-10483
ㄷㅏㅂㄷㅏㅂ	-10484
ㅂㅓㄹㅣㅁㅕㄴ	-10485
ㅋㅓㄱ	-10486
ㅅㄴㅏㄹ	-10487
▁ㅇㅣㅂㅓㄴㅈㅜ	-10488
▁ㅁㅏㄴㄷㅡㄹㅇㅓㅆ	-10489
▁ㅂㅜㄹㅋㅙ	-10490
ㅅㅜㅇㅛ	-10491
▁ㅌㅏㄹㅌㅏㄹ	-10492
ul	-10493
ㄷㅐㅈㅣ	-10494
▁ㅁㅝㅎㅐ	-10495
ㅇㅣㄱㅜㄴ	-10496
▁ㄴㅡㅇㄹㅕㄱㄷㅗ	-10497
▁ㅊㅏㄱㅎㅏㄱㅗ	-10498
▁ㅊㅓㄴㅊㅓㄴㅎㅣ	-10499
▁ㅈㅗㄹㅗㅇ	-10500
▁ㅎㅏㄷㅡㅇ	-10501
▁ㅈㅓㄴㅇㅛㅇ	-10502
ㅓㅇㅘ	-10503
▁SBS	-10504
▁ㅇㅏㅅㅣㅇㅏ	-10505
ㄹㅐㅇㅝㄴ	-10506
▁ㅂㅓㅂㅊㅣ	-10507
ㅕㅆㄴㅔㅇㅛ	-10508
▁ㅍㅏㅁㅕㄴ	-10509
ㄱㅡㅁㅇㅡㄴ	-10510
▁ㅈㅓㄱㅏ	-10511
ㄱㅜㄹㅡㅁ	-10512
▁ㅇㅕㄴㅅㅗㄱ	-10513
ㄷㅡㄹㄲㅣㄹㅣ	-10514
ㅁㅓㄱㅇㅡㅁㅕㄴ	-10515
▁ㅂㅜㅈㅗㄱㅎㅏㄴ	-10516
ㅇㅢㅅㅏ	-10517
▁ㅇㅖㅃㅡㄷㅏ	-10518
▁ㄱㅜㄱㅁㅣㄴㄷㅡㄹㅎㅏㄴㅌㅔ	-10519
ㅅㅔㄹ	-10520
▁ㅂㅏㅇㅂㅓㅂㅇㅡㄹ	-10521
ㅅㅐㅁ	-10522
ㅐㅇㅐㄱ	-10523
▁ㅂㅏㄴㅇㅕㅇ	-10524
ㅌㅣㅂㅡ	-10525
▁ㄱㅣㅁㅅㅗㅎ	-10526
▁ㅈㅓㅇㅂㅜㄱ	-10527
▁ㅈㅓㄱㄷㅏㅇ	-10528
ㄷㅚㄱㅣ	-10529
ㅎㅐㅈㅝㅅㅓ	-10530
▁ㅅㅏㄹㅁㅏㄴ	-10531
ㅁㅜㄹㅇㅔ	-10532
▁ㄱㅣㅁㅅㅓㅇ	-10533
▁ㅇㅓㅉㅓㄴㅈㅣ	-10534
ㅈㅗㅇㅂㅜㄱ	-10535
▁ㅈㅓㄴㄷㅗㅇ	-10536
▁MC	-10537
▁ㅎㅚㅇㅢ	-10538
ㅂㅓㄴㅎㅗ	-10539
▁ㄱㅕㅇㅂㅜㄱ	-10540
▁ㄹㅓㅅㅣ	-10541
▁ㅌㅏㄱㅕㄱ	-10542
ㅈㅏㅇㄴㅣㅁ	-10543
▁ㄱㅡㄸㅐㄴ	-10544
ㄱㅣㅇㅘ	-10545
ㅅㅔㄴㅌㅓ	-10546
▁ㅁㅗㅇㅏㅅㅓ	-10547
▁ㅇㅝㄴㅁㅏㅇ	-10548
ㄷㅡㅂ	-10549
ㄱㅣㄴㅑ	-10550
▁ㅅㅗㅎㅘㄴ	-10551
▁ㄷㅏㅇㅇㅣㄹ	-10552
ㄱㅓㅅㅇㅣㄴㄱㅏ	-10553
ㅈㅏㅇㅣ	-10554
▁ㅅㅣㄹㅁㅕㅇ	-10555
▁ㅅㅣㅈㅏㄱㅎㅐㅅㅓ	-10556
▁ㅇㅏㅈㅓ	-10557
▁ㅈㅏㅂㅐㄱ	-10558
▁ㅇㅏㄷㅡㄹㅇㅣ	-10559
ㄴㅏㅆㄷㅏ	-10560
ㅈㅓㄴㅎㅘ	-10561
▁ㄷㅐㅎㅏㄱㅅㅐㅇ	-10562
▁ㅇㅕㄴㅇㅖㄴ	-10563
▁ㅎㅏㅅㅣㄱㅗ	-10564
ㅎㅕㅇㅇㅡㄹㅗ	-10565
ㅇㅕㅈㅏㄱㅏ	-10566
▁ㅅㅐㅇㄱㅏㄱㄴㅏㄴㄷㅏ	-10567
▁ㅌㅔㄹㅓ	-10568
ㄷㅐㅅㅓㄴ	-10569
▁ㄷㅏㅇㅅㅣㄴㄷㅡㄹㅇㅣ	-10570
▁ㅇㅠㅈㅐㅅㅓㄱㅇㅡㄴ	-10571
▁ㄱㅘㅈㅓㅇ	-10572
▁ㄷㅏㅇㅎㅏㄴㅡㄴ	-10573
ㅌㅙ	-10574
ㄱㅏㅇㅣㅂ	-10575
▁ㅁㅏㄴㄴㅏㄱㅗ	-10576
▁ㅊㅏㄱㅗ	-10577
▁ㄷㅐㄹㅑㅇ	-10578
▁ㄱㅣㅁㅇㅜㅂㅣㄴ	-10579
▁ㅁㅓㄱㄱㅗㅅㅏㄴㅡㄴ	-10580
▁ㅇㅣㄴㄱㅏㄴㅇㅡㄹ	-10581
ㅌㅜㅅ	-10582
ㅈㅐㄹㅗ	-10583
▁ㅍㅗㅅㅡ	-10584
ㅅㅐㅇㄱㅕㅆ	-10585
▁ㄴㅗㄷㅗㅇㅈㅏ	-10586
?.	-10587
▁ㄱㅐㅌㅗㅇ	-10588
▁ㄱㅣㅇㅜㄴ	-10589
▁ㅊㅏㄱㅊㅟ	-10590
▁ㅁㅏㄹㄹㅗㅁㅏㄴ	-10591
ㅎㅜㅇㅢ	-10592
▁ㅇㅕㄴㅎㅠ	-10593
▁ㅇㅗㅀㅇㅡㄴ	-10594
▁ㅇㅜㅅㄱㅕㅆ	-10595
ㄴㅡㅈㄱㅔ	-10596
ㄷㅓㅇㅇㅣ	-10597
ㅅㅐㅇㅇㅔ	-10598
▁ㅈㅓㄴㅁㅕㄴ	-10599
▁ㅎㅏㄴㅏㅇㅛ	-10600
▁ㅎㅘㅁㅜㄹ	-10601
▁ㄱㅣㅁㅈㅜㄴ	-10602
ㅎㅜㅅ	-10603
▁ㅇㅏㄴㄱㅏㄹ	-10604
ㅕㅆㅈㅣㅁㅏㄴ	-10605
▁ㅁㅏㅇㅎㅐㅇㅑ	-10606
▁ㄷㅏㅇㅇㅕㄴㅎㅏㅈㅣ	-10607
▁ㅈㅣㄴㅇㅣㅂ	-10608
▁ㄱㅙ	-10609
▁ㅇㅏㄶㅇㅏㅅㅓ	-10610
ㄷㅔㄱㅣ	-10611
ㅅㅗㅅㅣㄱ	-10612
▁ㄴㅐㄹㅣㄴㅡㄴ	-10613
ㅅㅐㅇㄱㅏㄱㅇㅡㄹ	-10614
ㅊㅏㄱㅗ	-10615
ㅕㅆㄷㅏㄱㅗ	-10616
▁ㅂㅏㄷㅇㅏㄷㅡㄹ	-10617
▁ㅍㅜㄹㅡㄴ	-10618
▁ㅇㅏㄴㅣㄱㅔㅆㅈㅣ	-10619
▁ㅂㅏㄲㅟㄹ	-10620
▁ㅇㅕㅇㅇㅝㄴㅎㅏㄴ	-10621
ㅎㅓㄱ	-10622
ㅎㅏㄴㅡㄴㄱㅓㄴㅑ	-10623
▁ㅈㅏㅇㅅㅣ	-10624
▁ㄱㅘㅇㅈㅜ	-10625
▁ㅇㅏㄴㄱㅗ	-10626
▁ㄴㅓㅁㅜㅁㅏㄶ	-10627
ㄹㅏㄱㅏ	-10628
ㅎㅐㅊㅔ	-10629
▁ㅂㅐㄱㅅㅓㅇ	-10630
▁ㅂㅜㄹㅓㅇㅝ	-10631
▁ㅈㅓㅁㅅㅣㅁ	-10632
ㄴㅗㅇㅖ	-10633
▁ㄱㅕㅇㅇㅠㄱㅏㅄ	-10634
▁ㅇㅕㄴㅇㅖㅇㅣㄴㄷㅡㄹㅇㅡㄴ	-10635
▁ㅁㅏㄴㅜㄹㅏ	-10636
ㅂㅗㄷㅡ	-10637
▁ㅎㅘㄹㅕ	-10638
ㅎㅐㅂㅗㅁㅕㄴ	-10639
ㄱㅖㅇㅑㄱ	-10640
ㅅㅣㅅㅡㅌㅔㅁ	-10641
ㅍㅓㅅㅔㄴㅌㅡ	-10642
ㅇㅣㅆㄷㅏㄴㅡㄴ	-10643
▁ㅇㅓㅄㄴㅡㄴㄷㅡㅅ	-10644
▁ㅇㅏㄴㅣㅈㅛ	-10645
▁ㄷㅐㄱㅣㅇㅓㅂㅇㅡㄴ	-10646
ㅁㅏㄴㅂㅘㄷㅗ	-10647
▁ㅂㅗㄴㅡㄴㄱㅔ	-10648
▁ㄱㅏㅌㄷㅓㄴㄷㅔ	-10649
▁ㄷㅏㄹㅡㄴㅅㅏㄹㅏㅁ	-10650
ㅃㅐㄱ	-10651
ㅂㅏㄲㅝ	-10652
▁ㅇㅣㅇㅘㅇ	-10653
ㅂㅏㅇㅇㅡㄴ	-10654
▁ㄱㅡㅂㅅㅣㄱ	-10655
▁ㅂㅜㄹㅎㅐㅇ	-10656
ㅎㅚㅇ	-10657
▁ㅎㄷㄷ	-10658
ㅇㅓㅂㅓㄹㅣㄱㅗ	-10659
▁ㄱㅜㄴㅏ	-10660
ㄷㅏㄴㅁㅏㄹ	-10661
ㅂㅗㅇㅣㄱㅗ	-10662
▁ㄴㅏㅇㅗㄴㅑ	-10663
▁ㄷㅔㄴㅁㅏㅋㅡ	-10664
▁ㅊㅓㅇㅅㅗㄴㅕㄴ	-10665
ㄹㅣㅌㅣ	-10666
▁ㅌㅏㄱㅅㅏㅇ	-10667
▁ㄴㅗㅇㅣㄴㄷㅡㄹ	-10668
▁ㄱㅡㄹㅣㅂ	-10669
▁ㅈㅜㄹㅇㅕ	-10670
ㅁㅐㄴㄴㅏㄹ	-10671
▁ㄱㅣㄷㅐㅎㅏㄱㅗ	-10672
▁ㅈㅗㅂㅇㅡㄴ	-10673
ㄱㅓㅅㅇㅔ	-10674
▁ㄱㅕㅇㄱㅗ	-10675
ㅊㅗㅂㅜㅌㅓ	-10676
▁ㅅㅓㅇㄷㅗㅇ	-10677
ㅉㅉㅉㅉㅉㅉㅉㅉ	-10678
ㅇㅡㄹㅕ	-10679
ㅇㅓㄴㅓㅎ	-10680
ㅎㅐㅈㅝㄹㅏ	-10681
▁ㅍㅏㄹㅇㅏㅅㅓ	-10682
es	-10683
▁ㄷㅡㄹㅁㅓㄱ	-10684
▁ㅈㅓㅅㅏㄹㅏㅁ	-10685
ㅎㅏㄴㅣㄲㅏㄴ	-10686
ㄱㅓㄹㅣㄱㅏ	-10687
▁ㅁㅕㅇㅂㅏㄱ	-10688
▁ㅇㅘㅇㅊㅏㅇ	-10689
▁ㄱㅏㅆㄴㅡㄴㄷㅔ	-10690
ㅍㅗㄴㅇㅡㄹ	-10691
▁ㄷㅚㅈㅏㄶㅇㅏ	-10692
▁ㅂㅚ	-10693
ㄹㅕㅆ	-10694
▁ㄴㅛㄴ	-10695
▁ㅇㅏㄴㅅㅏㄴㄷㅏ	-10696
▁ㅅㅏㅈㅚ	-10697
ㄱㅡㅁㅇㅡㄹㅗ	-10698
▁ㅅㅐㅇㄱㅏㄱㅇㅓㅄㅇㅣ	-10699
ㄷㅏㄹㅇㅔ	-10700
▁ㅂㅓㅂㄷㅐㄹㅗ	-10701
▁ㅂㅣㅇㅜㅅ	-10702
▁ㅎㅓㄹㅏㄱ	-10703
▁ㅇㅓㄴㄹㅗㄴㅇㅢ	-10704
▁ㄴㅐㄱㅔ	-10705
ㅌㅡㅂㅜㄱ	-10706
▁ㅂㅜㄴㅇㅕㄹ	-10707
▁ㄷㅐㅅㄱㅡㄹㅇㅏㄹㅂㅏ	-10708
▁ㅈㅚㅇㅣㄴ	-10709
ㅈㅓㅇㄷㅏㅇ	-10710
ㅌㅡㄴㅏ	-10711
▁ㅁㅕㅇㄹㅕㅇ	-10712
▁ㅅㅜㅇㅣㅂㅊㅏ	-10713
▁ㅅㅓㅁㅣㄴㅇㅡㄹ	-10714
▁ㅇㅔㅇㅓㅋㅓㄴㅇㅡㄹ	-10715
ㄱㅐㄴ	-10716
▁ㅇㅑㅇㅣ	-10717
ㄷㅜㄴㅡㄴ	-10718
ㅐㅇㅑㅈㅣ	-10719
ㅊㅜㅇㅈㅓㄴ	-10720
▁ㅈㅜㅇㅅㅏㄴㅊㅡㅇ	-10721
▁ㅎㅐㅇㅑㅎㅏㄹ	-10722
▁ㅎㅏㄷㅓㄹㅏㄷㅗ	-10723
▁ㄷㅡㄹㅇㅓㄱㅏㅁㅕㄴ	-10724
▁29	-10725
ㅇㅡㅅㅣ	-10726
ㅈㅡㅇㅇㅣ	-10727
▁ㅇㅓㄹㅇㅓ	-10728
▁ㄷㅚㄴㅡㄴㄱㅓㅈㅣ	-10729
▁ㅎㅏㅊㅓㅇㅇㅓㅂㅊㅔ	-10730
ㅇㅕㄴㅎㅏㄴ	-10731
▁ㄴㅏㄱㅏㄱㅗ	-10732
▁ㄷㅜㄱㅐ	-10733
▁ㅈㅏㄱㅗ	-10734
▁ㄷㅐㅂㅏㄱㄴㅏ	-10735
ㄱㅓㅅㄱㅏㅌㅇㅏㅇㅛ	-10736
▁ㅇㅣㅆㅈㅛ	-10737
▁ㅅㅐㅇㄱㅕㅆㄷㅏ	-10738
▁ㅊㅓㅇㅡㅁㅇㅔ	-10739
ㄷㅔㅇㅛ	-10740
▁ㅊㅐㅇㄱㅣㄴㅡㄴ	-10741
▁ㅇㅜㄹㅣㄴㅏㄹㅏㅇㅢ	-10742
ㄹㅓㄴㅈㅣ	-10743
▁ㅈㅜㅈㅏㄱ	-10744
ㅂㅣㄱㅛ	-10745
▁ㅈㅜㅁㅗㄱ	-10746
▁ㅇㅣㄴㅁㅐㄱ	-10747
▁ㄷㅡㄹㅏㅁㅏㅇㅔㅅㅓ	-10748
▁ㅇㅟㅇㅔㅅㅓ	-10749
▁ㄷㅏㄹㅇㅢㅇㅕㄴ	-10750
▁ㅂㅕㅇㅅㅣㄴㄴㅕㄴ	-10751
ㅇㅣㄹㅅㅜㄷㅗ	-10752
▁ㄴㅏㅇㅘㅆㄷㅏ	-10753
▁ㅇㅣㄹㅂㅔㅊㅜㅇ	-10754
ㅇㅣㄷㅓㄹㅏ	-10755
▁ㅇㅏㄴㄷㅚㄴㅣ	-10756
▁ㅃㅐㄴ	-10757
▁ㅎㅏㄴㅁㅣ	-10758
▁ㄹㅏㅁ	-10759
ㅅㅡㅋㅔ	-10760
▁ㅇㅠㅈㅓㅇㅇㅣ	-10761
▁ㅁㅐㄱㅈㅜ	-10762
▁ㅈㅏㅇㄷㅏㅁ	-10763
▁ㅂㅓㄹㅆㅓㅂㅜㅌㅓ	-10764
▁ㄷㅏㅁㅈㅜ	-10765
▁ㅇㅏㄲㅏㅇ	-10766
▁ㅈㅏㅅㅣㄱㅇㅣ	-10767
▁ㅎㅐㅂㅗㄹ	-10768
▁ㅅㅡㄹㅍㅡㄷㅏ	-10769
▁ㄷㅏㅅㅣㅎㅏㄴㅂㅓㄴ	-10770
ig	-10771
ㅅㅣㅋㅣㅈㅣ	-10772
▁ㅂㅏㄺㅎㅕㄹㅏ	-10773
▁ㄱㅕㄹㅋㅗ	-10774
▁ㅅㅗㅍㅡㅌ	-10775
▁ㄲㅐㄷㅏㄹ	-10776
▁ㄷㅗㄱㄹㅣㅂㅇㅜㄴㄷㅗㅇ	-10777
ㄷㅜㅅ	-10778
▁ㄸㅓㄷㅡㄴㅡㄴ	-10779
▁ㅅㅏㅁㄱㅕㅂㅅㅏㄹ	-10780
ㅂㅓㄹㅣㅁ	-10781
ㅍㅡㄹㅗㄱㅏ	-10782
▁ㅇㅜㅅㄴㅡㄴ	-10783
▁ㅇㅓㅅㅓㄹ	-10784
▁ㅇㅏㄶㅇㅏㅇㅛ	-10785
ㅇㅣㄹㅏㄴㄱㅓㄹ	-10786
▁ㅎㅏㄴㅡㄹㅇㅣ	-10787
ㄴㅡㅁ	-10788
▁ㅇㅣㅂㅎㅏㄱ	-10789
▁ㅁㅜㅅㅡㄹㄹㅣㅁ	-10790
▁ㅇㅖㅂㅣ	-10791
ㄲㅏㄴㅡㄴ	-10792
ㄴㅐㅁㅕㄴ	-10793
ㅌㅡㅁㅏㄴ	-10794
▁ㅇㅡㅁㅈㅜ	-10795
▁ㄱㅏㄱㅖㅂㅜㅊㅐ	-10796
▁ㅆㅏㄷㅏ	-10797
ㅇㅓㅇㅗㄹ	-10798
ㅇㅚㄱㅛ	-10799
▁ㅈㅏㄹㅏ	-10800
ㅅㅓㄴㅅㅜ	-10801
▁ㅎㅏㄴㅉㅗㄱ	-10802
ㅂㅇㅡㄴ	-10803
▁ㅇㅐㄷㅗ	-10804
ㅂㅜㄴㅇㅑ	-10805
ㅣㅇㅟㅎㅐ	-10806
▁ㅇㅏㅇㅣㄷㅣㅇㅓ	-10807
ㅎㅜㅂㅗ	-10808
ㅈㅓㅈㅣㄹ	-10809
▁ㅂㅕㄹㄹㅗㅇ	-10810
▁ㅂㅏㅇㅂㅓㅂㅇㅡㄴ	-10811
ㅌㅐㄱㅡㄱ	-10812
▁ㅇㅕㄱㅣㄱㅏ	-10813
▁ㅇㅏㄴㄷㅚㄴㅑ	-10814
▁ㅇㅣㅅㅏㅇㅇㅡㄴ	-10815
ㅅㅔㅅㅏㅇㅇㅔ	-10816
▁ㄱㅡㄹㅓㄴㄱㅓㄴ	-10817
ㄹㅕㄱㅜ	-10818
▁ㅁㅜㄱㅗㅈㅚ	-10819
ㅇㅡㄹㅗㅂㅜㅌㅓ	-10820
▁ㅈㅓㅇㅊㅐㄱㅇㅣ	-10821
?"	-10822
ㅠㅠㅠㅠㅠㅠ	-10823
▁ㅃㅓㄴㅃㅓㄴㅎㅏㄴ	-10824
ㅎㅏㄴㅡㄴㄱㅏ	-10825
▁ㅅㅜㄴㅈㅣㄴ	-10826
▁ㅅㅏㄹㅏㅇㅇㅡㄹ	-10827
▁ㄴㅓㅁㅇㅓㅅㅓ	-10828
▁ㅊㅐㅇㅝ	-10829
▁ㅍㅖㅅㅙ	-10830
▁ㅇㅓㅁㄱㅕㄱ	-10831
▁ㅅㅏㄹㅏㅇㅎㅐㅇㅛ	-10832
ㄱㅓㅅㅇㅣㅈㅣ	-10833
ㅅㅔㅇㅕ	-10834
▁ㅅㅣㄹㅅㅣ	-10835
▁ㅈㅗㅈㅗㅇ	-10836
▁ㅈㅝㄷㅗ	-10837
▁ㄱㅏㅈㅓㄴ	-10838
▁ㅆㅡㄹㅁㅗ	-10839
ㅎㅐㅇㅈㅓㅇ	-10840
▁ㄷㅏㄹㄷㅏㄹ	-10841
▁ㅂㅐㄱㄴㅏㄹ	-10842
ㅠㅁ	-10843
▁ㄴㅏㄱㅗ	-10844
▁ㅁㅏㅈㄴㅔ	-10845
ㄷㅏㄴㅇㅡㄴ	-10846
▁ㅇㅏㄲㅏㅇㅝ	-10847
▁ㅈㅏㅈㅗㄴㅅㅣㅁ	-10848
ㄱㅣㅎㅚㅇㅔ	-10849
▁ㅇㅚㄱㅜㄱㅇㅔ	-10850
ㅅㅔㅇㅔ	-10851
▁ㄹㅏㅇㅣ	-10852
ㄱㅣㅎㅚㄱ	-10853
ㅂㅐㅅㅏㅇ	-10854
▁ㄷㅗㅇㅈㅓㅇ	-10855
▁ㄱㅣㅁㅊㅣㄴㅕ	-10856
ㅇㅣㅅㅏㅇㅇㅡㄴ	-10857
ㄱㅡㄹㅣㅁ	-10858
▁ㅎㅡㄺㅅㅜㅈㅓ	-10859
▁ㄴㅓㅁㅜㅎㅏㄴㅔ	-10860
▁ㅂㅗㄴㅇㅣㄴㅇㅢ	-10861
▁ㅎㅏㄴㅂㅓㄴㅇㅔ	-10862
ㅇㅜㄴㅇㅕㅇ	-10863
▁ㅈㅗㅎㅇㅏㅆㄷㅏ	-10864
ㅎㅏㄱㅔㅆㄷㅏㄴㅡㄴ	-10865
▁ㅋㅣㅇㅜ	-10866
▁ㄸㅓㄷㅡㄹㅇㅓ	-10867
▁ㅁㅏㄴㄴㅏㅁㅕㄴ	-10868
▁ㄷㅞ	-10869
ㄴㅗㅁㅇㅢ	-10870
▁ㅇㅕㅇㅈㅏㅇ	-10871
ㅈㅣㄴㅈㅓㅇ	-10872
▁ㅎㅏㄷㅓㄴㅈㅣ	-10873
▁ㅈㅣㅂㅊㅏㄱ	-10874
ㅎㅐㅈㅣㅁㅕㄴ	-10875
▁ㅈㅓㅇㅈㅣ	-10876
▁ㅊㅚㅅㅓㄴ	-10877
ㄹㅡㅁ	-10878
▁ㄷㅜㅂㅓㄴㅉㅐ	-10879
▁ㅇㅣㄴㅅㅐㅇㅇㅣ	-10880
▁ㅇㅓㅄㅇㅓㅆㅇㅡㅁㅕㄴ	-10881
ㅈㅐㄴ	-10882
▁ㅍㅏㄴㅌㅏ	-10883
▁ㄱㅛㅌㅗㅇㅅㅏㄱㅗ	-10884
▁ㅇㅣㄴㅅㅜ	-10885
▁ㅂㅗㄴㅇㅣㄴㅇㅡㄴ	-10886
▁ㅇㅒㄱㅏ	-10887
▁ㅅㅓㅅㅓㅎㅣ	-10888
▁ㅈㅏㅅㅏㄴ	-10889
▁ㅇㅡㄴㅈㅣㅇㅝㄴ	-10890
▁ㄷㅡㄹㅇㅓㅇㅗㄴㅡㄴ	-10891
▁ㅅㅣㄹㅊㅓㄴ	-10892
▁ㅇㅏㅁㅜㄹㅐㄷㅗ	-10893
ㅌㅔㄹㅓ	-10894
ㅂㅏㅇㅅㅣㄱ	-10895
▁ㄴㅗㅁㅇㅡㄴ	-10896
ㅈㅣㄱㅜ	-10897
ㅕㄴㅇㅡㄹ	-10898
▁ㅁㅗㅇㅕㅅㅓ	-10899
▁ㄸㅡㄱㅗ	-10900
ㄷㅓㄴㄱㅓ	-10901
ㅂㅏㄷㄴㅡㄴㄷㅏ	-10902
▁ㅇㅏㅇㅣㅍㅗㄴㅇㅡㄴ	-10903
▁ㄱㅏㄴㅈㅓㅂ	-10904
▁ㄸㅐㅂㅜㅌㅓ	-10905
ㅍㅗㄴㅇㅡㄹㅗ	-10906
▁ㅌㅗㅇㅎㅐㅅㅓ	-10907
ㄴㅕㄴㅇㅣㅁㅕㄴ	-10908
▁ㅇㅣㅅㅜ	-10909
▁ㅁㅏㅇㅎㅐㄷㅗ	-10910
▁ㅈㅓㄴㄱㅐ	-10911
▁ㅈㅓㄴㅎㅘㄴ	-10912
ㅆㅓㅇㅑ	-10913
ㅎㅐㅆㅇㅓㄷㅗ	-10914
ㄹㅕㅆㄴㅡㄴㄷㅔ	-10915
ㅗㅅㅔ	-10916
▁ㄱㅏㅇㅑㅈㅣ	-10917
ㅂㅜㄴㄷㅡㄹㄷㅗ	-10918
ㅁㅏㄶㄷㅏ	-10919
ㄲㅏㅅ	-10920
▁ㅅㅐㅇㄱㅏㄱㅎㅏㄹ	-10921
ㅁㅏㄴㅣ	-10922
ㅅㅜㅇㅘ	-10923
▁ㅈㅜㄴㄷㅏ	-10924
ㅈㅣㅇㅏㄶㅇㅡㄹ	-10925
▁ㄷㅗㄴㅇㅓㅄㄴㅡㄴ	-10926
▁ㄱㅣㅈㅏㄴ	-10927
ㅊㅓㄴㅈㅣ	-10928
▁ㅂㅗㄷㅏㄴ	-10929
ㅍㅣㄱㅗ	-10930
▁ㅇㅣㄴㅏ	-10931
ㅎㅏㅁㄲㅔ	-10932
▁ㅈㅏㄱㅅㅓㅇ	-10933
▁ㅁㅜㄹㄹㅣ	-10934
ㅅㅏㄷㅡㄹㅇㅣ	-10935
ㅇㅣㅆㅇㅓㅆ	-10936
ㄱㅗㅅㅗㄱ	-10937
▁ㅅㅣㄴㅎㅘ	-10938
▁ㅈㅏㄱㅏ	-10939
ㅎㅏㅈㅣㄴㅡㄴ	-10940
ㄷㅐㅅㅓ	-10941
▁ㄲㅓㅈㅣ	-10942
ㅂㅗㄴㅐㄱㅗ	-10943
▁ㅂㅐㄴ	-10944
ㄷㅓㄱㅓㄹ	-10945
ㅁㅏㄹㄷㅡㄴ	-10946
▁ㄸㅓㄹㅇㅓㅈㅣㅁㅕㄴ	-10947
ㄹㅏㅇㅛ	-10948
ㅅㅛㅍㅣㅇ	-10949
▁ㅅㅓㄹㄷㅡㄱ	-10950
▁ㅅㅏㅈㅣ	-10951
▁ㅇㅣㅂㅇㅡㄴ	-10952
▁ㅅㅏㄹㅏㅁㅇㅡㄹㅗ	-10953
ㅇㅣㅇㅠㄴㅡㄴ	-10954
▁ㅇㅣㅈㅣㄱㅕㅇ	-10955
▁ㅅㅔㅅㅏㅇㅇㅡㄴ	-10956
▁ㅃㅐㅁㅕㄴ	-10957
▁ㅇㅕㄱㅎㅏㄹㅇㅡㄹ	-10958
ㄷㅏㄴㅣㅁㅕㄴㅅㅓ	-10959
ㄴㅓㅎㅢ	-10960
▁ㄱㅣㅁㅎㅖ	-10961
▁ㅁㅓㄱㄴㅡㄴㄷㅏ	-10962
ㄲㅗㄹㅣ	-10963
▁ㅁㅜㄴㅓㅈㅣ	-10964
▁ㅈㅣㄴㅡㅇ	-10965
▁ㄷㅐㄴ	-10966
ㅅㅣㄷㅗ	-10967
▁ㄱㅜㄱㅌㅗ	-10968
▁ㅈㅏㅊㅣㅇ	-10969
▁ㅇㅏㄴㅆㅡㄱㅗ	-10970
ㅎㅏㄹㄸㅐㄴㅡㄴ	-10971
▁ㄱㅗㅇㅌㅗㅇ	-10972
ㅋㅣㄱ	-10973
▁ㄹㅎㅖ	-10974
ㄱㅓㄱㅣ	-10975
▁ㅇㅏㄱㅏㄹㅣ	-10976
▁ㅈㅏㄹㅎㅏㅁ	-10977
▁ㄱㅓㄴㄱㅏㅇㅎㅏㄴ	-10978
ㄸㅓㄹㅇㅓㅈㅣㄴ	-10979
▁ㅅㅐㅇㄱㅏㄱㅎㅏㄴㅣ	-10980
▁ㄷㅜㄷㅡㄹ	-10981
▁ㅈㅣㄴㅊㅜㄹ	-10982
▁ㅂㅏㄴㄷㅗㅊㅔ	-10983
▁ㄱㅡㅁㅇㅕㄴ	-10984
▁ㄱㅜㄱㄱㅏㅇㅘ	-10985
ㅁㅜㄹㄹㅗ	-10986
▁ㄷㅡㄹㅇㅓㅇㅗㄴ	-10987
ㅅㅓㅂㅣㅅㅡ	-10988
▁ㅅㅣㅁㅅㅣㅁ	-10989
ㅊㅓㅇㅔ	-10990
ㄷㅓㅇㅝ	-10991
ㄷㅗㅇㅢ	-10992
▁ㄷㅐㅅㅏㅇㅇㅡㄴ	-10993
▁ㅈㅜㄱㅇㅡㄹㄸㅐㄲㅏㅈㅣ	-10994
▁ㅈㅜㅇㄱㅖ	-10995
ㅅㅣㄴㄱㅕㅇ	-10996
▁ㅎㅏㄴㅅㅣㄱㅏㄴ	-10997
▁ㅂㅏㄹㅏㄹ	-10998
▁ㅈㅓㅅㅗㄷㅡㄱㅊㅡㅇ	-10999
▁ㅇㅓㅄㅇㅓㅆㄴㅡㄴㄷㅔ	-11000
▁ㅂㅜㅈㅏㄱ	-11001
▁ㅅㅏㄹㄷㅏㄱㅏ	-11002
▁ㅅㅜㅅㅏㅇㅅㅗ	-11003
▁ㅇㅣㅆㅈㅏㄶㅇㅏ	-11004
▁ㅇㅑㅇㅅㅣㅁㄷㅗ	-11005
▁ㅂㅡㄹㅍㅣㅇ	-11006
▁ㅂㅐㄱㅗ	-11007
▁ㅅㅣㅂㅣ	-11008
ㅁㅏㄴㄴㅏ	-11009
▁ㅁㅝㅅㅇㅣ	-11010
▁ㄱㅗㅇㅁㅜㅇㅝㄴㅇㅣ	-11011
▁ㅈㅣㅋㅣㄱㅗ	-11012
ㅎㅐㅈㅜㄴㄷㅏ	-11013
▁ㅈㅓㅎ	-11014
▁ㅈㅐㄱㅗ	-11015
▁ㅈㅗㅇㅇㅕㅇ	-11016
ㅎㅏㄴㄷㅏㄴㅡㄴㄱㅔ	-11017
▁ㅆㅓㄷㅗ	-11018
▁ㅅㅗㄱㅗㄱㅣ	-11019
ㅊㅕㅆㄷㅏ	-11020
ㅎㄱㅔ	-11021
ㄱㅏㅇㅘㅇ	-11022
ㅊㅜㅇㄱㅕㄱ	-11023
▁ㅅㅣㅁㅎㅏㄷㅏ	-11024
ㄷㅏㄹㅡㄹ	-11025
ㅈㅕㅆㄱㅗ	-11026
▁ㅍㅣㅎㅐㄱㅏ	-11027
ㅎㅏㄴㄱㅓㄱㅗ	-11028
▁ㄱㅜㄹㅣㄴ	-11029
▁ㅅㅔㅂㅡㄴ	-11030
▁ㅅㅣㅁㄹㅣ	-11031
▁ㄱㅏㅈㅗㄱㅇㅣ	-11032
ㅈㅣㅁㅏㅂㅅㅣㄷㅏ	-11033
▁ㄷㅓㄴㅈㅕ	-11034
ㅈㅣㄹㅇㅏㄶ	-11035
▁ㅅㅣㄴㄱㅗㄱ	-11036
▁ㅍㅖㅈㅣㅎㅏㄱㅗ	-11037
ㅍㅏㄴㅇㅡㄹ	-11038
▁ㅂㅗㅇㅕㅈㅜㅅㅔㅇㅛ	-11039
~~~^^	-11040
ㅈㅔㅇㅣㄹ	-11041
▁ㄲㅏㅂㅏㄹ	-11042
▁ㄱㅓㅅㅇㅣㄴㄱㅏ	-11043
ㄷㅡㄹㅁㅕㄴ	-11044
▁ㄸㅓㄹㅇㅓㅈㅣㄴㄷㅏ	-11045
ㅎㅕㄱㅁㅕㅇ	-11046
▁ㄱㅝㄴㅎㅏㄴ	-11047
▁ㄸㅜㅇㄸㅜㅇ	-11048
▁ㅁㅗㄹㄹㅏㄱ	-11049
▁ㅇㅣㄹㅎㅏㄹ	-11050
ㄴㅏㅇㅗㅁ	-11051
ㅌㅡㅁ	-11052
ㅈㅜㅇㅇㅔㅅㅓ	-11053
▁ㅇㅐㅁㅐ	-11054
ㅎㅚㄹㅡㄹ	-11055
▁ㅎㅖㅌㅐㄱㅇㅡㄹ	-11056
▁ㅎㅏㄴㄱㅜㄱㅇㅣㄴㄷㅡㄹ	-11057
ㄷㅡㄹㅂㅗㄷㅏ	-11058
ㅇㅣㅂㅇㅡㄴ	-11059
▁ㄱㅕㄹㅎㅗㄴㄷㅗ	-11060
▁ㅈㅓㅇㅅㅣㄴㅊㅏㄹㅣㅈㅣ	-11061
ㄷㅣㄴㅡㄴ	-11062
▁ㅍㅕㄴㅎㅏㄴ	-11063
ㅈㅜㅅㅕㅅㅓ	-11064
▁ㅁㅗㅅㅁㅏㅈ	-11065
ㅕㅆㄷㅏㄴㅡㄴ	-11066
▁ㅈㅏㄹㅎㅐㄹㅏ	-11067
▁ㄲㅏㄱㅇㅏ	-11068
▁ㅈㅜㅁㅜㄴ	-11069
ㅌㅡㄱㅈㅣㅂ	-11070
ot	-11071
▁ㅅㅣㄱㅜㄱ	-11072
▁ㅇㅠㅌㅠㅂㅡ	-11073
23	-11074
ㄱㅗㅇㅇㅠ	-11075
▁ㅁㅣㄹㅐㄴㅡㄴ	-11076
▁ㅇㅓㅄㄷㅓㄹㅏ	-11077
ㅂㅣㅇㅘ	-11078
ㅅㅗㄹㅗ	-11079
▁ㅅㅜㄴㅇㅟ	-11080
ㅅㅣㄱㄷㅏㅇ	-11081
ㅂㅏㄹㅏㅂㄴㅣㄷㅏ	-11082
▁ㅇㅕㄴㄱㅣㄷㅐㅅㅏㅇ	-11083
▁ㅆㅡㄱㅔ	-11084
ㄹㅕㄴㅗㅎ	-11085
ㅌㅗㅇㅇㅔ	-11086
ㅎㅏㄱㅓㅅ	-11087
ㅈㅜㅈㅔㅇㅔ	-11088
▁ㅅㅏㅇㄱㅘㄴㅇㅓㅄㅇㅣ	-11089
ㅇㅡㄹㄱㅓ	-11090
▁ㅂㅕㄴㅎㅗㅇㅣㄴ	-11091
ㅇㅓㅄㅇㅓㅇㅛ	-11092
▁ㅇㅣㄹㅓㄴㅇㅣㄹㅇㅣ	-11093
ㄱㅠㅁㅗ	-11094
▁ㅎㅡㄹㄹㅓ	-11095
▁ㅂㅏㄹㅇㅏㅁ	-11096
▁ㅈㅓㅇㅅㅣㄴㅊㅏㄹㅣ	-11097
▁ㄴㅏㅎㄱㅗ	-11098
ㅂㅓㄹㅕㅇㅑ	-11099
▁ㅂㅐㅇㅜㄹㅗ	-11100
▁ㅈㅓㅇㄷㅗㅇ	-11101
▁ㅁㅜㄴㅈㅔㅇㅣㅁ	-11102
▁ㅇㅣㄹㅝ	-11103
ㅇㅣㄹㅈㅣ	-11104
▁ㅈㅏㄱㅣㄴㅡㄴ	-11105
▁ㅁㅜㄴㅈㅔㅇㅣㄴ	-11106
▁ㅁㅗㅅㅎㅏㄴㅡㄴㄷㅔ	-11107
▁ㅋㅣㄹ	-11108
ㅅㅜㄹㅏ	-11109
▁ㅇㅣㅆㄴㅡㄴㄱㅏ	-11110
ㅗㅗ	-11111
ㄷㅡㄹㅁㅏㄴㅇㅢ	-11112
▁ㅂㅓㄴㅇㅕㄱ	-11113
▁ㅅㅓㄹㅎㅕㄴㅇㅣ	-11114
ㅍㅡㄹㅏ	-11115
ㅇㅏㄴㄷㅙ	-11116
ㄷㅡㄹㅇㅓㅅㅓ	-11117
ㅈㅏㅂㅇㅣ	-11118
▁ㅇㅣㅇㅜㅅ	-11119
▁ㄱㅣㅅㅏㄹㅏㄱㅗ	-11120
ㄲㅓㄱㅗ	-11121
▁ㅎㅘㄱㄷㅐ	-11122
ㅊㅚㄱㅗㅇㅢ	-11123
▁ㅇㅏㄱㅇㅕㄱ	-11124
▁ㅅㅏㄹㅏㅇㅇㅣ	-11125
ㅔㄹㅣ	-11126
▁ㅈㅐㅁㅣㅅ	-11127
ㅅㅏㄹㅏㄱㅗ	-11128
▁ㄱㅓㄹㄹㅣㄹ	-11129
ㅏㅇㅏㅇ	-11130
▁ㄱㅓㅁㅌㅗ	-11131
ㅎㅏㄴㄱㅓㄴㄷㅔ	-11132
▁ㅁㅏㅇㅡㅁㄷㅐㄹㅗ	-11133
ㅅㅡㄱ	-11134
ㄱㅓㄴㅣㄲㅏ	-11135
ㅇㅜㄹㅣㄱㅏ	-11136
ㅅㅡㅋㅡㄹㅣㅁ	-11137
▁ㅅㅐㅇㄱㅏㄱㅇㅏㄴ	-11138
▁ㄷㅐㅎㅏㄴㅎㅏㅇㄱㅗㅇ	-11139
▁ㄱㅏㅁㅌㅏㄴ	-11140
▁ㅈㅏㄹㄷㅚㄹ	-11141
▁ㄱㅗㅅㅇㅔㅅㅓ	-11142
ㄸㅡㄱㅗ	-11143
ㅡㄹㄹㅣ	-11144
ㄷㅡㄷㄴㅡㄴ	-11145
▁ㅇㅣㄱㅓㅅㅇㅡㄴ	-11146
▁ㅈㅓㅇㄱㅝㄴㅇㅡㄹ	-11147
ㅎㅏㄱㅗㅇㅣㅆㄴㅔ	-11148
ㅗㅇㅏ	-11149
ㅁㅣㅌ	-11150
ㅂㅗㄴㅇㅣㄴ	-11151
ㅈㅣㄴㅔㅇㅛ	-11152
▁ㅂㅜㄹㅎㅘㅇ	-11153
▁ㅎㅜㄴㅎㅜㄴ	-11154
ㅁㅗㄹㅗ	-11155
▁ㅂㅓㄹㅕ	-11156
ㅎㅚㄱㅕㄴ	-11157
▁ㅈㅣㄹㅌ	-11158
▁ㅂㅜㅍㅜㄹ	-11159
▁ㅇㅣㄹㄱㅣㅇㅖㅂㅗ	-11160
▁ㅇㅣㄱㅓㅅㄷㅡㄹㅇㅣ	-11161
▁ㅎㅏㄹㅂㅐ	-11162
▁ㅂㅣㅅ	-11163
ㅇㅏㅁㅏ	-11164
▁ㅈㅗㅎㅇㅡㄴㅇㅣㄹ	-11165
▁ㅇㅑㄷㅏㅇㅇㅣ	-11166
▁ㅂㅗㄴㅇㅣㄴㄷㅡㄹ	-11167
▁ㅈㅓㅇㅊㅣㅎㅏㄴㅡㄴ	-11168
▁ㄷㅐㅎㅏㄱㄱㅛ	-11169
▁ㅎㅣㅁㄷㅡㄹㅈㅣ	-11170
▁ㅇㅏㄶㅇㅡㄹㄲㅏㅇㅛ	-11171
▁ㄷㅗㄴㅣ	-11172
▁ㅇㅝㄴㅅㅜㅇㅇㅣ	-11173
▁ㅇㅣㅈㅐㅇㅛㅇㅇㅣ	-11174
ㅈㅣㅈㅣㄴ	-11175
▁ㄱㅡㄴㄷㅐ	-11176
ㄱㅗㅇㅇㅓㅂ	-11177
▁ㅊㅣㄹㅍㅜㄴ	-11178
ㅅㅔㄱ	-11179
▁ㄱㅏㄹㅕ	-11180
▁ㅈㅜㄱㅔ	-11181
ㅏㅇㅗㅁㅕㄴ	-11182
ㅅㅡㅌㅏㅇㅣㄹ	-11183
▁ㅇㅘㅆㄴㅡㄴㄷㅔ	-11184
ㅅㅕㄹ	-11185
▁ㅈㅓㄴㅈㅐㅅㅏㄴ	-11186
▁ㄱㅜㄱㅎㅚㅇㅢㅇㅝㄴㄷㅡㄹ	-11187
ㅈㅜㄹㄷㅗ	-11188
▁ㄴㅗㄹㅡㅅ	-11189
ㄱㅓㅂㅗㅁㅕㄴ	-11190
▁ㅅㅓㄴㅅㅐㅇㄴㅣㅁ	-11191
▁ㅈㅣㅇㅓ	-11192
▁ㅎㅏㄹㄱㅔ	-11193
▁ㄱㅕㅇㄱㅣㄱㅏ	-11194
▁ㅇㅏㄶㅇㅏㅆㄴㅡㄴㄷㅔ	-11195
▁ㅇㅏㄹㄱㅔㅆㄴㅡㄴㄷㅔ	-11196
ㅈㅏㄱㅈㅓㅇ	-11197
▁ㅅㅣㄴㅅㅓㅇ	-11198
ㅇㅣㄴㄷㅐ	-11199
▁ㅎㅕㄱㅁㅕㅇ	-11200
▁ㄷㅡㄹㅇㅓㅇㅘ	-11201
ㅅㄱㅏㅄ	-11202
▁ㅁㅗㅅㅂㅘ	-11203
▁ㅅㅗㅌㅗㅇ	-11204
▁ㅁㅣㅎㅘ	-11205
▁ㄴㅗㅎㅇㅡㄴ	-11206
▁ㅅㅡㅇㄱㅐㄱ	-11207
ㅇㅓㅅㄴㅡㄴㄷㅔ	-11208
▁ㅎㅕㄴㅁㅕㅇㅎㅏㄴ	-11209
ㅍㅗㄱㄹㅕㄱ	-11210
▁ㄴㅐㅇㅛㅇㅇㅡㄴ	-11211
ㅎㅕㅇㅑ	-11212
▁ㅎㅐㅋㅣㅇ	-11213
ㅍㅕ	-11214
ㅗㅁㅕㅇ	-11215
▁ㅁㅏㄹㅌㅜ	-11216
▁ㅇㅟㄷㅐㅎㅏㄴ	-11217
▁ㄱㅗㅇㄱㅗㅇㄱㅣㄱㅘㄴ	-11218
ㅁㅏㄷㅣ	-11219
ㅃㅏㄷㅡㄹ	-11220
ㅎㅏㄴㅑㄱㅗ	-11221
▁ㅅㅏㄹㅏㅁㅇㅣㄷㅏ	-11222
▁ㅇㅗㅂㅓ	-11223
ㅁㅗㄹㅇㅣ	-11224
▁ㅈㅓㅇㄷㅗㄱㅏ	-11225
▁ㅇㅔㄹㅈㅣㄴㅡㄴ	-11226
ㅈㅣㅂㅇㅏㄴ	-11227
▁ㅇㅏㄴㄱㅓㄹ	-11228
▁ㄱㅡㄹㅓㅎㅈㅣㅁㅏㄴ	-11229
▁ㄱㅗㄹㅗ	-11230
▁ㅌㅏㄴㅅㅜ	-11231
ㄲㅏㄱㅗ	-11232
ㅁㅏㅇㅢ	-11233
▁ㄱㅜㅇㅕㄱ	-11234
▁ㄱㅐㅁㅜㅅㅣ	-11235
ㅍㅡㄹㅗㄴㅡㄴ	-11236
▁ㅇㅣㅇㅛㅇㅎㅐㅅㅓ	-11237
▁ㅇㅛㄱㅇㅡㄴ	-11238
ㅇㅣㅇㅓㅆㄱㅗ	-11239
ㅆㅣㅇㅢ	-11240
ㅅㅏㅂㅕㄱ	-11241
▁ㅎㅓㅈㅓㅂ	-11242
ㅔㅇㅣㅅㅕㄴ	-11243
ㅟㅇㅝㄴ	-11244
▁ㅇㅏㄴㅂㅗㄴㅡㄴ	-11245
ㄱㅡㄹㅓㄴㅏ	-11246
▁ㄱㅕㅇㅈㅔㅈㅓㄱ	-11247
=>	-11248
log	-11249
▁ㅌㅐㅂㅏㄴ	-11250
ㄷㅗㅇㅇㅡㄹ	-11251
▁ㅁㅕㅇㅎㅘㄱ	-11252
ㄱㅏㄹㅇㅣ	-11253
▁ㅅㅣㄹㅎㅐㅇ	-11254
▁ㅎㅣㅁㅇㅓㅄㄴㅡㄴ	-11255
▁ㅎㅏㄴㅎㅖ	-11256
ㅍㅏㅇㅓㅂ	-11257
▁ㄷㅔㄹㅕㅇ	-11258
ㅅㅣㄴㅁㅜㄴ	-11259
▁ㅂㅏㄹㅇㅡㅁ	-11260
ㄷㅔㄷㅗ	-11261
ㅜㅈㅏㅇ	-11262
▁1/	-11263
▁ㅎㅐㅇㅇㅟ	-11264
▁ㅇㅑㅇㅅㅏㄴ	-11265
▁ㅎㅐㅇㅌㅐ	-11266
ㅇㅏㅆㄴㅑ	-11267
▁ㅍㅣㄹㅇㅛㅇㅓㅄㄱㅗ	-11268
ㅡㅎ	-11269
ㅇㅇㅇㅇ	-11270
▁ㅇㅛㄱㅡㅁㅈㅔ	-11271
▁ㅈㅓㄴㅂㅜㅌㅓ	-11272
▁ㄸㅏㄱㅂㅘㄷㅗ	-11273
▁ㅊㅣㅁㅕㄴ	-11274
▁ㄴㅜㅈㅣㄴㅅㅔㄹㅡㄹ	-11275
▁ㅎㅛㅇㅠㄹ	-11276
▁ㄴㅕ	-11277
▁ㄱㅗㅇㅈㅓㄱ	-11278
ㅎㅏㄴㅡㄴㄱㅓㄴㅈㅣ	-11279
ㅗㅇㅗㅇ	-11280
▁ㅊㅕㅇ	-11281
▁ㄴㅠㅅㅡㅇㅔ	-11282
▁ㅎㅐㅂㅘㅇㅑ	-11283
ㄱㅓㅈㅏㄶㅇㅏ	-11284
▁ㅇㅏㅂㅔ	-11285
▁ㅈㅔㄱㅓ	-11286
ㄱㅣㅇㅓㄱ	-11287
ㅓㄴㄹㅗㄴ	-11288
▁ㅇㅏㅇㅣㄹ	-11289
ㄱㅣㅅㅏㅇㅔ	-11290
▁ㄱㅡㄹㅓㄴㅡㄴㄷㅔ	-11291
▁ㅁㅣㄷㅇㅡㅁ	-11292
▁ㅂㅗㄹㅅㅜㅇㅣㅆ	-11293
▁ㅇㅡㅂ	-11294
ㄷㅏㅂㅗㅁㅕㄴ	-11295
▁ㅎㅏㄹㅕㄴㅡㄴ	-11296
▁ㅁㅜㅇㅓㅅㅂㅗㄷㅏ	-11297
▁ㅎㅏㄷㅡ	-11298
▁ㄴㅡㄹㄹㅕ	-11299
▁ㅈㅓㅇㅂㅜㅌㅏㅅ	-11300
▁32	-11301
ㅝㄴㅇㅡㄹ	-11302
ㅅㅏㄹㅏㅁㅇㅡㄹ	-11303
▁ㅊㅏㅈㅇㅏㅅㅓ	-11304
ㅏㅇㅡㄹ	-11305
▁ㄹㅏㄷㅣㅇㅗ	-11306
▁ㅁㅗㅅㅎㅏㅈㅣ	-11307
▁ㅃㅓ	-11308
ㄴㅏㄹㅏㄹㅡㄹ	-11309
ㅇㅣㄴㅣㄲㅏㄴ	-11310
▁ㅎㅏㄴㄱㅏㅈㅣ	-11311
▁ㅇㅓㄹㅣㄴㅇㅣ	-11312
ㅏㄴㅇㅡㄹ	-11313
ㅅㅣㅍㅇㅓ	-11314
▁ㅁㅜㄷㅗㅇㅔㅅㅓ	-11315
ㄱㅜㅇㅢ	-11316
▁ㄱㅕㅇㅇㅜㄴㅡㄴ	-11317
ㄴㅕㄴㄷㅟ	-11318
▁ㅅㅜㅈㅏㅇ	-11319
ㅇㅠㅈㅐㅅㅓㄱ	-11320
ㅈㅐㅁㅣㅆ	-11321
▁ㅇㅣㅆㅇㅡㄹㄷㅡㅅ	-11322
ㄴㅐㄱ	-11323
ㅊㅣㅁㅏㄴ	-11324
▁ㄱㅜㄱㅁㅣㄴㄷㅡㄹㄷㅗ	-11325
ㄱㅖㅇㅢ	-11326
▁ㅈㅏㅂㅇㅡㅁㅕㄴ	-11327
▁ㅅㅜㅈㅜㄴㅇㅡㄹㅗ	-11328
▁ㄱㅡㅈㅣㄱㅏㅌㅇㅡㄴ	-11329
▁ㅈㅡㄹㄱㅣ	-11330
▁ㄴㅏㅂㅏㄹㅇㅣㄱㅗ	-11331
read	-11332
ㅕㅂㄷㅏ	-11333
▁ㄱㅘㅈㅏㅇ	-11334
▁ㄱㅓㅅㅇㅣㅈㅣ	-11335
▁ㅅㅏㄹㄹㅕㄱㅗ	-11336
▁ㅂㅣㅆㅏㄷㅏㄱㅗ	-11337
▁ㅇㅕㄴㅇㅣㄴ	-11338
▁ㅋㅣㅇㅜㄹ	-11339
ㅊㅏㅁㅇㅕㄱㅅㅏ	-11340
▁ㅇㅣㄹㅂㅗㄴㅇㅣㄴ	-11341
ㅍㅕㄴㅇㅣ	-11342
▁ㄱㅣㅊㅜㄴ	-11343
ㄱㅕㄹㄹㅗㄴ	-11344
ㅇㅡㅂㅅㅣㄷㅏ	-11345
ㅎㅏㅅㅣㄴㅔ	-11346
▁ㅂㅗㅂㅅㅣㄷㅏ	-11347
▁ㅇㅠㅎㅏㄱ	-11348
▁ㅅㅜㅂㅏㄲㅇㅔ	-11349
▁ㅇㅣㅆㄱㅔㅆㄴㅑ	-11350
▁ㅇㅣㄹㅇㅔ	-11351
ㅇㅓㅇㅑㅎㅏㄴㄷㅏ	-11352
ㅁㅜㅈㅚ	-11353
ㅌㅜㄹㅣ	-11354
▁ㅁㅐㄴㅣ	-11355
▁ㅇㅗㄹㅐㄱ	-11356
▁ㅈㅓㄹㅓㄹ	-11357
ㅞㅇㅣ	-11358
ㅈㅣㅎㅏ	-11359
▁ㅇㅗㄹㅏㄱ	-11360
ㅉㅗㄱㅇㅔㅅㅓ	-11361
as	-11362
ㄱㅗㅇㅔ	-11363
ㅇㅏㅂㅓ	-11364
ㅍㅣㄱㅏ	-11365
▁ㅋㅓㅅㅓ	-11366
ㅅㅐㄱㅇㅣ	-11367
ㅉㅣㅇ	-11368
▁ㅁㅜㄴㅈㅏ	-11369
▁ㄱㅏㅈㅣㄹ	-11370
▁ㄱㅡㄱㅂㅗㄱ	-11371
▁ㅅㅏㅇㄷㅏㅇ	-11372
▁ㅂㅏㄱㄱㅡㄴㅎㅖㅇㅢ	-11373
▁ㅎㅓㄱㅜ	-11374
▁ㅈㅔㅍㅜㅁㅇㅡㄹ	-11375
▁ㄲㅗㅂㅏㄱㄲㅗㅂㅏㄱ	-11376
▁1~2	-11377
ㅇㅕㄴㅇㅣ	-11378
▁ㄴㅗㄹㄹㅐ	-11379
▁ㅉㅏㅁ	-11380
▁ㅊㅏㅅㅓㄴ	-11381
▁ㄱㅣㅅㅏㄱ	-11382
▁ㄱㅟㅇㅕㅇㅜㄴ	-11383
▁ㅈㅣㅋㅣㄴㅡㄴ	-11384
▁ㄱㅏㄴㅡㅇㅅㅓㅇ	-11385
▁ㅍㅏㅂ	-11386
▁ㅇㅣㄴㅏㄹㅏㅇㅔ	-11387
ㅍㅓㄴ	-11388
ㅍㅏㄹㅇㅏ	-11389
▁ㄹㅔㅇㅏㄹ	-11390
▁ㅇㅏㄹㅅㅜ	-11391
▁ㅇㅛㅇㄷㅗㄴ	-11392
▁ㄱㅕㅇㅈㅐㅇㄹㅕㄱ	-11393
▁ㅈㅣㅂㄱㅏㅄㅇㅡㄴ	-11394
▁ㄹㅏㅇㅣㄴ	-11395
ㅎㅐㅅㄴㅡㄴㄷㅔ	-11396
ㅆㅡㄴㅑ	-11397
ㅎㅏㄹㄱㅓㅅㅇㅣㄷㅏ	-11398
▁ㅈㅣㄴㅅㅣㄹㅇㅣ	-11399
▁ㅋㅗㄹㄹㅏ	-11400
ㄲㅡㄹㄱㅗ	-11401
▁ㅇㅏㄴㅇㅘ	-11402
▁ㅎㅏㄴㅈㅏㄴ	-11403
ㅈㅗㅎㅏㅂ	-11404
▁ㄴㅗㅇㅣㄴㄴㅔ	-11405
▁ㅅㅏㄴㅏ	-11406
▁ㅅㅣㅍㅇㅡㅁ	-11407
▁ㅂㅗㅇㅕㅈㅜㄹ	-11408
ㅛㅇㅘ	-11409
ㄱㅏㅁㅇㅔ	-11410
▁ㅇㅣㄹㅡㅁㅇㅡㄹㅗ	-11411
▁ㅁㅝㄹㄲㅏ	-11412
▁ㅁㅗㄹㅡㅈㅣ	-11413
▁ㅈㅜㅇㅂㅏㄴ	-11414
ㄱㅗㄱㅐㄱ	-11415
▁ㅋㅋㅋㅋㅋㅋㅋㅋㅋㅋㅋㅋㅋ	-11416
▁ㅂㅗㅇㅅㅏ	-11417
~5	-11418
▁ㅇㅢㄱㅕㅇ	-11419
ㅇㅓㅅㅓㄴ	-11420
▁ㅎㅚㄱ	-11421
ㄱㅜㄱㄴㅐ	-11422
▁ㅂㅕㄴㅌㅐ	-11423
▁ㅇㅕㅇㅇㅑㅇ	-11424
▁ㅎㅗㅇㅋㅗㅇ	-11425
▁ㅇㅜㄹㅣㄷㅗㅇㄴㅔ	-11426
ㅋㅟㄷㅡㄹ	-11427
▁ㄱㅘㄴㄱㅐㄱ	-11428
▁ㅅㅣㅋㅕㅅㅓ	-11429
ㅊㅕㅁㅓㄱㅇㅡㄹ	-11430
▁ㄸㅗㄱㄱㅏㅌㄴㅔ	-11431
▁ㅇㅏㄴㄴㅏㅇㅗㄴㅡㄴ	-11432
▁ㅎㅕㅇㅅㅏ	-11433
ㅁㅜㄹㅈㅣㄹ	-11434
▁ㄸㅐㅁㅏㄷㅏ	-11435
▁ㅇㅣㅇㅘㄴㅇㅛㅇ	-11436
▁ㅎㅐㅂㅗ	-11437
▁ㅇㅣㅇㅘㄴㅇㅕㅇ	-11438
▁ㅅㅐㅇㄱㅏㄱㅎㅐㄹㅏ	-11439
ㅣㄴㅈㅣ	-11440
▁ㄱㅐㄹㅣ	-11441
▁SM	-11442
ㅅㅡㄹㅓㅇㅜㅁ	-11443
ㅜㅠ	-11444
ㅇㅠㅇㅢ	-11445
▁ㄱㅕㄹㅈㅔ	-11446
▁ㅂㅜㅈㅏㄱㅏㅁ	-11447
▁ㄷㅏㅇㅡㅁㅇㅡㄴ	-11448
ㅅㅚ	-11449
ㅊㅔㄴㅡㄴ	-11450
▁ㅂㅏㄹㄹㅗ	-11451
▁ㅇㅔㅎㅕ	-11452
ㅇㅓㄱㅉㅏㄹㅣ	-11453
▁ㅁㅕㄴㅅㅏㅇ	-11454
▁ㅎㅏㄴㅌㅗㅇ	-11455
▁ㅁㅜㄴㅈㅔㄹㅗ	-11456
ㅅㅣㄹㅡㄹ	-11457
ㅎㅕㅇㅇㅡㄹ	-11458
▁ㅁㅏㄹㅇㅣㄴㅑ	-11459
▁ㅇㅓㅄㄷㅏㅁㅕㄴ	-11460
▁ㅂㅜㄲㅡㄹㅓㅂㄷㅏ	-11461
▁ㄷㅡㄹㅇㅓㅇㅗㅁㅕㄴ	-11462
ㅅㅣㄹㅇㅔ	-11463
▁ㅍㅡㄹㅗㄷㅠ	-11464
▁ㅇㅓㄴㄹㅗㄴㅇㅔㅅㅓ	-11465
.(	-11466
ㅅㅡㅁㅏㄴ	-11467
ㅂㅗㄴㅔㅇㅛ	-11468
ㅅㅣㄴㅔㅇㅛ	-11469
▁ㅊㅣㄴㄱㅜㄱㅏ	-11470
▁ㅊㅐㄱㅇㅣㅁㅇㅡㄴ	-11471
▁ㅈㅜㅈㅔ	-11472
▁ㄱㅓㅅㄱㅘ	-11473
▁ㄷㅏㅎㅏㄱㅗ	-11474
▁ㄷㅏㄴㅊㅔㄹㅗ	-11475
▁ㅇㅕㅇㅎㅘㄱㅘㄴ	-11476
▁ㅅㅏㅇㅠ	-11477
▁ㄱㅏㄷㅓㄱㄷㅗ	-11478
ㅈㅏㄱㅇㅣ	-11479
▁ㄱㅜㅇㄱㅡㅁㅎㅏㄴㅔ	-11480
▁ㅇㅓㄷㅣㄲㅏㅈㅣ	-11481
ㅇㅓㅄㄷㅏㄴㅡㄴ	-11482
▁ㅂㅜㄹㄱㅛ	-11483
▁ㄱㅕㄹㅎㅗㄴㅅㅣㄱ	-11484
▁ㅇㅣㄹㅂㅗㄴㅇㅡㄹ	-11485
▁ㄷㅐㅊㅐㄱㅇㅡㄹ	-11486
ㄱㅣㄲㅏㅈㅣ	-11487
ㅇㅣㄴㅇㅑㅇ	-11488
▁ㅇㅣㅅㅏㅇㅇㅢ	-11489
ㅇㅛㄹ	-11490
ㅂㅏㅇㅔ	-11491
ㅇㅝㄴㄹㅐ	-11492
ㅇㅏㅆㅈㅣ	-11493
ㅅㅣㅁㅇㅡㄹㅗ	-11494
▁ㅇㅣㄱㅓㄹㄹㅗ	-11495
ㅎㅏㅅㅕㅆㅇㅓㅇㅛ	-11496
▁ㅈㅓㅇㅊㅣㅇㅔ	-11497
▁ㅇㅐㅂㄷㅡㅇ	-11498
▁ㅌㅓㅈㅣㄴㅡㄴ	-11499
▁ㄱㅕㄹㄱㅜㄱㅇㅔㄴ	-11500
▁ㄱㄱ	-11501
ㄱㅖㅇㅔ	-11502
ㅁㅗㄷㅔㄹ	-11503
▁ㄷㅡㄹㅗㄴ	-11504
▁ㅂㅜㅂㅜㄴㅇㅣ	-11505
ㄷㅚㄴㅡㄴㄱㅓㄴ	-11506
▁ㅁㅗㄱㅅㅗㄹㅣㄱㅏ	-11507
▁ㅆㅔㄴ	-11508
ㅡㅡㅡ	-11509
ㅁㅐㅇㅣㄹ	-11510
▁ㅈㅏㅈㅣㄴ	-11511
▁ㄴㅜㄴㄱㅏㅁ	-11512
▁ㄷㅓㅋㅣㅇ	-11513
▁ㅇㅣㄱㅕㄴ	-11514
▁ㅈㅗㅅㅏㅎㅐㅅㅓ	-11515
ㅂㅗㅂㅗㄱ	-11516
ㅇㅠㄹㅓㅂ	-11517
ㄷㅚㄴㄱㅔ	-11518
▁ㄱㅏㅇㅜㄴㄷㅔ	-11519
▁ㅅㅜㅈㅗㅇㅝㄴ	-11520
ㅅㅓㅁㅣㄴㄷㅡㄹ	-11521
ㄷㅟㅅ	-11522
▁ㅇㅑㅇㅇㅏ	-11523
ㅅㅣㄹㅎㅏㄴ	-11524
▁ㄱㅘㄷㅗ	-11525
▁ㅈㅘㅇㅣㄱ	-11526
ㅇㅓㅂㅗㄴ	-11527
▁ㄸㅏㄹㅇㅣ	-11528
ㅅㅏㄱㅘㄴ	-11529
▁ㄷㅙㅆㄱㅗ	-11530
▁ㅊㅐㅇㄱㅣㄱㅗ	-11531
▁ㄱㅗㄷㅡㅇㅎㅏㄱㄱㅛ	-11532
▁ㅎㅔㄹㅈㅗㅅㅓㄴㅇㅡㄴ	-11533
ㄴㅕㄴㅊㅏ	-11534
ㅈㅕㅆㄷㅏㄱㅗ	-11535
▁ㅅㅣㅍㅇㅓㅇㅛ	-11536
ㅆㅡㄱㅔ	-11537
ㅏㄹㅏㄱㅏ	-11538
▁ㄱㅏㅂㅕㅇ	-11539
▁ㅁㅜㄴㅇㅕㄹ	-11540
ㅂㅓㅇ	-11541
ㄱㅖㄹㅗ	-11542
▁ㄱㅐㄹㅡㄹ	-11543
ㅈㅓㄻㅇㅡㄴ	-11544
▁ㄷㅚㄹㅌㅔㄴㄷㅔ	-11545
ㅁㅗㅅㅊㅏㄹ	-11546
ㅇㅟㅎㅐㅅㅓ	-11547
um	-11548
ㅇㅓㅆㄴㅔㅇㅛ	-11549
▁ㄱㅣㄱㅏㅁㅏㄱ	-11550
ㅎㅏㅅㅣㅂㄴㅣㄷㅏ	-11551
▁ㅇㅡㅇㅍㅏㄹ	-11552
▁ㅇㅓㄴㅈㅔㄱㅗ	-11553
▁ㅂㅐㄱㅎㅕㄴ	-11554
▁ㅇㅗㄴㅌㅗㅇ	-11555
▁ㅎㅣㅁㄷㅡㄹㄷㅏㄱㅗ	-11556
▁ㄱㅡㅇㅘ	-11557
ㄱㅓㄹㅏㄴ	-11558
ㅎㅏㄹㅏㄱ	-11559
▁ㅎㅕㄴㅅㅣㄹㅇㅣㄷㅏ	-11560
ㅅㅣㄹㅁㅏㅇ	-11561
▁ㅍㅗㄴㅇㅡㄹ	-11562
21	-11563
ㅔㅇㅣㄴ	-11564
ㅊㅗㅇㄹㅣ	-11565
▁ㅂㅣㄹㅣㄱㅏ	-11566
▁ㅈㅓㄴㄱㅕㅇㄹㅕㄴ	-11567
▁ㅂㅗㄴㅐㄴ	-11568
▁ㅊㅓㅇㄱㅜ	-11569
▁ㄱㅣㅁㄱㅜㄱㅈㅣㄴ	-11570
ㄲㅣㅁ	-11571
▁ㄱㅜㄱㄱㅏㄱ	-11572
▁ㅅㅣㅇㄱㅡㄹ	-11573
▁ㅂㅏㄷㅇㅏㅆㄷㅏ	-11574
ㅓㅎㅓ	-11575
ㅏㅇㅛㅇ	-11576
▁ㄱㅡㄱㅏㄴ	-11577
▁ㅅㅏㄻㅇㅣ	-11578
ㅇㅡㅁㅇㅏㄱ	-11579
▁ㅊㅜㅇㄷㅗㄹ	-11580
ㄲㅡㅌㄲㅏㅈㅣ	-11581
▁IT	-11582
▁ㅁㅐㅁㅂㅓ	-11583
▁ㄸㅓㄹㅇㅓㄸㅡㄹ	-11584
ㄱㅓㅅㅈㅣ	-11585
▁ㅎㅜㅈㅣㄴ	-11586
▁ㅊㅏㅈㅇㅏㅇ	-11587
▁ㅎㅏㄴㅈㅓㅇ	-11588
ㅇㅣㅇㅓㅆㅇㅡㅁㅕㄴ	-11589
▁ㅇㅣㅁㅗ	-11590
▁ㄱㅓㄷㅇㅓ	-11591
ㄴㅡㄴㄱㅓㅈㅣ	-11592
▁ㅁㅣㅅㅓㅇ	-11593
ㅈㅜㄹㅇㅡㄴ	-11594
ㄴㅕㄴㅇㅢ	-11595
ㄲㅓㄹㅏ	-11596
ㅅㄱㅏㄹ	-11597
ㅍㅗㄱㅂㅏㄹ	-11598
▁ㅂㅗㄱㅣㅅㅣㅀ	-11599
▁ㅇㅑㅇㅂㅗ	-11600
▁ㅇㅣㅆㄴㅡㄴㄷㅡㅅ	-11601
▁ㅇㅠㅇㅏㅇㅣㄴ	-11602
▁ㅇㅕㄱㅣㄲㅏㅈㅣ	-11603
▁ㄴㅐㅇㅈㅏㅇㄱㅗ	-11604
▁ㅁㅏㄴㄷㅡㄹㅇㅓㅈㅣㄴ	-11605
▁ㅂㅐㄱㅍㅓ	-11606
▁ㅂㅣㅅㅓㄴ	-11607
▁ㅅㅣㅅㅓㄴ	-11608
▁ㅎㅏㄷㅓㅁㅏㄴ	-11609
▁ㄷㅐㄱㅣㅇㅓㅂㄷㅡㄹ	-11610
ㅆㅡㅈㅣ	-11611
ㄸㅡㄱㅇㅣㄴㅏ	-11612
ㅈㅣㄴㅏㅁㅕㄴ	-11613
▁ㅅㅜㅈㅜㄴㅇㅢ	-11614
▁ㅇㅏㄴㅣㄹㅏㄴ	-11615
▁ㅈㅓㄱㅓㅅㄷㅗ	-11616
▁ㅅㄲ	-11617
▁ㅍㅓㅂ	-11618
ㄱㅏㄴㅣ	-11619
ㄷㅏㄹㅇㅏ	-11620
▁ㄱㅕㄴㅈㅔ	-11621
▁ㅅㅓㅇㄱㅘㄱㅡㅁ	-11622
▁ㅆㅗㄹ	-11623
▁ㅁㅜㄹㄹㅑㅇ	-11624
ㅇㅕㄹㅅㅣㅁㅎㅣ	-11625
ㅟㄱㅏ	-11626
▁ㅌㅣㅂㅣㅇㅔㅅㅓ	-11627
ㅇㅏㅇㅣㅇㅠ	-11628
▁ㄱㅏㅁㅈㅓㅇㅇㅣ	-11629
▁ㅁㅏㄴㄷㅡㄴㄷㅏ	-11630
ㄱㅣㅂㅜㄴ	-11631
▁ㅇㅓㄱㅡㄹㅗ	-11632
▁ㅂㅏㅇㅇㅕㅇ	-11633
▁ㅅㅣㄷㅐㄱ	-11634
▁ㅇㅣㅌㅏㄹ	-11635
ㅇㅗㄹㄹㅣㄱㅗ	-11636
ㅎㅐㅆㅇㅓㅇㅑ	-11637
ㅇㅏㄵ	-11638
ㄴㅏㄱㅣㄹ	-11639
ㄸㅐㅁㅅㅣ	-11640
▁ㅈㅓㄴㄹㅏㄱ	-11641
▁ㅇㅣㅆㅇㅓㄹㅏ	-11642
ㅊㅏㅇㅇㅜㄱ	-11643
▁ㅅㅗㅍㅡㅌㅡㅇㅞ	-11644
ㄱㅐㄴㅡㄴ	-11645
▁ㅎㅏㄱㅔㅆㄴㅑ	-11646
ㄹㅗㅅㄷㅔ	-11647
▁ㅇㅟㄴㄷㅗㅇㅜ	-11648
▁ㅇㅘㄴㅂㅕㄱㅎㅏㄴ	-11649
▁ㅂㅏㄹㄱㅘㅇ	-11650
ㅐㄱㅗㄴ	-11651
ㄷㅡㅇㄹㅗㄱ	-11652
▁ㅊㅏㅇㅊㅜㄹ	-11653
▁ㅌㅗㅇㅈㅏㅇ	-11654
ㅅㅡㄴㅏ	-11655
ㅕㅂㄱㅔ	-11656
ㅎㅏㄱㅜㄴ	-11657
▁ㅁㅜㄷㄱㅗ	-11658
▁ㅈㅓㅇㅂㅜㄷㅗ	-11659
▁ㄲㅣㄹㅣㄲㅣㄹㅣ	-11660
ㅣㅇㅐ	-11661
ㅌㅗㄹㅗㄱ	-11662
▁ㄴㅗㄹㅇㅣ	-11663
▁ㄷㅜㅁㅕㅇ	-11664
▁ㅇㅓㅁㅂㅓㄹ	-11665
▁ㅂㅘㅆㅇㅡㅁㅕㄴ	-11666
ㅌㅣㄱㅏ	-11667
▁ㅈㅓㄴㅗㅁ	-11668
45	-11669
ㅅㅏㄴㅡㄴㄱㅔ	-11670
ㅊㅓㅅ	-11671
ㄱㅣㅇㅢ	-11672
ㅈㅏㅂㅜ	-11673
▁ㅅㅜㄹㅗㄱ	-11674
ㅈㅣㄱㅇㅓㅂ	-11675
▁ㅁㅏㄶㅇㅣㄴ	-11676
▁ㅈㅓㄴㅅㅓㅇ	-11677
ㅅㅏㅇㅑ	-11678
ㅇㅠㅈㅣ	-11679
▁ㄷㅐㄹㅗ	-11680
ㄷㅐㅈㅓㄴ	-11681
ㅅㅏㅎㅏㅇ	-11682
▁ㄱㅜㄻㅇㅓ	-11683
ㄱㅣㅅㅏㄱㅏ	-11684
▁ㅂㅗㄱㅁㅕㄴ	-11685
ㅗㅎㅏㅁㅕㄴ	-11686
▁ㅆㅏㅇㅣㅋㅗ	-11687
ㅅㅏㄱㅟ	-11688
ㅈㅣㄴㅏㄴ	-11689
▁ㅅㅏㄹㅇㅏㄱㅏㄴㅡㄴ	-11690
ㅅㅗㅎㅘ	-11691
ㅎㅘㅈㅏㅇ	-11692
ㄷㅚㅁㅕㄴㅅㅓ	-11693
▁ㄷㅗㄷㅜㄱㅈㅣㄹ	-11694
ㅍㅏㄱㅏ	-11695
▁ㅍㅔㅇㅣ	-11696
ㅎㅏㅅㅕㅅㅓ	-11697
▁ㅎㅘㅇㄷㅏㅇ	-11698
▁1500	-11699
▁ㄱㅡㄹㅣㅂㄷㅏ	-11700
▁ㅎㅗㄴㅈㅏㅅㅓ	-11701
▁ㄱㅏㅇㅇㅏㅂ	-11702
▁ㅇㅏㄹㅇㅏㅇㅑㅈㅣ	-11703
▁ㅇㅔㅇ	-11704
ㅅㅜㄷㅏㅇ	-11705
▁ㅂㅓㅂㄹㅠㄹ	-11706
ㅁㅏㄴㅎㅏㄷㅏ	-11707
ㅎㅏㄴㅌㅔㅁㅏㄴ	-11708
ㅓㅂㅣ	-11709
ㅎㅗㅅㅣㄱ	-11710
▁ㄱㅏㅇㄷㅗㅇㅇㅝㄴ	-11711
▁ㅇㅏㅈㅣㄱㅇㅡㄴ	-11712
▁ㅇㅓㅇㅣㅇㅓㅄㄴㅡㄴ	-11713
ㅈㅣㄱㅡㄴ	-11714
▁ㄱㅣㅂㅏㄴ	-11715
▁ㅅㅣㅁㅈㅏㅇ	-11716
ㅂㅣㅅㅡㅅ	-11717
▁ㅇㅛㄱㅅㅣㅁㅇㅣ	-11718
▁ㅈㅏㄱㄱㅗㄱ	-11719
▁ㅌㅗㅇㅎㅏㅂ	-11720
ㄱㅏㅌㅇㅏㅅㅓ	-11721
▁ㅊㅏㄷㅗ	-11722
▁ㄱㅡㄷㅏㅇㅡㅁ	-11723
▁ㅇㅔㄹㄹㅣ	-11724
▁ㅂㅏㄹㅈㅓㄴㅇㅣ	-11725
▁ㅇㅜㅅㄱㅣㄴㄱㅔ	-11726
▁ㄴㅏㄹㅏㄲㅗㄹㅇㅣ	-11727
ㄷㅐㅇㅛ	-11728
▁ㅅㅡㅌㅗㄹㅣㄱㅏ	-11729
▁ㅇㅝㄹㄷㅡ	-11730
▁ㅊㅐㄱㅇㅣㅁㅈㅣㄹ	-11731
▁ㄱㅗㅊㅕ	-11732
▁ㅎㅗㅇㅇㅓ	-11733
▁ㅇㅘㅆ	-11734
▁ㅅㅏㅁㅅㅓㅇㅇㅔ	-11735
ㅎㅏㄴㅡㄴㄱㅓㅅㅇㅣ	-11736
ㅎㅏㄴㅡㄴㅅㅏㄹㅏㅁ	-11737
▁ㄴㅓㅁㄱㅕ	-11738
▁ㅇㅏㄴㅇㅗㄴ	-11739
▁ㅇㅡㅁㅂㅏㄴ	-11740
▁ㅂㅏㅇㄱㅡㅁ	-11741
▁ㄷㅜㅅㅏㄹㅏㅁ	-11742
▁ㅈㅣㄱㅡㅁㅂㅗㄷㅏ	-11743
▁ㅎㅏㄴㅈㅓㄴㅇㅡㄴ	-11744
▁ㄱㅗㅅㅇㅡㄴ	-11745
ㅎㅏㄱㅏ	-11746
▁ㄲㅡㄹㄹㅕ	-11747
▁ㅅㅐㅇㄱㅣㄱㅗ	-11748
▁ㅁㅣㅇㅝ	-11749
▁ㅁㅝㅎㅏㄱㅗ	-11750
▁ㅍㅕㄴㅇㅏㄴ	-11751
▁ㅌㅏㄴㅎㅐㄱㅇㅡㄹ	-11752
▁ㅁㅏㄱㄴㅐ	-11753
▁ㅂㅓㅌㅣㄹ	-11754
▁ㅇㅏㄶㄴㅔ	-11755
ㄱㅣㄹㅇㅡㄹ	-11756
▁ㄷㅚㄴㅡㄴㅈㅣ	-11757
▁ㅅㅜㄹㅁㅓㄱㄱㅗ	-11758
▁ㅇㅕㅇㄴㅏㅁ	-11759
▁ㄱㅡㄱㅓㅅㅇㅡㄹ	-11760
▁ㄱㅣㅇㅓㄴ	-11761
▁ㅇㅣㄹㅊㅔ	-11762
▁ㅇㅓㅄㅇㅓㅆㄷㅓㄴ	-11763
▁ㄱㅣㅇㅓ	-11764
▁ㅅㅓㅂㅣ	-11765
▁ㅂㅏㄱㅂㅗㄱㅓㅁㅇㅡㄴ	-11766
▁ㄱㅐㄴㅗ	-11767
▁ㅇㅕㅈㅏㄴ	-11768
▁ㄷㅐㅅㄱㅡㄹㄹㅗ	-11769
▁ㄱㅓㄴㄱㅏㅇㅎㅏㄱㅔ	-11770
ir	-11771
ㅂㅣㄴㅏ	-11772
ㅈㅓㅇㅅㅣㄴㅊㅏㄹ	-11773
▁ㅇㅠㅂㅏㄹ	-11774
>>>>>>>>	-11775
▁ㅁㅗㄹㅡㅁㅕㄴ	-11776
▁ㅇㅘㅈㅜㅇㅇㅔ	-11777
▁ㅇㅟㅅㄷㅐㄱㅏㄹㅣ	-11778
▁ㅈㅏㄴㅕ	-11779
ㄷㅚㄹㄲㅏ	-11780
▁ㄷㅏㄹㅡㄴㄱㅓ	-11781
▁ㅇㅗㄹㅐㄷㅚㄴ	-11782
ㅁㅜㄱㅣ	-11783
ㅇㅣㄹㅓㄹ	-11784
ㅎㅏㄱㅜㅁㅏㄴ	-11785
▁ㅇㅏㄶㅇㅏㄷㅗ	-11786
▁ㅍㅗㄱㅣㅎㅏㄱㅗ	-11787
ㅆㅏㅎ	-11788
ㅆㅏㄱㅔ	-11789
ㅡㅁㅇㅡㄴ	-11790
▁ㅇㅕㅎㅕㅁ	-11791
ㅎㅏㄹㄸㅐㄷㅗ	-11792
▁ㅇㅗㄴㄹㅏㅇㅣㄴ	-11793
▁700	-11794
▁ㅁㅓㄴㅑ	-11795
ㅍㅔㄴ	-11796
▁ㅂㅏㄹㅁㅗㄱ	-11797
ㄹㄹㅣ	-11798
ㅌㅜㄹ	-11799
▁ㄸㅐㄲㅏㅈㅣ	-11800
▁ㅈㅐㅁㅣㅆㄱㅗ	-11801
▁ㅈㅗㅈㅣㄴㅇㅜㅇ	-11802
▁ㅁㅊ	-11803
ㄱㅣㅇㅑ	-11804
▁ㄸㅗㄹㅏ	-11805
▁ㄱㅘㄴㅎㅐㅇ	-11806
▁ㅊㅓㅂㅓㄹㅇㅡㄹ	-11807
▁ㅈㅏㅂㅏㄹ	-11808
▁ㅈㅣㅂㅜㄹ	-11809
ㅎㅏㄴㄷㅏㄴㅡㄴㄷㅔ	-11810
▁ㅇㅏㄴㄴㅏㅇㅗㄴㄷㅏ	-11811
ㄷㅡㄹㅎㅏㄱㅗ	-11812
▁ㅈㅗㅎㅇㅏㅎㅏㄴㅡㄴㄷㅔ	-11813
▁80%	-11814
▁ㄴㅔㅇㅣ	-11815
▁ㅅㅣㅀㅇㅡㅁ	-11816
▁ㅌㅗㅇㅛㅇㅣㄹ	-11817
▁ㄴㅗㅌㅡㅂㅜㄱ	-11818
▁ㅈㅓㄱㅓㅅㄷㅡㄹ	-11819
▁ㅇㅠㄱㅛ	-11820
▁ㅉㅓㄴㄷㅏ	-11821
▁ㅅㅐㅇㄱㅏㄱㅇㅡㄹㅗ	-11822
~~!	-11823
ㄱㅓㄱㅏ	-11824
▁ㄷㅏㅋㅠ	-11825
ㄱㅘㅇㅎㅢ	-11826
ㅍㅏㄴㅇㅣ	-11827
▁ㅇㅕㄴㄱㅣㅇㅔ	-11828
ㅎㅣㄴㅏ	-11829
▁ㄷㅣㅈㅏ	-11830
ㅍㅖㄱㅣ	-11831
ㅅㅓㅇㄱㅗㅇㄷㅏㄴ	-11832
ㅈㅣㄱㅇㅝㄴㄷㅡㄹ	-11833
ㅍㅡㄴㅡㄴ	-11834
ㅎㅐㅅㅓㄹㅏㄷㅗ	-11835
▁ㄷㅡㄹㅇㅓㅇㅘㅅㅓ	-11836
▁u	-11837
ㅕㄹㅎㅏㅂ	-11838
▁ㅎㅏㄴㄸㅐ	-11839
▁ㅇㅚㅊㅣㄴㅡㄴ	-11840
▁ㅅㅗㅈㅜㅇㅎㅏㄴ	-11841
▁ㅅㅗㅅㅗㄱㅅㅏㄱㅏ	-11842
▁ㅁㅗㄹㅡㄱㅔㅆㄴㅡㄴㄷㅔ	-11843
▁ㄷㅡㄹㅓㄴㅏ	-11844
▁ㄱㅣㅁㅈㅔㄷㅗㅇ	-11845
▁ㅂㅠㅇ	-11846
ㅣㅁㅏㄹ	-11847
ㅇㅣㄹㄲㅏㅇㅛ	-11848
▁ㅁㅓㄱㄱㅗㅅㅏㄹㄱㅣ	-11849
ㄱㅣㅅㅣㅀ	-11850
ㅂㅜㄴㅁㅕㅇ	-11851
ㄱㅔㅆㄷㅓㄹㅏ	-11852
▁ㅁㅣㄴㅁㅏㅇ	-11853
ㄷㅓㄹㅓㅇㅜㄴ	-11854
ㅈㅜㄴㅡㄴㄱㅓ	-11855
▁ㅁㅗㄹㅡㄴㅡㄴㄷㅔ	-11856
▁ㅇㅣㄹㅓㅎㄱㅔㄲㅏㅈㅣ	-11857
ㄴㅏㅆㄴㅔ	-11858
▁ㄷㅏㅂㅇㅓㅄㄷㅏ	-11859
ㅋㅋㅋㅋㅋㅋㅋㅋㅋㅋㅋㅋㅋ	-11860
▁ㄴㅏㅈㅇㅏ	-11861
▁ㅁㅗㅅㅂㅗ	-11862
▁ㅇㅏㄴㅌㅏㄲㅏㅇㅜㄴ	-11863
ㅈㅔㄴ	-11864
ㅓㅎㅕㅇ	-11865
ㅂㅏㄷㅇㅏㄹㅏ	-11866
▁ㄸㅏㅈㅕ	-11867
▁ㅆㅡㄴㅡㄴㄱㅔ	-11868
ㅇㅡㄹㄸㅐㄴㅡㄴ	-11869
▁ㅇㅣㅆㄷㅓㄹㅏ	-11870
ㅈㅜㄹㅇㅏㄹㄱㅗ	-11871
▁ㅍㅏㅎㅔ	-11872
ㅁㅏㅈㅇㅏ	-11873
ㅈㅓㄹㅓㅎㄱㅔ	-11874
▁ㅅㅏㄹㅏㅈㅣㄹ	-11875
▁ㅁㅗㄹㅡㄱㅔㅆㅇㅡㅁ	-11876
▁ㅂㅓㅌㅣㄱㅗ	-11877
▁ㅂㅏㅅㄷㅔㄹㅣ	-11878
ㅊㅏㅇㅎㅗ	-11879
▁ㅈㅔㅈㅏㄱㅈㅣㄴㅇㅣ	-11880
ㅇㅏㄴㄷㅚ	-11881
ㅇㅣㄹㄷㅏㄴ	-11882
▁ㄱㅣㅁㄹㅐㅇㅝㄴ	-11883
~30	-11884
▁ㄹㅏㅅㅡ	-11885
▁ㄱㅣㅁㅇㅣㄹ	-11886
▁ㅈㅗㄱㅅㅗㄱ	-11887
▁ㅅㅓㅇㅜㄹㅇㅡㄴ	-11888
▁ㄷㅗㅇㅇㅑㅇ	-11889
▁ㅈㅗㅎㄷㅓㄴㄷㅔ	-11890
▁ㅊㅗㄷㅡㅇㅎㅏㄱㅅㅐㅇ	-11891
▁ㅇㅗㄴㄷㅏㄱㅗ	-11892
ㅁㅗㅅㅎㅏㄱㅔ	-11893
▁ㅇㅓㄹㅕㅇㅜㄹ	-11894
ㅅㅔㄱㅡㅁㅇㅡㄹㅗ	-11895
ㅁㅜㄹㄱㅏ	-11896
ㅇㅏㅁㅌㅡㄴ	-11897
ㅂㅇㅣ	-11898
▁ㅅㅣㄹㄹㅕㄱㅇㅣ	-11899
▁ㅊㅜㄱㅎㅏㅎㅐ	-11900
▁ㅇㅣㅆㅇㅓㅆㄱㅗ	-11901
▁ㅇㅏㄴㅂㅗㅁ	-11902
▁ㅌㅏㅇㅣㅁㅣㅇ	-11903
ㅇㅡㅂㄴㅣㄷㅏ	-11904
ㅎㅏㄴㅡㄴㄱㅓㄴㄷㅔ	-11905
ㅅㅣㄱㅔ	-11906
ㄱㅣㅇㅔㄴ	-11907
▁ㅁㅜㅇㅓㅅㅇㅣ	-11908
▁ㅅㅐㅂㅕㄱㅇㅔ	-11909
ㄲㅓㄴㅑ	-11910
ㅁㅏㄴㄷㅐ	-11911
ㅇㅓㅂㅈㅏ	-11912
ㅈㅕㅇㅑㅈㅣ	-11913
ㅇㅣㄴㅇㅔㄱㅔ	-11914
▁ㅂㅡㄹㄹㅐㄱㅍㅣㅇㅋㅡ	-11915
ㄴㅜㅈㅣㄴㅅㅔ	-11916
▁ㅅㅣㄱㅍㅜㅁ	-11917
▁ㅇㅣㅈㅓㄴㅇㅔ	-11918
▁xx	-11919
▁ㅅㅠㅍㅓㅁ	-11920
ㅎㅘㅇㅔ	-11921
▁ㅈㅣㅈㅣㅇㅠㄹ	-11922
▁ㄱㅣㅈㅏㄷㅡㄹㅇㅣ	-11923
ㄷㅜㄹㄷㅏ	-11924
▁ㅁㅗㅇㅡㄴ	-11925
▁ㅁㅗㅅㅈㅏㅂ	-11926
▁ㅁㅏㅇㅡㅁㅇㅡㄹㅗ	-11927
ㅁㅝㄱㅏ	-11928
▁ㅇㅓㄹㅡㅅㅣㄴ	-11929
▁ㅈㅡㅇㄱㅓㄹㅡㄹ	-11930
▁ㅇㅣㄹㅓㅁㅕㄴㅅㅓ	-11931
ㅋㅣㅇㅜㄴㅡㄴ	-11932
ㄱㅣㅇㅓㅂㅇㅡㄴ	-11933
▁ㅇㅐㅂㅣ	-11934
ㅅㅗㄹㅣㄱㅏ	-11935
▁ㅊㅓㅇㅡㅁㅇㅔㄴ	-11936
▁ㅊㅓㅇㅡㅁㅇㅡㄹㅗ	-11937
▁ㅊㅜㄱㅜ	-11938
▁ㅈㅔㄷㅐ	-11939
▁ㅇㅏㄴㄱㅏㅁ	-11940
▁ㅈㅓㅊㅜㄹㅅㅏㄴ	-11941
ㅈㅓㄱㅇㅡㄹㅗㄴㅡㄴ	-11942
ㅍㅏㄴㅅㅏ	-11943
▁ㅇㅏㄴㅂㅏㄷ	-11944
ㅅㅏㄱㅣㄲㅜㄴ	-11945
▁ㅊㅓㄹㅈㅓㅎㅏㄱㅔ	-11946
▁4.	-11947
ㄹㅏㅇㅣㅁ	-11948
▁ㄷㅗㅊㅏㄱ	-11949
▁ㅂㅏㅇㅅㅜ	-11950
▁ㅂㅓㅂㅇㅢ	-11951
ㅌㅐㅇㅢ	-11952
▁ㅎㅏㄹㅕ	-11953
ㄱㅜㄱㅈㅓㅇ	-11954
ㅁㅜㅈㅗㄱㅓㄴ	-11955
▁to	-11956
ㄹㅓㅇㅑ	-11957
▁ㅅㅣㅍㅇㅡㄹ	-11958
▁ㅇㅝㄴㄷㅓㄱㅓㄹ	-11959
ㄱㅘㄴㅅㅣㅁ	-11960
ㅡㄴㅡㄴㄱㅔ	-11961
ㅇㅏㄴㅎㅐㄷㅗ	-11962
ㄷㅗㅎㅏㄱㅗ	-11963
▁ㅁㅏㄶㅇㅡㄴㅈㅣ	-11964
▁ㅅㅓㅇㄱㅗㅇㅎㅏㄴ	-11965
▁ㅂㅏㄴㅈㅓㄴ	-11966
ㄱㅡㅁㅇㅐㄱ	-11967
▁ㄴㅐㄹㅕㅇㅑ	-11968
▁ㅇㅣㄸㅏㅇ	-11969
▁ㅇㅏㅇㅣㄷㅣ	-11970
▁ㄱㅣㅁㅇㅕㅇㅊㅓㄹ	-11971
▁65	-11972
ㅁㅝㄴㅑ	-11973
▁ㅇㅏㄴㄴㅏㅇㅘ	-11974
▁ㅇㅏㄴㅎㅏㅈㅣ	-11975
▁ㅁㅏㄴㄷㅡㄹㅇㅓㄴㅗㅎㄱㅗ	-11976
▁ㅉㅜㅇ	-11977
▁ㅈㅣㅇㅝ	-11978
ㅆㅣㄷㅡㄹ	-11979
▁ㄴㅗㄹㄹㅏㅂ	-11980
▁ㅇㅣㄹㄴㅕㄴ	-11981
▁ㄱㅣㄷㅐㄷㅚㅁ	-11982
▁ㅅㅣㄷㅏㄹ	-11983
▁ㅇㅕㄹㅓㅁ	-11984
▁ㅊㅓㄹㄷㅗ	-11985
▁ㄴㅜㄱㅜㄷㅗ	-11986
▁ㄱㅡㄹㅐㅇㅛ	-11987
ㅊㅣㅁㅕ	-11988
ㅊㅓㅂㅏㄷ	-11989
▁ㅠㅠㅠㅠㅠ	-11990
ㅈㅓㄱㅇㅛㅇ	-11991
▁ㅁㅣㅊㅕㅆㄷㅏ	-11992
ㅇㅏㄹㅐ	-11993
▁ㅎㅕㅇㅈㅔ	-11994
.^^	-11995
ㅅㅐㄲ	-11996
▁ㅁㅜㄷㅓㅁ	-11997
▁ㄱㅏㅇㅊㅓㄹ	-11998
▁ㅉㅣㄱㅇㅡㄹ	-11999
▁ㅇㅖㅃㅡㄱㅔ	-12000
▁ㅈㅓㅇㅊㅣㄱㅏ	-12001
~~!!!	-12002
▁ㅎㅏㄹㅈㅣ	-12003
ㅈㅣㅂㅇㅡㄹ	-12004
ㅎㅏㄴㅈㅏㄴ	-12005
▁ㅁㅜㅎㅛ	-12006
▁ㅁㅓㄴㄱㅏ	-12007
▁ㅎㅐㅈㅝㄹㅏ	-12008
▁ㅇㅣㅆㄴㅡㄴㄱㅓㅅ	-12009
▁ㅇㅏㄴㄷㅚㄴㄷㅏㄴㅡㄴ	-12010
▁ㅊㅏㄷㅏㄴ	-12011
ㄴㅡㄴㄷㅐ	-12012
▁ㅂㅓㄹㅇㅓㅅㅓ	-12013
▁ㅂㅣㅆㅏㅁㅕㄴ	-12014
▁ㅁㅜㄱㅔ	-12015
ㅇㅝㄴㅇㅔㅅㅓ	-12016
ㅎㅏㅁㅕㄴㅅㅓㄷㅗ	-12017
ㅎㅗㄱㅜ	-12018
ㅎㅏㅁㅇㅔ	-12019
▁ㅅㅣㄱㅏㄱ	-12020
ㅊㅓㄴㄱㅜㄱ	-12021
▁ㅁㅣㅅㅏㅇㅣㄹ	-12022
ㅁㅜㄴㅈㅔㄱㅏ	-12023
▁ㄱㅏㅇㅇㅝㄴㄷㅗ	-12024
▁ㅁㅓㄱㄴㅡㄴㄱㅓ	-12025
▁ㄴㅓㅎㅢㄷㅡㄹㅇㅣ	-12026
hn	-12027
kr	-12028
▁ㅇㅚㄴ	-12029
▁ㄴㅏㄹㅏㄹㅗ	-12030
▁ㅇㅏㄴㅎㅐㅆㅇㅡㅁㅕㄴ	-12031
▁ㅈㅗㅎㄴㅑ	-12032
▁ㅌㅗㅇㅊㅣ	-12033
▁ㅁㅣㄱㅜㄱㅇㅣㄴ	-12034
ㅅㅐㅇㄱㅏㄱㅇㅡㄴ	-12035
▁ㄱㅡㄹㅐㅂㅘㅆㅈㅏ	-12036
ㄷㅏㄹㅗ	-12037
▁ㅇㅡㄴㅌㅏㄱㅇㅣ	-12038
▁ㅈㅗㅎㅇㅏㅎㅏㄱㅗ	-12039
ㄷㅙㅅㅓ	-12040
ㄷㅡㄹㅇㅣㄴㅔ	-12041
▁ㅇㅏㄴㅣㄹㄲㅏㅇㅛ	-12042
▁ㅈㅒㄴㅔ	-12043
ㅅㅗㅅㅗㅇ	-12044
▁ㄴㅏㅇㅡㄹㄷㅡㅅ	-12045
▁ㅅㅗㄹㅡㅁㄷㅗㄷ	-12046
ㅁㅜㄷ	-12047
ㅂㅣㄱ	-12048
ㅅㅡㅇㅘ	-12049
▁as	-12050
ㅜㅁㅇㅣ	-12051
ㅇㅏㅆㅇㅓㅇㅛ	-12052
▁ㅇㅣㄹㅇㅓㄴㅏㄴ	-12053
▁ㅇㅣㅆㅇㅓㅆㅇㅡㅁ	-12054
ㅎㅜㄱ	-12055
▁ㅇㅏㅇㅣㄹㅡㄹ	-12056
▁ㄴㅐㅇㅛㅇㅇㅡㄹ	-12057
▁45	-12058
ㄷㅡㄴㄷㅔ	-12059
ㅅㅗㅁㅜㄴ	-12060
▁ㄱㅗㅅㅡㅌ	-12061
▁ㄱㅐㄴㅕㅁㅇㅣ	-12062
▁ㄷㅗㄹㄹㅣㄱㅗ	-12063
▁ㅈㅐㅅㅏㄴㅁㅗㄹ	-12064
▁ㅈㅐㅁㅣㅆㅇㅓ	-12065
▁ㅇㅘㄹㅏ	-12066
▁ㅃㅏㄹㅡㄱㅔ	-12067
▁ㅁㅜㅊㅐㄱㅇㅣㅁ	-12068
▁ㅂㅏㄱㅅㅜㄹㅡㄹ	-12069
▁ㅎㅏㄴㄱㅜㄱㄷㅗ	-12070
ㅎㅓㅇ	-12071
▁ㅌㅏㅁㅇㅛㄱ	-12072
ㅊㅏㄹㅖ	-12073
ㅈㅗㅈㅣㄱ	-12074
▁ㅇㅠㅂㅜㄴㅏㅁ	-12075
ㅍㅕㅇㄷㅡㅇ	-12076
ㅈㅜㄴㅕㄴ	-12077
▁ㄷㅏㄴㅁㅏㄹ	-12078
▁ㅊㅡㄱㄱㅡㄴ	-12079
ㅈㅣㄱㅡㅁㄷㅗ	-12080
ㄴㅜㄱㅜ	-12081
▁ㅇㅓㅂㅈㅓㄱ	-12082
▁ㅊㅚㅅㅜㄴㅅㅣㄹㄱㅘ	-12083
ㄴㅏㅁㄴㅕ	-12084
▁ㄴㅓㅁㅇㅡㄴ	-12085
▁ㄱㅜㄴㄷㅐㄱㅏ	-12086
▁ㅎㅐㅁㅂㅓㄱㅓ	-12087
▁ㅎㅚㅅㅏㄹㅡㄹ	-12088
ㅅㅏㅎㅏㄴ	-12089
ㅈㅓㅇㅇㅠ	-12090
ㅎㅏㄴㅡㄴㄱㅓㄴㄱㅏ	-12091
▁ㅂㅐㅇㅜㄷㅡㄹㅇㅣ	-12092
▁ㅌㅡㄹㅓㅁㅍㅡㄱㅏ	-12093
ㄱㅜㄱㅁㅣㄴㄷㅡㄹㅇㅡㄴ	-12094
▁ㄱㅕㅇㄴㅏㅁ	-12095
ㅎㅏㄷㅡㅅ	-12096
▁ㅇㅣㄱㅅㅜㄱ	-12097
▁ㅊㅣㄴㅈㅓㄹ	-12098
▁ㅊㅓㄷㅏㄴ	-12099
▁ㅋㅏㅁㅔㄹ	-12100
ㅈㅣㄴㅇㅡㄹ	-12101
▁ㄸㅗㄷㅏㄹㅡㄴ	-12102
▁ㅅㅐㅇㄱㅏㄱㅎㅐㅂㅘㄹㅏ	-12103
ㄹㅎㅖ	-12104
ㅈㅡㄱㅏ	-12105
▁ㄱㅗㄷㅣㅇ	-12106
▁ㄷㅗㄴㅁㅏㄶ	-12107
▁ㅁㅣㄱㅜㄱㅇㅡㄹㅗ	-12108
ㅂㅐㄹㅡㄹ	-12109
▁ㅇㅗㅈㅜㅁ	-12110
▁ㄸㅏㅇㅋㅗㅇ	-12111
▁ㅇㅣㅆㅇㅡㄹㅌㅔㄴㄷㅔ	-12112
▁ㅎㅏㄴㄱㅜㄱㄱㅕㅇㅈㅔ	-12113
ㅈㅜㄱㅜㄱ	-12114
▁ㅅㅗㅂㅏㅇ	-12115
▁ㅅㅓㅁㅣㄴㄷㅡㄹㅁㅏㄴ	-12116
▁ㅁㅏㅈㄴㅏ	-12117
▁ㅍㅏㄴㅇㅡㄹ	-12118
▁ㅁㅗㅅㅎㅏㄴㅣ	-12119
▁ㅌㅓㅈㅣㄱㅗ	-12120
ㅎㅏㅅㅣㅁㅕㄴ	-12121
▁ㅇㅘㅆㄷㅏㄱㅏ	-12122
▁ㅈㅣㄴㅅㅣㄹㅇㅡㄴ	-12123
ㅈㅣㄴㄱㅔ	-12124
▁ㄴㅏㅇㅗㄹㄸㅐ	-12125
▁ㅇㅛㅂㅓㄴ	-12126
▁ㅎㅓㄱㅕㅇ	-12127
▁ㄲㅏㅁㅃㅏㅇ	-12128
▁ㅇㅏㅍㅇㅡㄹ	-12129
▁ㅇㅓㅄㅇㅓㅈㅣㄹ	-12130
▁ㅆㅔ	-12131
▁ㄱㅣㅈㅜㄴㅇㅣ	-12132
▁ㄷㅗㄹㅇㅏㄱㅏㄴㄷㅏ	-12133
ㅊㅣㅋㅣㄴ	-12134
▁ㅇㅣㄴㅈㅐ	-12135
ㅈㅣㅁㅏㅇㅛ	-12136
ㅎㅏㄴㄱㅓㅇㅣㅁ	-12137
ㅍㅣㄷㅣ	-12138
▁ㅁㅔㅇㅣㄴㅇㅔ	-12139
ㅂㅜㄹㅣ	-12140
▁ㅈㅓㅇㅇㅢㄱㅏ	-12141
▁ㅁㅗㄹㄹㅏㅆㄷㅏ	-12142
ㄱㅗㅇㄱㅡㅂ	-12143
▁ㄲㅓㅂ	-12144
ㅅㅟㄱㅗ	-12145
▁ㅅㅜㄷㅏㄴ	-12146
▁ㅈㅜㄹㅇㅣㄹ	-12147
ㅇㅓㅇㅛㅇ	-12148
▁ㅂㅐㅊㅜㄹ	-12149
ㅅㅐㅇㄱㅏㄱㅇㅣ	-12150
▁ㅂㅜㄱㅏ	-12151
▁ㅅㅣㅁㅋㅜㅇ	-12152
▁ㄱㅏㄱㅕㄱㄷㅗ	-12153
▁ㅎㅏㄴㅡㄴㄱㅓㄴㅈㅣ	-12154
ㄱㅣㄹㅗㄱ	-12155
▁ㅁㅔㄹㄹㅗㄴ	-12156
▁ㅁㅣㄴㄴㅗㅊㅗㅇ	-12157
▁ㄱㅣㅁㅅㅣㄴ	-12158
▁ㅅㅏㅅㅣㄹㅇㅡㄴ	-12159
ㅎㅘㄱㅇㅣㄴ	-12160
▁ㄷㅡㄷㅂㅗㅈㅏㅂ	-12161
▁ㅈㅜㅇㅇㅛㅎㅏㄷㅏ	-12162
▁ㄷㅓㅎ	-12163
ㅁㅜㅈㅣ	-12164
▁ㅂㅗㅇㅣㄴㅔ	-12165
▁ㅈㅓㄴㅅㅓㄹ	-12166
▁ㄱㅣㅁㅈㅣㄴ	-12167
▁ㅇㅏㄹㅇㅏㅆㄴㅔ	-12168
▁ㅎㅗㅇㅢ	-12169
ㅕㄱㅏㄴㅡㄴ	-12170
▁ㅂㅏㄴㅉㅏㄱ	-12171
▁ㅇㅢㅇㅚㄹㅗ	-12172
ㅈㅣㅇㅏㄶㄷㅏ	-12173
▁ㅁㅜㄴㅈㅚㅇㅣㄴ	-12174
▁ㅇㅣㅅㅏㅇㅎㅏㄷㅏ	-12175
ㅇㅓㅂㅇㅡㄹ	-12176
▁ㅎㅕㅇㅅㅓㅇ	-12177
▁ㅊㅓㅁㅓㄱㄱㅗ	-12178
▁ㄷㅗㄲㅐㅂㅣㄱㅏ	-12179
ㅇㅓㄱㅏㄴㅡㄴㄷㅔ	-12180
▁ㅇㅣㄹㄱㅐ	-12181
▁ㅍㅏㅌㅏㄴ	-12182
▁ㅇㅏㄴㄷㅚㄴㅔ	-12183
ㄱㅗㅅㄷㅗ	-12184
ㄹㅕㄱㅇㅔ	-12185
▁ㅈㅣㅈㅏㅊㅔ	-12186
▁33	-12187
▁ㅊㅓㄴㅇㅝㄴ	-12188
ㅇㅣㄱㅜ	-12189
ㄷㅏㄴㅅㅗㄱ	-12190
▁ㅇㅣㄱㅓㅅㄷㅡㄹ	-12191
yp	-12192
▁ㅁㅗㅂㅓㅁ	-12193
▁ㄴㅚㅁㅜㄹㅈㅚ	-12194
▁ㅇㅏㅁㅜㄹㅓㅎ	-12195
▁ㅎㅚㅇㄹㅕㅇ	-12196
ㄷㅓㄱㅂㅜㄴㅇㅔ	-12197
▁ㅇㅏㄲㅏ	-12198
ㄱㅏㅇㄷㅗ	-12199
▁ㅊㅐㄱㅇㅣㅁㅇㅣ	-12200
▁ㅅㅏㅁㅅㅣㅅㅔㄲㅣ	-12201
ㅇㅓㅂㅓㄹㅣ	-12202
▁ㅅㅜㄴㅅㅜㅎㅏㄴ	-12203
ㅏㅁㅜㄹ	-12204
▁ㄴㅏㄴㅏ	-12205
▁ㅈㅏㄴㅡㄴ	-12206
▁ㅈㅣㅇㅂㅓㄹ	-12207
▁ㅁㅜㅎㅏㄴㅅㅏㅇ	-12208
▁ㅈㅡㄹㄱㅣㄴㅡㄴ	-12209
▁ㅂㅏㅃㅏ	-12210
▁ㄱㅣㅍㅇㅡㄴ	-12211
▁ㅈㅜㅇㅇㅛㅎㅏㅈㅣ	-12212
ㅁㅝㄴㄱㅏ	-12213
ㅇㅣㄴㅁㅜㄹ	-12214
▁ㅇㅣㄱㅔㄷㅏ	-12215
ㄷㅡㄹㅇㅔㄱㅔㄴ	-12216
▁ㄱㅣㄹㅔㄱㅣㄷㅡㄹ	-12217
▁ㅇㅏㅇㅣㅇㅠㄴㅡㄴ	-12218
ㅂㅔㅅ	-12219
▁ㅊㅏㅈㅇㅡㄹ	-12220
ㅇㅣㅈㅏㄶㅇㅏ	-12221
▁ㄷㅡㄹㅇㅓㄷㅗ	-12222
▁ㅁㅝㄷㅡㄴㅈㅣ	-12223
ㅋㅡㄹㅗ	-12224
ㅅㅔㅈㅓㅇ	-12225
▁ㅁㅣㄴㄱㅏㅁ	-12226
▁ㅂㅗㄱㅗㄷㅗ	-12227
ㄱㅓㅅㄱㅏㅌㅇㅏ	-12228
ㅈㅜㅅㅣㄴ	-12229
▁ㅎㅗㅇㅊㅐ	-12230
▁ㅈㅜㅇㅎㅓㄴ	-12231
ㅆㅇㅡㄹㅌㅔㄴㄷㅔ	-12232
▁ㄱㅣㅈㅏㅎㅚㄱㅕㄴ	-12233
▁ㅇㅣㄴㅅㅣㄴ	-12234
▁ㅋㅣㅇㅜㄱㅗ	-12235
▁//	-12236
ㅎㅏㅂㅇㅢ	-12237
▁ㄸㅡㅅㅇㅡㄹ	-12238
▁ㅂㅐㅇㅜㄱㅗ	-12239
ㄷㅙㅆㄴㅡㄴㄷㅔ	-12240
▁ㅇㅏㄴㅎㅏㄴㅡㄴㄱㅔ	-12241
▁,,	-12242
▁ㄴㅗㅍㄷㅏ	-12243
▁ㅈㅗㅁㅁㅏㄴ	-12244
---	-12245
▁ㅈㅏㅇㄷㅗㅇ	-12246
▁ㅂㅏㅇㅅㅗㅇㅇㅡㄹ	-12247
ㅅㅏㄻ	-12248
ㅗㄹㅗㄱ	-12249
▁ㅎㅘㄱㅏㄴ	-12250
▁ㅁㅓㅅㅈㅕㅇㅛ	-12251
▁ㅁㅗㄹㅡㄴㄷㅏㄱㅗ	-12252
ㅋㅛ	-12253
▁ㅅㅔㅁㅜ	-12254
▁ㄴㅓㅁㅜㅇ	-12255
▁ㅎㅏㄴㅂㅗㄱ	-12256
▁ㅁㅏㅈㅈㅣㅁㅏㄴ	-12257
98%	-12258
▁ㅇㅒㄷㅗ	-12259
▁ㅅㅜㄹㅈㅣㅂ	-12260
▁ㅇㅕㅈㅜㄱㅏ	-12261
▁ㅎㅏㄹㅏㄴㅡㄴ	-12262
▁ㅎㅣㅁㄴㅐㄹㅏ	-12263
▁ㅅㅗㄴㅏ	-12264
ㅎㅏㅁㅇㅡㄴ	-12265
▁ㅇㅓㄷㅣㄷㅏ	-12266
▁ㄷㅚㄴㄱㅓ	-12267
ㅎㅚㅅㅏㄱㅏ	-12268
ㅈㅏㄷㅡㄹㅇㅏ	-12269
ㄹㅔㅅ	-12270
ㅆㄱㅜㄴ	-12271
▁ㅈㅓㅁㅇㅠ	-12272
▁ㄴㅏㅌㅏㄴㅏ	-12273
▁ㄲㅣㄱㅗ	-12274
▁ㄱㅕㄹㅁㅏㄹ	-12275
ㄴㅏㄹㅇㅔ	-12276
ㅊㅏㅁㅏㄴ	-12277
ㅅㅓㅇㅁㅕㅇ	-12278
▁ㄴㅏㅎㅗㄴㅈㅏ	-12279
ㄷㅐㅁㅜㄴ	-12280
▁ㅅㅓㄹㄹㅔㅂㅏㄹ	-12281
▁ㅈㅗㅊㅣ	-12282
ㅈㅓㅇㅈㅜㄴ	-12283
ㅎㅏㄱㅗㅇㅣㅆㄷㅏ	-12284
ㅏㅇㅜㅅ	-12285
▁ㅈㅓㄴㄹㅑㅇ	-12286
SD	-12287
fe	-12288
▁ㅇㅣㄱㅡㄹ	-12289
▁ㄱㅣㅅㅏㅇㅊㅓㅇㅇㅡㄴ	-12290
▁ㄷㅐㅅㅏㅇㅇㅣ	-12291
▁ㅎㅏㅇㅕㅆㄷㅏ	-12292
▁ㅁㅗㅌㅔㄹ	-12293
▁ㄱㅓㄴㅊㅜㄱ	-12294
▁ㅊㅏㄱㅣㅈㅏㄱ	-12295
ㅅㅓㄴㅇㅔㅅㅓ	-12296
ㅈㅏㄹㅏㅁㅕㄴ	-12297
ㅗㅅㅗ	-12298
▁ㄴㅏㅁㅜ	-12299
ㅈㅓㅇㄱㅏ	-12300
▁ㅇㅏㄴㅣㅇㅔㅇㅛ	-12301
ㅌㅌ	-12302
ㅈㅣㅅㅇㅡㄴ	-12303
ㄱㅡㄴㅅㅓㅇ	-12304
▁ㅇㅜㅈㅜㅅ	-12305
▁ㅎㅓㅈㅜㄴ	-12306
▁ㄴㅏㅇㅗㄱㅔ	-12307
▁ㄷㅔㅇㅣㅌㅓ	-12308
▁ㅈㅜㅇㄱㅜㄱㄷㅗ	-12309
ㄱㅘㄴㅇㅡㄹ	-12310
ㅇㅓㄹㅁㅏ	-12311
ㅣㅁㅇㅡㄴ	-12312
ㅉㅡㅅㅉㅡㅅ	-12313
▁ㅅㅡㅇㅟ	-12314
▁ㅆㅓㄲ	-12315
▁ㄱㅕㅇㅅㅏㅇ	-12316
▁ㄱㅐㅅㅜㅈㅏㄱ	-12317
▁ㅆㅡㅁㅕㄴㅅㅓ	-12318
ㅈㅣㄴㅎㅐㅇ	-12319
▁ㅈㅓㅇㅂㅜㄴ	-12320
▁ㄱㅜㅇㄱㅡㅁㅎㅐㅅㅓ	-12321
▁ㅈㅗㅎㅚ	-12322
▁ㅇㅣㅈㅈㅣ	-12323
▁ㅅㅣㄴㄹㅏㅇ	-12324
▁ㄴㅏㅁㅌㅐㅎㅕㄴ	-12325
ㅅㅔㅌㅏㄱ	-12326
▁ㄷㅏㅅㅓㅅ	-12327
ㅈㅣㄱㅈㅏㅇ	-12328
▁ㅁㅕㄹㅈㅗㅇ	-12329
▁ㄱㅗㅅㅡㅌㅗㅂ	-12330
▁ㅇㅖㅈㅓㄴㅇㅔㄴ	-12331
▁ㅊㅓㅅㅂㅓㄴㅉㅐ	-12332
).	-12333
ㅂㅜㅇㅔㅅㅓ	-12334
▁ㅅㅏㅎㅚㅇㅔㅅㅓ	-12335
ㅈㅣㄱㅣㄹ	-12336
▁ㅂㅗㅎㅐㅇ	-12337
ㅅㅣㅋㅣㅈㅏ	-12338
▁ㅎㅏㄱㅔㅆㄴㅔ	-12339
ㅊㅣㄴㅡㄴㄱㅓ	-12340
ㅅㅣㄱㅏㄴㅁㅏㄴ	-12341
ㄱㅡㄱㅓ	-12342
ㅗㄹㅏㄷㅗ	-12343
▁ㅅㅜㅊㅓㄴㅇㅓㄱ	-12344
ㅅㅡㅌㅔ	-12345
ㅅㅏㄹㄱㅣ	-12346
▁ㅎㅏㅅㅣㄹ	-12347
▁ㅎㅣㅁㄷㅡ	-12348
ㅃㅏㄹㄱㅐㅇㅇㅣ	-12349
ㄱㅜㄱㅁㅣㄴㅇㅡㄴ	-12350
▁ㅇㅣㅅㅓ	-12351
▁ㄴㅗㄹㄹㅏㅇ	-12352
ㅌㅡㅇㅔ	-12353
ㄹㅛㄹㅡㄹ	-12354
ㅉㅣㅂ	-12355
ㅌㅡㅇㅘ	-12356
▁ㅂㅕㄹㄱㅓ	-12357
▁ㅂㅔㅇㅣ	-12358
▁ㄴㅏㅇㅔㄱㅔ	-12359
▁ㄴㅣㅁㄷㅡㄹ	-12360
ㅕㄴㅇㅖㅇㅣㄴ	-12361
▁ㅊㅗㄷㅡㅇㅎㅏㄱㄱㅛ	-12362
▁ㄷㅗㅇㅈㅓㄴ	-12363
▁ㅇㅏㄱㄷㅓㄱ	-12364
▁ㅂㅏㄷㅇㅏㅁㅓㄱ	-12365
▁ㅅㅏㄹㅣ	-12366
▁ㅁㅏㄴㅎㅏㄴ	-12367
▁34	-12368
▁ㅂㅓㄴㅎㅗ	-12369
ㅎㅏㄱㅣㄹㅡㄹ	-12370
▁ㅇㅣㅎㅐㄹㅡㄹ	-12371
ㅈㅗㅊㅣ	-12372
ㅇㅛㅇㅇㅡㄴ	-12373
▁ㅇㅒㄱㅣㄱㅏ	-12374
▁ㅈㅡㄱㅅㅣ	-12375
▁ㅁㅏㅅㅏㅈㅣ	-12376
▁ㅌㅣㅂㅣㅇㅔ	-12377
▁ㅋㅡㄹㅣㅅㅡㅁㅏ	-12378
ㄴㅏㅇㅗㄱㅗ	-12379
▁ㅁㅝㅇㅣㅁ	-12380
▁ㅊㅏㄹㅕㄹㅏ	-12381
▁ㅅㅡㅋㅡㄹㅣㄴ	-12382
▁ㅎㅏㄴㄱㅖㄱㅏ	-12383
▁ㅇㅣㅅㅜㄴㅅㅣㄴ	-12384
ㄱㅓㄱㅏㅌㅇㅏㅇㅛ	-12385
▁ㅇㅓㄹㅣㅅㅓㄱㅇㅡㄴ	-12386
ㅈㅣㅇㅗㄱ	-12387
▁ㅅㅐㅇㄱㅖ	-12388
▁ㅈㅓㅈㅣㄹㄹㅓ	-12389
▁ㅌㅏㄱㅔ	-12390
ㅈㅣㅅㄱㅗ	-12391
▁ㅅㅣㄹㅎㅕㄴ	-12392
▁ㅅㅣㅍㅅㅡㅂㄴㅣㄷㅏ	-12393
▁ㄱㅐㅇㅜㅅ	-12394
▁ㅈㅣㄴㄹㅣ	-12395
▁ㅇㅕㄴㄱㅣㅈㅏ	-12396
▁ㅈㅏㅇㅕㅇㅇㅓㅂㅈㅏ	-12397
▁ㅅㅏㄹㅛ	-12398
▁ㅅㅓㅇㄱㅕㄱㅇㅣ	-12399
▁ㅈㅏㄹㄴㅏㄱㅏㄴㅡㄴ	-12400
▁ㅈㅓㄴㄱㅘ	-12401
ㄱㅏㄴㄷㅏㄱㅗ	-12402
▁ㅇㅣㅅㄴㅡㄴ	-12403
aid	-12404
▁ㅌㅡㅁ	-12405
▁ㄷㅐㅁㅏ	-12406
▁ㄱㅗㄹㅂㅣㄴ	-12407
▁ㅋㅏㅍㅣ	-12408
ㅈㅏㄱㅈㅓㄴ	-12409
▁ㄱㅘㄱㅓㅇㅔ	-12410
▁ㄱㅔㅇㅣㅁㅇㅣ	-12411
ㄹㅗㄷㅗ	-12412
ㅇㅣㄴㅈㅣㄴㅡㄴ	-12413
ㄸㅒ	-12414
ㅂㅓㄹㅇㅓ	-12415
▁ㄱㅏㅅㅓㅇ	-12416
ㅏㄱㅣㄹ	-12417
ㅍㅗㅇ	-12418
ㄴㅣㄴㅔ	-12419
▁ㅎㅏㄴㅡㄴㅈㅣㅅㅇㅣ	-12420
▁ㅈㅣㅈㅓㅂㅜㄴ	-12421
▁ㄱㅕㄹㅎㅗㄴㅎㅏㄹ	-12422
ㅁㅠ	-12423
▁ㄸㅏㅈㅣ	-12424
▁ㄸㅓㄱㄱㅓㅁ	-12425
▁ㄷㅡㄹㅏㅁㅏㄷㅗ	-12426
▁ㅇㅣㄴㅁㅜㄹㅇㅣ	-12427
▁ㅇㅣㄹㅓㄴㅇㅣㄹ	-12428
▁ㅈㅗㅎㅇㅏㅆㅇㅡㅁ	-12429
▁ㄸㅓㄴㅓㅁ	-12430
▁ㅈㅣㄹㅗㄹ	-12431
ㄴㅏㄴㅔㅇㅛ	-12432
▁ㄱㅗㄹㅁㅗㄱ	-12433
▁ㅎㅕㅇㄷㅗㄴ	-12434
▁ㄱㅡㄹㅓㄴㄱㅓㅈㅣ	-12435
ㅉㅏㅇㄲㅐ	-12436
▁ㅇㅠㅅㅣㄴ	-12437
▁ㅊㅓㅇㄹㅕㅁ	-12438
▁ㄱㅜㄱㄱㅐ	-12439
▁ㅅㅐㄲㅣㄷㅡㄹㅇㅣ	-12440
ㄱㅗㄷ	-12441
ㅈㅏㅃㅏ	-12442
ㅇㅣㄴㅗㅁ	-12443
ㅁㅣㄴㅏ	-12444
▁ㅇㅣㅂㅜㄹ	-12445
ㅈㅜㄴㅣㄲㅏ	-12446
▁ㅇㅏㄶㅇㅏㅆㅇㅡㅁㅕㄴ	-12447
ㅇㅏㅈㅜㅁㅁㅏ	-12448
▁ㅌㅓㅇ	-12449
ㅅㅗㄷㅗ	-12450
▁ㅈㅏㅂㅇㅏㅇㅑ	-12451
ㄷㅡㄹㅇㅣㄴㄷㅔ	-12452
▁MB	-12453
▁ㅋㅗㄹㅣ	-12454
ㅁㅏㅈㅣㅁㅏㄱ	-12455
ㅇㅣㅈㅔㄴㅡㄴ	-12456
▁ㅅㅏㄱㅓㄴㅇㅡㄹ	-12457
ㅎㅐㅆㄱㅜㄴㅏ	-12458
▁ㄱㅜㄱㄱㅏㄴㅡㄴ	-12459
▁ㅈㅔㅂㅏㄹㅈㅗㅁ	-12460
ㄱㅓㄹㄹㅣ	-12461
ㅈㅜㅇㄱㅖ	-12462
▁ㅎㅘㄱㅂㅗ	-12463
ㅁㅕㄴㅇㅔㅅㅓ	-12464
▁ㅊㅓㅇㅇㅘㄷㅐㅇㅔ	-12465
ㅇㅡㅇㅇㅝㄴㅎㅏㅂㄴㅣㄷㅏ	-12466
ㅂㅗㄴㄷㅔ	-12467
▁ㄴㅗㄹㅕㄱㅇㅡㄹ	-12468
▁ㅈㅓㄴㅂㅓㅁㄱㅣ	-12469
ㅈㅓㅇㅎㅘ	-12470
ㅎㅡㅂㅇㅕㄴ	-12471
▁ㅈㅜㄴㄷㅏㄱㅗ	-12472
▁ㅇㅠㅌㅗㅇㄱㅣㅎㅏㄴ	-12473
▁ㅇㅡㅇㅇㅝㄴㅎㅏㄴㄷㅏ	-12474
▁ㄴㅗㄴㄹㅏㄴㅇㅣ	-12475
▁ㅍㅐㄴㄷㅡㄹㅇㅡㄴ	-12476
ㄲㅝ	-12477
▁ㅇㅏㅅ	-12478
▁ㅈㅓㄹㅓ	-12479
ㅊㅓㄴㅇㅣ	-12480
▁ㄱㅗㅂㄱㅔ	-12481
▁ㅈㅡㅇㅇㅓㄴ	-12482
blog	-12483
▁ㄷㅏㄺㅇㅡㄴ	-12484
▁ㅂㅐㅇㅝㄹㅏ	-12485
▁ㅃㅏㅈㅣㄱㅗ	-12486
▁ㅅㅐㄱㄲㅏㄹ	-12487
▁ㅇㅛㄱㅁㅏㄴ	-12488
ㄴㅗㅁㅜㅎㅕㄴ	-12489
▁ㅁㅏㄴㄷㅡㄴㅔ	-12490
▁ㅁㅏㄴㄷㅡㄹㅈㅏ	-12491
ㅇㅣㄹㄱㅏ	-12492
▁ㅅㅓㅇㅜㄹㅇㅔㅅㅓ	-12493
▁ㄷㅚㄹㅈㅣ	-12494
ㅎㅐㅈㅕㅅㅓ	-12495
ㅇㅓㅆㅇㅡㄹㄲㅏ	-12496
▁ㅁㅜㅅㅣㅎㅏㄴㅡㄴ	-12497
▁ㅈㅜㅈㅏㅇㅎㅏㄴㅡㄴ	-12498
ㅎㅐㅂㅗㄴ	-12499
▁ㅆㅡㅈㅏㄹ	-12500
▁ㅂㅣㅊㅇㅡㄹ	-12501
▁ㅋㅡㄹㄹㅣㄱ	-12502
ㅎㅗㅁ	-12503
▁ㅇㅏㄴㅎㅏㄴㅏ	-12504
▁ㅁㅜㄴㅎㅘㅈㅐ	-12505
▁ㅌㅏㄴㅎㅐㄱㅇㅣ	-12506
▁ㅎㅐㅅㅏㄴ	-12507
▁ㅂㅐㄱㅇㅣㄴ	-12508
▁ㅊㅓㄴㅁㅜㄴㅎㅏㄱ	-12509
ㅇㅓㅉㅓㄹ	-12510
▁ㅅㅜㅅㅡㅂ	-12511
▁ㅅㅣㄴㅇㅣ	-12512
▁ㄱㅜㄱㅇㅣㄱ	-12513
▁ㅂㅗㄴㅇㅣㄴㄷㅗ	-12514
▁ㅁㅗㅅㅡㅂㅇㅡㄹㅗ	-12515
▁ㅇㅣㄴㅊㅓㄴㄱㅗㅇㅎㅏㅇ	-12516
▁120	-12517
▁ㅈㅐㅂㅓㄹㄷㅡㄹ	-12518
ㅂㅆㅡㄹ	-12519
ㅏㅁㅏㄶ	-12520
▁ㅂㅗㄹㄸㅐ	-12521
▁ㅇㅓㄱㅇㅜㄹㅎㅏㄴ	-12522
▁ㅁㅏㄹㅈㅣ	-12523
▁ㅃㅏㄴㅡㄴ	-12524
▁ㅅㅏㅇㅈㅣㅇ	-12525
▁ㅇㅡㅇㅇㅝㄴㅎㅏㄱㅗ	-12526
ㅂㅣㅆㅏ	-12527
▁ㅆㅡㄷㅏㄱㅏ	-12528
▁ㅂㅗㄱㅣㅇㅔㄴ	-12529
..??	-12530
▁ㄷㅓㄷㅓ	-12531
▁ㅎㅏㄱㅗㄴㅡㄴ	-12532
ㅎㅑ	-12533
▁ㄷㅏㄴㅣㄴ	-12534
▁ㅅㅗㄱㅇㅔ	-12535
▁ㄷㅏㄻㅇㅡㄴ	-12536
ㄷㅚㄱㅔㅆㄴㅔ	-12537
▁ㅈㅏㄹㅂㅗㄱㅗ	-12538
▁ㅎㅏㄴㅂㅓㄴㅁㅏㄴ	-12539
ㅇㅔㅇㅣ	-12540
▁ㄹㅗㅂㅗㅅㅇㅣ	-12541
▁ㄱㅏㄱㅇㅗ	-12542
ㅈㅣㅁㅏㄹㄹㅏㄱㅗ	-12543
ㄸㅡ	-12544
ㅅㅏㅇㅠ	-12545
ㄷㅙㅆㄴㅔ	-12546
▁PD	-12547
ㄷㅡㄴㅔ	-12548
ㅅㅡㅍㅗ	-12549
ㅕㅇㅇㅡㄴ	-12550
.............	-12551
▁ㅅㅐㅇㄱㅏㄱㅎㅏㄴㅡㄴㄷㅔ	-12552
▁ㅇㅠㅊㅣㅇㅝㄴ	-12553
▁ㅈㅕ	-12554
▁ㅎㅏㅇㅏ	-12555
ㅊㅜㅇㅇㅣ	-12556
ㅅㅏㅇㅊㅓㅇ	-12557
▁ㅍㅣㅇㅢ	-12558
▁ㄷㅏㄹㅇㅏ	-12559
▁ㅇㅣㅇㅠㄴ	-12560
▁ㄱㅜㄱㄴㅐㅇ	-12561
▁ㅁㅗㅅㄴㅏㄴ	-12562
▁ㅂㅏㅇㅌㅗㅇ	-12563
ㅇㅣㅇㅓㅆㅈㅣ	-12564
▁ㅇㅏㄴㅌㅏㄲㅏㅇ	-12565
▁ㄱㅏㅁㅅㅜ	-12566
▁ㅅㅡㅇㅔㅁ	-12567
▁ㅈㅜㅇㅇㅔㅅㅓ	-12568
▁ㅊㅗㅅㅂㅜㄹㅇㅣ	-12569
ㅋㅏㅍㅔ	-12570
ㅆㅇㅓㅇㅑ	-12571
▁ㄱㅗㅇㅐㄱ	-12572
▁ㅍㅗㄴㅇㅣ	-12573
▁ㄱㅓㄹㅣㄴㅡㄴ	-12574
▁ㄷㅚㄴㄷㅏㅁㅕㄴ	-12575
▁ㅇㅓㄹㅁㅏㄷㅡㄴㅈㅣ	-12576
ㅁㅜㅅㅓㅇ	-12577
▁ㄱㅘㄴㄹㅛ	-12578
▁ㅇㅣㄱㅣㅈㅜㅇㅢ	-12579
▁ㅈㅗㅈㅓㄹ	-12580
ㅂㅜㄹㅇㅏㄴ	-12581
ㄴㅓㅁㄷㅡㄹㅇㅣ	-12582
▁ㅈㅔㄴㅈㅏㅇ	-12583
▁ㄷㅐㅍㅛㅈㅓㄱㅇㅣㄴ	-12584
ㅅㅡㅌㅣㄱ	-12585
▁ㅈㅓㅇㄷㅏㅇㅎㅏㄴ	-12586
ia	-12587
ㅕㅆㄴㅡㄴㅈㅣ	-12588
▁ㄱㅕㄹㄱㅘㄹㅡㄹ	-12589
▁ㄱㅣㅅㅏㅈㅔㅁㅗㄱ	-12590
▁ㅇㅕㅇㅇㅣㅂ	-12591
ㅅㅣㄹㅇㅔㅅㅓ	-12592
▁ㅇㅕㅇㅇㅓㅂㅇㅣㅇㅣㄱ	-12593
ㅇㅔㄴㅏ	-12594
ㅁㅏㄴㅅㅔ	-12595
▁ㅌㅓㄴㅓㄹ	-12596
▁ㅂㅗㄴㄱㅕㄱ	-12597
ㄷㅐㄴㅏ	-12598
▁ㅇㅔㅅㅡ	-12599
ㅈㅏㅇㅝㄴ	-12600
▁ㄴㅓㅁㅇㅓㄱㅏㄴㅡㄴ	-12601
ㅈㅐㅇㅇㅣㄷㅡㄹ	-12602
▁ㅅㅏㅇㄷㅐㅂㅏㅇ	-12603
ㅓㅅㅟ	-12604
ㅂㅡㄹㄹㅐㄱ	-12605
ㄴㅓㄱ	-12606
▁ㄱㅣㅇㅗㄴ	-12607
▁ㅈㅏㅁㅈㅐ	-12608
▁ㅌㅡㄹㄹㅕ	-12609
▁ㄲㅏㅁㄴㅗㄹ	-12610
ㅂㅜㅁㅗㄴ	-12611
▁ㅇㅏㅇㅜㅇ	-12612
▁ㅇㅕㄱㅅㅏㄱㅏ	-12613
▁ㄱㅏㄱㄱㅏㄱ	-12614
▁ㅈㅚㅅㅗㅇㅎㅏㅂㄴㅣㄷㅏ	-12615
ㅗㄹㅏㄱㅗ	-12616
ㅈㅜㄱㅇㅣㄹ	-12617
▁ㅈㅏㄱㅚ	-12618
▁ㄷㅡㄹㅇㅓㅇㅗ	-12619
▁ㅇㅏㅇㅣㄹㅓㄴㅣ	-12620
ㅅㅡㅇㅢ	-12621
▁ㄴㅗㅇㅅㅏ	-12622
ㅎㅏㄱㅣㄱㅏ	-12623
▁ㅁㅣㄴㅅㅐㅇ	-12624
ㄱㅜㄱㅇㅡㄹㅗ	-12625
ㅁㅏㄴㄷㅡㄹㅇㅓㅅㅓ	-12626
▁70%	-12627
▁ㅍㅓㄱ	-12628
ㅇㅣㄹㅇㅡ	-12629
ㅉㅗㄱㅇㅣ	-12630
▁ㅆㅏㅇㅜㄴㅡㄴ	-12631
▁ㄹㅔㄷㅡ	-12632
▁ㅂㅘㅆㅇㅓㅇㅛ	-12633
▁ㅁㅗㅅㅎㅏㄴㅡㄴㄱㅔ	-12634
ㅈㅜㅅㅏ	-12635
▁ㄸㅏㅇㅇㅔ	-12636
ㄴㅡㄴㄱㅓㅅ	-12637
▁ㅎㅘㄱㄹㅠㄹㅇㅣ	-12638
ㅈㅣㄹㄹㅗ	-12639
▁ㅊㅔㅇㅠㄱ	-12640
▁ㅉㅗㄱㅂㅏㄹ	-12641
▁ㄱㅜㄱㅁㅣㄴㄱㅘ	-12642
▁ㅅㅏㅆㄴㅡㄴㄷㅔ	-12643
ㅇㅓㅄㅅㅡㅂㄴㅣㄷㅏ	-12644
ㅊㅏㄴㅏ	-12645
ㅂㅏㄷㅈㅣ	-12646
ㅕㅇㅅㅣㅁ	-12647
▁ㅅㅏㅎㅚㄹㅡㄹ	-12648
▁ㅇㅕㄴㄱㅣㄹㅗ	-12649
35	-12650
ㄷㅡㄴㅣ	-12651
ㅆㅓㄷㅗ	-12652
▁ㅈㅐㄱㅖ	-12653
▁ㄱㅐㅇㅣㄴㅇㅣ	-12654
ㅇㅏㄴㄷㅚㄴㄷㅏ	-12655
▁ㄱㅣㄴㅕㅁ	-12656
▁ㄷㅗㄹㅗㅁㅕㅇ	-12657
▁ㅎㅣㅁㄴㅐㅇㅛ	-12658
▁ㅁㅏㄷㅗㅇㅅㅓㄱ	-12659
▁ㅅㅏㄱㅗㄴㅏㅁㅕㄴ	-12660
ㅎㅜㅂㅏㄴ	-12661
▁ㅎㅗㅎㅡㅂ	-12662
▁ㅋㅐㄴㅏㄷㅏ	-12663
▁ㅎㅕㄹㅅㅔㄹㅗ	-12664
▁ㄴㅗㅅㅡㅇ	-12665
▁ㄲㅏㄹㄲㅡㅁㅎㅏㄱㅔ	-12666
ㅎㅏㄱㄱㅘ	-12667
▁ㅅㅓㄴㅈㅓㄴ	-12668
▁ㅎㅏㄴㄱㅓㄹ	-12669
▁ㅇㅓㅉㅓㅁㅕㄴ	-12670
▁ㅂㅏㄴㅅㅓㅇㅎㅐㄹㅏ	-12671
▁ㅈㅣㅂㄷㅗ	-12672
ㅇㅣㄴㅁㅣㄴ	-12673
▁ㅅㅣㅍㅇㅓㄷㅗ	-12674
▁ㅇㅏㅇㅣㅅㅡㅋㅡㄹㅣㅁ	-12675
▁ㄱㅗㅇㅁㅐㄷㅗ	-12676
ㅇㅛㅇㅎㅘ	-12677
ㅇㅡㄹㄸㅐㄷㅗ	-12678
ㄲㅐㅇ	-12679
▁ㄷㅟㅅㅂㅜㄱ	-12680
▁ㅅㅓㄹㅌㅏㅇ	-12681
▁ㅇㅣㅅㅏㅇㅇㅣ	-12682
▁ㄹㅓㄴ	-12683
▁ㅇㅕㅇㄱㅜ	-12684
▁ㅂㅏㄹㅅㅏㅇ	-12685
▁ㄹㅣㅂ	-12686
▁ㄱㅕㄹㄱㅘㄴㅡㄴ	-12687
▁ㅎㅐㅆㅇㅡㄹㄲㅏ	-12688
▁ㄴㅐㅂ	-12689
ㄱㅏㄱㅕㄱㅇㅣ	-12690
▁ㅍㅣㅎㅐㄴㅡㄴ	-12691
ㄸㅓㄴㅡㄴ	-12692
ㅌㅗㅁㅏㄱ	-12693
ㅗㅅㅓㅇㅢ	-12694
▁ㅈㅏㅇㄴㅏㄴㅎㅏㄴㅏ	-12695
▁ㅇㅕㅇㅅㅔ	-12696
▁ㅎㅘㄹㅕㄱ	-12697
ㄼㅇㅡㄴ	-12698
▁ㄴㅏㅇㅗㄴㅣ	-12699
▁ㅂㅏㄹㅇㅕㄹ	-12700
▁ㅇㅓㄹㅣㄹㄸㅐ	-12701
▁pd	-12702
ㄹㅗㅇㅝ	-12703
▁ㅁㅜㄴㅎㅢ	-12704
▁ㅇㅣㄹㅎㅐㅅㅓ	-12705
ㅁㅣㄴㅣ	-12706
ㅇㅣㄷㅗㅇ	-12707
▁ㅎㅏㄹㅁㅐ	-12708
ㅓㅇㅜㄴㄷㅔ	-12709
▁ㅇㅏㄴㅇㅔㅅㅓ	-12710
ㅅㅏㄱㅔ	-12711
ㄹㅣㅈㅡㅁ	-12712
ㅌㅡㄹㅗㄹ	-12713
ㅎㅏㄹㄱㅓㄹ	-12714
▁ㅅㅗㄴㅏㄱㅣ	-12715
ㅎㅏㄴㄱㅓㄷㅏ	-12716
▁ㅁㅓㅅㅈㅣㄱㅗ	-12717
ㅈㅗㄱㅇㅣ	-12718
▁ㄱㅘㄴㅈㅗㅇ	-12719
▁ㄱㅡㄹㅐㄴㅗㅎㄱㅗ	-12720
▁ㅈㅓㅇㅅㅣㄴㅂㅕㅇㅈㅏ	-12721
▁ㅆㅓㅅ	-12722
▁ㅅㅔㅈㅏ	-12723
ㅊㅣㄴㅇㅣㄹ	-12724
▁ㅅㅣㄴㅈㅓㅇ	-12725
▁ㅈㅓㄹㅓㄴㄱㅓㄹ	-12726
▁ㅅㅏㅎㅚㅅㅐㅇㅎㅘㄹ	-12727
ㅉㅣㅁ	-12728
ㅋㅐㅁ	-12729
ㄷㅡㄹㅣ	-12730
ㄱㅕㄹㅈㅓㅇ	-12731
▁ㅇㅏㅅㅟㅂㄴㅔ	-12732
▁ㅁㅏㄶㄷㅏㄴㅡㄴ	-12733
▁ㅅㅣㄴㅏㄹㅣㅇㅗ	-12734
▁ㅈㅗㄴㄱㅕㅇㅎㅏㅂㄴㅣㄷㅏ	-12735
▁ㅇㅏㅎㅠ	-12736
▁ㅇㅣㄹㅇㅛㅇㅣㄹ	-12737
▁ㅁㅏㄹㅇㅣㅂㄴㅣㄷㅏ	-12738
▁ㅇㅣㅂㅓㄴㄱㅣㅎㅚㅇㅔ	-12739
▁ㅂㅗㅇㅕㅈㅝ	-12740
▁ㅊㅕㄴㅓㅎ	-12741
▁ㅃㅓㄹㅈㅣㅅ	-12742
▁ㅇㅏㄴㅣㄴㄱㅓㅅ	-12743
▁ㄷㅡㄹㅇㅓㅆㄴㅡㄴㄷㅔ	-12744
ent	-12745
ㅇㅔㄹㅏㅇㅣ	-12746
ㄴㅕㄴㅇㅣㄴㅏ	-12747
ㅗㅎㅇㅡㅁㅕㄴ	-12748
▁imf	-12749
ㅅㅜㄷㅏ	-12750
ㅎㅏㅅㅣㅁ	-12751
▁ㅇㅣㅆㄷㅏㄴㅣ	-12752
▁ㄴㅓㅁㄷㅡㄹㅇㅣ	-12753
▁ㄱㅣㅎㅚㄱㅏ	-12754
▁ㅈㅜㄱㅇㅓㅇㅑ	-12755
▁ㅇㅏㄴㅌㅓ	-12756
▁ㅈㅣㄱㅡㅅ	-12757
ㅇㅕㅁㅂㅕㅇ	-12758
▁ㅇㅝㄴㅇㅣㄴㅇㅣ	-12759
▁ㄷㅏㄴㄷㅏㄴ	-12760
ㅇㅓㅂㅘㅆ	-12761
▁ㄴㅏㅇㅗㄴㄷㅏㄱㅗ	-12762
ㅇㅓㄹㅕ	-12763
▁ㅇㅣㅈㅐ	-12764
▁ㅅㅡㄹㄹㅣ	-12765
ㄴㅕㄴㄲㅏㅈㅣ	-12766
▁ㄴㅓㅁㅅㅏㅂㅕㄱ	-12767
▁ㅈㅏㄹㅅㅐㅇㄱㅣㄱㅗ	-12768
ㅅㅔㄷㅗ	-12769
▁ㄴㅓㄹㅡㄹ	-12770
▁ㅃㅏㅈㅣ	-12771
▁ㄱㅏㅅㅜㄱㅏ	-12772
▁ㅇㅣㄹㅈㅏㅇ	-12773
▁ㅎㅏㄴㅊㅏㅇ	-12774
▁ㅎㅕㅇㅍㅕㅇ	-12775
ㅇㅏㅁㅜ	-12776
ㄱㅖㅌㅏㅇ	-12777
▁ㅈㅐㄱㅕㄹㅎㅏㅂ	-12778
▁ㅁㅗㅇㅛㄱ	-12779
ㅅㅏㄴㅇㅡㄴ	-12780
ㅅㅏㄹㅁㅕㄴ	-12781
▁ㅈㅏㅇㅇㅐㅇㅣㄴ	-12782
ㅁㅏㄴㅇㅝㄴㅇㅡㄴ	-12783
▁PC	-12784
▁ㅁㅏㄶㄴㅑ	-12785
ㅈㅣㄹㅎㅏㄴㅡㄴ	-12786
▁ㅊㅜㅋㅏ	-12787
ㅕㄴㄷㅡㄹ	-12788
▁ㄴㅗㅇㄷㅏㅁ	-12789
▁ㅇㅣㄴㅈㅗㅇ	-12790
▁ㅁㅓㄱㅇㅓㄹㅏ	-12791
▁ㄷㅐㅅㄱㅡㄹㅇㅡㄴ	-12792
ㅍㅡㄱㅔ	-12793
ㄴㅏㄹㅏㅇㅢ	-12794
▁ㅅㅣㄱㅜㄱㅇㅔ	-12795
ㅈㅣㅇㅔㅅㅓ	-12796
▁ㅊㅗㅂㅏㄴㅇㅔ	-12797
▁ㅇㅣㅈㅔㅂㅜㅌㅓ	-12798
▁ㅈㅏㄹㄹㅏ	-12799
ㅇㅜㅅㅇㅡㅁ	-12800
ㄴㅜㅈㅣㄴㅈㅔ	-12801
▁ㅅㅔㅇㅣㅂ	-12802
▁ㄱㅡㄹㅓㅎㄷㅏㅁㅕㄴ	-12803
▁ㅁㅏㄹㄱㅗㄴㅡㄴ	-12804
▁ㅊㅗㅅㅂㅜㄹㅇㅡㄹ	-12805
▁ㄸㅐㄹㅣㄱㅗ	-12806
▁ㅈㅓㄴㅇㅕㄱ	-12807
▁ㅇㅔㅇㅓㅋㅓㄴㄷㅗ	-12808
ㄸㅜ	-12809
ㅜㄴㄷㅏ	-12810
▁ㄱㅣㅁㄷㅗㅇ	-12811
ㄷㅐㅁ	-12812
▁ㅂㅏㄷㅏㅅ	-12813
▁ㅈㅓㄴㅊㅔㄱㅏ	-12814
ㄷㅡㄹㅣㄱㅗ	-12815
▁ㅁㅣㄴㅈㅜㅈㅜㅇㅢㄹㅡㄹ	-12816
▁ㅈㅏㄹㅏㄴ	-12817
ㄷㅏㅇㅇㅡㄹ	-12818
ㄷㅓㄱㅜㄴ	-12819
▁ㄷㅗㄴㅇㅣㅆㄴㅡㄴ	-12820
ㄷㅜㅁ	-12821
ㅅㅜㄱㅗ	-12822
ㅎㅏㄴㅡㄴㄱㅓㅇㅣㅁ	-12823
▁ㄹㅔㅂㅔㄹ	-12824
ㅊㅘㄹㅇㅕㅇ	-12825
▁ㄱㅗㅁㅏㅇㅝㅇㅛ	-12826
▁ㅁㅗㄱㅅㅜㅁㅇㅡㄹ	-12827
ㄱㅏㄹㅜ	-12828
▁ㄴㅏㅁㅈㅜㅎㅕㄱ	-12829
ㄴㄷㅔ	-12830
▁ㄱㅏㄱㅕㄱㅇㅔ	-12831
ㅁㅏㄴㅇㅝㄴㄷㅗ	-12832
▁ㄷㅐㅈㅜㅇㄱㅛㅌㅗㅇ	-12833
▁ㅁㅗㅅㄱㅏ	-12834
▁ㅂㅏㄹㅎㅘ	-12835
▁ㅇㅓㄴㄹㅗㄴㄱㅘ	-12836
ㅋㅣㄱㅏ	-12837
ㅗㅇㅜㄴ	-12838
ㄱㅜㄴㅇㅢ	-12839
▁ㄷㅙㅆㅈㅣ	-12840
▁ㅈㅓㅇㅎㅘㅇ	-12841
▁ㄱㅣㅅㅓㅇ	-12842
▁ㄸㅏㅇㅇㅡㄹ	-12843
▁ㄱㅙㄴㅊㅏㄶㅇㅡㄴㄷㅔ	-12844
▁ㅆㅏㅇㅝ	-12845
▁ㅆㅏㅇㅜ	-12846
▁ㅌㅡㄱㅇㅣ	-12847
▁ㅁㅏㄱㅁㅏㄹ	-12848
▁ㅇㅓㄴㅈㅔㄴㄱㅏㄴㅡㄴ	-12849
ㅈㅏㄶㄴㅑ	-12850
▁ㅆㅡㅇ	-12851
ㄷㅏㄹㅏ	-12852
ㅅㅜㄴㅇㅣ	-12853
▁ㅅㅜㅁㅇㅓ	-12854
ㅉㅓㅂ	-12855
▁ㄱㅏㅁㅇㅗㄱㅇㅔ	-12856
▁ㅌㅏㄴㅎㅐㄱㅇㅡㄴ	-12857
ㄹㅔㄴ	-12858
▁ㅂㅐㅅㅗㅇ	-12859
▁ㅇㅣㄴㅅㅐㅇㅇㅢ	-12860
▁ㄷㅜㅂㅐ	-12861
ㅈㅣㅇㅏㄶㅇㅡㅁ	-12862
▁ㄱㅓㄱㅈㅓㅇㅇㅣ	-12863
▁ㅅㅏㅁㅅㅓㅇㅈㅓㄴ	-12864
ㄴㅏㅈㅣ	-12865
ㅇㅐㄴㅡㄴ	-12866
▁ㄱㅡㄹㅓㄴㄱㅓㄹ	-12867
▁ㄷㅗㄲㅐㅂㅣㄴㅡㄴ	-12868
ㅐㄹㅏ	-12869
--------	-12870
▁ㅁㅣㅎㅗㄴ	-12871
▁ㅅㅏㄹㅇㅣ	-12872
▁ㅇㅝㄴㄹㅜㅁ	-12873
ㄱㅓㄱㅏㅌㅇㅏ	-12874
▁ㅂㅏㄷㅇㅏㄷㅗ	-12875
▁ㅎㅐㅇㅑㅎㅏㅁ	-12876
▁ㅅㅏㄹㅏㅁㄷㅡㄹㅁㅏㄴ	-12877
▁ㅅㅐㄲ	-12878
▁ㅈㅓㄱㅡㅁ	-12879
▁ㄴㅐㄹㅣㅁㅕㄴ	-12880
▁ㅇㅏㅁㅗㄹㄹㅏㅇ	-12881
▁ㅁㅔㄹㅡㅅㅡ	-12882
▁ㅂㅣㅇㅘㅇㅣ	-12883
▁ㅁㅏㄹㅈㅏㅇㄴㅏㄴ	-12884
ㄷㅐㄴㅣ	-12885
ㅇㅣㄴㄱㅜ	-12886
▁ㅈㅐㅈㅓㅇ	-12887
ㅂㅕㄴㄱㅕㅇ	-12888
▁ㅁㅔㅁㅂㅓㄷㅡㄹㅇㅣ	-12889
ㄷㅗㄴㅣ	-12890
▁ㄷㅣㅈㅔㄹㅊㅏ	-12891
▁ㅂㅣㅇㅗㄴㅡㄴ	-12892
▁ㅇㅏㅇㅣㅌㅔㅁ	-12893
▁ㅅㅏㅁㅅㅓㅇㅈㅔㅍㅜㅁ	-12894
▁ㅈㅜㄱㅏㄴ	-12895
ㅜㅌ	-12896
ㅊㅏㄱㅔ	-12897
ㅁㅔㄷㅏㄹ	-12898
▁ㅇㅕㄱㅅㅏㅇㅢ	-12899
ㄷㅗㄱㅈㅐ	-12900
▁ㅈㅏㄱㅈㅓㄴ	-12901
▁ㅊㅐㄱㅇㅡㄹ	-12902
▁ㄱㅐㅇㅣㄴㅈㅓㄱㅇㅣㄴ	-12903
▁ㅈㅓㅇㅅㅣㄴㅊㅏㄹㅣㄹ	-12904
▁800	-12905
▁ㅆㅣㄴ	-12906
▁ㄴㅐㄹㅏ	-12907
▁ㅁㅜㄹㅇㅔ	-12908
▁ㅂㅗㅅㅣㄴ	-12909
▁ㅃㅓㅇㅌㅟ	-12910
▁ㅁㅓㅅㅈㅣㅁ	-12911
▁ㅊㅜㄹㅇㅣㅂ	-12912
▁ㅌㅜㅇㅐㄴㅣ	-12913
▁ㅇㅝㄹㄱㅡㅂㅇㅣ	-12914
ho	-12915
ㅁㅜㄴㅇㅡㄹ	-12916
ㅕㅇㅑㅈㅛ	-12917
▁ㅁㅏㄹㅡㄴ	-12918
▁ㅁㅕㅇㅁㅗㄱ	-12919
▁ㅈㅡㄹㄱㅓㅂㄱㅔ	-12920
ㅈㅣㅂㄷㅗ	-12921
ㅂㅏㄹㅇㅓㄴ	-12922
ㅅㅣㅋㅣㄷㅡㄹ	-12923
ㅎㅡㅁ	-12924
▁ㅁㅏㄹㅣ	-12925
▁ㄲㅗㄹㅇㅣ	-12926
▁ㅁㅏㄹㅇㅑ	-12927
ㅍㅕㅇㄱㅠㄴ	-12928
▁ㄴㅐㅇㅈㅓㅇ	-12929
▁ㅂㅜㄹㅍㅕㄴㅎㅏㄴ	-12930
▁ㅈㅗㅎㅇㅏㅎㅐㅆㄴㅡㄴㄷㅔ	-12931
ㅕㄱㅇㅡㄹㅗ	-12932
▁ㅎㅏㄱㅅㅐㅇㄷㅡㄹ	-12933
▁ㅂㅏㅇㅇㅓ	-12934
▁ㅎㅘㄹㅇㅑㄱ	-12935
▁ㅇㅏㄴㄱㅏㄱㅗ	-12936
ㄱㅜㄱㅇㅡㄹ	-12937
ㅇㅓㅂㅇㅡㄴ	-12938
▁ㅇㅏㅅㅟㅇㅜㅁ	-12939
ㄱㅏㄱㅗㅇㅣㄴㅇㅢ	-12940
ㅍㅏㄴㅣ	-12941
▁ㅇㅓㅁㅎㅏㄴ	-12942
▁ㅅㅔㄱㅖㅈㅓㄱㅇㅡㄹㅗ	-12943
ㄱㅡㄸㅐ	-12944
▁ㅁㅏㅈㅊㅜ	-12945
ㅎㅐㅅㅓㄴㅡㄴ	-12946
ㅈㅣㄴㄱㅓ	-12947
▁ㅇㅏㅃㅏㄱㅏ	-12948
ㅏㅁㅏㄹ	-12949
▁ㄱㅡㅇㅚ	-12950
▁ㅇㅑㄷㅗㅇ	-12951
▁ㅎㅗㄴㅏㅁ	-12952
▁ㅅㅏㅇㅇㅡㄹ	-12953
▁ㅂㅗㅌㅐ	-12954
ㄱㅏㅁㅏㄴ	-12955
ㅎㅐㅈㅣㅁ	-12956
▁ㄷㅓㄱㅇㅔ	-12957
▁ㅎㅘㅈㅏㅇㅍㅜㅁ	-12958
ㄱㅡㅁㄷㅗ	-12959
pc	-12960
▁ㅁㅜㅅㅏ	-12961
▁ㅈㅓㅇㅎㅘㄱㅎㅏㄱㅔ	-12962
ㅃㅓ	-12963
ㄴㅕㄴㅅㅐㅇ	-12964
▁ㄴㅓㄴㅔㄱㅏ	-12965
ㄹㅣㄴㅡㄴㄱㅓㄴ	-12966
▁ㅁㅣㄹㄱㅗ	-12967
▁ㄷㅗㄹㅇㅏㅇㅗ	-12968
ㅈㅗㅇㅛㅇ	-12969
▁ㅊㅏㅈㄱㅗ	-12970
26	-12971
▁ㅇㅕㄹㅓㅂ	-12972
ㄱㅗㅇㄱㅏㄴ	-12973
nhn	-12974
ㅈㅓㅁㅇㅡㄹㅗ	-12975
▁ㅅㅓㅎㅕㄴㅈㅣㄴ	-12976
ㅂㅜㅈㅏㄱ	-12977
ㅎㅏㄹㅡㄹ	-12978
ㅎㅐㅆㅇㅓㅇㅑㅈㅣ	-12979
▁ㄷㅣㅈㅣ	-12980
▁ㄷㅗㄱㄷㅗ	-12981
ㅎㅏㄹㄹㅕㅁㅕㄴ	-12982
ㅊㅜㄱㅏ	-12983
ㅏㅇㅣㄷㅗㄹ	-12984
ㅅㅐㄹㅗㅁ	-12985
▁ㅁㅝㄹㄹㅗ	-12986
▁ㅂㅓㅂㅇㅏㄴ	-12987
▁ㅅㅗㅈㅐ	-12988
ㅂㅜㄹㄹㅓ	-12989
▁ㅁㅓㄱㄴㅡㄴㄱㅔ	-12990
pp	-12991
ㅇㅓㅇㅢ	-12992
▁ㅂㅏㅇㅅㅏㄴㅡㅇ	-12993
▁ㅇㅣㅈㅣ	-12994
▁ㅈㅗㅋㅏ	-12995
ㅈㅕㅆㅇㅓ	-12996
ㅁㅏㅅㅣㄱㅗ	-12997
▁ㅇㅣㄹㅇㅡㅋ	-12998
▁ㅂㅗㄴㅇㅣㄴㄷㅡㄹㅇㅣ	-12999
ㄴㅏㄱㅣ	-13000
▁ㄱㅓㄷㅡㅂ	-13001
ㄱㅓㅆㄷㅏ	-13002
▁ㅈㅣㅅㄱㅗ	-13003
▁ㄷㅐㅂㅏㄱㅇㅣㄷㅏ	-13004
sid	-13005
ㅂㅓㅌ	-13006
▁ㅁㅣㅁㅗ	-13007
▁ㄱㅓㄹㅏㄱㅗ	-13008
▁ㄷㅓㅇㅜㄱㄷㅓ	-13009
ㅇㅓㅇㅕ	-13010
ㅆㅣㄹㅏㅇ	-13011
▁ㄱㅏㅁㅅㅗ	-13012
▁ㅂㅓㄹㅡㅅ	-13013
▁ㅍㅐㄴㅓㄹ	-13014
▁ㄸㅗㄷㅏㅅㅣ	-13015
▁ㄱㅡㄹㄱㅜ	-13016
▁ㅂㅜㄹㄹㅓㅅㅓ	-13017
▁ㄱㅏㄴㅡㅇㅎㅏㄷㅏ	-13018
▁ㄷㅗㅇㄹㅛ	-13019
▁ㄴㅗㅂㅔㄹㅅㅏㅇ	-13020
ecd	-13021
▁ㅍㅣㄱ	-13022
▁ㅈㅗㅇㄹㅠ	-13023
▁ㅍㅕㄴㄱㅕㄴ	-13024
▁ㅈㅛ	-13025
ㄱㅅㅡ	-13026
ㅇㅓㅁㅓㄱ	-13027
▁ㄴㅐㄹㅕㅇㅘㄹㅏ	-13028
▁ㅁㅏㄹㄹㅏㄴㅡㄴ	-13029
▁ㅇㅏㄹㅡㅁㄷㅏㅇ	-13030
▁ㅈㅏㄹㅁㅗㅅㅇㅡㄴ	-13031
ㄱㅡㄱㅓㄴ	-13032
▁ㄴㅗㅅㅓㄴ	-13033
▁ㄴㅏㅂㅍㅜㅁ	-13034
am	-13035
▁ㄱㅏㅇㅘㅇ	-13036
▁ㅈㅜㅇㅟㅇㅔ	-13037
ㅋㅗㅅ	-13038
▁ㅉㅣㅇ	-13039
ㅕㄹㄱㅘ	-13040
▁~~~~	-13041
ㅎㅏㄹㅅㅜㄱㅏ	-13042
▁ㄱㅐㅋㅗㄴ	-13043
ㅎㅐㅅㅓㄴ	-13044
▁ㅇㅜㄹㅣㄹㅡㄹ	-13045
▁ㄱㅓㅈㅜ	-13046
▁ㅋㅗㅁㅣㄷㅣ	-13047
▁ㄱㅡㄸㅐㄴㅡㄴ	-13048
▁ㅁㅗㅅㅎㅏㄴㅑ	-13049
ㅅㅣㅁㅎㅏㄴ	-13050
ㅇㅔㅅㅓㅇㅢ	-13051
▁ㅈㅓㄹㅕㅁㅎㅏㄴ	-13052
ㄷㅡㄹㅏㅁㅏㄴㅡㄴ	-13053
▁ㅃㅐㅁㅓㄱ	-13054
▁ㄱㅏㄴㅅㅓㅂ	-13055
▁ㅇㅕㅁㅂㅕㅇㅎㅏㄴㅔ	-13056
▁ㅅㅣㄴㅇㅣㅂ	-13057
ㅊㅣㅂ	-13058
ㄷㅓㄹㅓ	-13059
ㄱㅘㅎㅏㄱ	-13060
▁ㄴㅗㅈㅓㅁ	-13061
▁ㅁㅓㄹㅇㅓ	-13062
ㄴㅕㄴㅇㅣㄷㅏ	-13063
▁ㅇㅗㅁㅏㄴ	-13064
ㄷㅚㄴㄷㅏㅁㅕㄴ	-13065
▁ㅇㅕㅇㅑ	-13066
▁ㅇㅟㅎㅏㅇㅕ	-13067
▁ㄷㅗㄹㅇㅏㄱㅏㄹ	-13068
ㅌㅡㄷㅗ	-13069
ㅂㅗㄱㅘㄴ	-13070
ㅈㅣㄷㅡㄹㅇㅣ	-13071
▁ㅈㅣㅂㄱㅜㅅㅓㄱ	-13072
▁ㅋㅕ	-13073
▁ㅆㅡㅁ	-13074
ㅂㅗㄱㅇㅣ	-13075
▁ㄱㅣㅁㅎㅢㅊㅓㄹ	-13076
▁ㅈㅏㄹㅣㅇㅔㅅㅓ	-13077
▁ㅈㅗㅎㄱㅔㅆㅇㅡㅁ	-13078
ㅇㅡㄴㅣㄲㅏㄴ	-13079
▁ㄱㅕㅇㅜㄹㅇㅔ	-13080
▁ㅅㅏㅁㅅㅓㅇㅇㅔㅅㅓ	-13081
▁ㅉㅣㅈ	-13082
ㄹㅓㄱㅏ	-13083
ㅇㅕㄱㅎㅏㄹ	-13084
▁ㅈㅔㅇㅘ	-13085
▁ㄷㅗㄹㄱㅗ	-13086
ㅅㅣㄱㅜㅇㅛ	-13087
▁ㅅㅗㄹㅣㅎㅏㄴㅔ	-13088
ro	-13089
▁ㅈㅗㅇㅇㅣ	-13090
ㅗㅅㅣㄴ	-13091
▁ㄱㅕㅇㅇㅜㄷㅗ	-13092
▁ㅈㅓㅇㅅㅣㄴㅈㅗㅁ	-13093
ㄱㅓㅅㄷㅗㅇㅏㄴㅣㄱㅗ	-13094
ㅇㅓㄹㅕㅇ	-13095
ㅈㅏㅇㅇㅢ	-13096
▁ㄱㅏㅇㅈㅗ	-13097
ㄴㅏㅇㅗㄴㅔ	-13098
▁ㄷㅐㅎㅐㅅㅓㄴㅡㄴ	-13099
ㄱㅏㅌㅇㅡㄴㅅㅗㄹㅣ	-13100
ㄱㅗㅇㅘ	-13101
ㄲㅓㅇㅣㅁ	-13102
▁ㄱㅖㅇㅕㄹ	-13103
▁ㅁㅗㅇㅣㅁ	-13104
▁ㄷㅡㄹㅏㅁㅏㅇ	-13105
▁ㅈㅏㄹㅣㄹㅡㄹ	-13106
▁ㄱㅗㅇㅎㅘㄱㅜㄱ	-13107
▁ㄱㅕㅂ	-13108
▁ㅎㅕㅇㅌㅐ	-13109
▁ㅍㅣㅇㄱㅖㄹㅗ	-13110
▁ㅈㅜㅇㄱㅜㄱㅎㅏㄴㅌㅔ	-13111
ㅆㅣㄱㅇㅣㄴㅏ	-13112
▁pc	-13113
ㅡㅅㅑ	-13114
▁ㄱㅣㄱㅣ	-13115
ㅎㅏㄹㄲㅔ	-13116
▁ㄱㅏㄱㅕㄹ	-13117
▁ㅇㅐㅆㅡㄴㄷㅏ	-13118
▁ㅈㅓㄴㅅㅣ	-13119
▁ㄷㅏㄴㅣㅁㅕㄴㅅㅓ	-13120
ㄱㅓㄹㄹㅕ	-13121
▁ㅅㅣㄴㄱㅠ	-13122
▁ㅊㅜㄱㅈㅔ	-13123
▁ㅂㅓㅌㅣㄴㅡㄴ	-13124
▁ㄱㅣㅅㅐㅇㅊㅜㅇ	-13125
▁ㅉㅣㅂ	-13126
▁ㅇㅗㅌㅗ	-13127
▁ㅃㅏㅈㅣㄹ	-13128
▁ㅊㅜㄱㄱㅜ	-13129
▁ㄷㅡㄱㅅㅣㄹ	-13130
▁ㅁㅏㅈㅇㅡㄴ	-13131
▁ㅂㅣㅅㅓ	-13132
ㄱㅏㄷㅡㄹ	-13133
▁ㅈㅜㅎㅐㅇ	-13134
ㅇㅣㄴㄱㅏㄴㅇㅣ	-13135
▁ㅈㅐㅅㅏㄴㅇㅡㄹ	-13136
ㄴㅕㄴㅇㅔㄴㅡㄴ	-13137
▁ㅇㅓㄹㄱㅜㄹㅇㅡㄹ	-13138
ㅊㅟㅅㅗ	-13139
▁ㅍㅏㄹㅣ	-13140
ㅊㅐㄱㅇㅡㄹ	-13141
ㅊㅡㅇㅇㅡㄴ	-13142
▁ㄱㅘㄴㅎㅏㄴ	-13143
▁ㅅㅗㅂㅣㄱㅏ	-13144
▁ㅁㅣㅅㅓㅇㄴㅕㄴ	-13145
▁ㅇㅕㄱㅅㅏㄴㅡㄴ	-13146
▁ㅁㅗㄹㅡㅁㅕㄴㅅㅓ	-13147
▁ㅇㅜㅅㅜ	-13148
▁ㅊㅣㅁㅕㅇ	-13149
ㅜㅈㅏㅇㅊㅏㅇ	-13150
▁ㅂㅏㄲㅜㅁㅕㄴ	-13151
▁ㅂㅣㄹㅗㅅㅎㅏㄴ	-13152
▁ㄴㅏㅈㅊ	-13153
ㄱㅏㅌㅈㅣ	-13154
ㄱㅏㅌㅡㄴ	-13155
▁ㄴㅏㅁㅈㅏㄴ	-13156
▁ㄴㅏㅇㅁㅏㄴ	-13157
▁ㅃㅏㄹㄱㅐㅇㅇㅣㄷㅡㄹ	-13158
ㅜㄱㅇㅣ	-13159
ㅅㅜㅊㅜㄹ	-13160
▁ㄷㅚㄹㅅㅜ	-13161
ㄹㅣㄹㄷㅡㅅ	-13162
▁ㅇㅡㅇㄷㅏㅂ	-13163
▁ㄱㅗㅌㅗㅇㅇㅡㄹ	-13164
▁ㅂㅏㄹㅇㅏㄱㅇㅡㄹ	-13165
▁ㅇㅣㄹㅗㄴ	-13166
▁ㅎㅜㅇㅝㄴ	-13167
▁ㅇㅓㅇㄸㅜㅇㅎㅏㄴ	-13168
ㅇㅐㅍㅡㄹ	-13169
▁ㅎㅘㄴㅇㅠㄹ	-13170
▁ㅁㅣㄱㅜㄱㄱㅘ	-13171
▁ㅁㅜㅈㅏㄱㅈㅓㅇ	-13172
▁ㅂㅗㅇㅕㅈㅜㄱㅗ	-13173
▁ㅁㅐㅁㅐ	-13174
▁ㄱㅜㄱㅏㄴ	-13175
▁ㅁㅣㄷㅈㅣ	-13176
ㅇㅣㄴㄷㅣ	-13177
▁ㄱㅏㅈㅜㅇ	-13178
▁ㅇㅝㄴㅌㅏㅂ	-13179
ㅅㅣㅈㅏㅇㅇㅣ	-13180
ㅇㅏㅇㅢ	-13181
ㅎㅏㄴㅈㅓㄴ	-13182
ㅊㅣㅇㅘ	-13183
▁ㅈㅗㅊㅏ	-13184
▁ㄱㅗㅅㅡㄹ	-13185
▁ㄸㅓㄹㄱㅗ	-13186
▁ㄸㅟㅇㅓㄴㅏㄴ	-13187
▁ㅁㅏㄶㅇㅣㄷㅡㄹ	-13188
▁ㅇㅗㄹㄹㅏㄱㅏㄹ	-13189
▁ㅊㅕㄷㅗ	-13190
▁ㄷㅏㄱㄱㅡㄴㅔ	-13191
▁ㅁㅗㅅㅎㅏㄴㅔ	-13192
▁ㅅㅐㅇㄱㅕㅅㅓ	-13193
▁ㅂㅏㅇㅅㅣㄱ	-13194
▁ㄴㅡㄲㅣㄴㄷㅏ	-13195
▁ㅎㅏㄴㅡㄴㄱㅓㅇㅑ	-13196
ㄱㅓㄴㅅㅓㄹ	-13197
▁ㅅㅐㅇㄱㅣㅁ	-13198
ㄷㅚㄴㅡㄴㅈㅣ	-13199
ㅋㅡㄱㅗ	-13200
▁ㅁㅏㄴㄷㅡㄹㄱㅣ	-13201
▁ㅈㅣㅊㅏㅇㅇㅜㄱ	-13202
▁ㄱㅘㄴㅅㅣㅁㅇㅓㅄㄷㅏ	-13203
ㄱㅔㅁ	-13204
▁ㅁㅣㄹㅕㄴ	-13205
▁ㅊㅗㅇㄹㅣ	-13206
ㅂㅜㄹㅂㅓㅂ	-13207
ㅁㅏㄴㅇㅡㄹㅗㄷㅗ	-13208
ㅇㅏㅆㅇㅡㄹ	-13209
▁ㅆㅏㅇㅇㅛㄱ	-13210
ㅅㅣㄱㅏㄴㅇㅡㄹ	-13211
▁ㄱㅏㅈㅕㄷㅏ	-13212
▁ㄱㅏㄸㅡㄱㅇㅣㄴㅏ	-13213
ㅈㅜㅇㄷㅏㄴ	-13214
▁ㅅㅏㄹㅊㅓㅂㅜㄴ	-13215
▁ㅇㅛㄱㅁㅓㄱㄱㅗ	-13216
ㅎㅏㄱㅗㄴ	-13217
▁ㅂㅐㅅㅏㅇ	-13218
▁ㅅㅏㄹㅏㅁㄱㅘ	-13219
ㅎㅏㄹㄱㅓㅁㅕㄴ	-13220
▁ㅇㅑㅁ	-13221
▁ㅅㅣㅂㅏ	-13222
▁ㅇㅣㅃㅏㄹ	-13223
▁ㄱㅐㄴㅜㄹ	-13224
▁ㅈㅗㅇㅅㅏ	-13225
ㄷㅏㄴㅔㅇㅛ	-13226
▁ㄷㅐㄱㅣㅇㅓㅂㅇㅔ	-13227
ㄷㅏㄴㅑ	-13228
▁ㄱㅔㅇㅣ	-13229
▁ㅊㅚㅈㅓㄱ	-13230
▁ㄴㅜㄴㄱㅏㄹㅣㄱㅗ	-13231
ㅅㄷㅡㄴ	-13232
▁ㄱㅡㄹㅡㅅ	-13233
▁ㅇㅏㄴㅇㅗ	-13234
▁ㅇㅏㅇㅜㄹ	-13235
▁ㅊㅜㄴ	-13236
ㅊㅗㅂㅏㄴ	-13237
▁ㅇㅓㄴㅇㅓ	-13238
▁ㅇㅣㄱㅜㄱㅈㅜ	-13239
▁ㅇㅓㅇㅣㅇㅓㅄㄷㅏ	-13240
▁ㅈㅏㅅㅣㄴㄷㅡㄹㅇㅢ	-13241
ㅂㅜㅂㅜ	-13242
▁ㅂㅏㅇㅈㅣ	-13243
▁ㅅㅣㄴㅎㅗ	-13244
ㅅㅐㅇㄷㅡㄹ	-13245
ㅅㅜㄹㅏㄱㅗ	-13246
ㅕㅆㄷㅏㅁㅕㄴ	-13247
▁ㅂㅏㄷㅇㅡㅁㅕㄴㅅㅓ	-13248
ㅊㅔㄹㅗ	-13249
ㅎㅐㅂㅗㄱㅗ	-13250
▁ㅈㅓㄴㅎㅕㄴ	-13251
▁ㅌㅏㄴㅌㅏㄴ	-13252
ㅈㅣㄹㅎㅏㄱㅗ	-13253
▁ㅁㅏㄱㅇㅏㅇㅑ	-13254
ㅁㅏㄴㅇㅝㄴㅇㅡㄹㅗ	-13255
▁ㅅㅏㅇㄱㅘㄴㅇㅓㅄㄴㅡㄴ	-13256
-3	-13257
ore	-13258
ㅁㅏㄹㅇㅣㄷㅏ	-13259
ㅎㅐㅆㅇㅡㄹㅌㅔㄴㄷㅔ	-13260
ㅈㅡㄴㅡㄴ	-13261
▁ㄷㅏㅇㅡㅁㄴㅏㄹ	-13262
▁ㅂㅗㄴㅐㄹ	-13263
▁ㅇㅣㄷㅡㄹ	-13264
▁ㅋㅋㅋㅋㅋㅋㅋㅋㅋㅋㅋㅋㅋㅋ	-13265
▁ㄴㅗㄱㅏㄷㅏ	-13266
▁ㄴㅏㅁㅈㅏㄹㅡㄹ	-13267
ㅐㄲㅣ	-13268
ㅅㅏㄹㄷㅏ	-13269
ㅊㅏㄴㅅㅓㅇ	-13270
▁ㅇㅏㄴㅣㄷㅓㄹㅏㄷㅗ	-13271
ㅈㅣㅈ	-13272
ㄹㅣㅁㅏㄴ	-13273
▁ㅅㅣㄱㅣㅇㅔ	-13274
▁ㅇㅑㄱㅎㅏㄴ	-13275
ㅈㅓㄹㄹㅗ	-13276
ㅏㄴㅡㄴㄱㅓㅈㅣ	-13277
ㅇㅣㅂㅓㄹ	-13278
ㅌㅚㅈㅣㄴ	-13279
27	-13280
ㅅㅜㅈㅡㅇ	-13281
ㅇㅜㄹㅡㄹ	-13282
▁ㅁㅗㅅㅜㄴ	-13283
▁ㅊㅚㅁㅣㄴ	-13284
▁ㅅㅗㄴㅈㅏㅂㄱㅗ	-13285
?....	-13286
▁ㅊㅜㄱㅅㅗ	-13287
ㅇㅏㄴㅈㅓㄴ	-13288
▁ㄱㅜㄱㅅㅏㄴㅊㅏ	-13289
ㅇㅏㅃㅏ	-13290
▁ㄴㅔㄱㅏ	-13291
▁ㄷㅐㄹㅠㄱ	-13292
▁ㄴㅏㅁㅈㅏㄷㅗ	-13293
ㅇㅏㅇㅓ	-13294
ㄷㅐㅇㅘㅇ	-13295
ㅇㅓㄱㅇㅔ	-13296
ㅇㅏㄴㄷㅚㅁ	-13297
ㅎㅓㄴㄴㅏㄹ	-13298
▁ㄱㅓㄲㅜㄹㅗ	-13299
▁ㅈㅓㄴㅊㅓㄹ	-13300
▁ㅈㅓㅇㅊㅣㅇㅣㄴㄷㅡㄹㅇㅣ	-13301
▁ㄱㅏㅊㅏㅇ	-13302
▁ㄱㅣㅅㅏㅎㅘ	-13303
▁ㄴㅏㅁㅂㅜㄱ	-13304
▁ㅁㅕㅇㄷㅗㅇ	-13305
▁ㅇㅗㅇㅎㅗㅎㅏㄴㅡㄴ	-13306
▁ㅇㅕㅈㅏㅇㅢ	-13307
▁ㅁㅣㄱㅜㄱㄷㅗ	-13308
..!!	-13309
ㅊㅣㅇㅔ	-13310
ㄱㅝㄴㅇㅔ	-13311
▁ㅇㅏㅍㅡㄷㅏ	-13312
▁ㅇㅑㄹ	-13313
ㅅㅔㅅㅡㅂ	-13314
▁ㅂㅓㅂㄷㅗ	-13315
▁ㅅㅓㄹㄹㅣㅂ	-13316
ㄴㅏㅃ	-13317
▁ㅇㅏㅁㅜㅅ	-13318
ㅈㅏㄹㅏㅅㅓ	-13319
ㅝㄴㅇㅡㄴ	-13320
▁ㅈㅓㅇㄷㅗㄲㅓㅅ	-13321
ㅆㅡㄴㅔ	-13322
ㅊㅣㄴㅣ	-13323
ㄱㅗㅅㅇㅡㄹㅗ	-13324
▁180	-13325
▁ㄱㅣㄲㅓㅅ	-13326
ㅅㅜㄴㅎㅘㄴ	-13327
!!!!!!!!!!	-13328
▁ㄴㅏㅇㅗㄴㅡㄴㄱㅔ	-13329
ㅅㅗㄹㅣㄷㅗ	-13330
▁ㄴㅓㄷㅗㄴㅏㄷㅗ	-13331
▁ㅇㅕㅂ	-13332
ㄴㅐㄹㅏ	-13333
▁ㄱㅡㄱㅏ	-13334
▁ㅇㅣㅈㅔㅅㅓㅇㅑ	-13335
▁ㅉㅏㅇㄲㅐㄷㅡㄹ	-13336
▁ㄴㅡㄺㅇㅓㅅㅓ	-13337
▁ㅈㅓㅇㅅㅣㄴㅁㅗㅅㅊㅏㄹ	-13338
ㅂㅗㅈㅏㅇ	-13339
ㅇㅣㅈㅜㄴ	-13340
▁ㅈㅣㅋㅕㅇㅑ	-13341
▁ㅌㅏㄹㄹㅏㄱ	-13342
▁ㅇㅣㅆㅇㅡㅁㅕㄴㅅㅓ	-13343
▁ㅇㅜㅁㅈㅣㄱㅇㅣㄴㅡㄴ	-13344
▁ㄱㅐㄴㅡㄴ	-13345
ㄱㅜㄷ	-13346
▁ㅎㅢㄷㅐㅇㅢ	-13347
▁ㄱㅗㅇㅈㅓㄱㅈㅏㄱㅡㅁ	-13348
ㅍㅣㅅ	-13349
ㅎㅏㅁㅡㄴ	-13350
▁ㅌㅓㅈㅕㅆ	-13351
▁ㅅㅏㄹㅇㅏㄱㅏ	-13352
▁ㄷㅏㄱㅏ	-13353
ㅅㅗㄱㄷㅗ	-13354
▁ㄱㅏㅇㄹㅕㄱㅎㅏㄱㅔ	-13355
▁ㅈㅐㅁㅣㅆㅇㅓㅇㅛ	-13356
▁ㄷㅜㄹㅕㅇㅝ	-13357
ㅜㅅㅡㄴ	-13358
▁ㅂㅗㄹㄱㅔ	-13359
▁ㅍㅏㄹㅏㄴ	-13360
▁ㄴㅗㅇㄹㅏㄱ	-13361
▁ㅎㅗㅇㅅㅏㅇㅅㅜ	-13362
ㅋㅋㅋㅋㅋㅋㅋㅋㅋㅋㅋㅋㅋㅋ	-13363
▁ㅅㅡㅇㅂㅜ	-13364
▁ㄲㅗㄹㄹㅏㅇ	-13365
▁ㅇㅓㅂㄷㅔㅇㅣㅌㅡ	-13366
iew	-13367
ㄷㅡㅇㅇㅔ	-13368
ㅁㅕㄴㅈㅔ	-13369
ㄱㅏㅅㅡ	-13370
▁ㄱㅡㄷㅡㄹ	-13371
▁ㅇㅑㄱㅈㅓㅇ	-13372
▁ㄱㅏㄴㄷㅏㄱㅗ	-13373
ㅎㅏㄴㅅㅣㅁㅎㅏㄴ	-13374
▁ㄱㅣㅇㅕ	-13375
ㅎㅐㄴㅡㄴ	-13376
ㅇㅣㅁㅅㅡㅇ	-13377
▁ㅇㅏㄴㅆㅡㄴㅡㄴ	-13378
▁ㄱㅜㄱㅁㅣㄴㄱㅓㄴㄱㅏㅇ	-13379
▁ㅆㅛ	-13380
ㄱㅐㄹㅡㄹ	-13381
ㅌㅗㅇㅇㅡㄹ	-13382
▁ㅂㅗㅈㅣㄷㅗ	-13383
▁ㅎㅏㅈㅣㄷㅗ	-13384
▁ㅅㅣㅇㅝㄴㅎㅏㄴ	-13385
kg	-13386
▁ㅈㅗㄹㅠ	-13387
ㄷㅏㄱㅏㄷㅗ	-13388
▁of	-13389
▁ㅇㅏㄴㄴㅏㅇㅗㄴ	-13390
▁ㅂㅏㅇㅣ	-13391
▁ㅂㅗㄱㅁㅕㄴㄱㅏㅇㅘㅇ	-13392
oid	-13393
ㄱㅐㄴㅕㅁ	-13394
▁ㅁㅐㄱㄹㅏㄱ	-13395
ㄷㅏㅎㅐㅇ	-13396
▁ㅈㅡㅇㅁㅏㄹ	-13397
ㅘㅆㄷㅓㄴ	-13398
▁ㅇㅏㄲㅕㅆ	-13399
ㅅㅗㄹㅣㄹㅡㄹ	-13400
▁ㅈㅣㄷㅡㄹㄷㅗ	-13401
ㅂㅜㅈㅏㅇㄱㅘㄴ	-13402
ㅇㅣㅆㄷㅓㄴㄷㅔ	-13403
▁ㅂㅣㅇㅗㄴㄷㅏㄱㅗ	-13404
▁ㅇㅏㄱㅍㅡㄹㄷㅏㄹ	-13405
28	-13406
ㅁㅏㄶㄴㅔ	-13407
ㄹㅣㄹㅏㄱㅗ	-13408
▁ㄸㅢㅇㅝ	-13409
▁ㅌㅚㅁㅜㄹ	-13410
▁ㅍㅣㄹㅡㄹ	-13411
▁ㅎㅐㅆㅇㅓ	-13412
▁ㄷㅐㄱㅏㄹㅣㅇㅔ	-13413
▁ㅇㅓㅈㅔㄴㅡㄴ	-13414
▁ㄷㅓㅁㅣㄴ	-13415
ㄷㅡㅇㅇㅡㄴ	-13416
▁ㅃㅗㅂㅇㅏㅅㅓ	-13417
▁ㅈㅗㅎㅇㅏㅎㅏㄹ	-13418
ㅆㅇㅓㄷㅗ	-13419
▁ㅈㅓㄴㄹㅏ	-13420
▁ㄱㅓㅅㅂㅗㄷㅏ	-13421
▁ㅈㅗㅎㄷㅏㄴㅡㄴ	-13422
▁ㄱㅘㅅㅣㄹ	-13423
▁ㅇㅣㅁㅏㄴ	-13424
ㅎㅏㄱㅓㄷㅡㄴ	-13425
▁ㅇㅣㅂㅇㅡㄹㅗ	-13426
▁ㄴㅘㄷㅜㄱㅗ	-13427
ㅁㅏㄴㅇㅣㄹㅏㄷㅗ	-13428
▁ㄷㅏㅂㄷㅏㅂㅎㅏㄴ	-13429
ㅇㅗㅎㅣㄹㅕ	-13430
ㅑㅁㅏㄹㄹㅗ	-13431
▁ㅂㅏㄴㅊㅏㄴ	-13432
ㅎㅗㅇㅢ	-13433
ㅂㅗㄹㅏㄱㅗ	-13434
ㄸㅐㄱ	-13435
ㅇㅣㅈ	-13436
▁ㅈㅗㅅㅔ	-13437
▁ㅇㅚㅅㅣㄱ	-13438
▁ㅋㅐㄹㅣㄱㅌㅓㄱㅏ	-13439
▁ㄱㅣㅅㅏㅇㅊㅓㅇㅇㅣ	-13440
▁ㄷㅚㅇㅓㅆㅇㅡㅁㅕㄴ	-13441
▁ㄱㅐㄷㅗ	-13442
▁ㄱㅡㅂㄱㅡㅂ	-13443
ㄷㅜㄱㅏㄱ	-13444
ㅅㅡㅌㅡㄹㅗ	-13445
ㅇㅏㄶㄴㅡㄴ	-13446
▁ㅂㅓㄹㅇㅡㄹ	-13447
▁ㅇㅒㄱㅣㄹㅡㄹ	-13448
▁ㅇㅓㄹㅁㅏㅇㅏㄴ	-13449
tic	-13450
▁ㅅㅏㄹㅏㅈㅣㄱㅗ	-13451
▁ㅍㅛㅊㅏㅇ	-13452
▁ㅎㅏㄴㅡㄴㄱㅏ	-13453
▁ㄱㅓㄱㅈㅓㅇㅇㅣㄷㅏ	-13454
▁ㅎㅏㄴㄱㅜㄱㅇㅣㄴㅇㅣ	-13455
▁198	-13456
ㅇㅜㅂㅕㅇ	-13457
▁ㅈㅣㅊㅜㄹ	-13458
ㅊㅏㅇㅣㅈㅡ	-13459
▁ㅈㅜㅇㄹㅣㅂ	-13460
(,	-13461
ㅅㅗㄴㅕ	-13462
▁ㄷㅜㄷㅏㄹ	-13463
▁ㅇㅣㅂㄷㅐ	-13464
▁ㅃㅗㅂㅇㅡㄹ	-13465
▁ㅌㅣㅇㅏㄹㅏ	-13466
▁ㅇㅛㄱㅎㅏㅈㅣ	-13467
ㅇㅣㄹㅅㅜㄹㅗㄱ	-13468
ㅂㅗㅇㅣㄴㅡㄴㄷㅔ	-13469
PC	-13470
ㅎㅐㅇㅑㅎㅏㄴㅡㄴㄷㅔ	-13471
▁,,,	-13472
▁ㅈㅣㅎㅖ	-13473
ㅅㅓㄴㅇㅓㄴ	-13474
▁ㅎㅏㄹㅈㅣㅅ	-13475
▁ㅈㅓㅇㅅㅣㄴㅈㅓㄱ	-13476
▁ㅇㅣㅇㅛㅇㅎㅏㄴㅡㄴ	-13477
▁ㅈㅗㅎㅇㅏㅆㅇㅓㅇㅛ	-13478
ㄹㅑㅇㅎㅏㄴ	-13479
ㅇㅓㄷㅣㅅㅓ	-13480
▁ㅁㅣㄴㅅㅣㅁ	-13481
▁ㅈㅜㅇㅣㄴㅇㅣ	-13482
ㅇㅣㅁㅣㄴ	-13483
▁ㅈㅐㄷㅏㄴ	-13484
ㅊㅣㅎㅏㄴ	-13485
▁ㅁㅣㅌㅇㅔㅅㅓ	-13486
ㄹㅓㄴㅏ	-13487
▁ㅂㅗㄹㅅㅜㄹㅗㄱ	-13488
▁ㅂㅐㅂㅜㄹㅡㄴ	-13489
▁ㅇㅣㄹㅂㅗㄴㄷㅗ	-13490
ㅇㅓㅄㅇㅓㄷㅗ	-13491
▁ㅁㅗㅂㅏㅇㅣㄹ	-13492
▁ㅊㅗㅅㅂㅜㄹㅇㅡㄴ	-13493
ㄷㅐㅇㅜ	-13494
ㅅㅡㅁㅐㄴ	-13495
ㄷㅚㅇㅓㅅㅓ	-13496
ㅎㅏㄹㄸㅐㄱㅏ	-13497
▁ㅇㅏㅂㅓㅈㅣㄱㅏ	-13498
▁ㅇㅕㄴㅇㅖㅇㅣㄴㄷㅡㄹㅇㅣ	-13499
▁ㄲㅣㅇㅓ	-13500
ㄱㅓㅁㅕㄴㅅㅓ	-13501
ㅇㅏㄴㅎㅏㄴㅡㄴ	-13502
▁ㅇㅣㄹㅡㅁㅇㅡㄴ	-13503
▁ㅈㅐㄴㅏㄴ	-13504
ㄱㅕㅇㅇㅣ	-13505
▁ㄲㅡㅌㄴㅏㅆㄷㅏ	-13506
▁ㄱㅡㅉㅗㄱ	-13507
▁ㅇㅠㄱㅇㅏ	-13508
▁ㅈㅓㄴㅁㅐ	-13509
▁ㅈㅗㅇㅎㅏㅂ	-13510
ㄴㅕㄴㅇㅏㄴㅇㅔ	-13511
▁ㅇㅏㄴㅏㅇㅜㄴ	-13512
▁ㅇㅓㅇㅣㅇㅓㅄㄴㅔ	-13513
ㅅㅏㄹㅇㅔ	-13514
▁ㅇㅗㄹㄹㅏㅅㅓ	-13515
▁ㅇㅏㄹㅡㅁㄷㅏㅂ	-13516
ㅂㅗㄲ	-13517
▁ㅊㅓㄹㄱㅓ	-13518
▁ㅇㅣㅆㅇㅓㅆㄴㅏ	-13519
ㅌㅣㄱ	-13520
ㄲㅏㄴㅏ	-13521
▁ㅇㅣㄹㅅㅏㅁ	-13522
▁ㅈㅜㅊㅏㅈㅏㅇ	-13523
▁ㄱㅕㄹㅎㅗㄴㅎㅏㄴ	-13524
▁ㄱㅡㄹㅐㅆㄴㅡㄴㄷㅔ	-13525
ㅁㅕㅇㄷㅗ	-13526
▁ㅇㅏㄶㅈㅣ	-13527
▁ㅇㅗㄹㄹㅣㅈㅣ	-13528
▁ㄷㅟㅅㅌㅗㅇㅅㅜ	-13529
▁ㅇㅓㄹㅁㅏㅈㅓㄴㅇㅔ	-13530
▁ㅇㅚㅊㅣ	-13531
ㅈㅓㅇㅅㅜ	-13532
▁ㅅㅏㄹㅇㅏㅅㅓ	-13533
▁ㅇㅓㄵ	-13534
▁ㅈㅏㄹㄱㅏ	-13535
▁ㅊㅐㅇㄱㅣㄹ	-13536
ㅎㅐㅂㅘㅆㅈㅏ	-13537
▁ㅇㅓㄹㅁㅏㄴㄷㅔ	-13538
ㅇㅓㅆㅇㅡㄹㅌㅔㄴㄷㅔ	-13539
ㅂㅓㅂㅇㅔ	-13540
▁ㅊㅚㅅㅜㄴㅅㅣㄹㅇㅢ	-13541
ㅇㅓㄴㅡ	-13542
▁ㅁㅗㅈㅏㄹㅏㄴ	-13543
▁ㅅㅣㅀㄷㅏㄱㅗ	-13544
▁ㅎㅓㄴㅂㅓㅂㅈㅐㅍㅏㄴ	-13545
ㅎㅏㅇㅣ	-13546
▁ㄴㅔㄱㅅㅡㄴ	-13547
▁ㄱㅡㅁㅇㅛㅇㅣㄹ	-13548
▁ㄷㅚㄹㄱㅓㅅㅇㅣㄷㅏ	-13549
ㄱㅐㄹㅗ	-13550
▁ㅇㅣㄹㅅㅣ	-13551
▁ㅅㅗㄴㅇㅡㄹㅗ	-13552
ㅈㅣㄴㄷㅗ	-13553
ㄱㅣㅅㅏㄴㅡㄴ	-13554
▁ㅇㅕㅈㅏㅊㅣㄴ	-13555
ㅇㅏㅅ	-13556
ㅌㅐㄱㅅㅣ	-13557
ㅈㅣㄴㄷㅏㅇ	-13558
ㅇㅣㄹㄷㅏㅇ	-13559
▁ㅇㅓㅉㅓㄴㅑ	-13560
▁ㅅㅗㄴㅂㅏㄷㅏㄱ	-13561
ㄱㅡㄹㅓㄴㅑ	-13562
ㅈㅏㅂㅇㅏㅅㅓ	-13563
▁ㄷㅐㄷㅏㄴㅎㅐ	-13564
ㅈㅗㅎㅇㅏㅎㅏㄴㅡㄴ	-13565
▁31	-13566
▁ㅎㅐㄱㅜㄴ	-13567
▁ㅇㅏㄴㅎㅏㄴㅡㄴㄷㅔ	-13568
▁ㅎㅏㄴㄱㅜㄱㅅㅏㄹㅏㅁ	-13569
▁ㄴㅏㄱㅅㅜ	-13570
▁ㅇㅓㅈㅣㄹ	-13571
▁ㅁㅗㄹㅡㄴㅣ	-13572
▁ㄱㅏㅂㅕㅂㄱㅔ	-13573
▁ㅅㅏㄱㅗㄹㅡㄹ	-13574
ㄹㅣㄴㄱㅓ	-13575
▁ㅈㅣㅇㅡㄴㅌㅏㄱ	-13576
▁ㅅㅣㅊㅓㅇㅈㅏㄷㅡㄹ	-13577
ㄹㅗㄱㅏ	-13578
ㅎㅞㅅㅗㄴ	-13579
ㅇㅣㅅㅏㅇㅇㅣ	-13580
ㅂㅜㅅㅣㅁ	-13581
ㅅㅣㅎㅏㄱㅗ	-13582
▁ㅇㅟㅈㅜㄹㅗ	-13583
ㅎㅏㄴㅡㄴㅈㅣㅅ	-13584
▁ㅈㅓㄴㄱㅛ	-13585
ㄷㅡㅇㅇㅡㄹㅗ	-13586
ㅈㅏㄱㄱㅏㄴㅣㅁ	-13587
▁ㅁㅓㄱㄴㅡㄴㄷㅔ	-13588
▁ㄷㅐㅅㄱㅡㄹㄷㅏㄴㅡㄴ	-13589
▁ㅇㅏㅌㅣ	-13590
ㄱㅓㅅㄴㅑ	-13591
▁ㅅㅗㅇㅡㅁ	-13592
▁ㅈㅜㄱㅇㅓㅅㅓ	-13593
0000	-13594
▁ㅇㅠㄴㅏㄴ	-13595
▁ㅅㅏㅈㅣㄴㅇㅡㄹ	-13596
▁ㅇㅏㅇㅣㅍㅗㄴㅇㅣ	-13597
▁ㅎㅏㄴㅡㄴㄱㅓㄷㅏ	-13598
▁ㄱㅡㄲㅏㅅ	-13599
▁ㅅㅓㄴㅎㅗ	-13600
▁ㅅㅗㄹㅣㄹ	-13601
▁ㅈㅓㄴㄱㅣㄴㅡㄴ	-13602
ㅇㅓㅇㅔ	-13603
ㅋㅐㄹㅣ	-13604
▁ㅍㅛㄱㅣ	-13605
ㅇㅏㄱㅏㄹ	-13606
▁ㄱㅏㅁㄱㅣ	-13607
▁ㅇㅓㄸㅓㄹㄲㅏ	-13608
ㅇㅜㄱㅏ	-13609
ㄱㅜㄴㄷㅐ	-13610
ㅇㅓㅂㅇㅔ	-13611
▁ㄱㅓㅇㅜㄹ	-13612
▁ㅆㅡㄹㅏㄱㅗ	-13613
▁ㅇㅏㄴㅅㅏㄹ	-13614
ㅇㅏㅇㅣㄷㅡㄹ	-13615
▁ㅅㅐㅇㄱㅏㄱㅎㅐㄷㅗ	-13616
▁ㄴㅐㅈㅣ	-13617
▁ㅅㅓㄱㅇㅠ	-13618
▁ㅇㅣㄹㄴㅕㄴㅇㅔ	-13619
▁ㅂㅏㄴㅅㅓㅇㅎㅏㄱㅗ	-13620
ㄱㅡㅂㅇㅣ	-13621
▁ㅍㅕㄴㄹㅣ	-13622
▁ㅂㅏㄱㅂㅗㅁ	-13623
▁ㄴㅗㅁㄷㅡㄹㅇㅏ	-13624
ㅈㅏㄹㅕㄱ	-13625
ㅎㅐㅇㅅㅏ	-13626
ㅆㅈㅛ	-13627
▁ㄱㅏㅅㅔㅇㅛ	-13628
▁ㄴㅜㄴㄲㅏㄹ	-13629
ed	-13630
ㄷㅡㅅㅣㄴ	-13631
▁ㅈㅏㅂㅇㅏㄹㅏ	-13632
▁250	-13633
ㅜㄹㅏㄱㅗ	-13634
▁ㄱㅏㄷㅗㅇ	-13635
ㅓㄴㅇㅣ	-13636
▁ㅇㅣㅀㅇㅓㅂㅓㄹㅣㄴ	-13637
▁ㅇㅣㅅㅐ	-13638
▁ㅇㅓㅄㅈㅛ	-13639
▁ㅇㅐㄱㅈㅓㅇ	-13640
▁ㅇㅏㄴㅅㅏㅁㅓㄱ	-13641
ㅈㅏㅅ	-13642
ㄱㅓㄹㅣㅁㅕ	-13643
▁ㄸㅗㅇㅇㅡㄹ	-13644
▁ㅍㅡㄹㄹㅔㅇㅣ	-13645
▁ㅎㅐㅆㄷㅏㅁㅕㄴ	-13646
▁ㅅㅔㅇ	-13647
▁ㅇㅕㅇㅢ	-13648
ㅎㅏㅁㄱㅘ	-13649
ㄱㅓㅁㅅㅐㄱ	-13650
ㄷㅗㄹㅇㅏㄱㅏㄴㄷㅏ	-13651
ㄷㅡㄹㅇㅣㄴ	-13652
ㅈㅜㅇㄱㅡㄴ	-13653
▁ㅇㅣㄹㅈㅏㄹㅣㄱㅏ	-13654
▁ㅈㅐㅁㅣㅆㄴㅡㄴㄷㅔ	-13655
▁ㅊㅏㅇㅝㄴ	-13656
▁ㄴㅡㄲㅣㄱㅗ	-13657
ㅌㅏㅁㅕㄴ	-13658
▁ㅁㅗㄱㅏㅈㅣ	-13659
ㅅㅏㄷㅡ	-13660
▁ㅊㅓㅂㅜㄴ	-13661
▁ㅃㅗㅂㅇㅏㅇㅑ	-13662
▁ㄷㅐㅂㅜ	-13663
▁ㅈㅜㅅㅏ	-13664
▁ㅇㅗㄴㄷㅗ	-13665
▁ㅁㅜㄴㅎㅏㄱ	-13666
▁ㅅㅣㄹㅈㅓㄱ	-13667
▁ㅈㅗㅇㅌㅡㄱ	-13668
ㅕㅆㅇㅡㄹㄸㅐ	-13669
ㄷㅏㅁㅏㄴ	-13670
▁ㅇㅣㅇㅣㄱㅇㅣ	-13671
▁ㅁㅣㄷㄴㅡㄴㄷㅏ	-13672
ㅂㅗㄹㅏ	-13673
ㅉㅓㄱㅜ	-13674
▁ㅎㅔㅅㄱㅏㄹ	-13675
ㄷㅐㅎㅏㄱㄱㅛ	-13676
▁ㄱㅓㄹㄹㅕㅅㅓ	-13677
▁ㅇㅒㄱㅣㄴㅡㄴ	-13678
▁ㅂㅜㄴㅇㅟㄱㅣㄱㅏ	-13679
▁ㅅㅗㄴㅎㅐㅂㅐㅅㅏㅇ	-13680
ㅁㅔㄴ	-13681
ㅝㅇㅛ	-13682
▁ㅇㅣㅎㅛ	-13683
▁ㄱㅣㅇㅜㄹ	-13684
▁ㄸㅓㄹㅇㅓㅈㅕㅆ	-13685
▁ㅈㅣㄱㅡㅁㄲㅓㅅ	-13686
▁ㄴㅗㅁㅜㅎㅕㄴㅇㅣ	-13687
▁ㄸㅏㅈㅣㄱㅗ	-13688
▁ㅇㅙㅈㅏㄲㅜ	-13689
▁ㅇㅓㅄㄴㅏㅇㅛ	-13690
ㄱㅜㄴㅇㅡㄴ	-13691
▁ㅈㅗㄴㅈㅏㄹ	-13692
▁ㄸㅓㄹㅇㅓㅈㅕㅅㅓ	-13693
▁ㅈㅓㅈㅜ	-13694
ㅎㅜㄴㅇㅣ	-13695
ㅓㅇㅔㅅㅓ	-13696
▁ㅅㅣㄴㅈㅔㅍㅜㅁ	-13697
ㅇㅣㅂㅎㅏㄱ	-13698
▁ㄱㅡㄴㅇㅠㄱ	-13699
▁ㅈㅏㄹㅎㅐㅆㄷㅏㄱㅗ	-13700
ㄷㅓㅍ	-13701
▁ㅂㅏㄹㄹㅏ	-13702
▁ㅎㅏㄴㅅㅜ	-13703
ㅊㅗㅇㅈㅏㅇ	-13704
▁ㅂㅏㅋㅟㅂㅓㄹㄹㅔ	-13705
ㅅㅏㄹㅣ	-13706
▁ㄲㅣㅇㅝ	-13707
▁ㄸㅡㄴㅡㄴ	-13708
▁ㅅㅡㅋㅐㄴ	-13709
ㄲㅗㄹㅌㅗㅇ	-13710
ㅊㅗㄹㅗ	-13711
▁ㄷㅏㅇㅊㅓㅁ	-13712
ㅇㅏㅊㅣㅁ	-13713
▁ㅂㅓㅂㄱㅘ	-13714
▁ㅎㅐㅆㄱㅔㅆㅈㅣ	-13715
▁ㅅㅏㅇㅌㅐㅇㅔㅅㅓ	-13716
▁ㄱㅣㅇㅓㅂㄷㅡㄹㅇㅡㄴ	-13717
ㅇㅣㄴㅅㅏ	-13718
▁ㅌㅜㅈㅏㄹㅡㄹ	-13719
▁ㅅㅣㄱㅁㅣㄴㅈㅣ	-13720
ㅇㅣㄱㅣㄹ	-13721
▁ㅌㅗㄹㅗㄴ	-13722
▁ㅇㅓㄴㅈㅔㅉㅡㅁ	-13723
ㅏㄴㅐ	-13724
ㅇㅑㅈㅣ	-13725
ㄱㅣㄹㅡㅁ	-13726
ㅎㅏㄱㅓㄴ	-13727
▁ㅎㅕㅁㅇㅗ	-13728
ㄱㅡㄴㅏㅁㅏ	-13729
ㅈㅜㄹㅕㄱㅗ	-13730
▁ㄱㅓㄴㅂㅏㅇ	-13731
▁ㅈㅏㄹㄷㅡㄹ	-13732
▁ㅅㅗㄷㅡㄱㅇㅣ	-13733
ㄷㅡㄹㅇㅔㄱㅔㄴㅡㄴ	-13734
▁ㅈㅜㄱㅜㅈㅏㅇㅊㅏㅇ	-13735
▁ㅊㅏㅇㅔ	-13736
▁ㅇㅏㅍㅅㅓ	-13737
▁ㅈㅓㅇㅊㅏㄱ	-13738
▁ㅇㅗㄷㅣㅅㅕㄴ	-13739
ㄱㅓㅅㄱㅏㅌㅇㅡㄴ	-13740
▁ㅇㅏㄴㅁㅓㄱㅇㅡㅁㅕㄴ	-13741
▁ㅇㅜㄹㅣㄴㅏㄹㅏㄹㅡㄹ	-13742
▁ㄱㅗㅁㅏㅂㅅㅡㅂㄴㅣㄷㅏ	-13743
ㄹㅗㄹㅡㄹ	-13744
▁ㅌㅐㄱㅜㄱ	-13745
▁ㄸㅐㅁㅜㄴㅇㅣㅈㅣ	-13746
▁ㅇㅜㅅㅇㅡㅁㅕㄴㅅㅓ	-13747
ㄷㅏㄴㅕㅇ	-13748
ㅁㅜㅎㅏㄴ	-13749
ㅇㅏㄴㅎㅐ	-13750
▁ㅅㅡㅌㅔㅂ	-13751
▁ㅎㅐㅆㅇㅓㅇㅑ	-13752
▁ㅅㅏㄹㅇㅏㅇㅣㅆㄴㅡㄴ	-13753
ㅆㅏㅁ	-13754
▁ㅎㅐㄱㅏ	-13755
ㅇㅣㅎㅗㄴ	-13756
ㅎㅐㅇㅗㄴ	-13757
ㄱㅏㅌㅈㅣㄷㅗ	-13758
▁ㅁㅝㄹㅎㅐㄷㅗ	-13759
ㅁㅏㄴㅁㅕㅇㅇㅣ	-13760
▁ㅁㅏㄴㄷㅡㄹㅇㅓㅆㄷㅏ	-13761
ㄱㅓㄴㅁㅏㄴ	-13762
ㅂㅜㄹㄹㅑㅇ	-13763
ㅈㅣㅂㄱㅏㅄ	-13764
▁ㄷㅡㄹㅇㅕㅇ	-13765
ㅎㅏㅈㅣㅇㅏㄶㄱㅗ	-13766
▁ㅁㅜㄹㅕ	-13767
▁ㄱㅣㅁㅇㅕ	-13768
▁ㅅㅣㄱㅅㅏ	-13769
▁ㅊㅓㅇㅇㅘㄷㅐㅇㅔㅅㅓ	-13770
ㄹㅛㄱㅏ	-13771
▁ㅅㅔㅅㅡㅂ	-13772
ㄴㅐㄹㅕ	-13773
ㄴㅐㅇㅑ	-13774
ㄸㅐㅁㅏㄴ	-13775
▁ㅈㅏㄴㅇㅣㄴ	-13776
▁ㄱㅓㄴㄱㅏㅇㅛ	-13777
▁ㅇㅏㄴㅊㅓㄹㅅㅜ	-13778
▁ㄱㅐㄷㅙㅈㅣㄷㅡㄹㅇㅣ	-13779
▁ㅇㅣㄹㅂㅗㄴㅊㅓㄹㅓㅁ	-13780
▁ㅇㅠㅂㅕㅇ	-13781
▁ㅇㅏㄴㅁㅏㅇ	-13782
▁ㄱㅣㅅㅏㅇㅋㅐ	-13783
▁ㅅㅣㅈㅏㅇㅇㅣ	-13784
▁ㅇㅏㄴㄷㅡㄹㅇㅓ	-13785
▁ㅈㅜㅁㅓㄱ	-13786
▁ㅂㅣㄹㅗㄱ	-13787
▁ㅁㅝㄹㅏㄷㅗ	-13788
▁ㄲㅓㄴㅐ	-13789
▁ㄱㅜㅂㅕㄹ	-13790
ㅈㅏㄶㅇㅡㄴ	-13791
▁ㄴㅓㅎㅢㄱㅏ	-13792
▁ㄷㅡㄹㅓㅇㅜㄴ	-13793
▁ㅇㅏㅈㅜㅁㅁㅏㄷㅡㄹ	-13794
▁ㅅㅏㄴㅡㄴㄱㅓ	-13795
▁ㄱㅜㄴㄷㅐㄴㅡㄴ	-13796
▁ㄷㅙㅆㄴㅡㄴㄷㅔ	-13797
▁ㄱㅜㄱㅈㅓㅇㄱㅛㄱㅘ	-13798
▁ㅁㅜㅇㅓㄴ	-13799
ㄲㅡㅌㄴㅏㄱㅗ	-13800
ㅇㅡㄹㄲㅏㅂㅘ	-13801
ㅎㅏㄴㄱㅓㅇㅑ	-13802
ㅁㅏㄴㅇㅝㄴㅇㅣㅁㅕㄴ	-13803
ㅇㅕㅆㅇㅡㅁ	-13804
▁ㅇㅗㄹㅐㅅㄷㅗㅇㅇㅏㄴ	-13805
ㅅㅣㄴㅗㅌㅡ	-13806
▁ㅇㅗㅅㅇㅡㄹ	-13807
▁ㅇㅘㅆㅇㅡㅁㅕㄴ	-13808
▁ㅈㅗㄴㅈㅐㅎㅏㄴㅡㄴ	-13809
▁ㄴㅐㅇㅛㅇㄷㅗ	-13810
ㅇㅏㅇㅔ	-13811
▁ㅇㅕㄹㅇㅓ	-13812
▁ㅅㅣㅍㅇㅓㅆㄴㅡㄴㄷㅔ	-13813
ㄱㅠㅈㅔ	-13814
ㅇㅓㅂㅗㄹ	-13815
ㅈㅗㄴㅈㅐ	-13816
ㅏㅇㅗㄱㅗ	-13817
▁ㅇㅣㄴㅅㅐㅇㅇㅡㄴ	-13818
ㅇㅓㅉㅐ	-13819
ㅍㅣㄴㅣ	-13820
ㅈㅓㅁㄷㅗ	-13821
ㄹㅣㄴㅣㄲㅏ	-13822
ㄱㅏㄴㅡㄴㄱㅔ	-13823
ㄷㅚㅇㅓㅆㄱㅗ	-13824
ㄴㅗㄱ	-13825
▁ㅇㅖㅇㅓㄴ	-13826
▁ㅂㅗㅇㅕㅈㅜㄱㅣ	-13827
▁ㅇㅓㄴㅈㅔㄴㅡㄴ	-13828
▁ㅁㅜㅇㅣㄴ	-13829
▁ㅇㅕㅌㅡㄴ	-13830
ㅂㅏㅇㅇㅜㄹ	-13831
ㅈㅣㅇㄱㅡㄹ	-13832
▁ㄱㅗㅇㅁㅜㅇㅝㄴㄷㅡㄹㅇㅣ	-13833
▁ㅈㅏㅇㅟ	-13834
▁ㄱㅏㅇㄷㅗ	-13835
▁ㅊㅣㅁㅅㅜ	-13836
▁ㅁㅏㅈㅅㅡㅂㄴㅣㄷㅏ	-13837
▁ㅈㅚㅇㅓㅄㄴㅡㄴ	-13838
ㅓㄴㅇㅔ	-13839
▁ㅅㅣㅋㅣㅁㅕㄴ	-13840
▁ㅇㅣㄷㅡㄹㅇㅣ	-13841
▁ㅇㅐㄱㅜㄱㅅㅣㅁ	-13842
ㄹㅓㄹㅏ	-13843
ㅈㅓㄱㅏ	-13844
▁ㅅㅏㅈㅓㅇ	-13845
ㅎㅏㅇㅕㅆㄱㅗ	-13846
▁ㅇㅣㅅㅏㅇㅎㅐ	-13847
▁ㅌㅡㄱㅇㅠㅇㅢ	-13848
ㅈㅜㄱㄱㅗ	-13849
ㅇㅡㅅㅣㄱㅗ	-13850
▁ㅇㅗㅍㅣㅅㅡ	-13851
▁ㅊㅣㄴㄱㅜㄷㅡㄹ	-13852
▁ㄱㅘㅇㅇㅜㅃㅓㅇ	-13853
▁ㅇㅏㄴㅁㅓㄱㄱㅗ	-13854
▁ㅌㅗㅁ	-13855
▁ㄱㅏㅅㅏ	-13856
ㅈㅏㄷㅡㄹㅁㅏㄴ	-13857
▁ㅁㅗㄱㅈㅓㄱㅇㅣ	-13858
ㅅㅕ	-13859
▁ㅊㅔㅍㅗ	-13860
▁ㅊㅗㄷㅐ	-13861
ㅘㅇㅑㅈㅣ	-13862
▁ㅊㅜㄹㄷㅗㅇ	-13863
▁ㅎㅐㅇㅜㄴㄷㅐ	-13864
ㅗㅇㅕ	-13865
▁ㅃㅏㄴ	-13866
ㅃㅏㄹㄹㅗ	-13867
▁ㅋㅡㄹㄹㅏ	-13868
▁ㅈㅏㅇㅅㅏㅎㅏㄴㅡㄴ	-13869
▁ㅁㅏㅇㅡㅁㅇㅡㄴ	-13870
▁ㅂㅜㅈㅏㄱㅏㅁㅅㅔ	-13871
ㄹㅏㄴㄷㅡ	-13872
▁ㅇㅏㄱㅍㅡㄹㅇㅣ	-13873
ㅇㅣㄹㅐㅅㅓ	-13874
▁ㅂㅏㄲㅝㅅㅓ	-13875
▁ㅁㅜㄹㄱㅏㄹㅇㅣ	-13876
▁ㅇㅓㅊㅓㄱㅜㄴㅣ	-13877
▁ㅇㅣㄹㅂㅗㄴㄱㅘ	-13878
▁ㅇㅣㅇㅑㄱㅣㄹㅡㄹ	-13879
▁ㄱㅠㅈㅓㅇ	-13880
▁ㅇㅞㅂㅌㅜㄴ	-13881
6%	-13882
▁ㅊㅓㄱㄱㅕㄹ	-13883
ㅋㅗㄱ	-13884
ㅌㅓㅈㅣㅁ	-13885
▁ㄱㅓㄷㅈㅏ	-13886
▁ㅂㅣㅈㅜㅇ	-13887
ㅈㅏㄹㅣㅇㅔㅅㅓ	-13888
▁ㄴㅏㅁㅎㅏㄴㅌㅔ	-13889
ㅁㅣㅅㅔㅁㅓㄴㅈㅣ	-13890
ㅅㅡㄹㅓㅂㅅㅡㅂㄴㅣㄷㅏ	-13891
ㄷㅏㅎ	-13892
ㅂㅣㅁㅏㄴ	-13893
▁ㅅㅜㅇㅛㅇ	-13894
▁ㄴㅗㅇㅖㄹㅗ	-13895
ㅏㄴㅔㅇㅛ	-13896
▁ㄴㅏㅇㅗㄴㅏ	-13897
▁ㄱㅐㅇㅣㄷㅡㄱ	-13898
ㄱㅜㅇㅔ	-13899
ㄴㅡㄹㅏ	-13900
ㅂㅣㅎㅐ	-13901
ㄷㅚㄹㅈㅣ	-13902
ㅂㅏㄷㄱㅔ	-13903
ㅅㅣㅍㄴㅔ	-13904
ㅂㅐㅇㅜㄷㅡㄹ	-13905
▁ㅍㅏㅇㅝ	-13906
▁ㅁㅜㄹㅇㅣ	-13907
▁ㅈㅣㅇㅣㄴ	-13908
▁ㅎㅓㄹㄹㅣ	-13909
▁ㅂㅏㄺㅇㅡㄴ	-13910
▁ㅅㅐㅇㅅㅓㄴ	-13911
▁ㅇㅜㅈㅜㅇㅢ	-13912
ㅆㅗ	-13913
ㅎㅣㄱㅔ	-13914
▁ㅋㅐㅂㅊㅕ	-13915
▁ㄴㅐㄴㅗㅎㄱㅗ	-13916
▁ㄱㅘㅌㅐ	-13917
▁ㅁㅗㅇㅏㄴ	-13918
▁ㅈㅜㄱㅇㅣㄴ	-13919
▁ㅊㅜㅇㅊㅓㅇ	-13920
▁ㅅㅗㄹㅣㄴㅡㄴ	-13921
▁ㅅㅗㅂㅣㄹㅡㄹ	-13922
▁ㄱㅗㅇㅈㅜㅇㅍㅏ	-13923
▁ㅂㅏㄱㅂㅗㄱㅓㅁㅇㅣ	-13924
▁ㅈㅜㄱㅣ	-13925
▁ㅈㅣㄱㅗ	-13926
▁ㅊㅏㅌㅐㅎㅕㄴ	-13927
▁ㄷㅗㄹㅇㅏㄷㅏㄴ	-13928
ㅈㅣㅋㅓㄹ	-13929
▁ㅈㅐㅂㅏㄹ	-13930
▁ㅌㅡㅇㅘㅇㅣ	-13931
▁ㅈㅓㄹㅓㄴㄱㅔ	-13932
▁ㅅㅏㅎㅚㅈㅜㅇㅢ	-13933
ㅈㅣㄷㅗㅇㅏㄶㄱㅗ	-13934
ㅅㅏㄴㅔ	-13935
▁ㄱㅏㄹㅣ	-13936
▁ㅅㅣㄴㄴㅏㄱㅔ	-13937
▁ㅇㅜㅇㅕㄴㅎㅣ	-13938
▁ㅇㅏㄴㅂㅗㅁㅕㄴ	-13939
▁ㅈㅓㅇㄱㅝㄴㅇㅡㄴ	-13940
oo	-13941
▁ㅁㅏㅅㅣ	-13942
▁ㅁㅜㅅㅓㄴ	-13943
ㄸㅏㅇㅟㄹㅗ	-13944
▁ㅈㅐㅎㅗㄴ	-13945
▁ㅈㅣㄴㅇㅕㅇ	-13946
▁ㅁㅏㄹㅎㅏㅈㅣ	-13947
▁ㅇㅕㅈㅣ	-13948
ㅎㅏㄹㅃㅜㄴ	-13949
▁ㅇㅣㄸㅐㄷㅏ	-13950
▁ㅂㅗㅎㅓㅁㅅㅏ	-13951
ㅂㅜㅈㅓㅇ	-13952
▁ㄷㅚㄴㅏㅇㅛ	-13953
▁ㅁㅏㄴㄴㅏㅁ	-13954
▁ㅇㅗㅌㅏ	-13955
ㅇㅝㄹㄲㅏㅈㅣ	-13956
▁ㅇㅣㅆㅇㅡㄹㅈㅣ	-13957
▁ㄱㅗㅁㅏㅂㄷㅏ	-13958
▁ㅁㅣㅅㅔㅁㅓㄴㅈㅣㄴㅡㄴ	-13959
▁ㅋㅐㄴ	-13960
▁ㅅㅓㄹㅠ	-13961
▁ㅂㅓㅂㅁㅜ	-13962
▁ㅂㅜㄷㅏㅇ	-13963
▁ㅅㅔㄱㅖㅈㅓㄱㅇㅣㄴ	-13964
▁ㅂㅏㄴㅁㅏㄹ	-13965
ㄱㅓㅅㄱㅘ	-13966
▁ㅎㅏㅈㅓㅇ	-13967
ㅈㅜㄹㅇㅣㅇㅑ	-13968
▁ㅈㅜㄹㅇㅣㄴㅡㄴ	-13969
▁ㅅㅏㄹㅇㅏㅇㅑㅈㅣ	-13970
▁ㅆㅘ	-13971
ㅂㅓㅂㄷㅗ	-13972
▁ㅈㅏㄱㅣㄴ	-13973
▁ㄱㅔㅇㅣㅁㅇㅡㄴ	-13974
▁ㅁㅣㄷㅇㅡㅁㅇㅣ	-13975
▁ㅍㅣㄱㅏㅌㅇㅡㄴ	-13976
ㅡㄹㅐ	-13977
ㅈㅜㄷㅡㄹ	-13978
▁ㅇㅣㅆㅇㅡㄴㅏ	-13979
▁ㅌㅐㄱㅅㅣㄱㅣㅅㅏ	-13980
▁ㅈㅜㅇㅅㅣㅁㅇㅡㄹㅗ	-13981
▁ㄹㅣㄷㅓ	-13982
ㅂㅗㅇㅏㄴ	-13983
ㅌㅡㄹㅇㅓ	-13984
ㅎㅏㄹㄱㅓㄴ	-13985
▁ㅅㅜㅇㅕㅇ	-13986
▁ㄴㅏㄱㅏㄹㅏ	-13987
▁ㅂㅗㄹㅕㄱㅗ	-13988
▁ㅅㅏㅁㄱㅖㅌㅏㅇ	-13989
▁ㅁㅣㄷㄱㅗㅂㅗㄴㅡㄴ	-13990
▁ㅌㅓㄸㅡㄹ	-13991
▁ㅂㅘㅆㅇㅡㅁ	-13992
▁ㅈㅣㅇㅈㅣㅇㄷㅐ	-13993
▁ㅎㅏㄱㅗㅅㅣㅍㅇㅡㄴ	-13994
▁ㅍㅜㅅ	-13995
▁2014	-13996
ㅇㅡㅅㅣㄹ	-13997
ㄴㅏㅈㅜㅇㅇㅔ	-13998
▁ㅎㅐㅆㅅㅡㅂㄴㅣㄷㅏ	-13999
ㅣㅇㅏㄹ	-14000
ㄱㅖㅇㅔㅅㅓ	-14001
ㅇㅏㄴㅐㄱㅗ	-14002
▁ㅁㅝㄹㅐ	-14003
ㅈㅓㅇㄹㅣ	-14004
▁ㅂㅜㅌㅇㅕ	-14005
▁ㅇㅣㅀㄱㅗ	-14006
▁ㅁㅗㄱㅇㅡㄹ	-14007
▁ㅅㅣㄴㄱㅕㅇㅇㅏㄴ	-14008
ㅎㅐㅅㄷㅏ	-14009
▁ㅍㅗㄴㅇㅡㄴ	-14010
▁ㄸㅡㄱㅓㅇㅜㄴ	-14011
▁ㅇㅣㅎㅘ	-14012
▁ㄱㅘㅇㅣㄹ	-14013
ㅎㅐㅇㅇㅣ	-14014
▁ㅇㅝㄹㅇㅛㅇㅣㄹ	-14015
▁ㄴㅗㄹㅕㄱㅎㅏㄴㅡㄴ	-14016
▁ㅅㅓㅅ	-14017
ㄴㅜㄹㅣ	-14018
ㅊㅏㄱㅣ	-14019
▁ㅈㅏㄹㄷㅚㄴㅡㄴ	-14020
▁ㅇㅢㅎㅏㄱ	-14021
▁ㅈㅓㄴㅂㅏㄴ	-14022
ㅇㅡㅅㅣㄱㅣㄹ	-14023
▁ㄱㅣㅇㅓㅂㄷㅗ	-14024
▁ㄴㅐㅁㅅㅐㄴ	-14025
▁ㅅㅜㄴㅅㅣㄱ	-14026
ㅎㅏㄴㄱㅓㄴㅑ	-14027
▁ㅁㅏㄹㅇㅏㅁㅓㄱㄱㅗ	-14028
▁ㅇㅣㄴㅇㅛㅇ	-14029
▁ㅎㅕㅂㅅㅏㅇ	-14030
▁ㄱㅗㅇㅇㅠㄱㅏ	-14031
▁ㅇㅏㄴㄷㅚㄴㅡㄴㄱㅓ	-14032
ㅉㅏㄱㅗ	-14033
ㅇㅏㅆㅇㅡㄴㅣ	-14034
ㅎㅏㅈㅏㅁㅕㄴ	-14035
ㅍㅐㄴㄷㅡㄹㅇㅣ	-14036
ㅅㅜㅁㅏㄴ	-14037
▁ㅍㅕㅇㅊㅏㅇ	-14038
ㄱㅏㅌㅇㅏㄷㅗ	-14039
ㄱㅡㅂㅇㅡㄹㅗ	-14040
▁ㄷㅡㅇㅇㅡㄹㅗ	-14041
▁ㅅㅏㄹㅇㅏㄷㅗ	-14042
▁ㅅㅏㄹㅏㅁㄷㅡㄹㅎㅏㄴㅌㅔ	-14043
ㅇㅖㅈㅓㄴ	-14044
▁ㄱㅏㅅㅡㅁㅇㅔ	-14045
▁ㅃㅐㄱㅗㄴㅡㄴ	-14046
ㄱㅣㅅ	-14047
▁it	-14048
▁ㄱㅖㅈㅘ	-14049
ㄸㅗㄲㅏㅇ	-14050
ㅅㅔㅇㅕㄴ	-14051
▁ㅂㅏㄹㅏㅁㅇㅔ	-14052
▁ㅎㅏㄴㄴㅏㄹㅏ	-14053
▁ㅁㅏㅅㅇㅣㅆㄴㅡㄴ	-14054
▁ㅅㅜㅅㅏㄹㅡㄹ	-14055
ㄷㅐㅌㅗㅇㄹㅕㅇㅇㅡㄴ	-14056
ㄹㅗㅂㅜㅌㅓ	-14057
▁ㅍㅣㄹㅇㅛㄷㅗ	-14058
▁ㅊㅗㅅㅂㅜㄹㄷㅡㄹㄱㅗ	-14059
ㅃㅗ	-14060
▁ㅂㅗㄱㅘㄴ	-14061
ㄱㅗㅇㅅㅏㄴ	-14062
▁ㄴㅓㄼㅇㅡㄴ	-14063
▁.......	-14064
▁ㅈㅣㄱㅇㅓㅂㅇㅣ	-14065
▁ㅇㅣㅂㅈㅏㅇㅇㅔㅅㅓㄴㅡㄴ	-14066
▁2015	-14067
▁ㅂㅗㄴㅏ	-14068
▁ㄱㅖㄱㅣㄹㅗ	-14069
ㅜㅅㅐㄱ	-14070
▁ㅇㅜㄹㅣㄷㅡㄹ	-14071
▁ㅇㅓㅄㅇㅓㅆㅇㅡㅁ	-14072
▁ㅋㅏㄴ	-14073
ㅈㅜㅅㅣㄱ	-14074
▁ㅈㅏㄹㅂㅘㅆ	-14075
ㅇㅣㄴㅌㅓㄴㅔㅅ	-14076
ㅡㄱㅏ	-14077
▁ㅆㅡㅅㅔㅇㅛ	-14078
ㄱㅓㅈㅣㅅㅁㅏㄹ	-14079
▁ㅇㅏㄹㅈㅣㅁㅏㄴ	-14080
et	-14081
▁ㅁㅓㄹㅣㄹㅡㄹ	-14082
ㅇㅣㅆㅇㅡㄹㄸㅐ	-14083
▁ㅇㅕㄴㄱㅣㄹㅕㄱㅇㅣ	-14084
ㅌㅡㄱㅂㅕㄹ	-14085
ㅁㅏㄴㅇㅝㄴㄷㅐ	-14086
▁ㅇㅕㄱㅅㅏㅅㅏㅇ	-14087
▁n	-14088
▁ㄱㅡㄴㅊㅓ	-14089
▁ㅋㅡㄴㅅㅗㄹㅣ	-14090
▁ㄱㅜㄱㄹㅣㅂ	-14091
▁ㅇㅓㅇㅜㄹㄹㅣ	-14092
▁ㄱㅜㄴㄷㅐㄹㅡㄹ	-14093
▁ㅅㅗㅇㅟ	-14094
▁ㅌㅡㅈㅣㅂ	-14095
▁ㅇㅓㄴㅈㅔㄴㄱㅏㄴ	-14096
ㄴㅐㄱㅣ	-14097
ㄴㅜㄴㅏ	-14098
ㅇㅗㄹㅐ	-14099
ㅅㅏㅅㅔㅇㅛ	-14100
▁ㅇㅜㅅㅇㅡㄹ	-14101
ㅂㅜㄹㅣㄴㅡㄴ	-14102
▁ㅎㅏㄹㅜㅇㅣㅌㅡㄹ	-14103
▁ㅊㅣㅁㅁㅜㄱ	-14104
▁ㅇㅏㄴㄴㅐㄱㅗ	-14105
▁ㅉㅣㄱㅇㅓㅅㅓ	-14106
ㅇㅕㅊㅣㄴ	-14107
ㄷㅓㄴㅣㅁㅏㄴ	-14108
▁ㅇㅏㄶㅇㅡㄴㅣ	-14109
.7	-14110
ㄸㅢ	-14111
ㅔㅇㅕ	-14112
ㅂㅜㅇㅑ	-14113
ㅇㅓㄸㅡㄷ	-14114
▁ㅍㅣㄸㅏㅁ	-14115
▁ㅅㅏㅈㅏㅇㅇㅣ	-14116
▁ㅂㅏㄷㄴㅡㄴㄱㅔ	-14117
ㄱㅣㅂㅜ	-14118
ㅍㅜㅇㅇㅣ	-14119
ㄲㅓㄹㅏㄱㅗ	-14120
▁ㄷㅓㅇㅟㅇㅔ	-14121
▁ㅅㅡㅂㄱㅘㄴ	-14122
▁ㄷㅗㅂ	-14123
ㄱㅡㅈㅔ	-14124
ㅇㅓㅎㅠ	-14125
▁ㅂㅗㄹㅓ	-14126
ㄱㅗㄹㅡㄹ	-14127
▁ㄹㅏㄹ	-14128
ㅂㅗㅇㅕㅅㅓ	-14129
▁ㅁㅜㄷㅗㅊㅜㅇ	-14130
ㅎㅐㄷㅏㄹㄹㅏㄱㅗ	-14131
▁ㅇㅏㅇㅣㄷㅗㄹㅇㅣ	-14132
ㅡㄹㅣㅅ	-14133
▁ㅍㅏㄴㅇㅔ	-14134
▁ㅎㅏㄴㄲㅣ	-14135
▁ㅅㅏㄹㄹㅣㄴㅡㄴ	-14136
▁ㅁㅏㄹㄱㅡㄷㅐㄹㅗ	-14137
ain	-14138
ㄱㅏㅇㄱㅜㄱ	-14139
▁ㅁㅓㄱㅇㅓㅆ	-14140
▁ㄱㅣㄹㅔㄱㅣㅇㅑ	-14141
▁ㅈㅣㅇㅕㄴ	-14142
ㅈㅗㅊㅏㄷㅗ	-14143
ㅇㅣㅆㄴㅔㅇㅛ	-14144
▁ㅉㅏㄱㅗㅊㅣㄴㅡㄴ	-14145
▁ㅈㅔㄹㅗ	-14146
ㅁㅓㄱㄱㅣ	-14147
ㅅㅜㄴㅅㅣㄹㅇㅣ	-14148
▁ㅈㅣㄱㅡㅅㅈㅣㄱㅡㅅ	-14149
ㅃㅣㄹ	-14150
▁ㅅㅏㄷㅐ	-14151
▁ㅇㅏㄴㅎㅐㅅㅓ	-14152
▁ㄷㅏㄹㅇㅢㅇㅕㄴㅇㅣㄴ	-14153
ㄸㅓㄴㅏ	-14154
ㅂㅏㄱㄱㅡㄴㅔ	-14155
ㅣㅁㅏ	-14156
ㅇㅣㄴㅕㄴ	-14157
▁ㅍㅗㄴㅍㅏㄹㅇㅣ	-14158
ㅒㄱㅣ	-14159
▁ㄷㅏㄹㅡㅈㅣ	-14160
▁ㅌㅏㄴㅅㅜㅎㅘㅁㅜㄹ	-14161
▁ㅇㅣㄹㅂㅏㄴㅇㅣㄴㅇㅣ	-14162
▁in	-14163
▁ㅅㅅ	-14164
▁ㄸㅓㄴㅏㄹㅏ	-14165
▁ㅇㅣㄹㄱㅣㅇㅖ	-14166
ㅎㅕㄹㅏ	-14167
ㅇㅡㄴㄱㅓㄴ	-14168
..,	-14169
▁ㅅㅗㄴㅏㄱ	-14170
▁ㅈㅐㅇㅏㅇ	-14171
▁ㄴㅗㅅㅜㄱ	-14172
▁ㅈㅣㅈㅣㅎㅏㄴㅡㄴ	-14173
ㅈㅣㅇㅏㄶㄴㅡㄴㄷㅏ	-14174
▁ㅊㅚㅊㅗ	-14175
▁ㄱㅐㄸㅓㄱ	-14176
▁ㅆㅏㅇㅜㄱㅗ	-14177
ㄷㅓㄹㅏㅁㅕㄴ	-14178
▁ㅃㅓㄴㅃㅓㄴㅎㅏㄱㅔ	-14179
,3	-14180
▁ktx	-14181
▁ㅂㅏㄺㅎㅣㄱㅗ	-14182
▁ㅇㅣㅂㅈㅏㅇㅇㅔㅅㅓㄴ	-14183
ㅇㅣㄴㅏㅁ	-14184
▁ㅂㅣㅇㅠㄹㅇㅣ	-14185
▁ㄷㅐㅌㅗㅇㄹㅕㅇㄱㅘ	-14186
▁ㅁㅜㄴㅈㅐㅇㅣㄴㅇㅣ	-14187
▁ㅈㅏㄷㅡㄹㅇㅣ	-14188
ㅇㅣㅆㄷㅏㅁㅕㄴ	-14189
ㅊㅏㅇㅣㄱㅏ	-14190
ㄴㅡㄴㄷㅏㄴㅡㄴ	-14191
▁ㅇㅘㅆㄷㅏㄱㅏㅆㄷㅏ	-14192
▁ㅇㅗㄹㅠ	-14193
ㅊㅏㅈㅇㅏ	-14194
ㅈㅜㄱㅇㅣㄱㅗ	-14195
▁ㄴㅏㄹㅏㅁㅏㅇㅅㅣㄴ	-14196
▁ㄴㅓㅎㅢㄷㅡㄹㅇㅡㄴ	-14197
▁ㅎㅐㅆㅇㅓㅆㄴㅡㄴㄷㅔ	-14198
▁ㅎㅕㄴㅅㅣㄹㅈㅓㄱㅇㅡㄹㅗ	-14199
▁ㄴㅓㄴㅏ	-14200
▁ㅎㅚㅅㅣㄱ	-14201
▁ㄱㅡㅂㅎㅏㄱㅔ	-14202
▁ㅇㅣㅆㄷㅏㄴㅡㄴㄱㅔ	-14203
ㄹㅣㅈㅏ	-14204
▁ㅌㅡㄹㄹㅣㅁ	-14205
ㅁㅕㄴㅅㅓㄷㅗ	-14206
▁ㅅㅏㅇㅊㅓㅂㅏㄷ	-14207
▁ㅇㅓㅄㅇㅐㅁㅕㄴ	-14208
ㄱㅏㄹㅣ	-14209
▁ㅂㅏㅁㅅㅐ	-14210
▁ㄴㅏㄱㅏㅇㅑ	-14211
▁ㅅㅗㅅㅜ	-14212
▁ㅇㅕㄴㄹㅕㅇ	-14213
▁ㅇㅠㅈㅓㄴㅈㅏ	-14214
▁ㄴㅏㅁㄷㅡㄹㅇㅣ	-14215
▁ㅇㅓㅈㅣㄱㅏㄴㅎㅣ	-14216
▁ㅁㅣㅋㅜㄱ	-14217
ㅇㅣㄹㅏㅁㅕㄴㅅㅓ	-14218
ㄹㅏㄱㅔ	-14219
ㅊㅔㅈㅓㄱ	-14220
▁ㅂㅐㅁㅏㄴ	-14221
▁ㄷㅗㄴㅂㅓㄹㅇㅓ	-14222
ㅎㅣㅁㄴㅐㅅㅔㅇㅛ	-14223
▁ㅃㅜㅁ	-14224
ㄷㅓㅁㅣ	-14225
▁ㅂㅜㄹㅕ	-14226
▁ㅍㅔㅂㅜㄱ	-14227
▁ㅇㅣㄹㅇㅣㄴㄷㅔ	-14228
▁ㅇㅡㅇㅇㅝㄴㅎㅐㅇㅛ	-14229
1=	-14230
ㅓㅄㅇㅣ	-14231
ㅇㅣㅁㅏㄴ	-14232
▁ㅂㅜㅈㅣㄹ	-14233
▁ㅅㅜㅎㅐㅇ	-14234
ㅂㅜㄴㅂㅕㄹ	-14235
▁ㅎㅣㅁㅇㅡㄹㅗ	-14236
▁ㅈㅓㅇㅇㅢㄹㅡㄹ	-14237
▁ㄱㅜㄱㅜ	-14238
▁ㅇㅣㄹㅓㄷㅏㄱㅏ	-14239
▁ㄴㅏㄹㅏㄱㅕㅇㅈㅔ	-14240
ㅇㅣㄹㅏㄴㅡㄴㄱㅓㄹ	-14241
▁ㅇㅏㄹㅈㅣㄷㅗ	-14242
▁ㄱㅓㅅㅇㅣㄴㄷㅔ	-14243
▁ㅇㅓㄹㅁㅏㄹㅡㄹ	-14244
▁ㅎㅏㄷㅏㅎㅏㄷㅏ	-14245
▁ai	-14246
▁ㅈㅔㅁㅗㄱㅇㅣ	-14247
▁ㅇㅏㄴㅣㄴㅣㄲㅏ	-14248
▁ㅇㅏㄴㅣㄹㅌㅔㄴㄷㅔ	-14249
▁ㅁㅏㅇㅊㅣㄴㅡㄴ	-14250
▁ㅇㅓㅄㄱㅔㅆㅈㅣ	-14251
▁ㅌㅜㄱㅎㅏㅁㅕㄴ	-14252
▁ㄱㅣㄷㅐㅎㅏㄹㄱㅔㅇㅛ	-14253
ㅇㅑㅇㅅㅣㅁ	-14254
▁ㄷㅏㅂㅇㅡㄴ	-14255
▁ㅁㅜㄴㅎㅘㄱㅏ	-14256
▁ㅂㅏㅂㅁㅓㄱㄱㅗ	-14257
▁ㅈㅓㄱㄱㅡㄱㅈㅓㄱㅇㅡㄹㅗ	-14258
ㅇㅏㄴㄷㅏ	-14259
▁ㅈㅣㄱㅕㅂ	-14260
▁ㅎㅏㄴㅎㅐ	-14261
▁ㅈㅓㅇㅂㅗㄹㅡㄹ	-14262
▁ㅇㅖㄴㅡㅇㅇㅔㅅㅓ	-14263
▁ㅇㅣㅆㄴㅡㄴㄱㅓㄷㅏ	-14264
▁ㅂㅕ	-14265
ㅜㄹㅣㄴ	-14266
▁ㄱㅕㅇㅈㅔㅇㅔ	-14267
▁ㅁㅏㄹㅎㅐㅅㅓ	-14268
▁ㅂㅏㄷㅇㅏㄷㅡㄹㅇㅣ	-14269
ㅂㅓㄹㄱㅗ	-14270
▁ㅅㅜㅁㄱㅕ	-14271
ㅅㅓㅇㄱㅕㄱ	-14272
▁ㄱㅕㄹㅎㅏㅁ	-14273
▁ㅇㅣㄱㅓㅈㅣ	-14274
ㄲㅣㄷㅡㄹㅇㅏ	-14275
▁ㅎㅏㄴㅏㄹㅏㄷㅗ	-14276
▁ㅎㅐㅆㅇㅓㅇㅑㅈㅣ	-14277
▁ㅅㅗㅅㅣ	-14278
▁ㅅㅣㄹㅣㅈㅡ	-14279
ㅇㅣㄹㅓ	-14280
▁ㅇㅣㅇㅠㄷㅗ	-14281
▁ㄹㅔㄴ	-14282
▁ㅊㅜㅇㅜㄴㄷㅔ	-14283
▁ㄱㅘㅇㅎㅢㄴㅡㄴ	-14284
▁ㅇㅓㄴㄹㅗㄴㅍㅡㄹㄹㅔㅇㅣ	-14285
;;;;;	-14286
▁ㄱㅡㅂㅂㅏㄹ	-14287
▁ㄱㅗㅇㅈㅓㅇㅎㅏㄴ	-14288
▁ㅂㅣㅅㅡㅅㅎㅏㄱㅔ	-14289
▁ㅅㅏㅎㅚㅇㅢ	-14290
ㅈㅓㅇㅂㅜㅇㅢ	-14291
▁ㅅㅏㅎㅕㅇㅅㅣㅋㅕㄹㅏ	-14292
ㅁㅜㄴㅡㄴ	-14293
▁ㅈㅏㅂㅇㅏㅁㅓㄱ	-14294
ㅈㅣㄴㅐ	-14295
ㅋㅓㅍㅣ	-14296
▁ㄷㅚㄱㅣ	-14297
▁ㅈㅚㄴㅡㄴ	-14298
▁ㅁㅕㅊㅇㅣㄴㅏ	-14299
▁ㅈㅜㄱㄱㅔㅆㄷㅏ	-14300
▁ㅆㅐㅁ	-14301
ㅣㅁㄷㅗ	-14302
ㄱㅏㄴㅇㅢ	-14303
ㄷㅐㅈㅏㅇ	-14304
▁ㄷㅓㄱㅎㅖ	-14305
▁ㅁㅏㅅㅈㅣㅂ	-14306
▁ㅈㅏㅁㅈㅏㅁ	-14307
▁ㄷㅐㅊㅐㄱㅇㅣ	-14308
▁ㄴㅜㅈㅣㄴㅈㅔㄴㅡㄴ	-14309
▁ㅇㅠㅇ	-14310
▁ㄸㅓㄴㅡㄴ	-14311
ㅂㅐㅌㅓㄹㅣ	-14312
▁ㅂㅏㄴㄱㅏㅂ	-14313
▁ㅇㅓㄸㅓㅎㅏㄴ	-14314
~8	-14315
ㅈㅓㅎㅏ	-14316
ㅡㄹㅓㄴ	-14317
▁ㄷㅚㄷㅗㄹㅗㄱ	-14318
ag	-14319
▁ㄱㅖㅇㅓㅁ	-14320
▁ㄷㅚㅇㅓㅅㅓ	-14321
ㅕㅇㅢ	-14322
ㅊㅔㅈㅔ	-14323
ㅗㅅㅓㄴㅡㄴ	-14324
▁ㄹㅗㅁㅐㄴㅅㅡ	-14325
ㅁㅏㄶㅇㅡㄴㄷㅔ	-14326
▁ㄱㅡㄱㅓㅅㅁㅏㄴ	-14327
▁ㅈㅜㅇㄱㅜㄱㅇㅡㄹㅗ	-14328
▁ㅌㅡㄴㅌㅡㄴ	-14329
ㅈㅣㅇㅏㄶㄴㅑ	-14330
▁ㅁㅏㅇㅡㅁㄷㅗ	-14331
ㅂㅗㅇㅏ	-14332
ㅓㅁㄷㅡㄹ	-14333
▁ㅂㅘㅈㅜㄹ	-14334
▁ㅇㅔㅁㅆㅣ	-14335
▁ㄱㅏㄴㅈㅓㄹㅎㅣ	-14336
▁ㄷㅗㄹㅇㅏㅇㅗㄹ	-14337
▁ㄱㅡㄴㅂㅗㄴㅈㅓㄱㅇㅣㄴ	-14338
ㅇㅑㄷㅏㅇ	-14339
▁ㄱㅓㄴㅡㄴ	-14340
▁ㅍㅏㄹㅇㅏㄹㅏ	-14341
▁ㅇㅙㄴㅁㅏㄴㅎㅏㄴ	-14342
ㅈㅣㄹㄹㅓ	-14343
▁ㄱㅘㅇㅎㅘㅁㅜㄴㅇㅔ	-14344
ㅏㄴㄹㅣ	-14345
▁ㅁㅐㄷㅗ	-14346
▁ㅎㅘㅇㅈㅔ	-14347
▁ㅅㅓㄴㅅㅓㄴ	-14348
ㅇㅑㅇㅂㅏㄴ	-14349
ㅎㅏㄴㄱㅓㄴㅈㅣ	-14350
▁ㅁㅗㄱㅈㅓㄱㅇㅡㄹㅗ	-14351
ㄶㅇㅏ	-14352
▁ㄲㅗㅅ	-14353
ㅁㅕㄴㅇㅣ	-14354
ㅅㅟㅂㄱㅔ	-14355
ㅎㅐㅈㅜㅈㅣ	-14356
ㄷㅐㅂㅜㅂㅜㄴ	-14357
ㅈㅏㅈㅓㄴ	-14358
▁ㅅㅏㄴㄷㅏㄱㅗ	-14359
▁ㅁㅏㄴㅇㅑㄱㅇㅔ	-14360
▁ㅈㅏㅇㄴㅏㄴㅈㅣㄹ	-14361
ㄹㅗㄹㅗ	-14362
ㅂㅗㅇㅠ	-14363
ㅇㅏㄴㅓㅎ	-14364
ㅂㅓㄴㅇㅡㄴ	-14365
▁ost	-14366
ㄱㅘㅇㅕㄴ	-14367
47	-14368
▁ㅅㅓㅎㅐ	-14369
▁ㅍㅏㄹㅕㅁ	-14370
ㅇㅐㄹㅂㅓㅁ	-14371
ㅈㅏㄴㅏㅇㅛ	-14372
ㄷㅓㅇㅣㅅㅏㅇ	-14373
▁ㅁㅏㄴㄷㅡㄹㄹㅕㄱㅗ	-14374
▁ㅂㅣㄱㅏㅇ	-14375
▁ㅃㅜ	-14376
ㅇㅡㄴㅈㅣ	-14377
ㅊㅣㅇㅜㄱㅗ	-14378
ㅇㅜㄹㅣㄴㅏㄹ	-14379
▁ㅇㅣㅁㅅㅣㄱㅗㅇ	-14380
▁ㄷㅐㄷㅏㄴㅎㅏㄴㅔ	-14381
▁ㅂㅏㄱㅆㅣ	-14382
▁ㅇㅣㄴㅅㅡㅌ	-14383
▁ㄴㅐㄷㅏ	-14384
ㅂㅜㄹㅎㅓ	-14385
▁ㅇㅣㅃㅡㅁ	-14386
ㅇㅣㄱㅣㄷㅗ	-14387
▁ㅁㅗㅁㅇㅡㄹ	-14388
▁ㅇㅏㅁㅅㅏㄹ	-14389
▁ㅊㅣㄴㅎㅘㄴㄱㅕㅇ	-14390
ㄱㅓㄹㅇㅣ	-14391
▁ㅉㅏㄹㄹㅏ	-14392
▁ㅇㅏㅅㅟㅂㅈㅣㅁㅏㄴ	-14393
ㅉㅓㄱㅗ	-14394
ㅇㅡㄹㅈㅣ	-14395
▁ㅇㅜㄹㅋㅓㄱ	-14396
▁ㅅㅗㄹㅡㅁㄲㅣ	-14397
▁ㅇㅣㄹㅡㅁㄷㅗ	-14398
▁ㅅㅏㅅㅣㄹㅇㅣㄷㅏ	-14399
ㄱㅣㅎㅚ	-14400
▁ㅈㅓㄴㅕㄴ	-14401
▁ㅎㅎㅎㅎㅎ	-14402
▁ㅅㅏㄹㅏㅈㅕㅇㅑ	-14403
ㅈㅣㅎㅏㅊㅓㄹ	-14404
cm	-14405
ㅁㅏㄶㅇㅏ	-14406
▁ㅎㅐㅇㄷㅗㅇㅇㅣ	-14407
ㅎㅏㄹㅇㅣㄹ	-14408
▁ㅂㅗㄱㅗㅅㅣㅍㅇㅓㅇㅛ	-14409
▁1,2	-14410
▁ㅆㅣㅅ	-14411
▁ㄴㅠㅇㅛㄱ	-14412
▁ㅋㅡㄹㄹㅐ	-14413
▁ㅈㅣㄱㅁㅜㅇ	-14414
ㅋㅗㄴㅅㅓㅌㅡ	-14415
▁ㅎㅏㄴㅌㅗㅇㅅㅗㄱ	-14416
▁ㅊㅐㄱㅇㅣㅁㅈㅣㄴㅡㄴ	-14417
▁ㅊㅗㅁㅣ	-14418
▁ㅅㅣㅍㄱㅗ	-14419
ㅇㅡㄹㄸㅐㄴ	-14420
ㅎㅚㅇㅔㅅㅓ	-14421
▁ㅈㅣㅇㅝㄴㅇㅡㄹ	-14422
▁ㄷㅗㄴㅇㅣㅁㅕㄴ	-14423
▁ㄴㅡㄲㅕㅈㅣㄴㄷㅏ	-14424
▁ㅅㅔㅈㅓㅇ	-14425
▁ㅇㅣㅂㅈㅜ	-14426
▁ㅅㅣㅈㅏㅇㅇㅔ	-14427
▁ㅂㅕㄹㄹㅜ	-14428
▁ㅇㅓㅍㅡㄹ	-14429
ㄷㅡㄴㅡㄴㄷㅔ	-14430
▁ㄷㅚㄱㅔㅆㄷㅏ	-14431
▁ㅅㅏㄱㅘㅎㅏㄱㅗ	-14432
▁ㅇㅗㅈㅜㄱㅎㅏㅁㅕㄴ	-14433
ara	-14434
▁ㅅㅠㅍ	-14435
ㅏㄴㄱㅔ	-14436
▁ㄱㅐㅂㅏㅇ	-14437
ㅁㅜㄹㄱㅓㄴ	-14438
▁ㄴㅏㅁㅂㅏㄹ	-14439
▁ㅇㅑㅇㅅㅓㅇ	-14440
▁ㅈㅓㅇㅅㅣㄱ	-14441
▁ㄱㅐㄴㅕㅁㅇㅓㅄㄴㅡㄴ	-14442
ㄹㅑㅇㅇㅡㄴ	-14443
ㅎㅏㄹㄲㅏㅇㅛ	-14444
ㅁㅜㄴㅇㅔ	-14445
▁ㅊㅚㅅㅜㄴㅅㅣㄹㅇㅡㄹ	-14446
▁ㄱㅡㄹㅣㅇㅝ	-14447
▁ㅇㅣㄹㄷㅡㅇ	-14448
▁ㅂㅜㄱㅕㄹ	-14449
ㅇㅣㄴㅁㅕㄹ	-14450
ㅣㄹㅏㄴㅡㄴ	-14451
ㅕㅇㅑㅎㅏㄴㄷㅏ	-14452
▁ㅅㅐㅇㄱㅏㄱㅎㅐㅂㅗㅁㅕㄴ	-14453
ㅂㅗㅇㅣㄹ	-14454
ㅏㅁㅏㄷㅏ	-14455
ㅋㅡㄹㄹㅓㅂ	-14456
▁ㅈㅓㅇㅇㅠㄴ	-14457
▁ㅊㅏㅁㅇㅡㄹ	-14458
▁ㅈㅓㄱㅇㅓ	-14459
ㄷㅡㄹㅈㅗㅁ	-14460
▁ㅈㅏㄱㅅㅏㄹ	-14461
ㄲㅜㅇ	-14462
ㅇㅓㅂㅗㅁㅕㄴ	-14463
ㄱㅗㅇㅇㅝㄴ	-14464
▁ㅇㅣㄹㅡㅁㅁㅏㄴ	-14465
▁ㅊㅜㅇㅅㅣㄹ	-14466
▁ㅎㅐㅂㅗㄱㅗ	-14467
▁ㅎㅣㅁㄷㅡㄹㅇㅓㅅㅓ	-14468
ㅁㅗㅇㅑㅇ	-14469
▁ㅅㅐㅇㄱㅏㄱㅎㅏㄴㅏ	-14470
▁ㅌㅗㅎㅐ	-14471
▁ㅈㅏㄹㅎㅏㄷㅓㄹㅏ	-14472
▁ㅇㅕㄴㅇㅖㅇㅣㄴㄷㅗ	-14473
ㄴㅏㄱㅏㅅㅓ	-14474
▁ㅇㅓㄴㅡㄴㅏㄹ	-14475
▁ㄹㅗㅅㄷㅔㄴㅡㄴ	-14476
▁ㅇㅡㅁㅅㅣㄱㅈㅓㅁ	-14477
ㅊㅐㄹㅗ	-14478
ㅁㅏㅅㅇㅣ	-14479
▁ㅅㅏㅈㅣㄴㅇㅣ	-14480
▁ㄱㅏㅈㅓㅇㅇㅔㅅㅓ	-14481
ㅡㄴㅑ	-14482
ㅅㅔㅇㅝ	-14483
ㅁㅏㅇㅣㄴ	-14484
ㅁㅏㅈㄱㅔ	-14485
▁ㅅㅗㅇㅝㄴ	-14486
ㅂㅏㄹㅅㅐㅇ	-14487
▁ㅂㅏㄲㅟㅁㅕㄴ	-14488
▁ㅁㅗㄹㅡㄱㅔㅆㄴㅔㅇㅛ	-14489
▁ㅇㅣㄴㅕㅁ	-14490
▁ㅁㅕㅊㅍㅜㄴ	-14491
▁ㅇㅣㅇㅘㅈㅜㅇㅇㅔ	-14492
ㅅㅏㄴㅇㅔ	-14493
▁ㄱㅘㅈㅣㅇ	-14494
▁ㅈㅗㅅㅂㅜㄹ	-14495
▁ㅅㅏㄹㄹㅣㄱㅗ	-14496
▁ㅆㅡㅈㅣㅁㅏㄹㅏ	-14497
▁ㅅㅜㅅㅏㅇㅅㅗㄱㅏㅁ	-14498
ㅍㅏㄱㅚ	-14499
ㅇㅠㅌㅗㅇ	-14500
ㅜㄴㅇㅡㄹ	-14501
▁ㅇㅡㅇㅇㅝㄴㅎㅏㄹㄱㅔㅇㅛ	-14502
ㅍㅔㄱ	-14503
▁ㄷㅏㄴㄷㅜ	-14504
▁ㅂㅓㄹㅕㄹㅏ	-14505
▁ㅁㅏㄶㄷㅓㄴㄷㅔ	-14506
▁ㄸㅜㄹ	-14507
ㅣㅣㅣㅣ	-14508
▁ㄴㅏㄴㅂㅏㅇ	-14509
ㅅㅗㄴㅇㅡㄹㅗ	-14510
▁ㄷㅡㄹㅇㅏ	-14511
ㅏㅁㄷㅐㄹㅗ	-14512
ㄱㅏㅅㅡㅁ	-14513
▁ㅃㅏㅈㅕㅅㅓ	-14514
▁ㅇㅕㄱㅣㄷㅗ	-14515
▁ㅊㅓㄹㅎㅏㄱ	-14516
ㄷㅓㄱㅜㅁㅏㄴ	-14517
ㅎㅏㄹㄹㅏㄱㅗ	-14518
ㅂㅜㅇㅣㄴ	-14519
▁ㅎㅛㄱㅘㄱㅏ	-14520
▁ㅎㅕㄴㅈㅐㅇㅢ	-14521
▁ㅂㅏㄷㅇㅏㅇㅑㅈㅣ	-14522
▁ㅇㅕㄹㅓㅂㅓㄴ	-14523
▁ㅂㅗㄴㅈㅓㄱㅇㅣ	-14524
ㄹㅣㄹㅕㄱㅗ	-14525
▁ㄱㅣㅁㅌㅐㅎㅗ	-14526
▁ㅍㅗㄱㅂㅏ	-14527
▁ㅃㅜㄴㅇㅣㅈㅣ	-14528
▁ㅇㅑㅇㅈㅓㄱ	-14529
ㅍㅡㅌㅡ	-14530
▁ㅅㅓㅁㅕㅇ	-14531
▁ㄷㅏㄹㅡㄴㄱㅔ	-14532
▁ㄱㅡㄹㅓㄴㄷㅔㄷㅗ	-14533
▁3~4	-14534
ㅈㅣㄱㅣㄴ	-14535
▁ㄱㅠㅎㅕㄴ	-14536
▁ㅂㅣㄱㅓㅂ	-14537
▁ㅅㅏㄹㅇㅏㅇ	-14538
▁ㅆㅡㄹㅆㅡㄹ	-14539
ㅁㅣㅌㅓ	-14540
▁ㄱㅙㄴㅊㅏㄶㄷㅏ	-14541
ㄴㅡㄴㄷㅣ	-14542
ㅅㅣㄴㅏㅇㅛ	-14543
ㅇㅣㅇㅕㅆㄷㅏ	-14544
▁ㅎㅢㅁㅏㅇㅇㅡㄹ	-14545
▁ㅇㅓㅄㅇㅓㅈㅣㄱㅗ	-14546
▁ㅈㅏㄹㅎㅏㄴㅡㄴㄷㅔ	-14547
ㅈㅓㄴㄹㅕㄱ	-14548
ㅇㅑㅇㅇㅏㅊㅣ	-14549
ㄱㅔㅎㅏㄱㅗ	-14550
▁ㅎㅏㄴㅁㅏㄹ	-14551
▁ㅇㅚㄱㅜㄱㅇㅣㄴㄷㅡㄹ	-14552
ㅇㅙㄴ	-14553
▁ㄱㅓㄷㅡㄹ	-14554
ㅅㅏㅁㅇㅏ	-14555
▁ㅈㅣㄴㅈㅣㅎㅏㄱㅔ	-14556
▁ㄷㅗㅋㅛ	-14557
▁ㄷㅗㄴㄱㅘ	-14558
▁ㅈㅓㄴㅌㅜ	-14559
ㅅㅏㅇㄹㅠㄱ	-14560
▁ㄴㅓㅁㅇㅓㅇ	-14561
▁ㅅㅏㅇㅣㅌㅡ	-14562
ㅈㅓㄴㄱㅣㅅㅔ	-14563
ㅂㅕㅇㅇㅣ	-14564
▁ㅁㅓㅇㅁㅓㅇ	-14565
▁ㄴㅏㄹㅆㅣㄷㅗ	-14566
▁ㅇㅏㄴㅣㅇㅓㅆ	-14567
▁ㅎㅏㄴㅅㅜㄴㄱㅏㄴ	-14568
▁ㄱㅒㄴㅔ	-14569
▁ㅎㅘㅍㅖ	-14570
ㅈㅗㅇㅇㅕㅇ	-14571
▁ㅇㅣㅌㅐㄱㅗㄴ	-14572
▁ㅎㅞㅅㅗㄴ	-14573
ㅎㅏㄱㅣㄹㅗ	-14574
▁ㄱㅕㅇㄹㅕㄱ	-14575
ㄴㅏㄱㅏㄴㅡㄴ	-14576
ㅈㅏㅊㅔㄹㅡㄹ	-14577
▁ㄱㅏㄱㅗㅅㅣㅍ	-14578
▁ㄴㅜㅈㅣㄴㅅㅔㄴㅡㄴ	-14579
ㄷㅏㅈㅣ	-14580
ㅈㅓㄱㅓ	-14581
ㄱㅏㅍㅗㄹ	-14582
ㅎㅐㅈㅕㅆ	-14583
▁ㄱㅏㅅㅏㅇ	-14584
▁ㅈㅏㅂㅎㅕ	-14585
▁ㄱㅏㅇㅇㅏ	-14586
ㅅㅓㄹㅎㅕㄴ	-14587
▁ㄷㅡㄹㅇㅓㄱㅏㄱㅗ	-14588
ㅇㅣㄱㅓㄹ	-14589
▁ㅁㅣㅁㅏㄴ	-14590
▁ㄴㅏㄹㅏㅌㅏㅅ	-14591
▁ㅅㅟㄴ	-14592
▁ㄴㅗㄱㅊㅟ	-14593
▁ㅈㅗㅅㅏㄹㅡㄹ	-14594
▁ㄹㅐ	-14595
▁ㅇㅣㄹㅗ	-14596
ㅈㅜㅇㅣㄹ	-14597
ㅂㅓㅂㅇㅣㄴ	-14598
▁ㅅㅠㅍㅓㅁㅐㄴ	-14599
▁ㄴㅓㅁㅊㅣㄴㅡㄴ	-14600
▁ㅁㅗㅅㅎㅐㅆㄷㅏ	-14601
▁ㄷㅏㅇㅅㅣㄴㅇㅡㄹ	-14602
ㅟㄹㅡㄹ	-14603
▁ㄲㅐㄷㅏㄷ	-14604
ㄱㅗㅇㄱㅏㅁ	-14605
▁ㅈㅏㄹㄴㅏㄱㅏ	-14606
▁ㅇㅏㄴㅆㅡㄴㄷㅏ	-14607
▁ㅎㅓㅂ	-14608
▁ㄷㅡㄹㄹㅕ	-14609
▁ㅅㅠㅍㅓㅋㅓㅁㅍㅠ	-14610
▁ㅇㅏㄴㅈㅜㅇㄱㅡㄴ	-14611
ㅍㅏㅋㅡ	-14612
ㅇㅟㅇㅏㄴ	-14613
▁ㅇㅗㅈㅣㄴㅔ	-14614
▁ㄴㅏㅁㅇㅔㄱㅔ	-14615
▁ㅇㅣㄷㅡㄹㅇㅡㄴ	-14616
▁ㄱㅣㅍㅇㅣ	-14617
▁ㅂㅜㄴㄹㅠ	-14618
▁ㅇㅗㅈㅓㄴ	-14619
ㄴㅏㅁㅍㅕㄴ	-14620
▁ㅊㅜㄹㅅㅓㄱ	-14621
▁*	-14622
▁ㄱㅗㄱㅗ	-14623
ㅂㅗㄱㅣㄹㅗ	-14624
▁ㅂㅣㅈㅠㅇㅓㄹ	-14625
▁ㅁㅏㄴㄷㅡㄴㅡㄴㄷㅔ	-14626
1%	-14627
ue	-14628
ㅇㅘㄹ	-14629
▁ㅊㅔㅎㅓㅁ	-14630
▁sk	-14631
ㅇㅝㄹㅅㅔ	-14632
▁ㄴㅏㅎㅇㅡㄴ	-14633
ㄱㅜㄴㄷㅔ	-14634
ㅁㅗㄱㅇㅣ	-14635
ㅅㅜㅇㅣㄱ	-14636
ㅅㅣㄹㅇㅡㄹ	-14637
ㅇㅝㄴㄷㅡㄹ	-14638
ㄱㅔㅆㄷㅏㄴㅡㄴㄷㅔ	-14639
▁ㅁㅏㄹㄷㅓㄴ	-14640
ㅈㅏㅎㅏㄴㅌㅔ	-14641
▁ㄱㅜㅅㅗㄱㅅㅜㅅㅏ	-14642
ㅇㅕㄴㅇㅐ	-14643
▁ㅈㅓㄱㅓㅅ	-14644
ut	-14645
ㅋㅡㄹㅣ	-14646
....?	-14647
▁ㄱㅓㄴㄴㅓ	-14648
▁ㅅㅏㅇㄷㅐㄱㅏ	-14649
▁ㅇㅐㅂㄷㅡㅇㅇㅣ	-14650
ㅊㅜㄱㅣ	-14651
ㅊㅟㅇㅓㅂ	-14652
▁ㄱㅚㅁㅜㄹ	-14653
▁ㄲㅏㄲㅇㅏ	-14654
▁ㄷㅐㅈㅏㄱ	-14655
ㅂㅜㄹㅓㅂ	-14656
ㅍㅜㅁㅇㅣ	-14657
▁ㅅㅏㅌㅐㄱㅏ	-14658
▁ㅅㅡㅇㅇㅛㅇ	-14659
ㄱㅏㅌㅇㅏㅇㅛ	-14660
▁ㅈㅓㄹㄷㅐㅇㅏㄴ	-14661
▁ㅋㅓㄴㅌㅔㄴㅊㅡ	-14662
ㄴㅐㅇㅔ	-14663
ㅂㅗㅈㅣㄷㅗ	-14664
▁ㄷㅐㅅㅏㅇㅇㅡㄹ	-14665
▁ㅃㅏㅇㅃㅏㅇㅎㅏㄱㅔ	-14666
▁ㅎㅓㄱㅜㅎㅓㄴㄴㅏㄹ	-14667
ㅂㅜㄹㅏㅇ	-14668
▁ㅎㅗㅎㅘㅇ	-14669
ㅃㅏㅇㅣ	-14670
▁ㅁㅕㅊㅊㅓㄴ	-14671
▁ㅈㅏㅂㅇㅡㄴ	-14672
▁ㄷㅡㄹㅏㅁㅏㄹㅗ	-14673
▁ㅈㅣㄱㅡㅁㅇㅣㄴㅏ	-14674
▁ㄱㅜㅈㅔ	-14675
ㄷㅐㅁㅏㄴ	-14676
▁ㅈㅏㅅㅔㅎㅣ	-14677
▁ㄱㅗㅅㅡㄹㅏㄴㅎㅣ	-14678
▁ㄱㅜㅎㅕㅇ	-14679
▁ㅇㅒㄱㅣㄴ	-14680
ㅎㅏㄷㅏㅁㅕㄴ	-14681
▁ㄷㅚㄱㅔㅆㅈㅣ	-14682
▁ㅁㅝㄴㄱㅏㅇㅛ	-14683
▁ㅊㅏㄹㅣㄹ	-14684
ㅇㅣㄱㅓㄴㅏ	-14685
▁ㅇㅣㄱㅓㅅㄷㅡㄹㅇㅡㄴ	-14686
▁ㅇㅣㄴㅈㅓㅇㅎㅏㄴㅡㄴ	-14687
net	-14688
ㄱㅗㄷㅡㅇ	-14689
▁ㄷㅏㅁㅎㅏㅂ	-14690
▁ㅇㅏㄴㄷㅡㄹㅗㅇㅣㄷㅡ	-14691
ㅎㅏㄹㅁㅏㄴㅎㅏㄴ	-14692
▁ㅁㅏㄹㅎㅏㄴㅡㄴㄱㅓ	-14693
▁ㅈㅓㅇㅅㅣㄴㅊㅏㄹㅣㄱㅗ	-14694
ㅊㅣㅈㅏ	-14695
▁ㄴㅗㅍㄱㅔ	-14696
▁ㅇㅏㄶㄷㅗㄹㅗㄱ	-14697
ㅇㅗㄹㄹㅣㅁㅍㅣㄱ	-14698
▁ㅈㅓㄻㅇㅡㄴㅇㅣㄷㅡㄹ	-14699
ㅕㄱㅜ	-14700
ㅎㅕㄴㅅㅏㅇ	-14701
▁ㅇㅜㅅㄱㅣㄷㅏ	-14702
▁ㅁㅏㄶㅈㅣㅁㅏㄴ	-14703
ㅈㅣㄱㅎㅏㄴ	-14704
▁ㄱㅏㄹㅡㅊㅕ	-14705
▁ㄷㅔㅇㅣㅌㅡ	-14706
▁ㅆㅏㄷㅏㄱㅗ	-14707
▁ㅈㅜㄷㅜㅇㅇㅣ	-14708
▁ㅈㅔㄱㅣ	-14709
▁ㅈㅐㄱㅓㄴ	-14710
▁ㅂㅏㄲㅟㄱㅗ	-14711
▁ㅈㅐㅅㅏㄴㅇㅣ	-14712
▁ㅇㅣㄱㅏㄴ	-14713
ㅂㅏㄹㅏㄴㄷㅏ	-14714
▁ㅇㅓㄹㄱㅜㄹㅁㅏㄴ	-14715
ㅁㅏㅌ	-14716
ㅜㅇㅛㄱ	-14717
▁ㅁㅓㄹㅏ	-14718
ㅁㅓㄱㅇㅓ	-14719
ㅎㅐㅇㅑㅈㅛ	-14720
▁ㅂㅗㄴㅐㅇㅑ	-14721
▁ㅂㅣㅈㅇㅡㄹ	-14722
▁ㅎㅏㄴㅁㅜㄹ	-14723
▁ㄱㅡㄷㅏㅇㅅㅣ	-14724
▁ㅂㅓㅂㅡㄹ	-14725
ㄱㅜㄱㅇㅣㄴ	-14726
▁ㄴㅏㄹㅏㅇㅑ	-14727
ㅅㅐㄲㅣㄷㅡㄹㅇㅣ	-14728
▁ㅇㅣㅆㅇㅡㄹㄲㅏㅇㅛ	-14729
▁ㅅㅏㄱㅟㄴ	-14730
ㅎㅏㄴㄱㅜㄱㅇㅡㄴ	-14731
ㅂㅜㄴㅎㅐ	-14732
▁ㄱㅗㄹㄹㅏ	-14733
ㅕㅆㅇㅡㅁㅕ	-14734
▁ㄷㅐㄱㅠㅁㅗ	-14735
▁ㄱㅓㅅㄷㅡㄹㅇㅏ	-14736
▁ㅅㅏㄹㅇㅏㄱㅏㄹ	-14737
▁ㄷㅗㅅㅓㅈㅓㅇㄱㅏ	-14738
▁ㅋㅗㅁㅔ	-14739
ㅍㅏㄴㄷㅏㄴ	-14740
ㅅㅣㅈㅏㅇㅇㅡㄴ	-14741
▁th	-14742
ㄴㅐㄴㅕㄴ	-14743
ㅅㅏㅅㅏㅇ	-14744
ㄱㅣㅁㅈㅗㅇ	-14745
ㅃㅓㄴㅃㅓㄴ	-14746
▁ㅈㅣㄴㅅㅜㄹ	-14747
▁ㅇㅣㄱㅕㅇㅈㅐ	-14748
ㅎㅣㅁㄷㅡㄹㄷㅏ	-14749
▁ㄷㅗㄹㄷㅐㄱㅏㄹㅣ	-14750
ㅏㄵ	-14751
ㅈㅣㅅㄱㅓㄹ	-14752
▁ㄷㅏㄹㄹㅣㄴㅡㄴ	-14753
▁ㄱㅗㅇㅎㅛ	-14754
▁ㄴㅡㄺㅇㅓ	-14755
▁ㄱㅡㅈㅓㄴㅇㅔ	-14756
▁ㅈㅓㅇㅅㅏㅇㅎㅘ	-14757
▁ㅎㅏㄴㅎㅖㅈㅣㄴ	-14758
ㅅㅏㄹㅏㅁㄷㅡㄹㄷㅗ	-14759
▁ㅈㅣㅍ	-14760
▁ㄴㅏㄲㅅㅣ	-14761
▁ㅎㅏㅇㅟ	-14762
ㅉㅣㄱㅇㅓ	-14763
ㅅㅣㄴㅊㅓㅇ	-14764
▁ㅇㅏㄴㅅㅣㅁ	-14765
▁ㅊㅓㄴㄷㅜㅇ	-14766
ㅈㅗㅎㄷㅏㄱㅗ	-14767
▁ㅁㅏㄱㄷㅐㅎㅏㄴ	-14768
ㅣㅇㅏ	-14769
ㅉㅗㄱㅍㅏㄹ	-14770
ㅕㅇㅇㅡㄹㅗ	-14771
▁ㄱㅣㅁㅅㅏ	-14772
ㄴㅡㄴㄱㅓㄹ	-14773
ㅇㅣㄴㄱㅓㄷㅏ	-14774
▁ㅅㅣㄴㅐ	-14775
ㅅㅣㄴㄱㅣ	-14776
ㅇㅏㄴㅣㅈㅣ	-14777
ㅇㅣㄴㅑㄱㅗ	-14778
▁ㅅㅜㅇㅛㄱㅏ	-14779
▁ㅈㅝㅇㅑㅈㅣ	-14780
▁ㅅㅓㅇㄷㅗㅇㅇㅣㄹ	-14781
▁and	-14782
ㅃㅜㄴㅇㅣ	-14783
ㅈㅓㄴㅅㅔ	-14784
▁ㅇㅡㅁㄹㅛ	-14785
▁ㅎㅟㅊㅓㅇ	-14786
ㅇㅜㄹㅣㄴㅡㄴ	-14787
▁ㄱㅜㄱㄴㅐㅇㅔ	-14788
▁ㅎㅏㄹㄱㅓㅁㅕㄴ	-14789
▁ㅇㅕㄱㅏ	-14790
▁ㅆㅡㄷㅓㄴ	-14791
ㅂㅏㄴㅇㅡㅇ	-14792
▁ㅅㅏㅇㅅㅏㅇㄷㅗ	-14793
▁ㅇㅓㅄㄱㅜㅁㅏㄴ	-14794
▁ㄴㅓㅁㅜㅎㅏㄴㄷㅏ	-14795
▁ㅇㅏㄹㄱㅔㅆㅈㅣㅁㅏㄴ	-14796
ㄱㅡㄹㅓㄱㅗ	-14797
ㅂㅣㅂㄴㅣㄷㅏ	-14798
▁ㄲㅗㄱㄷㅜㄱㅏㄱ	-14799
▁ㅇㅣㄴㅏㄹㅏㄹㅡㄹ	-14800
▁ㅈㅓㅇㅇㅠㄹㅏㄱㅏ	-14801
ㅅㅂㅜㄹ	-14802
▁ㄱㅏㅅㅡㅂ	-14803
▁ㅁㅏㅈㅊㅜㄹ	-14804
▁ㅎㅐㅆㄷㅏㄱㅏ	-14805
▁ㄱㅖㅈㅣㅂ	-14806
▁ㅌㅗㅇㅅㅜ	-14807
▁ㅎㅡㄴㅎㅏㄴ	-14808
▁ㅈㅐㅁㅣㄴㅡㄴ	-14809
ㅇㅜㅁㅕㄴ	-14810
▁ㅅㅓㄷㅡㄴ	-14811
▁ㅂㅓㅁㅈㅚㄹㅡㄹ	-14812
ㅇㅏㅅㅟ	-14813
▁ㅂㅏㄺㅎㅣ	-14814
▁ㅈㅜㅇㄱㅗㅊㅏ	-14815
▁ㄱㅓㄴㄱㅏㅇㅇㅔ	-14816
▁ㄱㅓㄱㅈㅓㅇㄷㅚㄴㄷㅏ	-14817
▁ㅅㅗㅅㅗㄱㅅㅏㅇㅔㅅㅓ	-14818
ㅅㅜㄹㅏㅇ	-14819
▁ㅁㅏㅈㅣㄴ	-14820
ㅇㅏㅍㅇㅡㄹㅗㄷㅗ	-14821
ㅅㅣㄱㅏㄴㄷㅗㅇㅇㅏㄴ	-14822
▁ㄷㅔㄹ	-14823
ㄱㅣㄹㅇㅔ	-14824
▁ㅊㅜㅈㅗㅇ	-14825
ㄴㅏㄹㄷㅡㅅ	-14826
ㅇㅣㄴㄱㅓㄴㄱㅏ	-14827
▁ㅇㅣㄹㅓㄴㅁㅏㄹ	-14828
ㄷㅔㅇ	-14829
▁ㄱㅣㅁㄱㅕㅇ	-14830
▁ㅁㅓㅅㅈㅣㄱㅔ	-14831
▁ㅇㅜㅉ	-14832
▁ㅂㅐㄱㅁㅏㄴ	-14833
▁ㅠㅜ	-14834
▁ㅁㅓㅅㅈㅕ	-14835
ㅂㅜㄴㅇㅕㄹ	-14836
▁ㅇㅏㄴㄴㅏㅇㅗ	-14837
ㅡㄹㅡ	-14838
▁ㄲㅜㅁㅇㅡㄹ	-14839
▁ㄴㅏㅃㅡㅈㅣ	-14840
ㄸㅜㄱㅣ	-14841
▁ㅂㅓㅂㅇㅔ	-14842
ㅈㅏㅇㅎㅏㄴ	-14843
▁4000	-14844
▁ㅇㅣㄱㅣㅅㅏ	-14845
▁ㅅㅏㄱㅘㄹㅡㄹ	-14846
▁ㅎㅠㅇㄱㅣㅊㅏ	-14847
ㅎㅏㄹㅅㅜㅂㅏㄲㅇㅔ	-14848
▁ㅍㅏㅁ	-14849
ㅈㅔㄱㅜㄱ	-14850
▁ㅈㅏㄹㅣㄱㅏ	-14851
ㅇㅕㅈㅏㄴㅡㄴ	-14852
▁ㅅㅏㄴㅈㅏㅂㅜ	-14853
ㄹㅓㄷㅡㄹ	-14854
ㄹㅣㄷㅡㄹ	-14855
ㅅㅐㅇㅇㅡㄹ	-14856
▁ㅈㅓㄱㅣㅅㅓ	-14857
▁ㅇㅕㅈㅜㅇㅣㄴㄱㅗㅇ	-14858
▁ㅁㅐㅈ	-14859
ㄷㅐㅈㅓㅂ	-14860
ㅅㅜㅅㅏㅇ	-14861
▁ㅈㅏㅅㅗㄴ	-14862
ㅏㅇㅜ	-14863
ㅂㅏㄹㄹㅗ	-14864
▁ㅁㅜㅇㅣㅁㅅㅡㅇ	-14865
▁ㅎㅘㅎㅏㄱ	-14866
ㅈㅓㅇㄷㅗㅇㅢ	-14867
ㅍㅏㅇㅔ	-14868
ㅂㅜㄱㅕㄱ	-14869
▁ㅂㅣㄹㅇㅓ	-14870
ㅅㅣㄹㅣㅈㅡ	-14871
ㅇㅖㅅㄴㅏㄹ	-14872
▁ㅂㅏㅂㅇㅡㄹ	-14873
▁ㄲㅜㅁㄷㅗ	-14874
▁ㄴㅓㄱㅏㅌㅇㅡㄴ	-14875
▁ㅈㅓㅇㅊㅐㄱㅇㅡㄴ	-14876
ㅅㅗㅅㅓ	-14877
▁ㅇㅗㅈㅣㅇ	-14878
▁ㅈㅓㄱㅡㅂ	-14879
ㅅㅣㄴㅂㅜㄴ	-14880
▁ㄷㅏㄴㅁㅏㄹㄱㅣ	-14881
▁ㄱㅐㅅㅓㅇㄱㅗㅇㄷㅏㄴ	-14882
▁ㅈㅓㅂㄷㅐ	-14883
▁ㄱㅏㅆㄷㅏㅇㅘ	-14884
▁ㅁㅗㅅㅎㅏㄱㅔㅆ	-14885
▁ㅎㅕㄴㅅㅣㄹㅇㅔ	-14886
▁ㅌㅔㅅㅡㅌㅡ	-14887
▁ㄷㅚㅈㅣㅁㅏㄴ	-14888
▁ㅇㅟㅎㅐㅅㅓㄹㅏㄷㅗ	-14889
▁ㅇㅣㅆㅇㅓㅆㅈㅣㅁㅏㄴ	-14890
▁ㅅㅗㄱㅊㅗ	-14891
ㄱㅏㅁㅇㅡㄹㅗ	-14892
▁ㅇㅏㄴㅌㅏㄲㅏㅇㅝ	-14893
▁ㅋㅣㄱㅏ	-14894
ㄱㅜㅇㅕㄱ	-14895
▁ㅂㅗㄴㅐㄹㅏ	-14896
▁ㅊㅏㅇㅣㄴㅏ	-14897
ㅅㅏㅇㄷㅐㄹㅗ	-14898
▁ㅇㅓㄴㅡㄴㅏㄹㅏ	-14899
▁ㅈㅗㅎㅇㅡㄴㄱㅓㄴ	-14900
1000	-14901
ㅇㅔㅇㅔ	-14902
ㅇㅕㄴㄱㅣㄷㅗ	-14903
ㅎㅏㄱㅣㅇㅔㄴ	-14904
▁ㄱㅜㄱㅈㅓㅇㅇㅡㄹ	-14905
ㅆㅛ	-14906
▁ㅇㅓㅄㄷㅓㄴㄷㅔ	-14907
▁ㅈㅓㄱㄷㅏㅇㅎㅏㄴ	-14908
▁ㅍㅣㅈㅏ	-14909
▁ㄴㅗㅍㄱㅗ	-14910
▁ㄴㅏㅂㅗㄷㅏ	-14911
▁ㄷㅐㅅㅓㄴㄸㅐ	-14912
▁ㅇㅓㄷㅣㅆㄴㅑ	-14913
▁ㅌㅐㄷㅗ	-14914
▁ㄷㅣㅅㅡㅍㅐ	-14915
ㅅㅜㅇㅓㅄㄷㅏ	-14916
ㅇㅣㅆㅇㅡㄹㄲㅏ	-14917
▁ㅊㅜㄹㅇㅕㄴㅈㅣㄴ	-14918
▁ㅁㅜㄴㅊㅔ	-14919
▁ㅁㅜㄹㄹㅠ	-14920
▁ㅃㅏㄹㅇㅏㅁㅓㄱ	-14921
▁ㅁㅜㅇㅢ	-14922
ㄱㅏㅁㅇㅣㄷㅏ	-14923
ㅅㅡㄹㅓㅂㄴㅔ	-14924
▁ㅎㅏㄴㅡㄴㄱㅓㄴㅑ	-14925
▁ㅎㅏㄴㅡㄴㄱㅓㄴㄷㅔ	-14926
ㅅㅜㄹㅣ	-14927
ㄹㅕㅇㅑㅈㅣ	-14928
ㅁㅏㄹㄷㅓㄴ	-14929
ㅅㅡㅋㅣㅅㅡ	-14930
▁ㅁㅕㅇㅂㅜㄴ	-14931
▁ㅇㅕㅈㅏㅎㅏㄴㅌㅔ	-14932
▁ㅈㅗㅅㅣㅁㅎㅐㄹㅏ	-14933
ㄷㅡㄹㅎㅏㄴㅌㅔㄴㅡㄴ	-14934
▁ㅇㅓㅉㅓㄹㅅㅜㅇㅓㅄㅇㅣ	-14935
▁ㄱㅗㅊㅣㄹ	-14936
ㅅㅐㅇㅁㅕㅇ	-14937
▁ㅇㅣㅎㅜㅇㅔ	-14938
ㅎㅏㄱㅗㅇㅣㅆㄴㅡㄴ	-14939
▁ㅎㅏㄴㄱㅜㄱㅇㅔㅅㅓㄴㅡㄴ	-14940
▁ㄴㅏㅈㅣ	-14941
ㄱㅔㅅㄴㅑ	-14942
▁ㄱㅜㅊㅜㄱ	-14943
▁ㅈㅣㄱㅈㅓㄴ	-14944
ㄷㅗㅇㅓㅄㅇㅣ	-14945
ㅈㅜㄹㅇㅏㄴㅏ	-14946
ㅈㅣㄹㅏㄴㅡㄴ	-14947
▁ㅊㅣㅋㅣㄴㅈㅣㅂ	-14948
▁ㄱㅐㄷㅙㅈㅣㄷㅡㄹㅇㅡㄴ	-14949
ㅇㅘㅇㅣ	-14950
ㄹㅏㄴㅇㅣ	-14951
ㄷㅗㄲㅐㅂㅣ	-14952
▁ㅈㅟㄲㅗㄹㅣ	-14953
▁ㄱㅡㄴㄹㅗㅈㅏ	-14954
▁ㄴㅏㄴㅡㄴㄷㅔ	-14955
▁ㅁㅗㅅㅎㅏㄴㅏ	-14956
▁ㄴㅏㅇㅘㅆㄷㅓㄴ	-14957
ㄹㅏㅁㅕ	-14958
▁ㅈㅜㅅㅗ	-14959
ㅇㅣㄴㅎㅏ	-14960
▁ㅇㅠㅎㅡㅇ	-14961
▁ㅍㅖㅈㅣㄱㅏ	-14962
▁ㄷㅡㄹㅇㅡㅁㅕㄴ	-14963
ㄱㅓㄹㄹㅣㄴ	-14964
ㅅㅣㄹㄹㅕㄱ	-14965
ㅅㅣㄹㅇㅓㅂ	-14966
ㅎㅐㅇㅑㄷㅚㅁ	-14967
▁ㅇㅣㄱㅓㄴㅁㅝ	-14968
▁ㅇㅏㄶㅇㅏㅆㅇㅡㄹ	-14969
▁ㅂㅐㅉㅐ	-14970
▁ㅇㅜㅇㅝㄹ	-14971
▁ㅎㅑㅇㅎㅜ	-14972
▁ㅎㅐㅁㅏㄷㅏ	-14973
▁ㅇㅏㄴㄱㅡㄹㅐ	-14974
▁ㅇㅣㅇㅑㄱㅣㄱㅏ	-14975
▁ㅁㅗㅅㅎㅏㄴㄷㅏㄱㅗ	-14976
ㅅㅇ	-14977
ㅗㄴㅕ	-14978
ㄱㅜㅁㅐ	-14979
ㅅㅔㅇㅛㅇ	-14980
▁ㅅㅡㅅㅡㄹ	-14981
▁ㅇㅔㅁㅂㅣㅆㅣ	-14982
ㅈㅣㅇㅏㄶㅇㅡㄹㄲㅏ	-14983
▁ㅁㅏㅅㄷㅗ	-14984
ㅉㅏㄱㅉㅏㄱ	-14985
▁ㅇㅛㄱㅅㅓㄹ	-14986
▁ㅈㅡㄹㄱㅣㄹ	-14987
▁ㅇㅜㄹㅣㅇㅔㄱㅔ	-14988
▁ㄷㅗㅈㅓㄱ	-14989
ㅁㅓㅇㅊㅓㅇ	-14990
ㅂㅜㄹㅁㅏㄴ	-14991
mm	-14992
▁ㅂㅏㄱㄹㅎㅖ	-14993
▁ㅇㅙㄴㅑㅁㅕㄴ	-14994
ㅎㅏㄴㅅㅣㅁㅎㅏㄷㅏ	-14995
▁ㅅㅑㅇㅝ	-14996
▁ㅁㅗㄹㄹㅏㅆㄴㅡㄴㄷㅔ	-14997
▁ㄱㅡㄹㅓㄱㅗㄷㅗ	-14998
▁ㅅㅏㅇㅅㅣㄱㅇㅣ	-14999
▁ㅇㅣㅁㅣㅈㅣㄴㅡㄴ	-15000
▁ㅇㅚㄱㅜㄱㅇㅣㄴㅇㅣ	-15001
ㅈㅏㄹㅏㄴ	-15002
▁ㅌㅏㅁㅕㄴ	-15003
▁ㅁㅏㄶㄴㅔㅇㅛ	-15004
▁ㅇㅕㅈㅏㅁㅏㄴ	-15005
TA	-15006
▁ㅈㅜㅇㅠ	-15007
▁ㅂㅗㅇㅕㅈㅝㅇㅑ	-15008
▁ㅇㅗㅂㅓㅇㅝ	-15009
▁ㅂㅜㅍㅐㅎㅏㄴ	-15010
▁ㅂㅏㄴㅌㅗㅁㅏㄱ	-15011
▁ㅎㅏㄴㄴㅏㅁㅊㅜㅇ	-15012
▁ㄱㅘㅇㅂㅗㄱㅈㅓㄹㅇㅔ	-15013
ㅈㅜㄹㅇㅏㄹㅇㅏㅆㄴㅡㄴㄷㅔ	-15014
▁ㅊㅡㅇ	-15015
ㄱㅜㅇㅝㄴ	-15016
▁ㅇㅏㅁㅁㅏㄴ	-15017
ㅇㅕㅈㅏㄷㅡㄹ	-15018
ㅈㅓㅇㄱㅝㄴㅇㅣ	-15019
▁ㄸㅓㄹㅇㅓㅈㅣㅁ	-15020
▁ㅈㅣㅇㅂㅓㄹㅈㅓㄱ	-15021
▁ㅇㅜㄴㅈㅓㄴㅁㅕㄴㅎㅓ	-15022
▁ㅈㅣㅅㅇㅣ	-15023
ㅁㅗㅅㅎㅏㄹ	-15024
ㅈㅗㅇㅇㅡㄴ	-15025
▁ㅈㅗㅎㅇㅡㄴㅣ	-15026
ㅈㅓㅇㅊㅐㄱㅇㅡㄹ	-15027
ㅌㅜㅁ	-15028
▁ㅃㅗㅂㄱㅗ	-15029
▁ㅅㅔㄴㅅㅡ	-15030
▁ㅇㅏㄹㄹㅣ	-15031
ㄴㅓㅁㅇㅡㄴ	-15032
ㅎㅏㅅㅣㄴㅔㅇㅛ	-15033
▁ㄴㅓㅁㅇㅓㄱㅏㅁㅕㄴ	-15034
▁ㅎㅏㅈㅣㅁㅏㅅㅔㅇㅛ	-15035
ㅈㅘㅍㅏ	-15036
▁ㅈㅐㅁㅣㄴ	-15037
ㅈㅓㄱㅇㅣㅁ	-15038
▁ㅇㅏㄴㅈㅏㅂ	-15039
▁ㅈㅜㄹㄱㅗ	-15040
▁ㅂㅗㄴㄴㅡㅇ	-15041
▁ㅅㅏㅂㅅㅣㄷㅏ	-15042
▁ㅈㅗㅎㄱㅣㄴ	-15043
▁ㅇㅕㄹㅗㄴㅇㅣ	-15044
▁ㄷㅐㅅㅏㅇㅇㅡㄹㅗ	-15045
▁ㅈㅐㅁㅣㅆㅇㅓㅆㄴㅡㄴㄷㅔ	-15046
▁ㅅㅔㅅㅜ	-15047
ㅂㅗㅇㅣㅈㅣ	-15048
ㅈㅜㄱㄴㅡㄴ	-15049
▁ㄸㅗㅇㅁㅏㄴ	-15050
▁ㅁㅏㅈㅊㅜㄴ	-15051
▁ㅅㅣㄴㄱㅣㅎㅏㄷㅏ	-15052
▁ㅇㅓㅁㅏㅇㅓㅁㅏㅎㅏㄴ	-15053
ㅇㅘㄴㅎㅘ	-15054
ㅈㅗㅎㄴㅔ	-15055
ㅈㅜㅇㅇㅢ	-15056
ㄱㅜㄱㅈㅓㄱ	-15057
▁ㅂㅜㅈㅏㄱㅏ	-15058
ㅎㅐㅇㅑㅎㅏㄹㄷㅡㅅ	-15059
ㅂㅜㅈㅏㅇ	-15060
▁ㅅㅣㅅㅜㄹ	-15061
▁ㅅㅓㅇㄹㅣㅂ	-15062
▁ㅅㅗㄴㅁㅗㄱ	-15063
▁ㅇㅣㄸㅏㄴㄱㅓ	-15064
▁ㅊㅐㄱㅇㅣㅁㅈㅣㄱㅗ	-15065
▁ㅂㅜㅇㅕ	-15066
ㅇㅕㄴㅕㄴ	-15067
ㅍㅐㄱㅌㅡ	-15068
ㅕㄹㅎㅏㄴ	-15069
▁ㅅㅜㅅㅈㅏ	-15070
ㅊㅐㄴㅓㄹ	-15071
▁ㅂㅗㅈㅗㄴ	-15072
▁ㅃㅏㅈㅣㅁㅕㄴ	-15073
▁ㅎㅏㄴㄷㅗㅇㅇㅏㄴ	-15074
ㄷㅐㄱㅜ	-15075
▁ㅂㅘㅇㅛ	-15076
ㄷㅏㅇㅊㅗ	-15077
ㅅㅣㅍㅇㅡㄴㄷㅔ	-15078
ㄱㅓㄹㅣㅁㅕㄴㅅㅓ	-15079
ㄹㅏㄱㅜ	-15080
▁ㅂㅣㅊㅏㅁ	-15081
▁ㅌㅔㅅㅡㄹ	-15082
ㄱㅓㅈㅣㄹㅗ	-15083
ㄱㅡㄹㅓㅎㅈㅣ	-15084
▁ㅇㅏㄹㄱㅔㅆㄴㅔ	-15085
▁ㅃㅗ	-15086
▁ㅊㅕㅁ	-15087
ㅅㅡㄹㅉㅓㄱ	-15088
ㅎㅚㅅㅏㄴㅡㄴ	-15089
ㅈㅓㅇㅂㅜㅇㅔㅅㅓ	-15090
ㄹㅓㄴㅡㄴ	-15091
ㅂㅔㄹㅂㅔㅅ	-15092
[...]
